#version: 0.2 - Trained by `huggingface/tokenizers`
á ½
Ï Ħ
Î ½
Ġ Î
Î ±
Î ¿
á ¼
Î ¹
Î µ
Ġ á¼
á ¿
Ï ģ
Ï Ĥ
Ġ ÏĦ
Ï ĥ
Ï Ģ
Î »
Î ¼
ĠÎ º
Î º
Ï ħ
á½ ¶
Î ·
Ġ ÏĢ
á½ ·
á½ ³
ĠÎº Î±
Ġá¼ Ĳ
Ï ī
Ġ á½
ĠÎ ´
ĠÏĦ á½
Î ³
Î¿ Î½
ÏĦ Î±
á½ ±
Î¿ á¿
Î ¸
ĠÎºÎ± á½¶
á½ ¹
Ġá¼ Ģ
ĠÎ ¼
Ï ĩ
Î ´
Ï Ĩ
Î¿á¿ ¦
ĠÏĦ á¿
á½ Ĳ
á½ °
Îµ Î¹
á½ ²
Î¿ Ïħ
ĠÎ ¿
¶ Î½
á½ »
ĠÏĦá½ ¸
Ïĥ ÏĦ
á½ ¸
Ïī Î½
ĠÎ µ
Î¿ ÏĤ
Î¿ Î¹
Ïĥ Î¹
ĠÎ ³
Î± Î¹
ĠÎµ á¼
ĠÎ ±
á¿ ĸ
Î± Î½
á½ µ
Îµ Î½
ĠÏĦ Î¿á¿¦
ĠÏĢ Ïģ
ĠÎ´ á½²
Ġ Ïĥ
Îµ Ïģ
ÏĦ Î¹
ÏĦÎ± Î¹
á½³ Î½
´ Î½
Ĩ ÏĤ
Îµ á¿ĸ
Î» Î»
Ġá¼Ĳ Î½
Î¼ Î±
ĠÎ´ Î¹
á½Ĳ ÏĦ
Î ¾
Ġá¼ Ķ
Î ²
Ġá¼Ĳ ÏĢ
ĠÎ± á½ĲÏĦ
Ïģ Î±
ĠÎ »
Ġá½ ģ
ĠÎ¿ á½Ĳ
ĠÎµá¼ °
Ġá½ ħ
ĠÏĦá¿ ¶Î½
Ġ ÏĨ
á¿ ¶Î½
Ġá¼ ¡
ĠÏĦá½ ´Î½
ĠÏĦá½ °
á½ ½
á½° Ïģ
ĠÎ³ á½°Ïģ
ÏĦ Î·
Ġá¼Ģ Î½
ÏĦ Îµ
ÏĥÎ¹ Î½
Ïī ÏĤ
Ïģ Î¹
á½ ´
á½¹ Î½
Ïĥ Î¸
Î¼ á½³Î½
ĠÏĦá¿ ĨÏĤ
á½¸ ÏĤ
á ¾
ÏĦ Î¿
Î¹ Î½
Îº Î±
Ġá¼ Ħ
Ġá¼Ģ ÏĢ
ĠÎ¿ á½
Î¼ ÎµÎ½
Î± ÏĤ
ĠÏĢ Î±
Îµ á½·
á½¸ Î½
á½² Î½
Ïģ á½·
Ġ Ïĩ
Î¿á¿ ĸ
ÏĦ Î¿ÏĤ
ĠÎ¿ á¼
Ġá½ ĳ
Ġá½ ¡
á¿ ¶
á½ º
ĠÎ¼ á½²Î½
ÏĦ á½°
ĠÏĦá½¸ Î½
á½³ Î³
ĠÏĥ Ïħ
Ġá¼Ĳ Îº
Ġá½¡ ÏĤ
ĠÏĦ Î¿
ĠÏĦá¿ ·
ÏĦ ÏīÎ½
ĠÏĢÏģ Î¿
á¿ ³
Î» Î·
á½³ Ïģ
á¿ Ĩ
Î½ Î±
á¿ ¦
Îµ ÏĦÎ±Î¹
ĠÎ ¸
Î¹ Îº
ÎµÎ¹ Î½
Ġá½ħ ÏĦÎ¹
Î ¶
Î¿ Î»
ĠÎ ²
Î¿á¿ĸ ÏĤ
á½± Î½
Ġá¼Ĳ ÏĥÏĦ
Ġá½ĳ ÏĢ
á½· Î½
Î ĵ
ĠÎ¼ Îµ
ĠÏĢ ÎµÏģ
Ġ Î½
á½º ÏĤ
á¿ ĨÏĤ
Î¿Ïħ ÏĤ
Ġá¼ ĳ
ÏĥÎ¸ Î±Î¹
Ï Ī
Ġá¼ ¢
ĠÎ» á½³Î³
á½µ Ïĥ
Î» Îµ
Ġá¼ĲÏĢ á½¶
ĠÎºÎ± ÏĦá½°
Ġá¼Ģ Î»Î»
Îµá¿ĸ Î½
ĠÎ± á¼
Ġá½ Ģ
á¿ ĥ
ĠÏĦ Îµ
ÏĦ Î¿Î½
Ïĥ á½·
ĠÏĢÎ± Ïģ
ÏĦ á½·
á½± Ïĥ
Ġá¼Ķ Ïĩ
Î¿ Ïģ
ĠÏĦ Î¹
ĠÏĦ Î±
ĠÏĦá¿ ĩ
Î· Î½
á½ ´Î½
Î» Î±
Î¿ á½»
ĠÎµá¼° ÏĤ
Î¿Î¹ ÏĤ
á¾ ¶
ĠÎ´Î¹ Î±
Î· ÏĤ
ĠÎ¼ á½´
Ïĥ Î±
ĠÏĢ Î¿Î¹
ĠÎ¿á½ ĸ
ĠÏĦ Î¿á¿ĸÏĤ
á¿ ·
ÏĦ ÎµÏģ
Ïģ Î·
Ġá¼ĲÏĢ Î¹
á¿ ¥
Ġá¼Ĳ Î¾
ÏĦ á½³
á¿¶ ÏĤ
ĠÎ´Î¹ á½°
á½¹ ÏĤ
ÏĦÎ¹ Îº
Ġ ÏĥÏĦ
ĠÎ¿á¼ ±
Îµ Ïħ
ĠÎ¿á½ĸ Î½
ĠÏĢÎµÏģ á½¶
ĠÎµá¼ ´
Î± Î³
Î¸ Î·
ĠÏĢÏģ á½¸ÏĤ
ĠÏĦÎ¿ á½ºÏĤ
ĠÏĢ Î¿
Î´ Îµ
ÎºÎ± á½¶
ĠÏĨ Î·
Î¸ Ïģ
ĠÎ¿á½Ĳ Îº
Î¿ Î³
Ġ á¿¥
Î¿ Îº
Ïĥ Îµ
Ïģ á½±
á½¹ Î¼ÎµÎ½
ĠÎ ¶
ĠÏĩ Ïģ
ĠÎºÎ± ÏĦÎ±
ĠÏĦÎ¿á¿¦ ÏĦÎ¿
Î¼ Î²
á½± Î»
Î± Î»
Ġá¼ °
ÏĥÎ¹ ÏĤ
á½³ Î»
Îµ á½»
Ïģ Î¿
ĠÏĥÏħ Î½
Ġá¼Ħ Î»Î»
Î· ÏĦ
Î ĺ
Ġá¼ Ī
Î¿á¿¦ Î½
Ïĥ Î¼
ÏĦÎµ ÏĤ
á¿ ĩ
á½¹ Î³
Îĵ Îĺ
ÏĢ ÎµÏģ
Ġá¼ ķ
Î´ Î¹
Ïģ Ïĩ
ĠÎ ļ
á½± Î³
Îµ Î»
Î¼ á½±
Î¸ Î±
Ïĥ Î±Î½
Ïħ Î½
Îµ ÏĨ
Î¿ Î¼á½³Î½
Î¼ ÏĢ
ĠÎ´ á½»
Ġá¼ĢÏĢ á½¸
ÏĦ á½³Ïģ
ĠÎ¿á½Ĳ Î´
ĠÎ´ á½³
ĠÏĦÎ¿ á½»
Î¿ á½·
á½¹ ÏĦÎ·
Ġá½ Ħ
ĠÎ±á½ĲÏĦ Î¿á¿¦
ÏĦ Ïī
ĠÏĦá½° ÏĤ
ĠÎµá¼ ¶
ÏĦ á½±
Î» á½³
ĠÎµá¼ ¶Î½
Ïĥ ÏĦÎ±
Ïĥ Îº
á¾ ³
Î¼ ÏĨ
Ïģ Îµ
ĠÎµá¼¶Î½ Î±Î¹
ÏĦ ÏīÏĤ
Ïĥ Î±Î¹
Ĥ Î½
á¼ Ģ
á¿¦ ÏĦÎ±
ĠÎºÎ± Î¸
Ġá¼ ģ
ÏģÎ¹ ÏĥÏĦ
ĠÎ ł
ĠÏĢ á½±Î½
á¼ Ĳ
ĠÎ» á½¹Î³
ĠÎ±á¼ °
ÏĦ Î¿Ïħ
Î» á½·
Îµ ÏĥÎ¸Î±Î¹
Ïħ Ïģ
Ġá¼¡ Î¼
Î¿Î½ ÏĦÎ±
Ïĥ Ïĩ
Ġá¼ ¤
ĠÎ ĺ
ÏĦ Î¿Î¹
ÎµÎ¹ ÏĤ
ĠÏĢÏģÎ¿ Ïĥ
Ġá¼ĢÎ»Î» á½°
á½³ Ïĩ
Î± Ïģ
Ġá¼Ģ Î³
Î¼ Î¿Î½
ĠÏĢÎ± ÏģÎ±
Ġá¼ĲÏĥÏĦ Î¹
ĠÏĦ Î¹Î½
Ġá¼ĢÏĢ Î¿
á½½ ÏĢ
Î¹ ÏĤ
á½· Î±Î½
ĠÏĢ Î»
ĠÎ¿á½ ķ
ĠÎµ á½Ĳ
Îµ ÏīÏĤ
ĠÎ¿á¼ ·
Ġá¼Ħ Î½
ÏĦÎµÏģ Î¿Î½
á¿ĸ ÏĤ
Ġá¼ĲÏĥÏĦ Î¹Î½
Îµ ÏĢ
Î· Î¼
ĠÎº ÎµÏĨ
Î¼Î± ÏĦÎ±
ÏĦÎ· Î³
á½¹ Î»
ĠÏĥ Îº
Î¿ Î¼
ĠÏĦ á½·
ĠÏĦ Î¿Î¹
ĠÎĺ Îµ
Î¼Î± ÏĦÎ¿ÏĤ
á½ ¼
Ïĥ á½¶
ĠÎ±á¼ ±
Ġá¼ ĤÎ½
Ġá½Ħ Î½
á½± Ïģ
ĠÎ¼ á½¹Î½
ÏĦ Ïģ
Î± Ïħ
ÎµÎ¹ Î´
Ġá¼ĢÎ½ ÏĦÎ¹
á¿Ĩ Î½
Î± á½·
ĠÏĢÏģ á½¹
Î¸ Îµ
Ġá¼ µ
ĠÏĢÎµÏģ Î¹
Î± Îº
Î¿Î½ ÏĦÎ±Î¹
á½¹ Î¼
á½µ Î½
Ïĥ Ïī
Î· Îº
Ġ ÏĪ
ĠÎ³ Îµ
Î» Î¿Î½
Ġá¼ ¦
ĠÎ±á½ĲÏĦ á¿¶Î½
Ġá½ ¥
Î¿Ïħ ÏĥÎ¹
Ġá¼Ĳ Î³
Ïģ Î³
ÏĢ Î¿Î½
Î´ á½·
Ġá¼ĶÏĩ ÎµÎ¹
ĠÏĦÎ± á¿¦ÏĦÎ±
ĠÏĨ á½»
Ġá¼ ħ
ÏĦÎ± Î½
Î´ Î·
Ġá¼Ģ Îº
Î´ Î±
Î±Î½ ÏĦá½·
á½³ Ïĥ
á½° ÏĤ
ĠÎ¼ Î·
ĠÏĢ Î¿Î»
ÏĢ Î±
ĠÏĦá½ ¹
ÏģÎ± ÏĨ
á½½ Î½
ĠÏĦÎ¹ ÏĤ
Ġá½ģ Î¼
Î¼á½± ÏĦÏīÎ½
ÏĥÏĦ Î¹
ÏĦÎ± ÏĤ
ĠÎ¿á½ Ķ
ĠÎ¿á½Ĳ Ïĥá½·
á½» Î½
Î¿ á½ºÏĤ
á½· Î±ÏĤ
á½± Î¶
Ïģ Î±Î½
Ġá¼ĲÏĥÏĦ á½¶
ĠÎ¸ Îµ
ĠÎ¿á½ĲÎ´ á½²
ĠÏĢÎ±Ïģ á½°
ĠÎ±á½ĲÏĦ á¿·
Î» Î¹
Î¸ ÎµÎ½
Î´ ÎµÎ¹
Ïģ Î¿Î½
ĠÎºÎ± ÏĦÎ·Î³
Ġá¼ĢÎ½ Î±
ĠÎºÎ± Î»
ÏģÎ± ÏĤ
á½· Î±
ĠÏĢÎ¿ Î»Î»
á¼ °
ĠÎº Î¿Î¹
ĠÎ³ á½³Î½
Îµ Îº
ĠÎ¿á½ Ĺ
á¿¦ Î½
ĠÎ´Î¹Î± ÏĨ
Ġá¼ ´
ĠÎ±á½ĲÏĦ á½¸Î½
Î¼ Îµ
Îµ ÏĤ
ÏĦÎ· ÏĤ
Î¿ á½¶
Îµá¿ĸ ÏĦÎ±Î¹
á¾¶ ÏĤ
Ġá¼Ģ Î¼ÏĨ
ĠÎ± á½
ĠÎ³ ÎµÎ½
Î¿ ÏĢ
ĠÏĦ Ïģ
Î» á½±
Ġá¼ĳ Î±Ïħ
Î¿ Ïģá½·
Ġá¼Ģ ÏĨ
Ġá¼ĲÎ½ Î±Î½ÏĦá½·
ĠÎ»á½³Î³ ÎµÎ¹
ĠÎ ¾
Ġá¼ ±
á½· ÏīÎ½
Î¼á½³Î½ Î¿Î½
Ġá¼¦ Î½
Îµá¿ĸ ÏĤ
Î³ Î½
ĠÎ´á½» Î½Î±
ĠÎµá¼° ÏĢ
ĠÎ¼Îµ ÏĦÎ±
Î¿ Ïĩ
ĠÎºÎ± ÏĦ
Ïħ Ïĩ
Ġá½ ĥ
ĠÎ¿á½ķ ÏĦÏīÏĤ
Ġ á¾
ÎµÎ¹Î´ á½´
ĠÎ¼ á½³Ïģ
ĠÏĢÏģ á½¹ÏĤ
á½·Î½ ÎµÏĦÎ±Î¹
Î¼ Î½
ĠÎ Ķ
ÏĦÎ· Î½
á½» Î»
ÏĥÎµ ÏīÏĤ
Ġá¼µ Î½Î±
Î¼ Î¹
Ġá¼Ģ ÏģÏĩ
Ïħ Î³
ÏĢ Îµ
Î»Î» Î¿Î½
ĠÎ´á½» Î¿
Î» á½µ
Ġá½Ģ Î½
á½¶ ÏĤ
Î¿Ïħ ÏĥÎ¹Î½
ĠÏĨÎ· ÏĥÎ¹Î½
Ïĥ ÏĢÎµÏģ
Ġá½ĳÏĢ á½¸
ĠÏĦÎ± á¿ĸÏĤ
ĠÏĢ á½¹
ĠÏĥÏħ Î¼Î²
ÏĦ Î¿á¿¦
Ġá¼Ķ Î½
ĠÏĢÎ¿Î¹ á½¹ÏĦÎ·
Î¼á½³Î½ ÏīÎ½
ĠÏĦá½ ±
Î±Î¹ ÏĤ
Îµ Î²
Ïĥ ÎµÎ½
ĠÎ´ Îµá¿ĸ
á½¹Î¼ÎµÎ½ Î¿Î½
Î· Î³
ÏĦÎ± á¿¦
Î¸ á½³Î½
á¿ĨÎ½ Î±Î¹
ĠÎµ á½
ĠÏĢ ÎµÏĢ
ĠÎ½ á¿¦Î½
á½µ ÏĦÎ·
Î¿ ÏĨ
Ïģ á½³
Î»á½³ ÏīÎ½
ÏĦÎ±á¿¦ Î¸Î±
Ġá½ ķ
ĠÎ² Î±
ĠÎºÎ¿Î¹ Î½
á½° Î½
á½± Î»Î»
Î´ Î¿ÏĤ
ĠÎ´ Îµ
á½¼ Î½
ĠÎ¼Îµ ÏĦá½°
ĠÏĢÏģ á¿¶
Î¿Î½ ÏĦÎ¿ÏĤ
ĠÏĢ Î±Î½
ÏģÎ· ÏĦÎ±Î¹
Î¼ÎµÎ½ Î¿ÏĤ
ÏĢ Î»
Î¼Î± ÏĦÎ¹
Ġá¼ĢÎ½ Î¸Ïģ
ĠÏĨ Î±
Î¿Î» Î¿Î³
Ġá½ §
Ġá½¥ ÏĥÏĢÎµÏģ
Î¿Î½ ÏĦÎµÏĤ
Î¸ á½³
ĠÎļ Î»á½³ÏīÎ½
ĠÎ¿á¼· Î¿Î½
Î´ Î¿
á¿ĸ Î½
ĠÏĥ ÏĨ
ÏĦ á½¶
ĠÎ¼ á½³
á½µ Î¼
á¼ ±
Ïħ Ïģá½·
ĠÎ±á½ĲÏĦ á½¸
á½¹Î¼ÎµÎ½ Î¿ÏĤ
ĠÎ £
Ïħ Îº
á½¹Î½ ÏĦÏīÎ½
Î»Î· ÏĤ
Ġá¼ ł
ĠÎºÎµÏĨ Î±Î»
Ġá¼Ĳ ÏĨ
ĠÎĺÎµ Î¿á¿¦
ÏĦ á½¸
Ġá¼ĲÏĢ ÎµÎ¹Î´á½´
Î¾ Î¹
ÏģÎ¹ Îº
Îµá½· Î±ÏĤ
Ïī Ïģ
Î¼á½³Î½ Î¿Ïħ
Ġá½§ Î½
ÏĥÏĦ Î¹Î½
ĠÎ±á½ĲÏĦ á½¸ÏĤ
ĠÎ» Î±
ĠÎº Ïģá½·
ĠÎ¿á½Ķ ÏĦÎµ
ÏĢ ÏĢ
Î· ÏĦÎ±Î¹
ÎµÎ¹ Ïģ
Î· Î¼Î±
ÏĥÎ¸ ÎµÎ½
Î¼ÎµÎ½ Î¿Î½
ĠÏĦÎ¿á½» ÏĦÏīÎ½
Ġá¼ĢÎ½Î¸Ïģ á½½ÏĢ
Ïĥ ÎµÎ¹
Î· Ïģ
Ġá¼ĲÎ½ ÏĦÎ±á¿¦Î¸Î±
Îµ Ïĩ
á½¹ Ïģ
Î¿ Î¼ÎµÎ½
Îµ Î³
Î· Î»
á½· Î¶
ĠÏĢÏģ á½±Î³
Ġá½ħ ÏĦÎ±Î½
á¿Ĩ ÏĥÎ±Î¹
Ġá¼Ħ Ïģ
Îº ÎµÎ¹
ĠÏĥ Ïĩ
Ġá¼Ī ÏģÎ¹ÏĥÏĦ
Ïĥá½¶ Î½
ĠÎ¼á½¹Î½ Î¿Î½
Î¹ ÏĥÏĦ
Î¿Ïħ Î½
Ġá¼Ĳ Ïĩ
Î² Î±
ĠÎº á½±
á½µ Î»
ÏĦ ÏĦ
ĠÏĦ Ïģá½·
Î³ Î³
á½³Î½ Î±Î¹
ÏģÎ± Î¼
á½· Î¿Ïħ
ĠÎ¼ á¾¶
Î¸Ïģ Ïī
Ïĥ ÏĢ
ĠÎ¼ á½³Î½
Ġá¼ ¥
ĠÎ´ á½·
Îº Îµ
á½² ÏĤ
Î¾ Î¹Î½
ĠÎºÎ± Îº
Î»Îµ Ïħ
ĠÏĦÎ¿á½» ÏĦ
Ïħ Î¼
á½¹ ÏĢ
ĠÎ±á½ĲÏĦ á¿ĨÏĤ
ĠÎ¼á¾¶ Î»Î»Î¿Î½
Î¹ Î»
Î² Î¿Î»
Ġá½ħ Ïģ
ĠÎ¿á¼ °
Î¸ Î¿ÏĤ
ĠÎµá¼°ÏĢ Îµá¿ĸÎ½
ÏĦ á¿¶Î½
Îº Î½
ĠÎ §
Î¿ ÏĦá½³
Î¹ Ïĥ
á¾ ·
ĠÎ¶ Î·ÏĦ
ĠÏĢá½±Î½ ÏĦÎ±
Ïĥ Î·ÏĤ
Î³ Î¼Î±
á¼ Ķ
Ïģ Î¿á¿¦
Ġá½ĳÏĢ Î¿Îº
ĠÎ³ Î½
á½±Î» Î¹Î½
ÏĥÎº ÎµÏħ
Î¿ Î¼Î±
ĠÎ¼Îµ Î³
Î»Îµ á½»
Î´ Îµá½·
Î»Î· Î¸
ĠÏĦ á½³
Î¾ Ïī
ĠÎ¿á½ķ ÏĦÏī
á½¹Î» Î¿Ïħ
ĠÏĨá½» ÏĥÎ¹Î½
Î´ á½³
ÏĥÏĦ á½³
ÏģÎ± Ïĩ
Ġá¼ĦÎ»Î» ÏīÏĤ
ĠÎ ľ
ĠÏĢ á½³
Ġá¼° ÏĥÏĩ
Ġá¼ ¸
Îº Î»Î·
Ïħ Î½Î±
á½± Îº
ĠÎ¿á½Ĳ Ïĩ
á½±Î» Î±Î¹
Ïģ Î¼
ÏĢ ÏĦ
Ġá¼ĢÎ½ ÏĦá½¶
ĠÏĦÎ± á½»
Î¹ Î¿Î½
Ïĥ Î¿Î½
ÏĢ Î¿
Î¼Î± ÏĦÎ¹Îº
ĠÎ»á½³Î³ ÏīÎ½
Î¹ ÏĥÏĦÎ±
Îµ á¼°
Ïĥ Î±ÏĤ
ĠÏĢ á½±Ïĥ
Î´ Ïī
Ġá¿¥ Î·ÏĦ
Ġá¼ĢÎ½ Î±Î³
ĠÏĨÎ· ÏĥÎ¹
Îµ á½¶
Ġá½ ł
á¾ ¶Î½
Ġá¼ĳ ÏĦá½³Ïģ
Î¸Î· Î½Î±
ĠÏĢÏģá¿¶ ÏĦÎ¿Î½
ĠÏĢ á½±Î»Î¹Î½
Î»Îµ Î³
Îº á½¹
á½ ģ
Î´ Î¹Îº
Î¿Ïħ ÏĥÎ±
ĠÎ³ á½·Î½ÎµÏĦÎ±Î¹
Ġá½ĳÏĢ Î¿
ĠÎ±á¼° ÏĦá½·
á½ ħ
ÏĦ á½¸Î½
á½» ÏģÎ¹
ĠÎ±á½ĲÏĦ Î¿á¿ĸÏĤ
á¼Ģ Î»Î»
ÏĢ á½·
ĠÏĢÏģ Î±Î³
Ġá¼Ī Î¸Î·Î½Î±
Î¹ Î²
ĠÏĦ á½³Î»
Î±Î¹ Ïģ
ĠÏĨ Ïħ
ĠÏĦÎ¿Î¹ Î±
Î½ á½·
Ġá¼Ĳ Î¼ÏĢ
ĠÎ½ á½¹Î¼
ĠÎ¿á¼° Îº
Î¿ á½Ĳ
Ġá¼ĲÏĥÏĦá½¶ Î½
Îº á½±
ĠÎ¼ á½µ
Î»Î· Î½
Ġá¼ §
Ġ Ġ
ĠÏĨ ÏīÎ½
ĠÏĥÏĦ Î¿Ïĩ
ĠÎ´ Î¿Îº
Î¿Î¼á½³Î½ ÏīÎ½
Ġá¼ĪÏģÎ¹ÏĥÏĦ Î¿ÏĦá½³
Î± Î¸
ĠÎ² Î¿Ïħ
Îµá¿ĸ ÏĥÎ¸Î±Î¹
ĠÏĢÏģÎ¿ ÏĨ
ĠÏĥÏĦÎ¿Ïĩ Î±
ĠÏĦ ÏģÎ¹
Î¾ Î±
ÏĦÎµ Î»
ĠÎ¼Î· Î´
ĠÎ²Î± ÏĥÎ¹
ÏĦ ÏĦÎ¿Î½
ĠÎ±á½ĲÏĦ Î¿á½ºÏĤ
ÏģÎ¹ Î½
ĠÏĢÏģá½¹ ÏĥÏī
Ïī Ïģá½·
ĠÎ½ Î¿
ĠÎ»á½³Î³ ÎµÏĦÎ±Î¹
Î¼Î² á½±Î½
ĠÏĦÎ¿á½» ÏĦÎ¿Ïħ
ĠÎ³Îµ Î³
Ġá¼Ģ Ïģ
Î¾ Îµ
ĠÏĩÏģ á½¹Î½
ĠÎ¼á½³Ïģ Î¿ÏĤ
ÏģÎ± Î³
Ġá¼ĦÎ½ Î¸ÏģÏī
Ġá¼Ķ ÏĥÏĦÎ¹
ĠÎºÎµÏĨ á½±Î»Î±Î¹
Î½ Î·
ĠÎ¶ á½µÏĦÎ·
ĠÎµá¼´ ÏģÎ·ÏĦÎ±Î¹
ÏĢ ÎµÎ½
Îº ÎµÎ½
Ġá¼ĢÏĢ á½¹
Î¹Îº á½¸Î½
Î± Î»Î±
Î¸ á¿ĨÎ½Î±Î¹
Î±Î¹ Î½
ĠÎ¿á½ĲÎ´ á½²Î½
ÎµÎ² Î·Îº
Ïĥ ÏĨ
Ġá¼ĶÏĩ ÎµÎ¹Î½
ĠÏĢ á¾¶
á½± Î¼
ĠÎ³ á½±Ïģ
ĠÏĢÏģ á½½
ĠÎ¿á½Ĳ ÏģÎ±Î½
ĠÏĢ á½¹Î»
ĠÎ±á½ĲÏĦ á½´Î½
Ġá¼ĲÏĢÎ¹ ÏĥÏĦ
ĠÏĢÏģÎ¿Ïĥ á½½ÏĢ
ĠÎµá¼° ÏĥÎ¹Î½
Ïĥá½· Î±Î½
á½· Î¿Î¹ÏĤ
ĠÎºÎ±ÏĦÎ± ÏĥÎºÎµÏħ
ĠÏĪ ÏħÏĩ
á½µÏĥ Î±
ÏĢ Î¿ÏĤ
Îµá½· Î½
ÏĦÎµÏģ Î±
ĠÎºÎ±ÏĦÎ·Î³ Î¿Ïģá½·
Ġá¼Ĳ ÏĤ
Ïĩ Î½
Î¿Î¹ ÏĢ
ĠÎ³ á¿ĨÏĤ
Ġá¼ĢÎ½ ÏĦá½·
ÏĥÎ¸ á½³Î½
á¼Ĳ ÏĢ
Î± ÏĨ
Ġá¼¤ Î³
Î» á½³Î³
Ġá¼Ĳ Î¼
Î´ Ïģ
á½¹Î¼ÎµÎ½ Î±
ĠÎ§ ÏģÎ¹ÏĥÏĦ
ķ ÏĦÎ·
Î¹ ÏĥÎ¼
Ïĥ á½·Î½
á½³ ÏĥÏĦ
ÏĨ Î±
ÏĦ á½µ
á½± ÏģÏĩ
Ġá½ħ ÏĢÎµÏģ
Î·Î¼ Î¿
ĠÎ´á½»Î½Î± ÏĦÎ±Î¹
Îµ á¿¦
Î» Îµá½·
Ġá¼ĳ ÏĢ
ÏĢ ÎµÎ¹
Î³ ÏģÎ±ÏĨ
ĠÎ¼ Î¿Î¹
ĠÎºÏģá½· Î½
ĠÏĦ Î¿Ïħ
Î¿á¿¦ ÏĥÎ¹
ÎµÏģ Î³
ĠÎ¼Îµ ÏĦ
ĠÎ»á½³Î³ ÎµÎ¹Î½
á½µÏĥ ÎµÎ¹
ÏĢ Ïī
ĠÏĥÏħ Î¼ÏĢ
Îµ ÏĦÎ¿
ĠÎ´ ÏħÎ½
ĠÏĥÏħ Î»Î»
ĠÏĢÎ¿Î¹ Îµá¿ĸ
ÏģÎ¿ ÏĨ
Ġá¼¡Î¼ á¿ĸÎ½
á½± Ïĩ
Ġá¼Ķ Î¾Ïī
ĠÎ»á½¹Î³ Î¿ÏĤ
ĠÏĥÏħÎ¼Î² ÎµÎ²Î·Îº
Îº Î±Î¹
Î· Ïģá½·
Î¾ á¿ĨÏĤ
Î¼á½³Î½ Î±
Ïģá½± ÏĨ
ĠÎ¿á¼· ÏĤ
Î¿ á½
ĠÎ² ÏģÎ±Ïĩ
ĠÏĢ á¿¶ÏĤ
ĠÎ¸ á½±
ĠÏĩÏģ á½´
ÏĢ Î¿Ïħ
ĠÎ´Î¹ ÎºÎ±
ĠÏĥÏĦÎ¿ÏĩÎ± ÏĥÎ¼
Ġá¼¤Î³ Î¿ÏħÎ½
Ïģ á½¹Î½
Ïģ á½¸Î½
ĠÏĥ Î¿Ïħ
ĠÏĥ Î·Î¼
ĠÏĩ ÏģÎ·
ĠÎµá¼¶ ÏĢÎµÎ½
Î¹ Î±
Îµ ÏĥÏĦ
Î´ Î¿Î½
ÎµÎ¹ Î±Î½
Î² á½±Î»Î»
ĠÎ» Î¿Î³
Î¼á½³Î½ á¿³
ĠÎ¼ á½±Î»
Ġá¼ĢÎ³ Î³
ĠÏĢÎ» Îµá½·
Ï Ĭ
Ġá¼Ķ ÏĦÎ¹
á½´ ÏĤ
Îµ Ïĥ
Î¿á¿¦ ÏĤ
ÏĦ á½¸ÏĤ
Ïģ á½¸ÏĤ
Î´ á½¹
ĠÏĨ Î¹Î»
Ġá½ĢÎ½ á½¹
ĠÏĦÎ¿Ïħ ÏĦá½³
¤ á¿¥
ĠÏĢ á½±
ĠÎ¼ Ïħ
Ġá½ĦÎ½ Î¿Î¼Î±
ĠÎ¸ ÎµÏģ
Î¾ Î¹ÏĤ
Ġá¼ģ Î³
á¼Ĳ Î½
ĠÏĢá½¹ Î»Îµ
ĠÎ¼ á½³Î³
Ġá½ĳÏĢ ÎµÏģ
á½µÏĥ ÎµÏĦÎ±Î¹
ĠÎµá¼¶ Î´Î¿ÏĤ
Ġá¼ħ Î¼Î±
Î¿ Ïĥ
á½» Î¼
Ġá¼ĢÎ½ á½±Î³
ÏĦá½³ ÏģÎ±
ĠÏĥÏĦ ÏģÎ±
ÎµÏħ Îº
ĠÎļ á½»ÏģÎ¹
Ïģ Ïī
Ġá¼Ĳ Î¼Î²
ĠÎ± á½Ĳ
ĠÎµá¼° ÏģÎ·
á¿¶ Î¼Î±
Ġá¼ £
Ïģ Î¸
ĠÎ¼ Î¹Îº
Îµá¿ĸ Î¿Î½
á½µÏĥ ÎµÏīÏĤ
Î±Î³ Î³
Ïī Î³
ĠÎ´ á¿Ĩ
ĠÎ´Î¹Î±ÏĨ Î¿Ïģ
ÏĦ á½¹Î½
ĠÏĦ á½³Ïĩ
á½¹ ÏĦÎ±
Ġá¼ĳ Î½
á½±Ïĥ ÎµÏīÏĤ
ĠÎ»á½¹Î³ Î¿Î½
Ġá¼ĦÎ½ Ïī
Î¼Î± Ïģ
ÏģÎ± Îº
ĠÎ½ Î¿Î¼
ĠÎ¿á½Ĺ ÏĦÎ¿ÏĤ
Ġá¼ ĥ
Ġá¼ ĵ
Î¸ Î¼
ĠÏĢÏģ á¾¶
Ġá½ĳ Î³
Î»á½· Î³
Ġá¼´ Î´Î¹
ĠÎ¼á½±Î» Î¹ÏĥÏĦÎ±
ĠÎ Ľ
ÏĢ Î¹
Îµá½» Î³
ÏĢ Î¿Î¹
ĠÏĢ Î½
Ġá¼ĲÏĢ á½·
Ġá¼ĳ Îºá½±
ĠÎ±á½ ķÏĦÎ·
Ïģ Ïħ
ÏĨ Î·
Î¿á¿¦ ÏĥÎ¹Î½
ÎºÎ± Î»
Î¿Î¼á½³Î½ Î¿Ïħ
Ïĥ ÏĦÎ±Î¹
Î¼ Î¿Î¹
ĠÎ´ á½¹
ĠÎµá¼° Î´
ÏĥÎ¸ Î·
á½·Î½ ÎµÎ¹
Î¿á½» Î»
ĠÏĢÎ¿ Ïĥ
Ïĥ Ïĥ
ĠÎ´ Îµá½·
ĠÎ´Î¹ á½±
á½µÏĥ Ïī
ĠÎµá¼´ Î´Î·
Î´ á½»
ÏĨ Î¿Ïģ
á½µ Î³
Î¾ ÎµÎ¹
Ġá¼Ķ ÏĥÏĦÎ¹Î½
ÏģÎ¹ Î¿Î½
Ġá½Ģ Î»á½·Î³
á½¹ÏĦÎ· ÏĤ
Ġá¼ĦÏģ Î¸Ïģ
Ġá½ĳÏĢÎ¿Îº ÎµÎ¹
Ġá¼Ģ Ïĥ
ĠÎ» ÎµÏħÎº
Ġá¼ĲÎº Îµá½·Î½
Î¹Îº á¿¶Î½
ĠÏĢá½±Î½ ÏĦÏīÎ½
Ġá¼£ Î½
Î ¤
Ġá¼Ģ Î»Î·Î¸
ÏĥÏĦ Î¿Î½
ĠÏĥ Îµ
Ġá¼Ħ Ïĩ
ĠÎ² Î¹Î²
Î»Î± Î²
Ġá¼° Î±
Ġá¼ĦÎ»Î» Î¿
Ġá¼ĢÎ³Î³ á½³Î»
ÏĦ á¿³
ÏĥÏĦ Îµ
ĠÎ±á½ĲÏĦ á½°
ĠÎ» ÎµÎ³
ĠÎ» Î¿Î¹ÏĢ
Î»Î· ÏĪ
ĠÎ´ Î·Î»
ĠÎ¼ Î±
Ġá¼ķ ÏĦÎµÏģÎ¿Î½
Ġ Î½Î±
ĠÎº á¼Ģ
Ïī Î¼
ĠÎ» á½³
ĠÏĩ á½½
Ġá¼ĢÎ»Î» á½µÎ»
ĠÏĨÎ· Ïĥá½¶Î½
ĠÏĢÎ¿Î» Î¹
Ġá¼ĪÏģÎ¹ÏĥÏĦÎ¿ÏĦá½³ Î»Î·ÏĤ
á½³ ÏĥÎ¸Î±Î¹
ĠÏĥ á½½
á½³Ïģ ÎµÎ¹
Ġá¼ ¹
Ïĥ á¿ĥ
ĠÎ´ Îµá½»
Ġ Ïħ
ĠÎº Î¹Î½
ĠÎ¼ ÎµÏģ
á¿ĸ Î¿Î½
ĠÏĥÏħ Î³
Ġá½ĳÏĢ á½±ÏģÏĩ
Ġá¼ĢÎ³ Î±Î¸
ĠÎºÎ±ÏĦÎ·Î³ Î¿Ïģ
ĠÏħ á¼±
ĠÏĢ Î»Î·
ĠÎ¼ á½³Ïĥ
Ġá¼ĢÏĢ Î¿Îº
Ġá¿¥ Î·
Î¿Î½ÏĦÎ± ÏĤ
á½½Î½ Ïħ
Î· Ïĥ
Ġá½ ¦
ĠÎ´Î¹ Î´
á½µÏĥ Î±ÏĤ
ĠÎºÎ±Î¸ á½¹Î»Î¿Ïħ
Ġá¼ģ ÏĢÎ»
á½µ Î¼Î±ÏĦÎ±
á½µÏĥ Î±Î½
ĠÎ´á½»Î½Î± Î¼
ÏĦ á¿ĥ
á½· á¾³
ĠÎµá¼´ Î·
ĠÎ²Î¹Î² Î»á½·
á½³ Î¼
Î´ Î±ÏĤ
Ġá¼Ķ Î»ÎµÎ³
ĠÏĦÎ¹Î½ Î±
ĠÎµá½ ĳ
ĠÎºá½± ÏĦÏī
Î» Î±Î¹
ĠÎ´ ÎµÏħ
Ġá½ħ Î»
ĠÏĦÎ¿Î¹ Î¿á¿¦
ÎºÎ½ Ïħ
ÏĦ á½¹
Î¿ Î¼á½±
á½¹ ÏĦÎ¹
ĠÎ¿á¼ ¶
Ïĥá½· Î±ÏĤ
ÏĦá½³Ïģ ÏīÎ½
Ïħ Î»
Î¸ Îµá¿ĸÎ½
Î´Îµ ÏĤ
Ġá¼ĲÎ½Î±Î½ÏĦá½· Î±
Î¿ ÏģÎ¹
Î¾ Î±Î½
ĠÎ±á½ĲÏĦ á¿ĩ
Î¿á½» ÏĤ
ĠÎļ ÏħÏģá½·
Ġá¼¡Î¼ á¿¶Î½
Ġá½ģÎ¼ Î¿á½·
ĠÎ³á½³Î½ Î¿ÏĤ
ĠÎ¼á½³Î½ ÏĦÎ¿Î¹
ÏĦ Î¿ÏħÏĤ
ĠÎ ķ
Ġá½ħ ÏĦÎµ
ĠÏĨ Îµá½»Î³
á½¹ÏĦÎ· ÏĦÎ±
Ġá¼ĳÏĢ ÏĦá½°
Î± á½¶
á¿ ¤á¿¥
Î· ÏĥÎ¹ÏĤ
ĠÏĢ ÏħÏģ
Ġá¼Ķ Î¼ÏĢ
ÏģÎ¹ Î²
Ġá¼Ĳ á½°Î½
Î¸ Î¿Î½
Î¿Ïħ Î¼á½³Î½
ĠÏĥ Ïī
ĠÏĥ á¿¶Î¼Î±
Îµá½· Î±Î½
á½·Î½ ÎµÎ¹Î½
ĠÏĢ á½·
Ġá¼Ĳ Ïģ
ÏģÎ¹ Î¸Î¼
ĠÏĥÏħÎ»Î» Î¿Î³
ĠÎ»á½³Î³ Î¿Î¼ÎµÎ½
Î»á½µ ÏĪ
Ġá¼ĵ Î½
Í ´
Î± ÏĥÏĦ
á¼ ĺ
ÏĢ Î±Î½
Ïħ ÏĨ
Ġá¼Ģ Î¼
ĠÏĦá½· ÏĤ
á¼ ¡
ĠÎº á¼
ĠÎµá¼° ÏĥÎ¹
ĠÏĥÏĦ á½±Ïĥ
ĠÎł ÎµÏģ
Ġá¼¤ Î´Î·
ÏĦÎ¿á¿¦ ÏĦÎ¿
Î¸ Î±Î½
ĠÏĥ á½»
ÏĦÎ¹Îº á½¸Î½
á½¹ Î´
ĠÎ» á½»
Ġá¼ĶÏĩ ÏīÎ½
ĠÏĥÎº á½³Î»
ĠÏĦÎ¿Î¹ Î¿á½»
ĠÏĦÏģ á½¹ÏĢ
Ġá¼ĢÎ½Î±Î³ ÎºÎ±
ĠÏĢ Î±Î¹
á½³ ÏīÎ½
ĠÎ¼ Î¿Ïħ
ĠÎ³ á½·Î½
Î¶ Î¿Î½
ĠÏĥÏħÎ½ ÎµÏĩ
ĠÏĦá½³Ïĩ Î½
ÏĦ ÏĦÎµ
Ġá¼¡Î¼ á¾¶ÏĤ
ĠÎ¿á½ĲÏĥá½· Î±ÏĤ
Î¹Ïĥ Î²
á½µ Îº
á½½ Î¼
ĠÎµá½Ĳ Î¸
Ġá¼ĦÏĩ ÏģÎ¹
á¼ ´
Ïģ ÏīÎ½
ÏĨ Î¸
ÏģÎ¿ ÏĥÎ¸ÎµÎ½
Ġá¼ĢÎ¼ÏĨ Î¹ÏĥÎ²
ĠÎ³ÎµÎ½ á½³ÏĥÎ¸Î±Î¹
ĠÏĢÏģá½±Î³ Î¼Î±ÏĦÎ¿ÏĤ
ĠÏĦÎ¿á½»ÏĦ Î¿Î¹ÏĤ
Ġá¼ĳÎºá½± ÏĥÏĦ
á½· Î¿Î½
ÏīÎ½ á½»Î¼
á½µ Ïģ
Îµá½· á¾³
á¿Ĩ ÏĥÎ¸Î±Î¹
á½¼ ÏĤ
ĠÏĢÏģÎ¿Ïĥá½½ÏĢ Î¿Ïħ
Î» Ïħ
Î¼ Î¿ÏĤ
ĠÏĥ Î±ÏĨ
ÎµÏģ Î¿Î½
ĠÎ¿á½Ĳ Î´Îµ
ÏģÎ¹ Ïĥ
á½µÏĥ á¿ĥ
Ġá¿¥ á½µ
Ġá¼ĲÏĩ Ïģ
Ïĩ Î¸
Î¿Î¹ Î±Î½
Î»Î· Îº
Ġá½Ģ ÏĥÏĦá½³
Ġá¼ĳÎ±Ïħ ÏĦ
Î·Î¼Î¿ ÏĥÎ¸á½³Î½
Î· ÏĥÎ¹Î½
ĠÎºÎ± Î¹
Î¼Î± ÏĥÎ¹Î½
ĠÏĥÏħ Î¼ÏĨ
Ġá¼ĦÎ»Î» ÏīÎ½
Ġá¼ĲÎ³ Îº
ĠÏĥÏĦÏģÎ± ÏĦÎ·Î³
Î±Î³Î³ ÎµÎ»
ĠÎļÏħÏģá½· Î¿Ïħ
ĠÏĥÏħÎ»Î»Î¿Î³ Î¹ÏĥÎ¼
Ġá¼Ĳ Î¸
ÏĦÎ· Ïģá½·
Î½Î± ÏĦÎ¿Î½
ĠÏĦÎµ ÏĩÎ½
Ġá¾ ĸ
ĠÏĢÏģÎ±Î³ Î¼á½±ÏĦÏīÎ½
ÏĦ á½¹ÏĤ
Î¿ Î²
ĠÎº á½»
ĠÎ³ á¿ĨÎ½
ĠÎ³ ÏģÎ±Î¼
Ġá¼Ķ ÏģÎ³
Ġá¼ĲÎº ÎºÎ»Î·
Ġá¼ĲÎ³ á½³Î½
Ġá¼ĲÎ½Î±Î½ÏĦá½· Î¿Î½
Ġá¾ §
ĠÏĢÎ¿Î¹á½¹ÏĦÎ· ÏĦÎ¿ÏĤ
Îºá½¹ ÏĦÏīÏĤ
ĠÏĦÎ¿Î¹Î± á½»
Ġá¼§ ÏĦÏĦÎ¿Î½
Ïħ Ïĥ
Î¼Î± ÏĥÎ¹
Î¾ Î±Î¹
Î¾ ÎµÎ½
á½´ Ïģ
Î¼ÎµÎ½ Î±
ÏĦÎµÏģ Î¿ÏĤ
Ïģá½± ÏĦÎ·ÏĤ
Ġá¼ģ Î¼Î±Ïģ
Ġá½ĦÎ½ ÏĦÎ±
ĠÎĶ Î·Î¼Î¿ÏĥÎ¸á½³Î½
ĠÏĦÎ¿á½»ÏĦ á¿³
ÏĢÎ¿ ÏĦÎµ
ĠÎ¼á½µ ÏĦÎµ
ĠÎļá½»ÏģÎ¹ Î¿ÏĤ
á½³ Î¸Î·
Î¼á½³Î½ Î¿ÏĤ
ĠÎ½ á½¹
Î¿á½» Î¼ÎµÎ½Î¿Î½
Î¿á½» ÏĥÎ·ÏĤ
ĠÏĢÎ¿Î» á½º
ĠÎ¿á½ĲÏĥá½· Î±
Î ļ
ÏĢ á½½
Î» Î¿Î³
Ïī Îº
ĠÎ¼ á½³Î»
Î´ á½³Ïĩ
Î¿á¿¦Î½ ÏĦÎµÏĤ
ĠÎ´á½³ ÎºÎ±
Ġá¼ĦÎ½Î¸ÏģÏī ÏĢÎ¿ÏĤ
ĠÎºÎµÏĨá½±Î»Î±Î¹ Î¿Î½
ĠÏĢÏģá¾¶ Î³Î¼Î±
Îº Î±Î½
ĠÏĢ Î¹
á½³ Î±
ĠÏĦá½ »
Ïĩ ÎµÎ¹
Î´ Î¿Îº
ĠÏĢÏģ á½¸
ĠÏĨ Î¸
Î»Î± Î¼Î²á½±Î½
ĠÏĢá½±Î½ ÏĦÏīÏĤ
ĠÎķ á½Ĳ
Î» Îº
ÏĦÎ± á½·
Ġá¼ĲÎ¾ Î¿Ïħ
Ġá¼ĢÎº ÏģÎ¹Î²
ĠÎ²Î¿Ïħ Î»
ĠÎº Î¿Î»
á½± ÏĤ
Ġá¼Ģ ÏģÎ¹Î¸Î¼
ĠÎ¼ Î¿Î½
Î±Î½ ÏĦÎ¿
Îµá¿ĸ Î±
ĠÎ´Î¹ Î±Î¹Ïģ
á¿¶Î½ Î±
Î¼ÎµÎ½ Î¿Î¹
á½±Î½ ÏĦÏīÎ½
ĠÏĦÎ¹ Î¼
á½¹Î¼ÎµÎ½ Î¿Î¹
Î¿á¿¦Î½ ÏĦÎ±
Ġá¼ĢÎ¼ÏĨ Î¿
ĠÎļÎ»á½³ÏīÎ½ Î±
Ġá¼´Î´Î¹ Î¿Î½
Ġá½ģÎ¼Î¿á½· ÏīÏĤ
ĠÎº á½¹
Î· Î¸
á½· Î¿ÏħÏĤ
ĠÎºÎ± á½·
ĠÎºÎ± ÏĦá½±
ĠÎ´ Î±Îº
ĠÎ´ ÏħÎ½Î±
Ïĩ á½±Î½
Ġá½ħ Î¼Î¿Î¹
ÎºÎ± ÏĦÎ±
Ġá¼ĲÎº Îµá¿ĸ
á¿Ĩ Î¼Î±
Î¶ ÎµÎ¹
Ġá½Ģ ÏĥÏĦ
ĠÏĢÎ±Ïģ á½±
Î¿á½» Î¼ÎµÎ½Î¿ÏĤ
Ġá¼ĲÏĢÎ¹ ÏĨ
Ġá½¥ ÏĥÏĦÎµ
ÏĥÎ¸ Îµ
ĠÏĩ Î±
ĠÏĩ ÎµÎ¹Ïģ
Ġá¼¢ Î½
ĠÏĦÎµ ÏĦ
ÏĦá½³ Î¿Î½
Î¿á¿¦Î½ ÏĦÎ±Î¹
Î¿Î¼á½³Î½ Î·
á½¹ÏĦÎ· ÏĦÎ¿ÏĤ
Ġá¼ĶÎ¼ÏĢ ÏģÎ¿ÏĥÎ¸ÎµÎ½
Î» á½»
ĠÏĢ á½³Î½
ĠÏĢ á¾¶Î½
á½± Î²
Ġá¼ĲÏĢ Îµá½¶
Ġá½ĳÏĢ Î¿Î³
á½±Ïĥ ÎµÎ¹
ĠÏĥÎº Î¿ÏĢ
Ġá¼ĢÎ½ÏĦÎ¹ ÏĥÏĦ
ĠÏĦÎ¿ÏħÏĦá½³ ÏĥÏĦÎ¹
ĠÏĢá½¹Î»Îµ ÏīÏĤ
Î¹ Î¼
Ġá¼ Ļ
ĠÏĢ Î¿Î½
ĠÎ´ á½´
ĠÎ¼Îµ ÏĦá½±
ĠÎ±á¼ ´
ĠÏĦÎ¹Î½ ÎµÏĤ
ĠÎ¼á½³ Î»Î»
á½±Îº Î¹ÏĤ
ĠÏĢ Î»Îµ
á½± Î¼ÎµÎ½Î¿ÏĤ
á½µ Î¼Î±ÏĦÎ¿ÏĤ
ĠÏĨÎ· Ïĥá½·Î½
ĠÎµá¼¶ ÏĢÎµ
á½³Ïĥ ÎµÎ¹
ĠÏĢÏģá½±Î³ Î¼Î±ÏĦÎ±
á¼ĢÎ»Î» á½°
Ġá¼ĲÏĢÎ¹ÏĥÏĦ á½µÎ¼
ĠÎºÏģá½·Î½ ÎµÏĦÎ±Î¹
ĠÎºá¼ ĤÎ½
Ġ ÏĥÎ¹
ÏĦ Ïģá½·
Î± Î»Î»
á¼ Ħ
Ġá¼Ģ Îµá½¶
Ïĩ Î¿Î½
Î´ ÏħÎ½
ÏĥÎ¹ Î¿ÏĤ
Ġá¼ĲÎº Îµá¿ĸÎ½
Ġá¼¤ ÏĦÎ¿Î¹
Ġá¼¹ ÏĢÏĢ
á½¹ Î¼Î±
Ġá¼Ģ ÏģÎ¹ÏĥÏĦ
Î¾ ÎµÏīÏĤ
Ġá¼ĢÏĢ Î¿Î»Î¿Î³
ĠÏĨÎ· Ïĥá½¶
ÏĦá½³Ïģ Î¿Ïħ
ÏģÎµ ÏĤ
Î¿Î¼ Î±Î¹
á½¹Î¼ Îµ
ĠÏĨá½» ÏĥÎµÎ¹
Ġá½ģÎ¼ Î¿Î»Î¿Î³
ĠÎ¿á½ĲÏĥá½· Î±Î½
ĠÏĦá½± Î¾Î¹Î½
Î³Î³ ÎµÎ»
ĠÏĢÏģá½¹ÏĥÏī ÏĢÎ¿Î½
Î»Î·ÏĪ Î¹ÏĤ
ĠÏĩá½½ ÏģÎ±Î½
Î¿ á¼±
ĠÎº ÎµÎº
á½¹ ÏĦÎ¿ÏĤ
ĠÎ³ á½³Î³
Ġá¼Ķ Îº
Ïĥá½· Î±
Ġá¼ĢÎ½Î¸Ïģá½½ÏĢ ÏīÎ½
ĠÎ´ÏħÎ½ á½±Î¼
ĠÎ ¦
ĠÎ ĳ
ÏĢ Î±Ïģ
ĠÎºÎ± ÏĦÎµ
Î¿Î¹ ÏĥÎ¹
ĠÏĥ Î·Î¼Î±
ĠÎ´Î¹ ÏĢÎ»
Î¿á¿ĸ ÏĥÎ¹
Îµá¿ĸÎ½ Î±Î¹
ĠÎ¶ Ïī
ĠÏĢÏģá½¹ ÏĦÎµÏģÎ¿Î½
Ġá½ħÏģ Î¿ÏĤ
ÏĢÏĦ ÎµÎ¹
ĠÏĦÎ¿Î¹Î± á¿¦ÏĦÎ±
ĠÎ§ÏģÎ¹ÏĥÏĦ Î¿á¿¦
ÏĦ ÎµÎ¹Î½
Î¿ ÏģÎ±
Îµ Î¼
Îº ÏĦÎ±Î¹
á½· á¿³
ĠÎ³ ÏħÎ½
ĠÎ³ ÏģÎ±ÏĨ
ĠÏĥ á½»Î½
ĠÏĦÎ¿ á½·Î½
Î¿á½· Î·
Ġá¼ĢÏģÏĩ á¿ĨÏĤ
ĠÎ¼ÎµÎ³ á½±
Ġá¼ĦÏģÎ¸Ïģ Î¿Î½
ĠÏĦÎ¿á½·Î½ ÏħÎ½
Îº ÏīÎ½
á½³ ÏĨ
ÏĦÎ± ÏĥÎ¹Î½
á½² Ïģ
ĠÏĥ á½º
ĠÎ´Î¹ á½¸
ĠÏĨ Î±Î½
ÏģÎ¹ Î±
Ġá¼ķ ÎºÎ±
Ġá½ĥ Î½
Ġá¿¥Î·ÏĦ á½¸Î½
ÏĦ Ïħ
Î± ÏĢ
Ïĥ á¿¶Î½
Î» Î¿ÏĤ
á½· Î³Î½
á½± ÏĦÏīÎ½
ÏĦÎ¿ ÏģÎ¹Îº
Ġá¼Ħ ÏģÎ±
á½µÏĥ ÎµÎ¹ÏĤ
ĠÏĢÎ±ÏģÎ± Î³ÏģÎ±ÏĨ
ĠÏĦá½¹ ÏĦÎµ
ĠÎºÎ¿Î¹Î½ ÏīÎ½
ĠÎ´Îµá½» ÏĦÎµÏģÎ¿Î½
Ġá¼ ©
á¿ ´
Î¼ á¿¶Î½
ĠÎ¼ Î±Îº
Ġá¼ĲÎ½ ÎµÏģÎ³
Ġá¼Ħ Î³Î³ÎµÎ»
ĠÎ² Î¿á½»Î»
Ġá¼° Î´á½·
ÏģÎ¿ ÏĢ
Î´Î¹ á½°
ĠÏĦá½³Î» ÎµÎ¹
á¼ ¢
ĠÎºÎ± Î¸Î±
ÏĦÎ± Î³
á½± ÏĢ
ĠÎ¼ á½´Î½
Î¼á½³Î½ Î¿Î¹ÏĤ
ĠÏĢÎ± Î»Î±Î¹
ĠÏĩ á½±
Î¹Îº á¿¶ÏĤ
Ġá½ĳÏĢ á½²Ïģ
Ġá¼ĲÎ¾ Îµ
ÏĦá½³Ïģ Ïī
ĠÎ»á½¹Î³ á¿³
ĠÎ±á¼° ÏĥÎ¸
Ġá½ĦÎ½ ÏĦÏīÎ½
Ïģá½³ ÏĨ
Ġá¼°ÏĥÏĩ ÏħÏģ
ĠÎºÎ±ÏĦÎ±ÏĥÎºÎµÏħ á½±Î¶
Ġá¿¥Î· ÏĦÎ¿ÏģÎ¹Îº
Îµ Î´
Ġá¼Ģ Î¾Î¹
ĠÎ¼ Î±Ïģ
Ġá¼Ķ Î³
ĠÎµá¼° Îºá½¹ÏĦÏīÏĤ
ĠÎ¸ Ïģá½¹Î½
ĠÎł Î»á½±
ĠÎºÎµÏĨ Î±Î»Î±
ĠÏĢÎ¿Î¹á½¹ÏĦÎ· ÏĤ
Ġá¼ĢÎ½á½±Î³ Îº
ĠÏĥÎºá½³Î» Î¿ÏĤ
ÏĦ á½»
ÏĦ á½´Î½
Î´ Î·ÏĤ
Ġá¼Ķ ÏĥÏĦÎ±Î¹
ĠÏĢÎ¿Î¹ Îµá¿ĸÎ½
ÏĦÎ¹Îº á¿¶Î½
Î¸Îµ á½¶ÏĤ
ĠÎµá½ Ķ
ĠÏĢÏģÎ¿ÏĨ á½µ
ĠÎ¶á½µÏĦÎ· Î¼Î±
ÏĦ á½½
Ïģ Î¿ÏĤ
Ġá¼Ĳ ÏģÎ³
Ġá¼Ĳ ÏģÎ¿á¿¦
ĠÎ´ ÎµÎ¹
ĠÎ³ Î¹Î½
ÏĦÎ¹ Î¿Î½
ĠÎ´Î¹ Î±Î½
á½¹Î½ ÏīÎ½
ÏĦÎ¿ á½»
Ġá½ĳ ÏĨ
Ġá¼ĳ ÎºÎ±
Ġá¼ĢÎ»Î» Î±Î½ÏĦÎ¿
ĠÎ´Î¹Î± Ïģ
Î¼Îµ Î¸Î±
Î¼Îµ ÏĦÏģ
ĠÎ±á¼°ÏĦá½· Î±ÏĤ
ĠÎłÎ»á½± ÏĦÏīÎ½
Ïģ á¿¶Î½
ĠÏĦ ÏħÏģ
Îº Î¿Î½
á½¹ ÏĢÎ¿Î½
ÏĥÎ¹ Îº
Ġá½ħ ÏĢ
Î¶ ÎµÏĦÎ±Î¹
ĠÏĢÎ¿ ÏĦ
ĠÏĦÎ¹Î½ á½°
Î ł
ÏĦ ÎµÎ¹
Îµ ÏīÎ½
Îµ Î¾á¿ĨÏĤ
Ïģ á½¹
Ïģ á½»
ĠÎº ÏģÎ¹Î½
á½³ Î²
ÏĦÎ± á¿¦ÏĦÎ±
ĠÎ¼ á½¹
ĠÎ´Î¹ á½±Î½
Ġá½ħ ÏĥÎ±
Î¼á½³Î½ Î·Î½
Ġá¼Ħ Îº
Ġá¼Ħ Î³
ĠÏĩ Îµá¿ĸ
Ïĥá½· á¾³
ĠÎ¶ á¿·
ĠÎ¼Î· ÏģÎ¿á¿¦
ĠÎ±á½ ĳ
Ġá¼± ÏĥÏĦ
Ġá½ĢÎ½ Î¿Î¼á½±
ĠÎºÎµÏĨá½±Î»Î±Î¹ Î±
á½µÏĥÎ± ÏĦÎ¿
Î¹ á½±
Î» ÎµÎ¹
á½³ ÏĢ
Ïī ÏĥÎ¹Î½
Î¸ ÎµÎ¹
Ġá¼Ģ ÏĦ
Ġá¼Ģ Î´Î¹Îº
ĠÎ¼ á½±Ïĩ
ĠÏĨ á½³Ïģ
Î¼á½³Î½ Î¿Î¹
Î¶ ÎµÎ¹Î½
ĠÏĦÎ± á½ĲÏĦ
ĠÏĢÎ¿ Î´
á¼Ģ ÏĢ
Ġá¼µ ÏĢÏĢ
ĠÎ¿á½Ĺ ÏĦÎ¿Î¹
ĠÎ¼Î·Î´ á½²Î½
Ġá¼ĲÏģÎ¿á¿¦ Î¼ÎµÎ½
ĠÎº Îµ
ĠÎº Ïħ
á½· Ïĩ
ĠÎ´ Ïī
ĠÎ´ á½µ
Ġá¼Ģ ÎºÎ±
Ïĩ Î±
Î¿Î¹ ÏĦÎ¿
á½µ ÎºÎ±
ĠÎµá¼° Ïĥ
ÏĦÎµ á½·Î½
Î¼á½³Î½ Î¿ÏħÏĤ
Ġá¼ĲÎº ÏĢ
Ġá¼ķ Î½
Î¿Î¼á½³Î½ Î¿ÏħÏĤ
ĠÎ»á½¹Î³ Î¿Ïħ
ĠÎ´Î¹Î±ÏĨ á½³ÏģÎµÎ¹
ĠÏĦÏģ á½¹ÏĢÎ¿Î½
ĠÎ»Î± Î¼Î²á½±Î½
ĠÏĦÏģá½· Î±
ĠÏĢÏģÎ±Î³ Î¼Î±ÏĦÎ¹Îº
ĠÎ Ĵ
á½³ ÏĦÎ¹
ĠÎ´ Î¿
ĠÏĥ Î¿Î¹
Ġá¼Ķ ÏĨÎ·
Ġá½ģ Î´
á½½ ÏĦÎ±
á¿¶ ÏĥÎ¹Î½
ĠÎºÎµÏĨÎ±Î» á¿ĨÏĤ
Ġá¼ĲÏĨ ÎµÎ¾á¿ĨÏĤ
Î¿á½ ķ
Ġá¼ĢÎ¼ÏĨÎ¹ÏĥÎ² á½µÏĦÎ·
Ġá¼ĢÎ»Î»Î±Î½ÏĦÎ¿ ÏĢá½½
ĠÎ ¤
á¿ ĵ
á½· ÏģÎµ
Î¿Î½ ÏĦÎ¹
á½µ Î¸Î·
ÏģÎ± ÏĦ
ĠÎ¸ Î·Ïģá½·
ĠÎ¼Îµ ÏĦá½³
Ïģá½± ÏĪ
Ġá¼ģ ÏģÎ¼
Î¸Îµ ÏĥÎ¹ÏĤ
ĠÏĪ ÎµÏħ
ĠÏĢÎ¿Î¹á½¹ÏĦÎ· ÏĦÎ±
ĠÎļÎ»á½³ÏīÎ½ Î¿ÏĤ
Ġá¼ĢÎ½Î¸Ïģá½½ÏĢ Î¿Ïħ
Ġá½ĳÎ³ Î¹
Ġá½ĳÏĢÎ¿ÎºÎµÎ¹ Î¼á½³Î½á¿³
ĠÎ´Î·Î» Î¿á¿ĸ
Î± Î²
Ïģ á½½
á½· ÏĥÏĦÎ±
á½³ ÏĤ
ĠÎ¼ Î¹
Ïĩ ÎµÎ¹Î½
ĠÏĢÏģÎ¿ ÏĥÎº
á¼Ģ Î½
Ġá¼ģ ÏĢ
ĠÏĢÏģÎ¿Ïĥ á½³Î¸Î·
Ġá¼ĢÎ½ÏĦÎ¹ Î»á½µÏĪ
ĠÏĢÎ¿Î»Î» á½°
ĠÏĦÎ±á½» ÏĦÎ·Î½
ÏĢá½· ÏĥÏī
ĠÎ¼Î·Î´ á½²
ÏĢÎµÎ¹ ÏĦÎ±
Ġá¼ģÎ³ á½·ÏīÎ½
ĵ ÏĤ
Îº á½±Î¶
ĠÏĢ Î¹ÏĥÏĦ
Ïī Î¼ÎµÎ½
ĠÎ¼ á½·Î±Î½
Î´ ÏīÎ½
ĠÎ³ á½·Î³Î½
ĠÎ´Î¹ Î±Î¹
Ġá¼Ķ Î¸
ĠÎµá¼° Ïģ
ĠÏĩ ÏīÏģ
Ġá¼ĳ Î¾á¿ĨÏĤ
Ġá½Ģ ÏģÎ¸
ĠÏĦÎµ Î»ÎµÏħ
Ġá¼´ Ïĥ
ĠÎ¾ á½»
ĠÎ»Î± Î²
ĠÎ¼ÎµÎ³ á½±Î»
ĠÎ¸ÎµÏģ Î¼
á½³ ÏģÎ±
ĠÎ´ Ïħ
ÏģÎ± ÏĢ
ĠÎ» á½·
ĠÎµá¼° Ïĥá½¶
Ġá¼ĢÏĢ Î±
ĠÏĢÎ± ÏĦ
ĠÎ»á½³Î³ Î¿Î½ÏĦÎµÏĤ
Î¿á½» Î½
ĠÎµá¼°ÏĢ á½¼Î½
ĠÎ³ÎµÎ³ ÏģÎ±Î¼
ĠÏĢá½¹Î» Î¹Î½
ĠÏĢÎ»Îµá½· Î¿Î½
ĠÎ´Î±Îº ÏĦ
ĠÎ¶á¿· Î¿Î½
ĠÎ´ Î·
Î´ á½»Î»
ĠÎ´Î¹ ÎºÎ±Î¹
á¿ĥ ÏĤ
Ġá¼ĶÏĩ Î¿Î½ÏĦÎ±
ĠÏĢÏģá½¹ ÏĥÎ¸ÎµÎ½
Ġá¼± ÎµÏģ
Î¸á½³Î½ ÏĦÎ±
ĠÎ´Îµ Î¾Î¹
Î´Î¿ á½º
á¼ĲÏĢ á½¶
ĠÎ´Î¹ÎºÎ± ÏĥÏĦ
ĠÏĩÏģÎ· ÏĥÎ¼
ĠÎ´Î¹Î´ á½±Ïĥ
ĠÏĢÎ¿ÏĦ á½²
Î½ á½µÎ¼
ÏĢ Î½
Î» Î¿Ïħ
ĠÎº á½·Î½
Îº Î¿
ĠÏĢ Î¿Ïģ
ĠÏĢ Î»á½³
Î¿á¿¦ Î¼ÎµÎ½
ĠÎ³ Ïģá½±ÏĨ
ĠÏĢÏģ ÎµÏĥ
á½¹Î½ ÏĦÎ¿ÏĤ
Î¿á¿¦Î½ ÏĦÎ¿ÏĤ
ĠÏĦá½¹ ÏĢ
ĠÏĢÎµÏĢ Î¿Î¹
ĠÎ´á½· ÎºÎ±Î¹
ĠÏĦá½³ ÏĦÎ±
Ġá¼ĪÎ¸Î·Î½Î± á½·ÏīÎ½
ĠÎ´Îµá½· ÎºÎ½Ïħ
ĠÏĢÏģÎµÏĥ Î²
ĠÎº ÏħÏģá½·
Î· Î¼á½±ÏĦÏīÎ½
Î¿Ïħ ÏĥÎ±Î½
Ġá½ģ ÏģÎ¹
Ġá½ħ Î»Î¿Î½
á½¹Î½ ÏĦÎ±
ĠÎ¿á½ ĵÏĤ
ĠÏĢÎ± á¿ĸ
Îµá½· Î¿Ïħ
Ġá¼Ī Î¸
Ġá¼ĳÎ±Ïħ ÏĦÎ¿á¿¦
ĠÎ¾ á½»Î»
ÏħÎ³ Ïĩá½±Î½
Ġá¼ĲÎ¾Î¿Ïħ Ïĥá½·Î±Î½
Ġá¼¹ÏĢÏĢ Î¿Îº
á½¹Î¼Îµ Î¸Î±
Ïĥ ÎµÎ¹ÏĤ
Î¿Î½ Î´á½»Î»
Ïĩ Î¿ÏĤ
Î¿á¿¦ ÏĥÎ±
á¿ĸ Î¿Î¹
á½µ ÏĥÎ¹
Î¼á½³Î½ Î·
Ġá¼ĶÏĩ Î¿ÏħÏĥÎ¹
á¾¶ ÏĦÎ±Î¹
ĠÎ´Î¹Î± á½·ÏģÎµ
ĠÎµá¼´ ÏĢÏī
Ġá½ĦÎ½ ÏĦÎ¿ÏĤ
Î´ÎµÎ¹ Î³Î¼Î±
ĠÎ£ ÏīÎº
ĠÎ´Î¿Îº Îµá¿ĸ
á½½Î½Ïħ Î¼Î±
ĠÎ´á½»Î½Î±Î¼ Î¹Î½
Ġá½ħÎ» ÏīÏĤ
Ġá½ĳÏĢÎ¿Î³ ÏģÎ±ÏĨ
Ġá¼ģÏģÎ¼ á½¹
á½ ¡
Îµ ÏĥÎ¹Î½
ĠÎºÎ± Ïģ
Ġá¼Ĳ Î»
Î¸ Îµá½·
Î´ Î¿Ïħ
ĠÏĥ Î¿ÏĨ
ÏĦÎ¹ ÏĤ
Ġá½ħ ÏĥÎ¿Î½
á½¹Î½ Î±
ĠÎ¼Îµ Î¸
ĠÎ½ Îµ
Î¿á½· Î±ÏĤ
ĠÏĢÎ¿Î»Î» á½±ÎºÎ¹ÏĤ
Ġá¼ĢÎ¼ÏĨ á½¹
ĠÏĨÎ¹Î» Î¿Ïĥ
ĠÎµá¼°Î´ á½³Î½Î±Î¹
Ġá½ĳÏĢá½±ÏģÏĩ ÎµÎ¹
ĠÏĦÎµÏĩÎ½ Î¹Îº
ĠÎ³á½³Î³ Î¿Î½
Î¿á½»Î½ ÏĦÏīÎ½
á½ Ķ
Î½ Î±Î½
á¼ Ī
Î¹ Î¿ÏĤ
Î³ ÏīÎ³
ĠÎ¼ á½·Î±
ĠÏĥ Î±Ïģ
Ġá¼ĲÏĢ Î¿á½·Î·
Ïģá½· Î½
ĠÎ±á¼ µ
ĠÎºÎ¿Î¹Î½ á½¸Î½
ĠÏĢÎ½ Îµá½»
ÏĢ Î±Î¹
Î» á¿ĨÏĤ
Î· Î´
ĠÎ´ á½½
ĠÏĦÎ¿á¿¦ ÏĦÎ¿Î½
Î¾ á½º
ĠÎ¸ á½³
ĠÎ½ Î¹Îº
Ġá½Ģ ÏģÎ³
Î¿Î¼á½³Î½ Î·ÏĤ
á½³Ïĥ ÏĥÎ±
ĠÎºÎ±Î» Îµá¿ĸ
ĠÎ²Î±ÏĥÎ¹ Î»
ĠÎ¼Î¿Î¹ Ïĩ
ĠÎ¼á½³Î³ Î±
ĠÎ¼Î±Ïģ ÏĦ
Î Ķ
Ġá¼ ĺ
Ïģ Î¿Ïħ
Î· ÏĥÎ±Î½
á½· Îº
á½³ ÏīÏĤ
ĠÎºÎ± ÏĦá½³
Î¸ ÏħÎ¼
Ġá¼Ģ Î´á½»
Î´ Îµá¿ĸ
ĠÏĦÎ¿á¿¦ ÏĦ
ÏĦÎ¹ Î½
Î¾ á¿ĥ
Ġá½ħ ÏģÎ¿Î½
ÏĦÎ¿ á½ºÏĤ
ĠÏĩ Î¿Ïģ
ĠÎ² á½±
ÏĦÎ¹Îº á½´
Ġá¼ĢÏĢÎ¿ ÏĥÏĦ
Ġá¼ĲÎ³ Î³
ĠÏĥÏħÎ¼Î² Î¿Ïħ
Ġá½ħÏģ á¿³
Ġá¼ĳÎ½ á½¸ÏĤ
ĠÏĦÎ¿Î¹Î¿á¿¦ ÏĦÎ¿Î½
ĠÎĶÎ·Î¼Î¿ÏĥÎ¸á½³Î½ Î·ÏĤ
Î± Î¶
ĠÏĦ á½³ÏĥÏĥÎ±
ÏĢ Ïģá½¸ÏĤ
Îº Î¿ÏĤ
Ïī ÏĢ
Î¿á¿¦ ÏĦÎ±Î¹
á½µ ÏĤ
ĠÎ¿á¼ µ
á½±Ïĥ Î±Î¹
ĠÎºÎ±ÏĦÎ± ÏĨ
Î¸Îµ ÏĥÎ¹Î½
Ġá¼ĳÎ±Ïħ ÏĦá½¸Î½
ĠÎ¼á½³Ïģ Î·
Ġá½ł Î½
ĠÎ±á¼°ÏĦá½· Î±Î½
ĠÎ²ÏģÎ±Ïĩ á½·Î¿Î½
ĠÏĢÎ±Ïģá½± Î´ÎµÎ¹Î³Î¼Î±
ĠÎ´Î¹Î±Ïģ Î¸Ïģ
á¼ ¶
ĠÎº Î¿
ĠÏĢ Î»Î±
á½³ Îº
Î¿Î½ ÏĦÎ¿
ĠÎ¼ Îµá½·
ĠÎ´Î¹ Î´Î±
Ġá¼ĲÏĢ Î±Î½
ĠÎ±á½ĲÏĦ á½´
Ġá¼Ħ ÏĦÎ¿
Ġá¼ĢÏĢ Î¿Ïģ
ĠÏĢÎ± ÏĦÏģ
ĠÏĥÏħ Î³Î³
á¿Ĩ Î»
Ġá¼ĲÏĢÎ¹ Î´á½³Ïĩ
Ġá¼ħ ÏĢÎ±Î½
á¼Ķ ÏĥÏĦÎ¹
Ġá¼ĲÎ¼ÏĢ á½·
Î¿á½ Ĺ
ĠÎ»Î¿Î³ Î¹Îº
ĠÎ²Î¿á½»Î» ÎµÏĦÎ±Î¹
Îº á½¸ÏĤ
Î¸ Î¿ÏħÏĤ
Î¾ ÎµÎ¹ÏĤ
ĠÎ±á½ĲÏĦ á½¹Î½
ĠÎµá¼° Ïĥá½¶Î½
á½½ ÏĥÎµÏīÏĤ
Ġá¼ĢÎ½ Î¸
Ġá¼Ħ ÏģÏĩ
ĠÏĥÏħ Î½Î±
ĠÎ¸ Î±Î»
Î¶ ÏīÎ½
ĠÏĢÎ±Ïģ á½³Ïĩ
á½±Ïĥ Î±
ÏĦÎµÏģ Î¿Î¹
ÏĦÎ¹Îº Î¿á¿¦
Ġá¼ĦÎ»Î» Î±
ĠÎµá½Ĳ Î±Î³Î³ÎµÎ»
Ġá¾ Ĺ
ĠÏĥÏĨ Î¿Î½Î´á½»Î»
á½³ÏĥÏĦ Î·Îº
· ÏĤ
ĠÎº Ïģ
Ġá½ ¤
Ġá¼Ģ ÏģÎµ
Î² Î¿Ïħ
Ġá½ģ ÏĢ
ÎºÎ± ÏĤ
Î¿Î» á½¹Î³
Ġá¼° Ïĥ
Î´Î¹ á½¸
ĠÎµá¼¶ Î´Î¿Î½
Î¸á½³Î½ ÏĦÏīÎ½
ĠÏĢÎµÏĢ Î¿Î½
ĠÎ½á½¹Î¼ Î¿ÏĤ
Ġá¼ĢÎ»Î»á½µÎ» ÏīÎ½
Ġá¼ĲÎ³á½³Î½ ÎµÏĦÎ¿
á½¡ ÏĤ
Ïģ Î½
Îº Î¹
ĠÎºÎ± ÏĦÎ¿
Ïī ÏģÎ¹Ïĥ
á½¹ ÏĦÎµÏģÎ¿Î½
Ïĩ Îµ
Î±Î¹ Î¼Î¿Î½
Î¼á½³Î½ Î·ÏĤ
Î»Î· ÏĨ
ĠÎ´Î¹Î± Îº
ĠÎĺÎµ á½¸ÏĤ
á½ħ ÏĦÎ¹
ĠÏĦá½³Î» Î¿ÏħÏĤ
ĠÏĨÏħ ÏĥÎ¹Îº
á½µÏĥÎ± ÏĥÎ¸Î±Î¹
ĠÎ³ÏħÎ½ Î±Î¹
ĠÏĨÎ¹Î»Î¿Ïĥ Î¿ÏĨ
á½ ĳ
Î½ á¿¶Î½
Î¹ Î¿Î¹
ĠÏĦ ÏħÎ³Ïĩá½±Î½
Ïħ ÏĢ
ĠÏĢ Îµá½·
ĠÎ´ Ïģá½±
ÏĦÎ± Î¼
á½¹ ÏĦÏīÎ½
ÏĨ á½³Ïģ
Î¿Ïħ Î¼á½³Î½ÏīÎ½
Ġá¼ĢÎ½ Î´Ïģ
ĠÏĩ ÏīÏģá½·
ĠÎ¸ Î±Î½
ÏĦá½³ ÏģÎ±ÏĤ
Ġá¼° Î´Î¿á½º
Î¿á¿¦Î½ ÏĦÎ±ÏĤ
Î¿Î¼á½³Î½ Î·Î½
ĠÏĢÎ¿Î» ÎµÎ¼
ĠÎ¿á½ĲÏĥá½· Î±Î¹
ĠÏĨÎ± Î¼ÎµÎ½
ĠÎºÎµÏĨÎ±Î» á½´Î½
Ġá¿¥Î·ÏĦ Î¿á¿¦
ĠÎ¶á½µÏĦÎ· ÏĥÎ¹ÏĤ
ĠÎĽ Î±Îº
ÏīÎ½á½»Î¼ ÏīÏĤ
ĠÏĢÎ¿Î½ Î·Ïģ
ĠÎ´Î±ÎºÏĦ á½»Î»
Ġá½ģÏģÎ¹ ÏĥÎ¼
Î½ Î¿
Ïĥ á½±
Î¿Ïħ ÏģÎ³
á½½ ÏĤ
Ġá¼ĢÎ½ ÏĦÎµ
Ġá¼ĲÏĢÎ¹ ÏĦÎ·
ĠÏĥÏĦ á½·Ïĩ
Î¸Î· ÏĥÎ±Î½
Ġá¿¥ á½±Ïĩ
ĠÎ¶ Î·
Ġá¼ķ Î¾Î¹ÏĤ
Ġá¼¤ Îº
ĠÎºÎ±Î» á¿¶ÏĤ
ĠÏĢÎ±Î½ ÏĦá½¸ÏĤ
Ġá¼ĳÏĦá½³Ïģ Î¿Ïħ
ĠÏĨÎ±Î½ ÎµÏģ
ĠÎ±á¼°ÏĥÎ¸ Î·ÏĦ
ĠÏĦÏħÏģ Î±Î½
ĠÎºÎµ Î»Îµá½»
ĠÏĪÎµÏħ Î´
ĠÏĢÎµÏĢÎ¿Î½ Î¸
Îº á¿¶Î½
ĠÏĢ á¿¦
Ġá¼Ģ ÏĥÏĦ
ĠÎ³ ÏħÎ½Î±
Î¾ Î±ÏĤ
Î² Î±Î»
Ġá½ħ ÏĢÎ¿Ïħ
ĠÏĨ á½¹Î½
Îµá½· Î¼ÎµÎ½Î¿Î½
Ġá¼ĲÎ¾ á½³
ĠÎµá¼´ ÏģÎ·
ĠÏĢÎ¿ ÏĦÎµ
ĠÏĨÎ· Ïĥá½·
ĠÎł Î±
ĠÏĢá½±Î½ ÏĦÎµÏĤ
á¼Ĳ Îº
ĠÏĦÎ¹Î½ Î¿ÏĤ
ĠÏĢÎ» Îµá¿ĸ
ĠÎ±á½ ĸ
ĠÏĦÏģ Îµá¿ĸÏĤ
ĠÏĨÎ± á½·Î½ÎµÏĦÎ±Î¹
ĠÎ³Î½ á½½Î¼
ĠÏĦá½³Î» Î¿ÏĤ
ĠÎ²Î¹Î²Î»á½· Î¿Î½
ÏĦÏĦÎµ ÏĦÎ±Î¹
ĠÎ³ÏħÎ½Î± á¿ĸ
ĠÎ ĵ
á½· ÏĥÏĦ
Ġá¼ĲÎ½ Î±Î½
Ġá¼ĲÎ½ á½½ÏĢ
Ġá¼ĢÎ½ Ïī
Ġá¼ĢÏĢ Î¿Î»
Îµá½· ÏīÎ½
Î¹Îº Î¿á¿¦
Ġá½Ģ Î»Î¹
Ġá¼ĲÏĢÎ¹ Ïĩ
Ġá¼Ī ÏĦ
á½±Î³ ÎµÎ¹
Î¿á½· á¾³
Î´á½· Îº
ĠÏĦá½¹ Î´Îµ
ĠÏĦá½¹ ÏĢÎ¿Î½
ĠÎ³á½³Î½ Î·ÏĦÎ±Î¹
Ġá¼ĲÎ½Î±Î½ÏĦá½· ÏīÎ½
ĠÏĢÎµÏĢ ÏģÎ±Î³
ĠÎºÎ±ÏĦÎ·Î³Î¿Ïģá½· Î±ÏĤ
ĠÎ´Î¹á½± ÏĨÎ¿Ïģ
ĠÏĥÏħÎ¼ÏĨ á½³Ïģ
ĠÏĢÎ»Îµ ÏħÏģ
Ġá½ħÏĢ ÏīÏĤ
ĠÎ Ŀ
ĠÏĦ Î¿á¿ĸÏĥÎ¹
Î¼ Î·
ĠÎº Ïī
Ġá¼Ĳ Î»á½³Î³
ĠÎ´ Î·Î¼Î¿
ÏĦÎ± á¿ĸÏĤ
Ġá¼Ķ Î´ÎµÎ¹
ĠÎ» á½±Î²
Ġá½Ģ ÏĢá½·ÏĥÏī
Î»Î± Ïĥ
ĠÎ¶ á¿´
ĠÏĢÎ» á½´Î½
ĠÎĺÎµ á¿·
ĠÎºÎµÏĨÎ±Î» á½´
Ġá¼ĲÏĩ Î¸Ïģ
ĠÏĦÏģá½· ÏĦÎ¿Î½
Ġá¼ĪÎ¸Î·Î½Î± á½·Î¿Î¹ÏĤ
ĠÏĢá½± Î¸Î¿ÏĤ
Ġá½ĢÎ»á½·Î³ Î¿Î½
Î¿ÏģÎ¹ á¿¶Î½
Ġá¼ĢÎ½Î±Î³ÎºÎ± á¿ĸÎ¿Î½
ĠÎ³á½·Î½ Î¿Î½ÏĦÎ±Î¹
á½¶ Î½
ĠÎ´ Î·Î¼
ÏĥÎ¹ Î¿Î½
ĠÎ³ Î»
ÏĦÎµ Ïħ
Ġá¼Ħ Î¾Î¹
ĠÏĥÏĦ á½³Ïģ
ĠÎµá¼´ ÏĥÏī
Î´Îµ á½»
Î¿Î¼á½³Î½ Î¿Î¹ÏĤ
Ġá¼¡Î¼ á½³Ïģ
Ġá¼¥ ÏĦÎ¹ÏĤ
ĠÏĢá½±Ïĥ á¿ĥ
Ġá¼§ ÏĤ
ĠÏĢÏģÎ¿Ïĥá½½ÏĢ ÏīÎ½
ĠÏĦÎ¿ÏħÏĦá½³ ÏĥÏĦÎ¹Î½
ĠÎºá¼Ģ Î½
á½½Î½Ïħ Î¼Î¿Î½
Ġá¿¥á½µ ÏĦÎ¿
ĠÎĳ á¼°
Ġá¼ķÎºÎ± ÏĥÏĦÎ¿Î½
ĠÎ¼á½¹ ÏģÎ¹Î±
ĠÎºÏħÏģá½· ÏīÏĤ
Ġá¼ĲÎ½á½½ÏĢ Î¹Î¿Î½
¢ Î½
ĠÎº Î»á½³
Î· Î»Î±
Î¿Î¹ Î±
ĠÏĥ ÏĢ
ĠÎ±á½ĲÏĦ á½°ÏĤ
ĠÎ¿á½Ĳ ÏĥÎ¹
ÏĦÎµ á½»
ĠÎ¸ ÏħÎ¼
Î¼Î² Î±Î½
Î³Î½ Ïī
ĠÎ¼ÎµÏĦÎ± Î¾á½º
ĠÏĥÏħÎ¼Î² Î±
Î¸á½³Î½ ÏĦÎ¿ÏĤ
ĠÏĩÏģá½¹Î½ Î¿Î½
Ġá¼ĢÏĢá½¹ Î´ÎµÎ¹
ĠÎ¿á½ĲÏģÎ±Î½ Î¿á¿¦
Ġá¼ĶÎ¾Ïī Î¸ÎµÎ½
ÏĨÎ¸ Î±Î»
Ġá¼ĢÎºÏģÎ¹Î² á¿¶ÏĤ
Ġá¼ĢÎ½ÏĦÎ¹ÏĥÏĦ Ïģá½³ÏĨ
ĠÎĽÎ±Îº ÎµÎ´
Î¹ Î¶
Î» ÏĨ
ĠÎº Î»
Ġá¼Ĳ Î´á½¹
ĠÎ¼ á½»
ÏĥÏĦ ÏģÎ¿ÏĨ
á½µ ÏģÎ¹Î¿Î½
Ġá¼ĲÏĢ Îµ
ÏģÎ± ÏĪ
ĠÏĨ á½·
á½½ ÏĥÎº
Ġá¼ĢÎ½ Î±Î¹
ĠÏĩ Î¹
Î¹Îº á½°
Î¿Î» Î¿Ïħ
ĠÎ² Î¿
Ġá¼ĲÏĥÏĦ á½·Î½
ÏĦá½³Ïģ Î±Î½
ÏĦá½± Î»Î·Îº
ĠÏĦá½¹ ÏĢÎ¿ÏĤ
Ġá¼± ÎºÎ±Î½
Ġá¼ĪÎ¸Î·Î½Î± á¿ĸÎ¿Î¹
Ġá¼ĦÎ½Î¸ÏģÏī ÏĢÎ¿Î½
ĠÏĢá¾¶ ÏĥÎ±Î½
ĠÏĢÎ¿Ïĥ Î¿á¿¦
Î¿ÏģÎ¹ ÏĥÎ¼
ĠÎłÎµÏģ á½¶
Ġá¼ĢÎ¼ÏĨÎ¿ ÏĦá½³ÏģÏīÎ½
ĠÎºÎ±ÏĦÎ¿ ÏģÎ¸
ĠÏĢá¿¦ Ïģ
ÏĦ Î¿Î¹ÏĤ
Îµ á¼¶
Ïģ ÏĦÎ¿Î½
Î¼ á½·Î±
ĠÏĢ ÎµÎ¹
á½³ ÏģÎ±ÏĤ
Î´ ÎµÎ½
ĠÎ³ Ïģá½±ÏĪ
ĠÏĢÏģ á½±
ÎµÏģ Î±
Ġá½ģ Ïģ
ĠÏĨ Ïī
Ġá¼ĢÎ½ ÏĦÎ¹Îº
á½¹Î½ ÏĦÎµÏĤ
ĠÏĢÏģÎ¿ ÎµÎ¹
ĠÏĢÏģÎ¿ ÏĥÎµ
Ġá½ĳÏĢ á½¹
Ġá½Ģ ÏĨÎ¸Î±Î»
ĠÏĢÎ±Ïģ Îµ
Ġá¼ĶÏĩ Î¿Î½
ÏĥÎ± ÏĥÎ¸Î±Î¹
ÏĦÎ¹Îº á½¹Î½
ĠÎ¿á½ĲÎ´ á½³
Ġá½Ħ ÏĪ
Ġá¼¤ Î½
ĠÏĢÎ±ÏģÎ± Î´Îµá½·
Î»Î¿Î½ á½¹ÏĦÎ¹
ĠÏĨá½» ÏĥÎµÏīÏĤ
ĠÎ¾ ÏħÎ½
Ġá¼± ÏĢÏĢ
á½¹Ïģ Î¿Ïħ
ĠÏĦÎ±á½» ÏĦÎ·ÏĤ
Ġá¼ĢÏģ Î½
ĠÎ´á¿Ĩ Î»Î¿Î½
ĠÏĢÎ»Î· Î³
ĠÏĩá½± ÏģÎ¹Î½
á½µÎºÎ± Î¼ÎµÎ½
ĠÎ´Î· Î»Î¿Î½á½¹ÏĦÎ¹
ÏĦ á¿ĨÏĤ
Îµ ÏĥÎ¹
ÏĢ ÎµÏĦÎ±Î¹
ÏĢ ÏģÎ¿
Î» á¿¶Î½
Ïī Î¼Î±
Ġá½ ¢Î½
Ïĩ Î¿á¿¦
Ïĩ ÏīÏģ
ÏĥÏĦ á½±ÏĥÎµÏīÏĤ
Î±Î½ ÏĦÎ±
Îµá½· Î±
Ġá½ĳ Î¼
Ġá½ĳ ÏĪ
ĠÏĦÎ¿ Ïĥ
ĠÎ¸ Ïħ
Ġá½Ģ ÏĨ
ĠÎ´Î¹Î± Î²á½±Î»Î»
Ġá¼ĲÎ¾ Î·Î³
ĠÏĢÎ¿ ÏĦÎ±Î¼
ĠÎ¿á½ĲÎº á½³ÏĦÎ¹
Ġá¼¦ ÏĥÎ±Î½
Î´Î¿ Î¾
á½³ÏĥÏĦ ÎµÏģÎ¿Î½
ĠÏĥÎ·Î¼ Îµá¿ĸÎ¿Î½
ĠÎ¼Ïħ á¿¶Î½
Ġá½ĳÏĢÎ¿ÎºÎµÎ¹ Î¼á½³Î½Î¿Ïħ
ĠÏĥá½½ Î¼Î±ÏĦÎ¿ÏĤ
ĠÎ¿á½ĲÎ´Îµ á½¶ÏĤ
ĠÎ¸Î±Î½ á½±
ĠÏĦ ÏģÎ¿ÏĢ
Î» Î¿ÏħÏĤ
Î¼ Î±Î¹
Î¼ á½·Î±Î½
ĠÎº Î½á½µÎ¼
Ïħ Î¸
ĠÏĢ ÎµÏĨ
á½· ÏīÏĤ
ĠÎºÎ± Î¹Î½
Ġá¼Ĳ Ïĥ
Ġá¼Ĳ Î»á½±
ÏĦÎ± ÏĥÎ¹ÏĤ
Î¿Ïħ Î¼á½³Î½Î¿Ïħ
ÏĥÏĦ Î¿Î»
ĠÎ±á½ĲÏĦ á½¹
ĠÏĨ Î¿Î²
ĠÎ±á¼ ·
Ġá½Ģ ÏĢ
á½±Ïĥ ÎµÎ¹ÏĤ
á¾¶ ÏĥÎ¸Î±Î¹
ĠÎ¿á½ĸ ÏĥÎ±
Ġá¼¡Î¼ Îµá¿ĸÏĤ
ĠÏĦÎ¹Î½ Î¹
ĠÏĥÏĩ á¿ĨÎ¼Î±
ĠÎ»ÎµÏħÎº á½¸Î½
Ġá¼°Î± ÏĦ
ĠÎ¶Ïī á¿ĨÏĤ
ĠÏĢÎ»á½³ Î¿Î½
Ġá¼ĢÎ½ÏĦÎµ Î³
Ĺ ÏĦÎ±Î¹
ĠÎº ÏīÎ¼
á½· Î¿
á½· Î±Î¹ÏĤ
ÏĨ á½»
ĠÎµ á½ĲÏĦ
á¿ĸ Î¿ÏĤ
Î² ÎµÎ²
á½´ Î»
Ïģá½· ÏĥÎº
á½±Î½ Î½
Ġá¼ĲÏĥÏĦ á½·
ĠÎ½ ÎµÎº
ĠÎ»á½³Î³ Ïī
ĠÎ»á½³Î³ Î¿Î½ÏĦÎ¿ÏĤ
ĠÏĢÎ¿Î¹ á¿ĨÏĥÎ±Î¹
Î´Îµ ÎºÎ±
ÎµÎ» Î¸
ÏĦÏī Ïģ
ĠÎ»á½¹Î³ Î¿ÏħÏĤ
ÏĥÏĩ á½±
ĠÏĢÎ¿Î»Î» á¿¶Î½
ĠÎ³ÎµÎ½ Î¹Îº
Ġá¼¥ Î»Î¹
ĠÏĦÎ±á½» ÏĦá¿ĥ
ĠÎ½Î¿ Î·ÏĦ
á¼ĲÏĢ ÎµÎ¹Î´á½´
Ġá¼ĳÎ½ á½¶
á½µÎ³ Î±Î³
ĠÏĦÎ¿Î¹Î¿á½» ÏĦÏīÎ½
ĠÎ´ÏħÎ½á½±Î¼ ÎµÎ¹
ĠÏĥá½º Î½
Ġá¼ĢÎ¼ÏĨÎ¹ÏĥÎ²á½µÏĦÎ· ÏĥÎ¹Î½
ĠÎ¾á½» Î»Î¿Î½
ĠÏĦá½¹ÏĢ á¿³
ĠÎ¸Î±Î» á½±Ïĥ
ĠÎ±á¼· Î¼Î±
ÏĦ á¿Ĩ
ĠÏĦ ÏģÎ¿ÏĨ
Î¼ ÏīÏĤ
Î¸ ÏģÎ±
Î¸ á¿ĩ
Ġá¼Ģ ÏĦÎµÎ»
Î´ ÏģÎ±
Î´ Î¿ÏħÏĤ
Î´ ÎµÏħ
ĠÎµá¼ ·ÏĤ
Î¼Î± ÏĦá½·
ĠÎ¸ á½³Î»
ĠÎ² Î»á½±
ĠÎ½ á½³
ÏĦÎ¹Îº á½°
Ġá¼ĢÏĢÎ¿ Î´Îµá½·
Ġá¼ĢÎº Î¿á½»
Ġá¼ĢÏģÏĩ á½´Î½
Î¸á½³ ÏĥÎµÏīÏĤ
ĠÎ¿á½ĲÏģÎ±Î½ á¿·
ĠÎ´ÏħÎ½ á½±
Ġá¼ĢÎ³Î³á½³Î» ÏīÎ½
ĠÎ¼ÎµÏģ á¿¶Î½
ĠÎ´á½»Î½Î±Î¼ Î¹ÏĤ
Ġá¼ĶÎ»ÎµÎ³ ÎµÎ½
ĠÎ³ÏģÎ±Î¼ Î¼Î±ÏĦÎ¹Îº
ĠÎ½á½¹ Î¼Î¿Î½
Î» Î¿Îº
ĠÎº Î¿Ïģ
Ġá¼Ģ ÏĥÎ¸ÎµÎ½
Ïĩ Î±Î½
ĠÎ´Î¹ ÏīÏģÎ¹Ïĥ
Ġá¼Ķ ÏģÏĩ
ĠÎ» ÎµÏĢ
á½½ ÏĦÎµÏģÎ¿Î½
á¿¶ ÏĥÎ±Î¹
ĠÏĥÏĦ á½±
ĠÏĥÏĦ á½¹
ĠÏĩÏģ á½½
Î´Î¹ Î±
ĠÎļ Î±
ÏĥÏĦÎ± ÏĥÎ¹Î½
Ġá¼ĢÏĢÎ¿ Ïģá½·
ĠÏĥÎº á½³
Î´Î· Î»Î¿Î½
ĠÎ±á½ Ķ
ĠÎ¼ÎµÏĦÎ± ÏĨÎ¿Ïģ
ĠÎºÏģá½· ÏĥÎ¹Î½
ĠÎºÎ±Îº á¿¶ÏĤ
ĠÏĩÏģá½¹Î½ Î¿Ïħ
ĠÏĢá½¹Î» ÎµÎ¹
Ġá¼°Î± ÏĦÏģ
á½¹Î´ ÏģÎ±
ĠÏĢá½³Î½ ÏĦÎµ
ĠÎ¼ÎµÏĦá½± Î»Î·ÏĪÎ¹ÏĤ
ĠÏĢÏģÎ¿ÏĨá½µ ÏĦÎ·ÏĤ
ĠÏĦÎµÎ»ÎµÏħ ÏĦÎ±
Ġá¼ĢÎ´á½» Î½Î±ÏĦÎ¿Î½
ĠÎ²ÏģÎ±Ïĩá½·Î¿Î½ Î¿ÏĤ
Îµ á¼´
ĠÎ´ á½³Ïģ
á½± ÏĢÎµÏģ
Î¸ á¿¶Î½
Ġá¼Ģ Î´
Îµá½· á¿³
á¿Ĩ ÏĦÎ±Î¹
á¿¦ ÏĥÎ±Î¹
ĠÎ¸ á½»
ĠÎ»á½³Î³ Î¿Î½ÏĦÎ±Î¹
á½µÏĥ Î¿Î½ÏĦÎ±Î¹
Ïĥá½· ÏīÎ½
ĠÏĩÏģ á½µÏĥÎ¹
ÏģÎ¿ á½¶
ĠÎ±á¼° á¿¶Î½
ĠÎ±á¼° Î½á½·
Î»á½· Î±ÏĤ
ĠÎºÎ±Î» Îµá¿ĸÏĦÎ±Î¹
Ïģá½³ ÏĥÎµÏīÏĤ
ĠÎ´Îµ ÏĥÎ¼
ÎºÎµÎ¹ ÏĦÎ±Î¹
ĠÎ³Î½ á½±
Ġá¼¸ Ïĥ
Î¿á½Ĳ Î´
ĠÎ¼Î¹Îº Ïģá½¸Î½
Ġá¼ĢÏĥ á½»
ĠÎ½Î± Ïħ
ĠÎ¼á½³Ïĥ Î¿Î½
Ġá¼ģÏĢÎ» á¿¶ÏĤ
ĠÎ´ÎµÎ¹ ÎºÎ½
á¼ĢÏĢ á½¸
ĠÏĢÎ±ÏĦ á½´Ïģ
Ïĥ Î¿Î¹
Ïĥ ÎºÎ±
Î» á½¹Î³
Ġá¼Ĳ Î´
Ġá¼Ĳ Î¼Î½
Ïĩ ÏīÎ½
ĠÏĢÏģ á½¶Î½
ĠÏĨ ÏģÎ¿Î½
ÏĦÎ· ÏĥÎ¹Î½
ĠÏĦÎµ Î»
á½±Ïĥ Î±ÏĤ
ĠÏĢÎ¿Î¹ Î·ÏĦ
ĠÏĩÏģ ÏħÏĥ
ĠÎºÎ±ÏĦÎ± Î³
ĠÎµá¼¶ ÏĦÎ±
á¼Ĳ Î³
ĠÏĢÎµÏģÎ¹ ÏĦÏĦ
Ġá¼ħ ÏĢÎµÏģ
Ġá¼ħ ÏĢÎ±
ĠÎ¿á½ĲÏĥá½· á¾³
ĠÎ´Î¹Î±ÏĨ Î¿ÏģÎ±
Ġá½ĥ ÏĤ
Ġá¼ĶÎ½ Î¸Î±
ĠÎµá½ ĸ
ĠÏĥÏĨ ÏģÎ±Î³
ĠÏĥÏĨ á½¹Î´ÏģÎ±
ĠÏĢá½±Ïĥ Î·ÏĤ
ĠÏĨÏħ Î»á½±
Ġá½ĢÎ½á½¹ Î¼Î±ÏĦÎ±
Ġá½ĢÎ½á½¹ Î¼Î±ÏĦÎ¿ÏĤ
ĠÏĦá½³ÏĩÎ½ Î·Î½
Ġá¼ĲÎ¸ Î½á¿¶Î½
Ġá¼ģÎ¼Î±Ïģ ÏĦá½·
Ġá½ħÎ¼Î¿Î¹ Î¿Î½
Ġá¼ĲÏĢÎ¹ÏĥÏĦá½µÎ¼ Î·
ĠÎ´Ïī ÏģÎµ
Ġá¼ĢÎºÎ± ÏĦá½±Î»Î·Îº
Î± á¿ĸÏĤ
Î¿ ÏģÎ¹Îº
ĠÏĦ á½·Î½
Î¼ ÏīÎ½
Ġá¼Ĳ Î»Î±
Ïī ÏĦá½±
ĠÎ¼ á½±Ïģ
Ïĩ Ïģ
ÎµÎ¹ Î±
Î¿Î¹ Îº
á½µ Î¼Î±ÏĦÎ¹
ĠÏĥ á½±Ïģ
ÏĦÎ±Î¹ ÏĤ
Ïģá½· ÏĥÏĦ
Î¿á¿ĸ ÏĥÎ¹Î½
ĠÎ² ÏħÏģ
ĠÎ² Î±Ïģ
ĠÎ¼Îµ ÏĦÎµ
ĠÎµá¼´ ÏĦÎµ
Îµá½» ÎµÎ¹Î½
ÏģÎ¿ á½ºÏĤ
ÎµÎ» Îµá¿ĸÎ½
ĠÏĦÎ¿á½» ÏĦÎ¿Î¹
ĠÎºÎ±Î¸ á½±ÏĢÎµÏģ
ĠÏĢÎµÏģÎ¹ á½³Ïĩ
ĠÎ¿á½Ķ ÏĥÎ·ÏĤ
ÏģÎ¼ Î·Î½
ÏĢÏĦ ÎµÎ¹Î½
ĠÏĨÏīÎ½ á¿¶Î½
Ġá¼ĢÏĢá½¹ ÏĥÏĦÎ¿Î»
ĠÏĪÏħÏĩ á¿ĨÏĤ
Îµá¿¦ Î¼Î±
ĠÎ´Î¹Î±ÏĨÎ¿Ïģ á½°Î½
ĠÎºá¼Ģ Îº
ĠÎºÎ±á½· ÏĦÎ¿Î¹
ĠÏĩÏīÏģ á½¶ÏĤ
Ġá¼¹ÏĢÏĢÎ¿Îº Ïģá½±ÏĦÎ·ÏĤ
ÏĦ ÏģÎ±
Ïģ á½°
ĠÎº á½³Ïĩ
ĠÎºÎ± Î½
Ġá¼Ģ Î´á½·Îº
ĠÎ¼ Î¿Ïĩ
Î´ á½¹Î½
ÏĥÏĦ ÎµÏģÎ¿Î½
ĠÎ³ Î¿á¿¦Î½
ĠÏĥ ÏĢÎ¿Ïħ
Ġá¼Ķ ÏĨ
Ġá¼ĲÏĢ Î¹Îº
ĠÏĨ ÏħÎ³
á¿¶Î½ ÏĦÎ±Î¹
á½½ ÏĥÎµÎ¹
ĠÏĢÏģÎ¿ ÏĥÎ¸
Î¹Îº á½¹Î½
ĠÎ² á½·
á½·Î½ Î¿Ïħ
á½±Ïĥ Î±Î½
Ġá¼ĶÏĩ Î¿ÏħÏĥÎ¹Î½
ĠÏĦÎ± Ïĩ
Î¿á½» Î¼ÎµÎ½Î±
ĠÎ´Î¹Î± ÏĢ
Ġá¼ĲÏĢÎ¹ Î³
ÏĥÎµ Î²
ĠÎºÎ±ÏĦÎ± Î»Î·Îº
Î¿á¿¦Î½ Î±Î¹
Î´Î¹ Î¿Î½
ĠÎ´á½» Î½Î±Î½
Ġá¼ĲÎ³ á½¼
Ġá¼ħ Î³
Ġá¼ĢÎ½Î¸Ïģá½½ÏĢ Î¿ÏħÏĤ
ĠÎ´á½· Îº
Ġá½ħÏģ Î¿Ïħ
ÏĥÏĦá½³ Î¿Î½
Ġá¼ĳÏĦá½³Ïģ ÏīÎ½
ĠÎ±á¼°ÏĦá½· Î±
ĠÏĢá¾¶ ÏĥÎ¹
ĠÎ¸á½± Î½Î±ÏĦÎ¿Î½
Î¿Ïĥ á½»Î½
Ġá¼ĲÎ¼Î² Î¿Î»
ĠÏĥÏħÎ³ Îº
Ġá¼ĲÏģ Îµá¿ĸ
Ġá¼ĲÏĩÏģ á½µÏĥÎ±ÏĦÎ¿
ĠÏĥÎ·Î¼Î± á½·Î½ÎµÎ¹
Ġá¼© ÏĥÎ±
Ġá¼ĢÎ½á½±Î³Îº Î·
Ġá¼ģÏĢ á½±Î½ÏĦÏīÎ½
ĠÏĢÏģÎ¿Ïĥá½³Î¸Î· ÎºÎµ
ĠÏĢÎ¿Ïģ Î½
Ġá¼¸Ïĥ ÏģÎ±
ÏĦ Îµá¿ĸ
ÏĦ á¿·
ÏĢ Ïģ
Î» Ïī
Î¼ ÎµÎ»
Îº Î¿Î½ÏĦÎ±
ĠÏĢ ÏīÏĤ
Î¸ á½µÏĥÎµÏĦÎ±Î¹
ĠÎ¼ ÎµÎ¹
ĠÎ¼ á¿Ĩ
Î´ Ïħ
Î¿Î¹ Î½
Î¿Î¹ Ïĩ
ĠÏĦÎ¿á¿¦ ÏĦá½¹
Ġá¼Ķ ÏĢÎµÎ¹ÏĦÎ±
ÏĥÎ¸ á¿ĨÎ½Î±Î¹
Ġá½¡ Î¼
Î¹Îº á½´Î½
Ïĥá½· ÏĤ
ÏĦÎµÏģ á½¹Î½
ÏĦÎ¹Îº á¿ĨÏĤ
ÏĦÎ¹Îº á¿¶ÏĤ
ĠÏĥÏħÎ½ ÏĦÎµÎ»
ÏĦá½³Ïģ Î¿Î¹ÏĤ
ĠÎł Î½
ĠÎµá½Ĳ ÏĨ
ĠÎ¼á½¹Î½ á¿ĥ
ĠÎ¼á½³Ïģ Î¿ÏħÏĤ
Ġá½ķ Î´Î±
ĠÎ£ Î±
ÏĦÏĦ ÎµÎ¹
ÏĦÏĦ ÎµÎ¹Î½
ĠÏĢÏģá½½ ÏĦÎ·
ĠÏĥÎ·Î¼ Î±Î¹Î½
Ġá¼ĶÎ»ÎµÎ³ Î¿Î½
ĠÎµá½ĳ Ïģá½·ÏĥÎº
ĠÏĢá½· ÏĥÏĦ
ĠÎ³á½·Î½ ÎµÏĥÎ¸Î±Î¹
Îļ Î±á½¶
ĠÎ´á½·ÎºÎ±Î¹ Î¿Î½
ĠÎ£ÏīÎº Ïģá½±ÏĦÎ·ÏĤ
ĠÏĢÎ±ÏģÎ±Î´Îµá½· Î³
Ġá½ĢÏĢ ÏĦÎ±
ĠÎ¼á½±Ïģ ÏĦÏħ
ĠÎ´á½»Î½Î±Î½ ÏĦÎ±Î¹
Î± á½
Î¹ Î³Î½
Î¼ ÏĪ
á½· Î´Î±
Ġá¼Ĳ Î²
Ġá½ ĤÎ½
ĠÎ´Î¹ á½½
Ġá¼Ķ ÏĥÏĦ
á¿¶ Î¼ÎµÎ½
ÏĦá½° ÏĤ
ĠÏĥÏħ Îº
á¿Ĩ Î¸Î¿ÏĤ
Îĵ ÎĵÎĺ
ĠÎ¼Îµ Î»Îµ
Ïģá½± Î³
Ġá¼° Î·ÏĦ
Ġá¼ģ Ïģ
ĠÎł á½»Î»
Î±Ïģ Î¸Ïģ
ĠÏĢÎ» Î¿á½»
ĠÎµá½Ĳ ÎµÏģÎ³
Ġá¼ĦÎ½ ÎµÏħ
á½±Ïģ ÏīÎ½
Ġá¼ĢÎ½ÏĦÎ¹ Î¸Îµ
á½¹Î¼ Î·Î½
á½±Î¶ ÎµÎ¹Î½
ĠÎ´Î¹Î±ÏĨ á½³Ïģ
ĠÎ´á½»Î½Î± ÏĥÎ¸Î±Î¹
ĠÎ´Îµ ÏĥÏĢ
ĠÏĢÎ±Î½ ÏĦÎ±
Ġá½ł ÏĨ
ĠÏĢÏģá½½ ÏĦÎ·Î½
ĠÏĢá½¹Î» Î¹ÏĤ
Î»á½³Î³ ÎµÎ¹
ĠÏĥÏħÎ¼ÏĢ Î»Î¿Îº
ĠÎ´á½¹ Î¾Î±Î½
ĠÏĦÎ¿Î¹Î±á½» ÏĦÎ·Î½
ĠÎºá½¹ ÏĥÎ¼
ĠÎ¸Ïģá½¹Î½ Î¿Ïħ
ĠÎ»Î±Î² Îµá¿ĸÎ½
ĠÎ´Î¹Î±á½·ÏģÎµ ÏĥÎ¹Î½
Ġá¼ĢÎ½Ïī ÏĦá½³ÏģÏī
Ġá¼ĲÏĢÎ¹Ïĩ ÎµÎ¹Ïģ
Ġá¼ĢÏĢá½¹Î´ÎµÎ¹ Î¾Î¹Î½
Ġá¼©ÏĥÎ± á¿ĵ
Î± Ïĥ
Îº Ïħ
Ġá¼Ĳ Î»Î»
Ïī ÏĥÎ¹ÏĤ
Î³ Î¿Ïģ
Î¸ Îµá¿ĸ
ÏĥÏĦ Î¿ÏĤ
Î¿Î¹ ÏĥÎ¹Î½
Ġá¼ĲÏĢ Î¹Î½
ĠÎ±á½ĲÏĦ á½¹ÏĤ
ĠÎµá¼° Îº
ĠÏĨ Î¹
á½½ Î»
ÏĦÎ¿ Î¼
ĠÏĩ ÎµÎ¹
ĠÏĩ Î±Î»
Î±Î³ Îµá¿ĸÎ½
Ġá¼° Î´Î¹
á½³Ïĥ ÎµÎ¹ÏĤ
ĠÏĢÎ¿Î» á½³Î¼
ĠÎ¸Îµ ÏīÏģá½·
ÏĢÎµ á½¶
ĠÏĢÎ±Î½ Î·Î³
Î²Î± Î»Î»
Ġá¼¸ Ïī
Ġá¼ĲÎ¼ÏĢ ÎµÏĥ
Î¾Î± ÏĥÎ¸Î±Î¹
ĠÏĩÏģá½¹Î½ á¿³
ĠÏĥÏħÎ¼Î²ÎµÎ²Î·Îº á½¹ÏĦÎ±
ĠÏĥÏĦÎ¿ÏĩÎ±ÏĥÎ¼ á¿·
ĠÏĢÎ¿Ïĥ á½¸Î½
ĠÏĨÎµá½»Î³ Î¿Î½ÏĦÎ¿ÏĤ
ĠÎ¼á½³Î» Î±Î½
ĠÏĢÎ¹ Î¸Î±Î½
Ġá¼±ÏĥÏĦ Î¿Ïģá½·
ĠÏĢÏģÎ¿ÏĥÎº ÏħÎ½
Ġá½łÎ½ á½¹Î¼Î±
ĠÎ´Î¹Î´Î± ÏĥÎºÎ±
Ġá¼ĢÎ½Î¸ Î¿ÏģÎ¹ÏĥÎ¼
Î¿Î»á½¹Î³ Î·ÏĦÎ±Î¹
Ġá¼ĲÎ´á½¹ Î¸Î·
Ġá½ĢÏĨÎ¸Î±Î» Î¼
ĠÏĦÎ¿Ïĥ Î¿á¿¦
Î¿ Î´
Ïģ ÎµÎ¹
Ïģ á¿·
Ïħ Î¼Î½
Ïħ ÏģÎ¹Îº
Î¸ á½µÎº
Ġá¼Ģ Î¾
Ïĩ ÎµÏĦÎ±Î¹
á½½ Î¼ÎµÎ¸Î±
ÏĦÎ¿ á½·
á¿¦ ÏĤ
Î»Î± Î³
ĠÏĥÏĦ á½¹Î¼Î±
ĠÏĩÏģ á¿ĨÏĥÎ¸Î±Î¹
á½³Ïĩ ÏģÎ¹
ĠÏĦÎ¹Î½ á½¸ÏĤ
ĠÎĺÎµ á½¹ÏĤ
Ġá¼ĳÎ±Ïħ ÏĦá¿¶Î½
ĠÏĢÏģá¿¶ ÏĦÎ¿ÏĤ
á½¹Ïģ Î¿ÏħÏĤ
ĠÏĢá½³ ÏģÎ±ÏĤ
ÎºÎ»Î· Î¼Î±
ĠÏĢá½±Ïĥ ÏĩÎµÎ¹Î½
Î¿á½Ĳ Îº
ĠÎ²Î¿Ïħ Î²
ÏĥÏĨ Î±Î»
Ġá¼ĢÎ½ÏĦá½· Î»Î·ÏĪÎ¹ÏĤ
ĠÏĢÎ»Îµá½· ÏĥÏĦ
Ġá¼ĲÎ¼Î² á½±Î»Î»
Ġá¼ĲÏĩÏģ á¿ĨÎ½
ĠÏĥÏħÎ»Î»Î¿Î³Î¹ÏĥÎ¼ á½¸ÏĤ
ĠÎĽÎ±ÎºÎµÎ´ Î±Î¹Î¼Î¿Î½
Ġá¼ĢÏĥá½» ÏĥÏĦÎ±
ÏĦ Îµá¿ĸÎ½
Î¿ ÎµÎ¹Î´
ÏĢ ÎµÎ¹Î½
ÏĢ Î¿Ïģ
Îº á½·
Î· ÏĦÎ¿Î½
ĠÏĢ á¾¶ÏĤ
ĠÏĢ ÏħÎº
á½³ ÎµÎ¹Î½
ĠÎ´ á½µÎ¼
ĠÎ´ Î¿á½»Î»
ÏĨ ÏīÎ½
ĠÏĢÏģ Î¿ÏĤ
Ġá¼Ķ ÏĥÏī
Î¼á½³Î½ Î±ÏĤ
ĠÏĢÎ± Ïĩ
Î¿á¿ĸ Î¿Î½
Ġá¼ĳ ÏģÎ¼Î·Î½
Î»Î± Îº
ÏĦá½³ ÏĦÎ±
ĠÏĥÏĦ Î¿Î¹Ïĩ
ĠÎµá¼´ ÏĢ
Î´Îµ Î»ÏĨ
Ïģá½± ÏĦÎ¿ÏħÏĤ
ĠÏĥÏħÎ½ ÎµÏĥÏĦ
Ġá¼ķ ÏĢÎµÏĦÎ±Î¹
ĠÎ»á½¹Î³ Î¿Î¹ÏĤ
Ġá½¥ ÏĤ
ĠÏĨá½» ÏĥÎ¹ÏĤ
ĠÎ¸Îµ ÏīÏģ
ĠÎ¸Îµ ÏĥÏĢ
ĠÎµá½ ķ
ĠÏĢÎµÏĢ Î¿á½·
Ġá½ķ Î»Î·Î½
ĠÏĨÎ± ÏĥÎ¹Î½
á½·Î¶ ÏīÎ½
ĠÏĥÏĩ á½³
Î²Î¿Î» Î¿Î½
Î´Îµá½· ÎºÎ½Ïħ
ĠÏĨÏīÎ½ á½´Î½
ĠÎ¸á½± Î»Î±Ïĥ
ĠÏĥÏĦÎ¿ÏĩÎ±ÏĥÎ¼ á½¸ÏĤ
Ġá¼ĢÎ»Î»á½µÎ» Î¿Î¹ÏĤ
ĠÏĢá½· ÏĥÏĦÎ¹Î½
ĠÏĥÏĦá½±Ïĥ ÎµÎ¹ÏĤ
ĠÏĦá½³ÏĩÎ½ Î·ÏĤ
ĠÎ´Î¹á½±Î½ Î¿Î¹Î±Î½
Î¿á½ķ ÏĦÏī
Ġá¼ĢÎ½ÏĦÎ¹Î»á½µÏĪ ÎµÏīÏĤ
ĠÎ´Î¹ÎºÎ±Î¹ Î¿Ïĥá½»Î½
ĠÎ£Î± ÏĦÎ±Î½
ĠÏĢÎ±Î½Î·Î³ ÏħÏģÎ¹Îº
Îµ ÏĦÎµ
á¿ ¬
á¿ Ħ
Ïĥ Ïħ
Ïĥ ÏĥÎ±
á½³ ÎµÏĥÎ¸Î±Î¹
Î³ ÎµÎ½
Î¸ ÎµÎ¹Î±Î½
ĠÎ¼ Î¿Ïģá½·
ĠÎ±á½ĲÏĦ Î¿á½¶
Ġá½ģ Ïģá½·
Ġá¼¡ Î³
ÏĦÎµ ÏĦÎ±
ÏĥÎ¸ á¿ĩ
ÏĥÎ¸ Î±á½·
ÎºÎ± á½·
Îµá½· Î·
á¿¶ ÏĥÎ¹
ĠÏĦÎ¿ á½Ĳ
ĠÎ² Î¿á½»
ĠÎ² ÎµÎ²
á½±Î½ Î±Î¹
ÏĪ Î±
ÏĪ Î±Î¹
Î¿Ïģ Î¼
Î¿Ïģ ÏĨ
ĠÎ¶ á¿¶Î½
Ġá¼ķ Î»Îº
ĠÏĢá½±Î½ Ïħ
ÏĦÏģ Î¿Î½
Î·Îº á½³Î½Î±Î¹
Î³Î½ á½»
ĠÏĢá½¹ Î´Î±
Î¸á½³ ÏĦÎ¿Ïħ
Î·Ïģ á½»
ĠÏĢá½³ Î¼ÏĢ
ĠÎ½á½¹Î¼ Î¿Ïħ
ĠÎ³ÎµÎ³ Î¿Î½
ĠÎ¸ÎµÏģ Î±ÏĢ
ĠÎµá¼°ÏģÎ· Î¼á½³Î½Î¿Î½
Î»Î·ÏĪ Î¹Î½
ĠÏĥÏī ÏĦÎ·Ïģá½·
ĠÎ³ÏģÎ±Î¼ Î¼
ĠÏĦá½» Ïĩ
Ġá¼Ļ Î»Î»
Ġá¼ĢÏĦ á½¹Î¼
ĠÏĢÎ¿Î´ á½¸ÏĤ
ĠÎ´á½µ ÏĢÎ¿ÏĦÎµ
Î¿á½ķ ÏĦÏīÏĤ
Ġá¼ĶÎ¸ Î½Î·
ĠÏĢÎ»Îµá½·Î¿Î½ Î±
ĠÏĦá½³ÏĦÎ± ÏģÏĦÎ¿Î½
ĠÎ³á½³Î³Î¿Î½ ÎµÎ½
Ġá¼ĲÏĢÎ¹Î´á½³Ïĩ ÎµÏĦÎ±Î¹
ĠÎºÏī Î»á½»
ĠÎ¿á½ĲÎ´á½³ ÏĢÎ¿ÏĦÎµ
ĠÎºá½³Ïĩ ÏģÎ·ÏĦÎ±Î¹
Ġá¼ĢÎ´á½·Îº Î·Î¼Î±
ĠÎ¸ÎµÏĥÏĢ á½³
ÏĦ á¿ĩ
ÏĦ ÏĦÎ¿Ïħ
Ïĥ Î¿ÏĨ
Îº ÏĦÎ¿Î½
Î· ÏĥÎµÎ½
ĠÏĢ ÏĦá½³Ïģ
á½· Î»Î¹
ĠÎºÎ± Î¸Î·
Ġá¼Ĳ Î¼ÏĨ
Î¸ á½±
ĠÎ¼ á½³ÏĩÏģÎ¹
Î´ Î±á½·
Î´ ÏīÏģ
Ġá¼ĲÎ½ Î½
Ġá¼Ķ ÏĢÎµ
Ġá½ħ Î¸ÎµÎ½
Î½Î± ÏĦÎ¿
Î¹Îº Î¿á¿ĸÏĤ
Î¶ ÎµÏĥÎ¸Î±Î¹
ÏĪ ÎµÎ¹
Î»Îµ Îº
Ġá½Ģ Î¾
ĠÏĢÎ±Ïģ á½±Î³
Ġá¼ĲÎ¾ Î±ÏģÎ¸Ïģ
ĠÏĥÏĦ ÎµÏģ
Î±Î³ ÏīÎ³
ĠÎºÎ±ÏĦÎ± Îº
Ġá¼° Î´
ÏĢÎµÏģ Î¹
Î¸Î± Ïģ
ÏĦá½³Ïģ á¿³
Î»á½³ Î¿ÏħÏĤ
ÏģÎµ ÏĢ
ĠÎºÎ±Î¸ Î¿Î»
ÏģÎ¹ÏĥÏĦ Î¿Î½
á¼Ĳ ÏĢÎµá½¶
ĠÎ»á½¹Î³ ÏīÎ½
ĠÏĦÎ¹Î½ á½²ÏĤ
Î´á½· Î±ÏĤ
Ġá¼ĢÎº ÏģÎ¿
Ġá¼ĢÎº á½¹Î»Î¿Ïħ
ÏģÎ±ÏĨ Î¿ÏĤ
ĠÎºÎ±ÏĦÎ·Î³ Î¿ÏģÎ¹á¿¶Î½
Î¼Î¹ Î¿Î½
Ġá½ķ Î´ÏīÏģ
ĠÎ¼á½³ Î»Î»Î¿Î½
ĠÎ»Î± Î¼ÏĢ
Î²Î± á½·Î½
ĠÎ¶Î·ÏĦ á½µÎ¼Î±ÏĦÎ¿ÏĤ
ĠÏĢá½³ ÏĢ
ĠÎ²Î±ÏĥÎ¹ Î»Îµá½·
ĠÎ³ÎµÎ³ ÎµÎ½
ĠÏĥÏĦÎ¿ÏĩÎ±ÏĥÎ¼ Î¿á¿¦
ÏĬ Îº
Ġá¼´Î´Î¹ Î±
á½µÎ³ Î¿Ïģ
ĠÏĥÏĦá½±Ïĥ ÎµÏīÎ½
Ġá¼ĶÏģÎ³ Î±
Î»Î±Î¼Î²á½±Î½ ÎµÎ¹
Ġá½ĢÏĥÏĦ á¿¶Î½
Ġá¼Ļ ÏģÎ¼
á¼Ħ Î»Î»
ĠÎ´Î¹á½±Î½ Î¿Î¹Î±
ĠÎ³á½·Î³Î½ ÎµÏĦÎ±Î¹
ĠÏĢÎ±ÏĦÏģ á½¸ÏĤ
ĠÎ¶Î· ÏĦÎ·
Ġá¼¤Îº Î¿ÏħÏĥÎ±
Î ķ
Ï ĭ
Ġ á¿¬
á½ ¥
Îµ ÎºÎ±
Ïĥ Î¼á½³Î½Î¿Î½
ĠÎº á½»ÏģÎ¹
Îº á½³
ĠÏĢ ÎµÎ½
ĠÏĢ ÏĦÎµÏģ
Î¿á¿ ¤á¿¥
ĠÎ¼ Îµá¿ĸ
Ïĩ Î¸Î·
ĠÏĢÏģ Ïī
ĠÎ´Î¹ á½¹ÏĦÎ¹
ĠÎ» Îµá½·
Ġá¼ĢÎ½ Î±Î»
á¾ ´
Ġá¼ĢÏĢ ÎµÎ¹
ĠÎ¿á¼ ´
á¿¶ Î´ÎµÏĤ
ĠÏĢÏģÎ¿ Î²Î¿Î»
ĠÎ¸ Î±Ïħ
Ġá½ĳÏĢ Î¿Î¼
Ġá¼ĳ ÏĥÏĦ
Ġá¼ķ Î½Î±
Ġá¼ĢÎº Î¿Î»Î¿Ïħ
ĠÎºÎ±ÏĦÎ·Î³ á½¹ÏģÎ¿Ïħ
ĠÎ±á½ ĹÏĦÎ±Î¹
Ġá¼ĳÎ±Ïħ ÏĦÎ¿á½ºÏĤ
ĠÎºÎ±ÏĦ á½µÎ³Î¿Ïģ
ĠÎĶ Î¹á½±
á¿ĸÎ½ Î¿ÏĤ
á½ħ ÏĦÎ±Î½
Ġá¼ĪÏģÎ¹ÏĥÏĦÎ¿ÏĦá½³ Î»Î¿ÏħÏĤ
ĠÎºÎ±ÏĦÎ·Î³Î¿Ïģá½· Î±
ĠÎºÎ±ÏĦÎ·Î³Î¿Ïģá½· Î±Î½
Î»á½³Î³ ÎµÏĦÎ±Î¹
Ġá½ĢÎ½á½¹ Î¼Î±ÏĦÎ¹
ĠÎ´á½¹ Î¾Î±
Ġá¼°Î± Î¼Î²
á½µÏĥÎ±Î½ ÏĦÎµÏĤ
ĠÎºÎ±ÏĦÎ±ÏĥÎºÎµÏħá½±Î¶ ÎµÎ¹
ĠÏĦÎ±á½ĲÏĦ á½¸Î½
ĠÎµá¼´ÏĢÏī Î¼ÎµÎ½
Ġá¼ĢÎ¼ÏĨá½¹ ÏĦÎµÏģÎ±
ĠÏĦÎµÏĩÎ½Î¹Îº á½¸ÏĤ
á½³ÏĥÏĦÎ·Îº Îµ
ĠÎ³ÏħÎ½Î±á¿ĸ ÎºÎ±
ĠÏĥÏħÎ¼ÏĨá½³Ïģ Î¿Î½
ĠÏĢÏģÎ¿ÎµÎ¹ ÏģÎ·
Ġá½ĳÏĪ Î·Î»
ĠÎºÏīÎ¼ á¿³
ĠÎ±á¼°Î½á½· ÏĦÏĦÎµÏĦÎ±Î¹
ĠÎ²ÏħÏģ Ïĥ
á¼ ľ
Ïģ á½±Î½
Ïģ á½¹ÏĤ
ĠÏĦ ÏħÏĨ
Îº ÎµÎ¹Î½
ĠÏĢ Ïħ
Ïī ÏĥÏĦ
Î¸ Î¹
ĠÎ¼ Î±Î½
Î´ Î·Î½
á½» ÏĤ
ĠÏĢÏģ Î±
Îµá¿ĸ ÏĦÎ¿
Ġá¼Ķ á¿ĥ
Ġá¼ĲÏĢ Î±Î¹Î½
ĠÎ» ÎµÎ¹
Ġá¼ĢÏĢ á½³
ĠÏĢÎ± ÏĦá½³ÏģÎ±
Îµá½· Î¿Î¹ÏĤ
á½º Î½
ĠÏĢÏģÎ¿ ÎºÎµÎ¹
Î¹Îº á½´
ĠÏĢÎµÏģ á½·
Ġá¼ĳ Ïī
ĠÏĦÎµ Î»Îµá½·
á½±Ïĥ ÏĦÎ±ÏĥÎ¹Î½
Ġá¼ĶÏĩ Î¿ÏħÏĥÎ±
ĠÎ´Î¹Î± Î²Î¿Î»
ĠÏĩÏģ Îµá½·Î±Î½
Îµá½» ÎµÎ¹
Ġá¼ĦÎ»Î» Î·Î»Î±
Î»á½³ ÏīÏĤ
Ġá¼¡Î¼ á½³ÏģÎ±ÏĤ
ĠÏĢÏģÎ¿Ïĥ Î·Î³
ĠÏĢÎ» á½±
Ġá¼¦ Î»
á½³Ïĥ á¿ĥ
Î¹ÏĥÏĦ Î¿Î½
Ġá¼¸ Î¿Ïħ
Ġá¼¸ Î·Ïĥ
ĠÏĦÏģÎ¹ á¿¶Î½
Ġá¼ĲÎ¼ Î¿á¿¦
ĠÏĥÏħÎ»Î» Î±Î²
ĠÏĥÏħÎ¼Î²ÎµÎ²Î·Îº á½¸ÏĤ
ĠÏĨÎ¹Î» á½¹
ĠÏĢá½¹Î»Îµ Î¼Î¿Î½
ĠÎ±á½Ĳ Ïĩ
ĠÏĦá½³Ïĩ Î½Î·
ĠÎ»Î¿Î¹ÏĢ á½¸Î½
ĠÏĢÎ¿Î»Î¹ ÏĦÎµ
Ġá¼ĢÎ³Î±Î¸ á½¸Î½
ÏĦÏĦÎµ ÏĥÎ¸Î±Î¹
Ġá½ĢÏĥÏĦá½³ Î¿Î½
ĠÎºá½» Îº
Ġá¼ĶÏģÎ³ Î¿Î½
Ġá¼ĶÎ³ ÏģÎ±ÏĪ
Ġá¼´Ïĥ ÏīÏĤ
Ġá¼ĪÎ¸ Î·Î½
ĠÎ²Î±ÏĥÎ¹Î» Îµá¿ĸÏĤ
ĠÎµá½ĲÎ±Î³Î³ÎµÎ» Î¹ÏĥÏĦ
ĠÎºÎ»á½³ ÏĢ
Ġá¼°Î±ÏĦ ÏģÎ¹Îº
ĠÎ¼á¿Ĩ ÎºÎ¿ÏĤ
Ġá½¡Î¼ Î¿Î»á½¹Î³Î·ÏĦÎ±Î¹
ĠÎ ·
á¼ ¦
Ïģ Î·Î½
ĠÎº ÎµÏģ
Î· ÏĥÎµ
Î¸ á¿ĥ
ĠÎ¼ á½±Î³
ĠÎ³ Î¹Î³Î½
Î±Î¹ Î¼
Ġá¼ĲÎ½ á½·Î¿
Ġá¼Ķ ÏĥÏĩ
Ġá¼ĢÎ½ Î±Îº
Ġá¼ĢÎ½ Î±Î¹Ïģ
ÏĦÎµ ÏĦÎ±Î¹
ĠÏĥÏħ Î¼
Ġá¼ĲÎº Îº
Î¹Îº á¿ĨÏĤ
ĠÎ»á½³Î³ Î¿ÏħÏĥÎ¹Î½
Ïĥá½· Î¿Î½
Ġá¼ĶÏĩ Î¿Î½ÏĦÎµÏĤ
Î¸Î· ÏĥÎ¹
ÏĥÎµ ÏīÎ½
ĠÎ´á½³ Î¿Î½
ĠÎ¿á¼· á½¹Î½
ĠÎĺÎµ á½¸Î½
ÏĦÏģ á½³
ĠÏĪ Îµá½»
á½½Î½ ÏīÎ½
á½»Î½ Î±Î¹
Î¿ÏĢ Î¿Î¹
ĠÎĶ á¿Ĩ
Î¼Î¹ ÏĥÏĦ
Î¾Î± ÏĦÎ¿
ĠÏĢÏģá½¹ÏĥÏī ÏĢÎ±
á½µÏĥÏī Î¼ÎµÎ½
ĠÎµá½ĳ Ïģ
ĠÎµá½ĲÎ¸ Ïħ
Ġá¼ģÎ¼Î±Ïģ ÏĦÏī
Î´Î¿Îº Î¹Î¼
Ġá¼ĲÏĢÎ¹ÏĨ á½±Î½
ĠÎ´ÏħÎ½á½±Î¼ ÎµÏīÏĤ
Ġá¼ĦÎ³Î³ÎµÎ» Î¿ÏĤ
Ġá¼ĪÎ¸ á½µÎ½
Ġá¼ĲÎ¼ÏĢá½· ÏĢÏĦÎµÎ¹
ĠÏĥÏĦá½·Ïĩ Î¿Î¹
Ġá¼ĢÏģÎ½ á½·Î¿Ïħ
ĠÎ¸Î±Î½á½± ÏĦÎ¿Ïħ
Ġá¼ĢÎ´ ÏħÎ½Î±
ĠÏĦÎ¿ÏĥÎ¿á¿¦ ÏĦÎ¿Î½
Ġá¼ĲÎ½á½·Î¿ ÏĦÎµ
ÏĦ ÏħÏĩ
Î½ Î¿Î¼
Î± á½»
Î± á½ĲÏĦ
Î¿ á¼
ĠÏĦ á¼ĢÎ½
ÏĢ ÏĦÎ¿Î½
Î» á½½
ĠÎº Î¹
ĠÎº ÏģÎ±
Îº Î¿Î»
Îº ÎµÏĤ
Î· ÏĦÎ±
ĠÏĢ Îµ
á½³ ÏĦÎ±
ĠÎ´ Îµá¿ĸÎ½
á½± Î´Î±ÏĤ
Î¸ Ïħ
ĠÎ¼ á½±
ÏĨ Î¸Î·
Î¿á¿¦ ÏĥÎ¸Î±Î¹
á½» ÏīÎ½
ÏĦÎ¹ Î±
Ġá¼Ķ Î¸Î¿ÏĤ
ĠÎ» Î¿Î¹
ĠÏĨ Î±Ïģ
á¿¶Î½ Î±Î¹
Ġá¼ĲÎº Î»Îµá½·
Î½Î± ÏĦÎ¿ÏĤ
Î¹Îº Î¿á½¶
Ġá¼ĳ ÏĦÎµÏģ
Î¸Î· ÏĥÎ¹Î½
ĠÎºÎ±ÏĦÎ± ÏĢ
ÏģÎ¿ Ïĥ
Ġá¼ĦÎ»Î» Î·Î½
Î±Î½ÏĦá½· Î±
ĠÏĢÎ¿Î»Î» Î¿á½¶
ĠÎ³á½³Î½ Î·
Î³Î½ á½½Î¼
á½·Î¶ ÎµÎ¹
ĠÎºÎ±Îº á½¸Î½
Î´Ïī ÎºÎµÎ½
Îµá¿¦ Î´Î¿ÏĤ
Ġá¼ĦÎ½Ïī Î¸ÎµÎ½
ĠÎ½Î¿Î¼ Î¿
Ġá¼ĲÎºÎµá½·Î½ Î¿Ïħ
ĠÏĥá½½ Î¼Î±ÏĦÎ¹
ÏīÎ½á½»Î¼ ÏīÎ½
Ġá¼ĲÎ³á½³Î½ Î¿Î½ÏĦÎ¿
ĠÏĨÎ¸ Î¿Ïģ
ĠÎºÎµÏĨÎ±Î»Î± á½·ÏīÎ½
Î¼ÎµÏĦÏģ Î¿Î¹
ĠÎ¸Î·Ïģá½· Î¿Î½
Ġá¼ĢÎ½ÏĦÎ¹Î»á½µÏĪ ÎµÎ¹
ÏĢÎ±Î¹ Î¾Îµ
ĠÎ¼Î±ÏģÏĦ ÏħÏģ
ĠÏĥÏĦá½³Ïģ Î·ÏĥÎ¹ÏĤ
ĠÎļÎ± ÏĦÎ·Î³
ĠÎ±á½Ķ Î¾
ĠÏĢÎ±Î½ÏĦÎ± ÏĩÎ¿á¿¦
Î¼Î¹ÏĥÏĦ Î¿Îº
Î Ł
Î± Î¼
Î± á½·Î½
ĠÏĦ ÏģÎ¿
Ïĥ á½»
Î¼ á½·
ĠÎº Î»Î·
ĠÎº ÏģÎµ
ĠÏĢ Î·Î»
á½³ ÏĦÏī
Ïī ÏģÎ·
ĠÎ´ Î·Î¼Î±
Ġá¼Ģ ÏĥÏĢ
ÏĨ Ïħ
ÏĨ ÎµÏģ
ÎµÎ¹ Îº
Ġá¼ĲÎ½ ÏĦÎµ
ĠÎ±á½ĲÏĦ Î¿á½»ÏĤ
ĠÎ» ÏħÏĩ
ĠÎµá¼° Ïĥá½·Î½
ÏģÎ¹ Î¼
Ġá½¡ ÏģÎ¹Ïĥ
ĠÏĢÏģÎ¿ ÏĦÎµ
ĠÎ² Ïģ
ĠÎ½ ÎµÏĨ
ĠÎ½ á½·Îº
ÏĥÎ± ÏĦÎ¿
Ġá¼ĲÏĢÎ¹ Î³ÏģÎ±ÏĨ
ĠÎºÎ±ÏĦÎ± ÏĥÏĦ
Ġá¼° ÏĩÎ¸
ÏĢÎµÏģ á½¶
Ġá¼ĢÎ½ÏĦÎ¹ Î½Î¿Î¼
Î±á½· ÏģÎµ
ĠÏĪ Îµá¿¦Î´Î¿ÏĤ
ĠÎĶ Î¹Î±
ÏĢÎµ Ïĥ
Ġá½ĢÎ½ Î¿Î¼Î±
ĠÎ¶Î·ÏĦ Î¿á¿¦Î¼ÎµÎ½
ĠÏĦá½³ Î¼Î½
Ġá¼ĢÎ½Î±Î³ Îºá½±Î¶
Ġá¼ĳÏĦá½³Ïģ Î±Î½
ĠÏĨÏīÎ½ á¿ĨÏĤ
ĠÎ²Î±ÏĥÎ¹ Î»Îµá½»
ĠÏĢá¾¶ ÏĥÎ±
Ġá¼ĲÏĢÎ¹ÏĥÏĦ Î·ÏĦ
ÏĨÎ± ÏĥÎ¹ÏĤ
ÏĦá½µ ÏģÎ¹Î¿Î½
ĠÎ´Î¹ÎºÎ± á½·Î¿Ïħ
Î¤ á½¸
Ġá¼ĢÎ³Î³á½³Î» Î¿ÏħÏĤ
ĠÏĥÏħÎ³ Î³Î½á½½Î¼
ĠÎ´ÎµÏħ ÏĦá½³ÏģÎ±
ĠÎ¿á¼¶ Î´ÎµÎ½
ĠÏĢÎ±Î¹ Î´á½·
ĠÎ¼á½³Î» Î¹
ĠÏĩÎµÎ¹Ïģ á½¶
Ġá¼ĢÏģÎ¹ÏĥÏĦ ÎµÏģ
Ġá¼ĲÎ¾Îµ ÏĦá½±
ÏģÎ±ÏĢ ÏĦÎ±Î¹
ĠÎ³ÎµÎ³ÏģÎ±Î¼ Î¼á½³Î½Î¿Î½
ĠÎ´Î¹Î´á½±Ïĥ ÎºÎµÎ¹
Ġá¼ģÏģÎ¼á½¹ Î¶ÎµÎ¹
Ġá¼ĲÏĢÎ¿á½·Î· ÏĥÎµÎ½
ĠÎ´á½½ Î´ÎµÎºÎ±
ĠÎ¼Î±ÏģÏĦ ÏħÏģá½·
ĠÏĨá½¹Î½ Î¿Ïħ
ĠÎ¿á½ĲÏĥÎ¹ á¿¶Î½
Ġá¼¥Î»Î¹ Î¿ÏĤ
ĠÏĥÏĨÏģÎ±Î³ á¿ĸ
ĠÎ¼Îµá¿ĸ Î¶Î¿Î½
ĠÎ¼á½±Î³ ÎµÎ¹Ïģ
ĠÏĦá¼ĢÎ½ Î±Î½ÏĦá½·Î±
ĠÎ´Î·Î¼Î± Î³ÏīÎ³
ĠÎĶÎ¹Î± Î²
Î ľ
Î½ Î¹
Îµ Î¾
Ġá¼ ī
Î» Î¿Î¹
Î¼ ÎµÎ¹Î½
ĠÎº Î¿Î¼
ĠÎº á½³ÏģÎ±
Îº á½³Î½Î±Î¹
Ïħ ÏĤ
Ïħ ÏĥÏĦ
Ġá½ Ī
ĠÎ´ Î¿á¿¦
ĠÎ´ Î±á½·
ĠÎ´ ÎµÎº
Î¸ á½±Î½
Î¸ Î¹ÏĤ
Î¸ á½³ÏĥÎµÎ¹
Ġá¼Ģ ÏģÎ³
á½» Ïĥ
Î¼Î± Ïĩ
Î² Î¿Î½
á½½ Î¸Î±
ÏĥÎ¸ á½·
ÎºÎ± ÏĦá½°
Ġá¼ĢÏĢ ÎµÎº
ĠÏĢÎ± Î¸Î·
ĠÏĢÏģÎ¿ ÏĥÎ±
Î¿Î» Î¹
ĠÏĢÎµÏģ Î¹Îº
Ġá¼ĳ Î»Îº
Î¿Ïģ Îº
ÏĥÎ± ÏĨ
ĠÎ¿á½ĸ ÏĥÎ±Î½
Ġá¼ĲÏĢÎ¹ ÏĢ
ÏĦÎ¹Îº á½´Î½
Ġá¿¥ á½³
Ïģá½± Î¼
Ġá¼° Î³Î½á½»
ĠÏĥÏħÎ½ á½³Ïĩ
ĠÏĢá½±Î½ ÏĦÎ±ÏĤ
Î»á½· Î±Î½
Î´á½· ÏīÏĤ
Ġá¼´ ÏĥÏĩ
Ġá¼ĢÏģÏĩ á½´
Î»á½µ Î¸Î·
Ġá¼ĶÎ½ Î¸ÎµÎ½
á½·Î¶ ÎµÎ¹Î½
ĠÎ´á½· Î´Ïī
ĠÏĦÎ¿á½»ÏĦ Î¿ÏħÏĤ
Î²Î¿Î» Î¿ÏĤ
ÎºÎ»Î· Î¼Î±ÏĦÎ¹Îº
ĠÎ¶á½µÏĦÎ· ÏĥÎ¹Î½
ĠÏĥÏħÎ¼Î²ÎµÎ²Î·Îº á½¹ÏĤ
ĠÎ¼Ïħ ÏĥÏĦ
ÏĥÏĥ á½±ÏģÏīÎ½
ĠÎ»ÎµÎ³ á½¹Î¼ÎµÎ½Î±
ĠÎ¼Î± ÏĥÏĩá½±
ĠÏĨÎµá½»Î³ ÏīÎ½
Ġá½ĢÏĥÏĦá½³ Î±
ÏĥÎ¸Îµ á½¶ÏĤ
Ġá¼ĲÎºÎµá¿ĸÎ½ Î¿
Ġá¼ĲÎ½ÎµÏģÎ³ Îµá½·á¾³
Ġá¿¥Î·ÏĦÎ¿ÏģÎ¹Îº á¿ĨÏĤ
ĠÏĩÎµá¿ĸ ÏģÎ±
Ġá½ģÎ´ Î¿Î¹ÏĢ
á½·ÏĥÏĦÎ± ÏĦÎ±Î¹
ĠÏĥÎ±Ïģ Îº
á¿ĨÎ» Î¸ÎµÎ½
ĠÏĢÎµá½· Î¸
ĠÏĦÏħÏģÎ±Î½ Î½
ĠÎºÎµÎ»Îµá½» ÎµÎ¹
ĠÎ³Î» ÏħÎº
ĠÏĥÏĦá½± ÏĥÎ¹ÏĤ
ĠÏĥÏħÎº Î¿ÏĨ
ĠÎ¸á½±Î»Î±Ïĥ ÏĥÎ±Î½
ĠÎ²Î¿á½» Î»Î·
ĠÎ ¹
á¼ ©
Îµ á½ºÏĤ
ÏĢ ÏĦÎ¿Ïħ
ĠÎº ÎµÎ½
Ïħ Î¼ÏĨ
Ġá¼Ĳ Î´á½·
Ġá¼Ģ á½¹
Ġá¼Ģ Î»á½µ
Ïĩ á¿¶ÏĤ
Î¿Ïħ ÏĥÎ±Î¹
ÏīÎ½ á½·
ÏĥÎ¹ Î±ÏĥÏĦ
á½µ ÎºÎµÎ¹
ĠÏĥ ÏĦÎ±
ÏĦÎ¹ ÎºÎ±á½¶
á½³Î½ Î±
ĠÎ´Î¹ Î·Î³
ĠÎ» Ïħ
ĠÎµá¼° Ïĥá½·
Î½Î± Î³
ĠÎ¸ Îµá¿ĸÎ¿Î½
Î¶ á½µÏĦÎ·
ĠÎ½ Îµá¿¦
Ġá½Ģ Î´
ĠÏĦÎµ ÏĥÏĥá½±ÏģÏīÎ½
ĠÏĢÎ±Ïģ Î¿Ïħ
ĠÏĦÎ± á¿¦
ÏĦÎµÏģ Î±Î¹
Ġá¼ĲÏĢÎ¹ Î´á½³
ĠÎļ ÏģÎ±ÏĦ
ĠÎºÎ±Î¸ á½¼ÏĤ
ÏĥÏĩ Î·
ĠÏĢÎ±ÏģÎ± ÏĢ
Ġá¼ĢÏĢÎ¿ Î´
Ġá¼ĢÏĢÎ¿ ÎºÎ±Î»
ĠÎĺÎµ Î¼Î¹ÏĥÏĦÎ¿Îº
Ġá¼µ Î½
Ġá¼ĢÏĨ Î±Î½
ĠÎ¼ÎµÏĦÎ± Î»á½µÏĪ
Ġá¼ĢÏģÏĩ Î±á½·
ĠÏĢÎ±Î½ ÏĦÎµÎ»
ĠÎºÎµÏĨÎ±Î» á½°ÏĤ
Ġá¼ĦÏģ Î¸ÏģÎ±
á¼Ķ Î½
ÏĥÏĦá½³ ÏģÎ±
ĠÎľ Î¹
Î½á½· ÎºÎ±
ĠĠ Ġ
Ġá¼ĦÎ½Î¸ÏģÏī ÏĢÎ¿Î¹
ĠÎµá¼°ÏģÎ· Î¼á½³Î½Î±
ĠÎµá¼°Î´ á¿¶Î½
ĠÎ»Î¿Î¹ÏĢ á¿¶Î½
Ġá¼¹ ÎµÏģ
ĠÏħá¼± á½¸Î½
ĠÏĥÎ±ÏĨ á¿¶ÏĤ
Ġá¼ĲÎºÎºÎ»Î· Ïĥá½·Î±ÏĤ
ĠÎ²Î¿ÏħÎ» á½¹Î¼ÎµÎ½Î¿ÏĤ
Î±Î»Î» Î±Î³
ĠÎĳ á¼´
Ġá¼ĲÎ¾Îµ ÏĦÎ±
ĠÎ´Î¹Î±Î¹ ÏģÎµ
ĠÎ´Î¹Î±Î¹ Ïģá½³ÏĥÎµÏīÏĤ
ĠÎ´Îµá½·ÎºÎ½Ïħ ÏĥÎ¹Î½
ĠÎ¾á½»Î» Î¿Ïħ
ĠÎ¼Îµá½· Î¶Î¿Î½
Ġá¼ĲÎ½Î±Î½ ÏĦÎ¹
ĠÎĿ Î¹Îº
ĠÏĥÏħÎ¼Î²Î± á½·Î½ÎµÎ¹
Ġá¼ĢÎ½ÏĦÎµÎ³ ÎºÎ»Î·Î¼Î±ÏĦÎ¹Îº
ĠÎ¸Î±Î»á½±Ïĥ ÏĥÎ·ÏĤ
Î¿á½ĲÎ´ á½²
ĠÏĢÎµÏģÎ¹ÏĦÏĦ á½¸Î½
Ġá¼¸Ïī á½±Î½Î½
ĠÎ²Î¿ÏħÎ² á¿¶Î½Î±
Ġá¼ĢÎºÏģÎ¿ Î±
á½¥ ÏĥÏĢÎµÏģ
ĠÏĦÏħÏĨ Î»
Î½ Î¿Î½
Î½ á¿¦Î½
Î½ Î¿Î¹Î±Î½
Ïģ á¾³
Î» á¿ĥ
Î¼ Î·Î½
ĠÎº ÏĦá½·
ĠÎºÎ± ÏĦÎ¿Î¹
Ïī Î¼á½³Î½Î¿Î½
Î³ Î±Ïģ
á½± Î»Îµ
ÏīÎ½ ÏĦÎ±Î¹
á½µ Î¼Î±ÏĥÎ¹
Ġá¼Ķ Î»Î±Î²
Î² á½±
ĠÎ» á½·Î±Î½
Ġá¼¡ Î»á½·
ÏģÎ¹ Î¿ÏĤ
ÏģÎ¹ Î¶
á½¹Î½ Ïħ
á½¹Î½ ÏĦÎ±ÏĤ
ÎºÎ± á¿ĸÏĤ
ĠÏĩ ÎµÏģ
Ġá½ĳ Î¼á¿¶Î½
ĠÏĦÎ¿ á½Ķ
ĠÏĢÏģÎ¿ ÏĦ
ĠÏĢÏģÎ¿ Îº
ĠÏĢÏģÎ¿ ÏĥÏĦ
á½·Î½ Î·ÏĤ
á½·Î½ Î¿Î½ÏĦÎ±Î¹
ĠÎ½ ÎµÎ½
ÏĪ ÎµÏīÏĤ
á½µÏĥ Î¿Î¼Î±Î¹
Î¿á½» Î¼ÎµÎ½Î¿Î¹
ĠÎµá¼´ ÏĢÎ¿Î¹
Îµá½» ÎµÏĦÎ±Î¹
Ġá¼ĦÎ»Î» á¿³
Ġá¼ĦÎ»Î» Î¿Î¹ÏĤ
Ġá¼Ī ÏģÏĩ
Î¿á¿¦Î½ ÏĦÎ¿
Ġá¼ķ ÏĦÎµÏģÎ±
Ġá¼ķ ÏĦÎµÏģÎ¿ÏĤ
ÎµÎ» Î¸Îµá¿ĸÎ½
ĠÎµá½Ĳ Ïĩ
Ġá¼ĢÎ½ÏĦÎ¹ Î´Î¹
Ġá¼ĢÎº Î¿Ïħ
ĠÎ¼Î· Î´Îµ
ĠÏĢÎ¿Î» Ïħ
á½±Î¶ ÎµÎ¹
ĠÎºÎ¿Î¹ Î»
Ġá¼ĢÎ¼ÏĨ Î¹
Ġá¼± Î¼
Ġá¼± Î¼á½±
Ġá½ķ ÏĥÏĦÎµÏģÎ¿Î½
ÏħÎº Î»
Ġá¼ĢÎ½Î¸Ïģá½½ÏĢ Î¿Î¹ÏĤ
ĠÎľ Î±
Ġá¼°ÏĥÏĩ Ïħ
á½±Îº ÏģÎ¹
ĠÎ»Î¿Î³ Î¹Îºá½¸Î½
Ġá¼ĲÎºÎµá½·Î½ ÏīÎ½
Ġá¼ĢÎ³Î³á½³Î» Î¿Ïħ
ĠÎºÎ±ÏĦÎ·Î³Î¿Ïģ Îµá¿ĸÏĦÎ±Î¹
ĠÏħá¼± á½¸ÏĤ
ĠÏĢÏħÏģ á½¹ÏĤ
Ġá¼ĳÎ±ÏħÏĦ á¿·
ĠÎ¼á½³Î»Î» ÎµÎ¹
Ġá¼ĲÏĢÎ¹ÏĥÏĦá½µÎ¼ Î·ÏĤ
Ġá¼ĲÎºÎµá¿ĸÎ½ Î¿ÏĤ
ĠÎ¼ÎµÎ³á½± Î»Î·Î½
Ġá¼ĶÎ³ ÎºÎ»Î·Î¼Î±
ĠÎ´Î¹Î±Î½ Î¿á½·á¾³
ĠÎ¼Î¹ ÏĥÎ¸
ĠÎ³á½·Î³Î½ ÎµÏĥÎ¸Î±Î¹
Ġá¼ĶÎ¸ Î½
ĠÎ³á½³Î³Î¿Î½ Îµ
ĠÏĥÏĨÎ¿Î½Î´á½»Î» ÏīÎ½
ĠÎ´Î±ÎºÏĦá½»Î» Î¿ÏħÏĤ
ĠÎ±á½ĸ Î¸Î¹ÏĤ
ĠÎ¶á¿´ Î¿Ïħ
Ġá¼±ÎºÎ±Î½ á¿¶ÏĤ
ĠÎµá½ĲÏĦ ÎµÎ»
ĠÏĥÎºá½³ Î»Îµ
ĠÎ´á½·Îº Î·Î½
ĠÎ³ÎµÎ³ÎµÎ½ Î·
µ Î½
Ġ ÏĥÎ¹Î½
á½ Ģ
á½ į
Î¿ ÏĢÎ¿Î½
Î¹ Î´
ĠÏĦ Î¼
Ïĥ Î¼Î±
Ïĥ ÏĥÎ¿Î½
ÏĢ á¿¶ÏĤ
Î¼ ÎµÏģ
ĠÎº Ïģá½³
ĠÏĢ Î¹Îº
á½· ÏĥÎ±Î¹
á½· Î´ÏīÎ½
Ġá¼Ĳ ÏĥÏĨ
ĠÎ¼ Î±Î³
ĠÎ¼ Î½Î·
Î¿á¿¦ ÏĥÎ±Î½
ÏĥÏĦ Î¹ÏĤ
ĠÎ³ á¿Ĩ
Ġá¼Ķ ÏĢ
ÏģÎ¹ ÏĢá½·
Î¹Î½ Î¿Î½
ĠÏĥÏħ ÏĥÏĦÎ±
ĠÏĢÏģÎ¿ Î·Î³
á½³Ïģ Î³
á½·Î½ ÏīÎ½
ĠÎ»á½³Î³ Î¿ÏħÏĥÎ¹
ĠÏĦÎµ ÏĦÎ±Î³
Ïĥá½· á¿³
ÏĥÎµ ÏĥÎ¸Î±Î¹
ĠÎ¶ á¿¶
Î±Î» Î¿Î½
ÏĥÎ±Î½ ÏĦÎµÏĤ
ÎµÏĨ á½±Î½
ĠÎµá¼¶ ÏĩÎ¿Î½
ÏĦá½± Ïģ
ĠÎ±á¼° ÏĥÏĩ
Ġá¼ĢÎ³ Î½Î¿
á½µÎ½ Î·
Î·Îº ÎµÎ½
Î´Î· Î»
Ġá½ģÎ¼ á½½Î½ÏħÎ¼Î±
ĠÎ¼á½³Ïģ ÎµÎ¹
Î¸á½³Î½ Î±Î¹
Î¸á½³Î½ ÏĦÎµÏĤ
ĠÏĢÎ±Î½ ÏĦá½¶
ĠÎ¶Î·ÏĦ á¿ĨÏĥÎ±Î¹
Ġá¿¥Î·ÏĦ á¿·
Ġá¼ĵ Î¾
á½µÏĥÎ±Î½ ÏĦÎ±
ĠÎ²Î¹Î²Î»á½· Î¿Ïħ
ĠÏĦÏģá½¹ÏĢ á¿³
Ġá¼ĢÎ¼ÏĨÎ¿ ÏĦá½³ÏģÎ¿Î¹ÏĤ
ĠÏĩÎµÎ¹Ïģ á½¸ÏĤ
ĠÏĦÎµÏĦ Ïģá½±
Ġá¼ĢÏĢÎ¿Î»Î¿Î³ á½·Î±
Î¼ÎµÏĦÏģ Î¿Î½
ĠÏĢÏģÎ¿Ïĥá½³Î¸Î· ÎºÎµÎ½
ĠÏĥÏħÎ¼Î²Î¿Ïħ Î»Îµá½»
Ġá¼ĦÏĦÎ¿ ÏĢÎ¿Î½
ĠÎ³Î½á½½Î¼ Î·Î½
Ġá¼ĪÏĦ ÏĦÎ¹Îº
ĠÎĳá¼° ÏĥÏĩ
ĠÎ²Î»á½± Î²
ÏĦ ÏĦÏīÎ½
Ïģ á¾·
ĠÏĦ ÏħÏĩ
ĠÏĦ ÏģÎ±Ïĩ
Î» á¿³
Î¼ á½³
Î¼ Î·Ïģ
ĠÎº ÏħÏģ
ĠÎº ÎµÏĩ
ĠÎº ÏģÎ±ÏĦ
Îº Ïģá½±
Î· ÏĥÎ¹
Î· ÏĦÎµ
Ïī Î¸
Î¸ Î±Î¹
Ġá¼Ģ Î´Î¹
Ġá¼Ģ ÏĥÎµÎ²
Ġá¼Ģ Î´ÎµÎ»ÏĨ
ĠÎ¼ Î¿ÏħÏĥÎ¹
ĠÎ¼ Î±Î¸
ÏĨ Î¿Î½
Î¿Ïħ ÎºÎ¹
ÏĥÏĦ ÏģÎ±
Î¿Î¹ ÎµÎ½
á½µ ÏĥÎ¸Î·
ĠÏĢÏģ Ïħ
Ġá¼Ķ ÏĦÎ±
Ġá¼Ķ ÏĦÎ·
Ġá¼ĲÏĢ Î¿Î¹
Ġá½ħ Î¼ÏīÏĤ
Ġá¼¡ Î½á½·ÎºÎ±
Ġá¼ĢÎ½ á½±ÏĢ
á½¹Î½ ÎµÏħ
Î¹Î½ Î¿ÏħÎºÎ¹
Ġá¼ĢÏĢ Î±Î¹
Ïģá½· Î±Î½
Î»Î· ÏĢ
á¿¦ Î¸ÎµÎ½
Ġá¼ĳ ÏĦá½³ÏģÎ±
ĠÏĢÎ±Ïģ Î¿Î¹
á½±Ïĥ á¿ĥ
ĠÎ´Î¹Î± Î»Î±Î¼Î²á½±Î½ÎµÎ¹
Î¿Î³ á½³Î½
Ġá¿¥ á¾³
Î±Î» Î¹Î½
á½³Î» ÎµÎ¹
ÏĥÎ¼ á½¸Î½
Ġá¼ķ ÏīÏĤ
Î¿Î¼á½³Î½ á¿³
ĠÏĢÎ» á½±Î³
ĠÏĪ Î¹Î»
Ġá½ģÎ¼ Î¿Î¹
Î¼Î½ Î·
ĠÎºá½± Î¼ÏĢ
ĠÎľ Î¹Î½Î¿ÏħÎºÎ¹
ĠÏĢá¾¶ ÏĥÎ¹Î½
ĠÎ´á¿Ĩ Î¼Î¿Î½
ĠÎ´á¿Ĩ Î¼Î¿ÏĤ
ĠÎłÎµÏģ Î¹Îº
Ġá¼ĢÎ¼ÏĨÎ¹ÏĥÎ² Î·ÏĦ
Ġá¼ĳÎºá½±ÏĥÏĦ Î¿Ïħ
Ġá¿¥á½µ ÏĦÏīÏģ
ĠÎ´Î¹ÏĢÎ» á¿Ĩ
ĠÎ¼ÎµÎ³á½± Î»Î·
ĠÏĢÎ±ÏģÎ±Î³ÏģÎ±ÏĨ Î¹Îºá½¸Î½
Ġá¼ķÎ½ ÎµÎºÎ±
ĠÏĢÏģÎ±Î³Î¼Î±ÏĦÎ¹Îº á¿ĨÏĤ
ĠÎ´Î¿ Î¸á¿ĨÎ½Î±Î¹
Ġá½ĢÏģÎ¸ á¿¶ÏĤ
ĠÎ»á½· Î¸
ĠÏĢÎ±á¿ĸ Î´Î±
á½±ÏĥÎ± ÏĥÎ¸Î±Î¹
á½ĳ ÏĢ
ĠÏĦÏħÏģÎ±Î½ Î½á½·
ĠÏĢÎ»Îµá¿ĸ ÏĥÏĦÎ¿Î½
Ġá½ĢÎ»Î¹ ÏĥÎ¸
ĠÎºÎ±ÏĦÎ¿ÏģÎ¸ á½½
ĠÏĢÎµÎ¹ ÏģÎ±
Î´Î¿Î¾ Î¿Î½
ĠÏĥÏĦá½¹ Î¼Î±ÏĦÎ¿ÏĤ
ĠÏĦÎ¿á½»ÏĦÎ¿Î¹ ÏĥÎ¹
Ġá¼ĢÏĢá½¹ÏĥÏĦÎ¿Î» Î¿ÏĤ
ĠÏĥÏĢÎ¿Ïħ Î´
ĠÏĢÏħÎº Î½
Ġá¼ĻÏģÎ¼ Î¿Î³á½³Î½
ĠÏĦÏģÎ¿ ÏĩÎ±
ĠÎºá½³ÏģÎ± ÏĦÎ±
Ġá¼ĢÏĢÎ¿ÎºÎ±Î» á½»
ĠÎľÎ¹Î½Î¿ÏħÎºÎ¹ Î±Î½
á½ ī
ÏĦ ÏĦÎ·
ÏĦ á½±Î½
Î¿ Î¼á½±ÏĦÏīÎ½
Î¼ Î±Î½
ĠÎº ÏħÎ½
ĠÏĢ á¿Ĩ
ĠÏĢ Î»Î·Î¸
ĠÏĢ Î·Î´
Î³ Îº
ÏĦÎ± á¿ĸ
Î¸ Î½
Ġá¼Ģ ÏĥÎº
Ġá¼Ģ ÏĥÏĨÎ±Î»
ĠÎ¼ Î¿ÏģÏĨ
ÏĨ Î¿ÏĤ
á½» Î³
ÏīÎ½ Î¿Î½
ĠÎ³ Î»á½·
ĠÏĥ ÎµÎ»
Î»Î» Î±
Î¼Î± ÏĦÎµ
Î² Î´
ĠÏĨ á½¹
ĠÏĨ ÎµÏģ
Îµá½· Î¼ÎµÎ½Î±
ĠÎ¿á¼ ³
ĠÎ¿á¼ ´Î½
Ġá¼ĲÎº Î²
Ġá¼ĲÎº ÏĢá½·
á½³Ïģ ÏīÎ½
á¿Ĩ ÏĥÎ¹Î½
Î¶ Î¿ÏħÏĥÎ¹
Ġá½ĳÏĢ Î¿ÏĢ
ĠÎ¼Îµ Ïĥ
ĠÎ½ Îµá½»
ĠÎ»á½³Î³ ÎµÏĥÎ¸Î±Î¹
ĠÏĢÎ±Ïģ á½³
ĠÏĢÎ±Ïģ Î¸á½³Î½
ÏĦá½· Î¸
á½±Ïĥ Ïĥ
Î¿á½» ÏĥÎ±ÏĤ
ĠÎ´Î¹Î± Ïĥ
ÏĥÎ± Ïģ
ĠÏĢÎ¿Î¹ Î·
ĠÏĢÎ¿Î¹ Îºá½·
ĠÏĩÏģ Îµá½·Î±
ĠÏĩÏģ á¿ĨÏĦÎ±Î¹
á½±Î³ ÎµÏĦÎ±Î¹
á½¹ÏĦÎ· ÏĦÎ¹
ĠÎł Î»Î±
ĠÎ±á¼° Î´
ĠÏĢÎ» á¿ĨÎ¸Î¿ÏĤ
ĠÎ¼á½¹Î½ Î¿Ïħ
á½µÎ½ ÎµÎ³
Î´á½· Î´Ïī
ĠÏĦá½¹ ÏĢÎ¿Ïħ
Ġá½ģÎ¼ á½½Î½ÏħÎ¼Î¿Î½
Ġá¼ĢÎ½Î± ÏĢ
ĠÎ³á½³Î½ Î¿ÏħÏĤ
ĠÎ´Îµá¿ĸ Î¾Î±Î¹
ĠÏĢÏģá¿¶ ÏĦÎ±
á½µÎ» Ïī
Î¸ÏģÏī ÏĢ
ĠÏĢá½³ ÏģÎ±
Ġá½ł Î´
ĠÎ½á½¹Î¼ á¿³
ĠÎ¿á¼°Îº Îµá½·Î±Î½
ĠÏĥÏĦÎ¿ÏĩÎ± ÏĥÏĦ
Î´Ïģ Î¿ÏĤ
ĠÎ²ÏģÎ±Ïĩ á½»
Ġá¼ģÎ³ á½·Î¿Î¹ÏĤ
Î»Î±Î² Îµá¿ĸÎ½
ĠÏĢÏħÏģ á½¶
ĠÏĥÏī Î¼á½±ÏĦÏīÎ½
ĠÏĢÎ±Î¹ Î´
ĠÎºÎ±Î¹ Ïģá½¸Î½
Ġá¼ĲÎ³Îº Î»á½µ
ĠÏĦá½» ÏģÎ±Î½
ĠÎķá½Ĳ ÏģÎ¹ÏĢá½·
ĠÎ´ÏħÎ½Î± ÏĦá½¸Î½
Ġá¼ĦÎ³Î³ÎµÎ» Î¿Î¹
ĠÎ´Ïī ÏģÎ¿
á½½ÏĦÎ± ÏĦÎ¿Î½
Ġá¼ĢÎ¼ÏĨÎ¹ÏĥÎ²á½µÏĦÎ· ÏĥÎ¹ÏĤ
Ġá¼ĢÎ»Î»Î±Î½ÏĦÎ¿ÏĢá½½ Î»Î·ÏĤ
ĠÎ¸Î·Ïģá½· Î¿Ïħ
ĠÎµá¼°Ïģ á½µÎºÎ±Î¼ÎµÎ½
ĠÎºÎ±Ïģ ÏĢ
á½³ÏĥÏĦÎ·Îº ÎµÎ½
ĠÏĢÎµÏĢÏģÎ±Î³ Î¼á½³Î½Î¿Î½
Îµá¼´ ÏģÎ·ÏĦÎ±Î¹
á¼ĲÎ³ á½¼
Î±á½ ķÏĦÎ·
ĠÏĢÎ»Î¿á½» ÏĥÎ¹Î¿ÏĤ
ĠÎµá½ĲÎµÏģÎ³ Îµ
ĠÎ¸ÎµÏĥÏĢá½³ ÏĥÎ¹Î¿ÏĤ
ĠÏĨÎ¹Î»á½¹ ÏĥÎ¿ÏĨ
ĠÎµá½ĲÎ¸Ïħ Î´Î¹Îº
ĠÎĶÎ¹Î±Î² á½¹Î»Î¿Ïħ
ĠÎ½Îµá¿¦ ÏģÎ±
ĠÏĢÎ±Î½ÏĦÎµÎ» á¿¶ÏĤ
ĠÎºÎ±ÏĦÎ¿Î¹ Îº
ÏĦ Î¿á¿ĸÏĤ
Ġá¼ Į
Ïģ Î¿ÏħÏĤ
Î» ÎµÎ½
Î¼ á½¶
ĠÎº á½³
ĠÎº ÏħÏĨ
Î· ÏĨ
ĠÏĢ ÏħÎ³
ĠÎºÎ± ÏĦÏī
ĠÎ´ Î¿á¿¦Î½Î±Î¹
á½¹ ÏĥÎ¹
Ïĩ Î·
Ïĩ ÎµÏĥÎ¸Î±Î¹
Î´ á½±
á½» Î¸
Î±Î½ Î¿Î½
ĠÏĥ Î¿á¿¦
ÏĦÎ¹ Î¼
ÏĦÎ¹ Î½Î±
Ġá¼Ķ Î³Î³
ĠÏĨ Î»Îµ
ÏĥÎ¸ Ïī
Ġá¼ĢÏĢ á½³Îº
ĠÏĢÎ± Î¸
ĠÏĩ Î±á½·
ĠÏĩ Î±Î»Î±
ĠÎ¸ Î»á½·
ĠÎ² Î¹
ĠÎ² á½±Ïģ
ĠÎ½ Î¿á¿¦Î½
ĠÎ½ Î¹Îºá¿¶Î½
ĠÏĢÎ±Ïģ Î¿á¿¦ÏĥÎ±
ĠÏĢÎ¿Î¹ Î¿á¿¦
ÏģÎ· Î¼Î±
ĠÎµá¼´ Î´ÎµÎ¹
ĠÏĥÏħÎ½ Î±Î½
Ġá¼ĦÎ»Î» Î¿ÏħÏĤ
á¼Ĳ Î¾
Î»á½· Î±
Ġá¼ĢÎ³ Î¿Ïģ
ĠÏĢÎ±ÏģÎ± Î³
ĠÏĦÎ¹Î½ á½¶
ĠÎ¼á½¹Î½ ÏīÎ½
Î·Îº Îµ
ÏĢÎ± ÏģÎ±
á½±Î¶ ÎµÏĦÎ±Î¹
ĠÎ³á½³Î½ ÎµÎ¹
ĠÎ³á½³Î½ Î¿Î¹ÏĦÎ¿
ÏħÎ¼ Î½Î±
Ġá¼ĢÏģ Îº
Î±ÏĨ Î»Î±Î³
ÏĨÎ± Î¼ÎµÎ½
ĠÎµá¼°ÏģÎ· Î¼á½³Î½ÏīÎ½
ĠÎ´Î¹Î±ÏĨÎ¿Ïģ á½°
ÏĢÎ¹ ÏĥÎ¸ÎµÎ½
ĠÏĢÎ½ ÎµÏħ
Î´á½» Î½Î±ÏĦÎ¿
ĠÎ¼á½³Ïĥ á¿³
Ġá¼ģÏĢÎ» á¿¶Î½
ĠÎ»á½» ÏĥÎ¹ÏĤ
ĠÏĦÏģá½¹ÏĢ Î¿ÏĤ
ĠÏĥÏħÎ½ÎµÏĩ á¿¶ÏĤ
Ġá¼ĳÎºá½±ÏĥÏĦ á¿³
ÏĩÎ¸ Î±Î¹
ĠÏĦÎ¹Î¼ ÏīÏģá½·
ĠÏĥÎºÎ¿ÏĢ á½¸ÏĤ
ĠÏĢÎ»Îµ Î¿Î½
Ġá¼ĢÏĢÎ¿Î»Î¿Î³ á½·Î±Î½
Ġá¼ĢÎ¾Î¹ Î¿á¿ĸ
ĠÏĦÎ±á½ĲÏĦ á½¹Î½
ĠÎ´Î¹Î±á½·ÏģÎµ ÏĥÎ¹ÏĤ
Ġá¼ĢÎ¼ÏĨá½¹ ÏĦÎµÏģÎ¿Î¹
ĠÏĢÎ½Îµá½» Î¼Î±ÏĦÎ±
ĠÎ±á¼°á¿¶Î½ Î±ÏĤ
ĠÎ²á½· Î²
á½±ÏĥÎ±Î½ ÏĦÎµÏĤ
Ġá¼¸ÏĥÏģÎ± á½´Î»
Ġá¼ĢÎºÎ¿Î»Î¿Ïħ Î¸
ĠÎĶÎ¹á½± Î²Î¿Î»Î¿ÏĤ
Ġá¼¸Î¿Ïħ Î´Î±á½·
ĠÏĢÎ·Î» Î¹Îº
ĠÎ´Î±á½· Î¼Î¿Î½
Î³Î±Ïģ Î¿á¿¦Î½
ĠÎ³Î»á½· ÏĥÏĩ
Ġá¼ĢÏĢá½³Îº ÏĦÎµÎ¹Î½
á¼ ª
Îµ Î¶
ĠÏĦ Ïģá½±
ĠÏĦ Î¿á¿ĸÏĥÎ¹Î½
Î¼ Î¹Îº
Îº ÏīÏĤ
ĠÏĢ Î¿á¿¦
á½· ÎºÎ±
á½³ Î»Î»
ĠÎºÎ± ÏĢÎ½
Ġá¼Ĳ Î´Îµ
Ïī Î¼á½³Î½ÏīÎ½
á½± Î´Î±
Ġá¼Ģ Î»Î·
Ġá¼Ģ Î¸Ïģ
Ïĩ Ïģá½·ÏĥÏĦ
Î´ ÏģÎ¿Î½
ĠÎ³ á½¹Î½Ïħ
Î¼Î± Îº
ĠÎµá¼° ÏĥÎ±
ĠÏĨ Î¿Ïģ
Ġá¼¡ ÏĦÏĦÎ·
á½½ Î´Î·
Ġá¼ĢÎ½ Î´
Ïģá½· Î±ÏĤ
á¿¶ ÏĦÎ±
ĠÎ¸ á½½
ĠÎ½ á½»
ĠÎ»á½³Î³ á¿ĥ
Ïĥá½· Î¿Ïħ
ĠÎ¿á½ĸ ÏĤ
ĠÎ¶ á½½
ĠÏĩÏģ á¿¶Î¼Î±
Ġá¼ĦÎ»Î» Î¿ÏĤ
ĠÎµá½Ĳ Î¸á½³
ÎµÏĢ Î»ÎµÎ³
ĠÎ¼á½¹Î½ Î¿ÏĤ
Ġá¼ĢÎ½ÏĦÎ¹ ÏĩÏģá½·ÏĥÏĦ
ĠÎ¿á½Ķ Îº
ĠÎ¿á½Ķ ÏĢÏī
ĠÏĦÏģ á½³ÏĨ
ĠÎ²Î± Î´á½·
ĠÏĢÎ±Î½ ÏĦÎ¿
Ġá¼ĢÎ½Î¸Ïģ ÏīÏĢ
á¿ĸÎ½ Î¿Î½
á¾· Î½
ÏĢÎ¿ Î»Î»
Î´Ïī Î¼ÎµÎ½
Ġá¼ĳÏĦá½³Ïģ á¿³
ĠÏĩÏģá½¹Î½ Î¿ÏĤ
ĠÎºÎ±ÏĦÎ·Î³Î¿Ïģá½· Î±Î¹
ĠÏĩÏģÎ· ÏĥÏĦ
Î²á½±Î»Î» ÎµÎ¹
Ġá¼ĥ ÏĤ
ÏĨÎ· Ïĥá½¶Î½
ĠÎ»ÎµÎ³ á½¹Î¼ÎµÎ½Î¿Î½
Ġá¼ĢÎ»Î»á½µÎ» Î¿ÏħÏĤ
ĠÎ¼ÎµÏģ Î¹Îºá½¸Î½
á½³Î¼ ÎµÎ¹Î½
ĠÎ´ÎµÏħ ÏĦá½³ÏģÎ±Î½
ĠÏĦÎ¿Î¹Î¿á¿¦ ÏĦá½¹Î½
ĠÎ¿á¼¶ Î´Î±
ĠÏĥá½» ÏĥÏĦÎ±ÏĥÎ¹Î½
ĠÎµá½ĲÎ¸ á½ºÏĤ
Ġá¼ĢÏģÎ¹Î¸Î¼ á½¸Î½
ĠÏĩÎ± Î»Îµ
ĠÎ´Î¹Î±Î½ Î¿á½·Î±ÏĤ
ĠÎ´Î¿ Î¾
ĠÏĢÏģÎµÏĥÎ² Ïħ
Î¸Îµá½· Î·
ĠÎ¼Î¿Î¹Ïĩ á½¸Î½
Ġá¼ĢÏĢÎ¿ÏĥÏĦ á½¹Î»
Î¿á½Ĺ ÏĦÎ¿Î¹
Ġá½ģÏĢ á½¹
ĠÎ´Ïģá½± ÎºÏīÎ½
ĠÎµá¼´ÏģÎ· ÎºÎµÎ½
Ġá¼ĦÎ¾Î¹ Î¿Î½
ĠÎ¸Ïħ ÏĥÎ¹Î±ÏĥÏĦ
Ġá½ĢÏĨ Îµá½·
Ġá¼°Î·ÏĦ Ïģ
ĠÏĥÏħÎ¼ÏĢÎ»Î¿Îº á¿ĨÏĤ
Ġá¼©ÏĥÎ±á¿ĵ Î±ÏĤ
ĠÎ´á½µÎ¼ Î¿Ïħ
Ġá¼¸Î·Ïĥ Î¿á¿¦
á¼¦ Î½
ĠÎ¼Î±ÏĥÏĩá½± Î»Î·Î½
Ġá¼¹ÎµÏģ Î¿ÏħÏĥÎ±
ĠÏĥÎ¹Î½ Î±Ïģ
ĠÎ¼Î¿ÏħÏĥÎ¹ Îº
ĠÏĢÏģÏħ ÏĦÎ±Î½
á½ ĥ
á½ ķ
Î¿ Î»Î»
á¼ ĳ
Îµ á½Ĳ
Ïģ á¿³
Ïĥ ÏħÎ½
Î¼ Î¼Îµ
ĠÎº Ïģá½±
ĠÏĢ ÎµÎ¹Ïģ
ĠÎ´ á½±Îº
á½± ÏĦÏī
ÎµÎ¹ Î¼á½³Î½ÏīÎ½
ĠÏĥ á½·
Îµá¿ĸ ÏĥÎ±Î¹
Ġá¼ĲÎ½ á½³ÏģÎ³
Î¼Î± ÏĦá½±
Î¼Î± ÏĩÎ¿ÏĤ
Ġá¼Ķ Î»Î±
Ġá¼ĲÏĢ ÎµÎ¹Î´
ĠÎµá¼° á½½Î¸Î±
ĠÏĨ á½±Ïģ
ĠÏĨ Î»ÎµÎ³
Ġá¼ĢÎ½ á½´Ïģ
ÎºÎ± Î¸
Ġá¼Ħ Î»Î¿Î³
ĠÏĢÎ± á¿ĸÏĤ
Îµá½· ÏĤ
Ïģá½· Î±
ĠÎ¿á¼ ¶Î½
Ġá¼ĲÎº ÏĦá½¸ÏĤ
ĠÏĢÏģÎ¿ ÏĬ
ĠÏĢÏģÎ¿ ÏĦá½³ÏĦÎ±
Î»Î· Î»Ïħ
ĠÎ¼Îµ Î»Î»
ĠÎ½ ÏħÎº
Ġá¼ĳ Îº
Ġá½Ģ Ïĩ
Ïĥá½· Î¿ÏħÏĤ
Ġá¼ĶÏĩ Ïī
Ġá¼ĶÏĩ ÎµÎ¹ÏĤ
Î»Î± ÏĥÏĦ
ĠÎ´Î¹Î± ÏĥÏĦ
ĠÏĢÎ¿Î¹ á½µÏĥÎ±ÏĤ
Ġá¼ĲÎ¾ á½³Ïĩ
ÏĦÎ¹Îº á½±
Ġá¼ķ Î¾Î¹Î½
Ġá¼ķ Î¾ÎµÏīÏĤ
Ġá½Ħ ÏĢÎ¹ÏĥÎ¸ÎµÎ½
ĠÎµá¼¶ ÏĩÎµ
ĠÏĢÎ» Î¿Ïħ
ĠÎ¿á¼· ÏĥÎ¹Î½
ĠÎ±á¼± Î¼
ĠÎ¼á½¹Î½ Î·
ĠÎ¼á½¹Î½ á¿³
Ġá¼ĲÎ³ á½½
Ġá¼ħ ÏĦÎµ
ĠÏĦá½¹ Î½
á½½Î½ ÏħÎ¼
Ġá¼ĢÎ½Î± ÏĥÏĦ
Ġá¼´ Î±
Î¼Î½ Î·ÏĦÎ±Î¹
Î·Î³ Î³
Î²Î± á½·Î½ÎµÎ¹Î½
ĠÎºá½± Î¼Î½
ĠÏĨÏīÎ½ á¿ĩ
ĠÎºÎ±ÏĦÎ±ÏĥÎºÎµÏħ á½´Î½
ĠÎ§ÏģÎ¹ÏĥÏĦ á¿·
ÏĦá½µ Î´ÎµÎ¹
Î²á½±Î»Î» ÎµÎ¹Î½
ĠÏĢá½± Î¸Î·
ĠÎļá½»ÏģÎ¹ Î¿Î½
ĠÎ¼Î¹Îº Ïģ
ĠÎ´Î¹á½± Î¸ÎµÏĥÎ¹ÏĤ
ĠÎ¼Î± Î¸Î·
ĠÎµá½ĳ ÏģÎµ
Ġá½ĢÏĥÏĦá½³ ÏīÎ½
ĠÎķá½Ĳ Î±Î³Î³ÎµÎ»
ĠÎºÎ¿Î» Î±Îº
ĠÏĩÎ± ÏģÎ±Îº
ĠÎ³ÏħÎ½ á½´
ĠÏĦá½³Î»ÎµÎ¹ Î¿Î½
Ġá¼ĳÎºÎ± ÏĦá½³ÏģÎ¿Ïħ
Ġá¼ĲÎºÏĢ ÎµÏĢ
Ġá¼ĢÎ»Î»Î±Î½ÏĦÎ¿ÏĢá½½ Î»Î·Î½
ĠÎ´Î¹ÎºÎ±ÏĥÏĦ Î·Ïģá½·
ĠÎºá½·Î½ Î·ÏĥÎ¹Î½
ĠÏĥÏħÎ¼Î²Î¿Ïħ Î»ÎµÏħ
ĠÏĦá½³ÏĥÏĥÎ± ÏģÎ±ÏĤ
ĠÏĢÎ±Ïģá½³Ïĩ ÎµÎ¹
Ġá¼ĲÎ¾á½³ ÏĦÎ±ÏĥÎ¹Î½
ĠÎ¼á½» ÎµÏĤ
Îµá¼¶ ÏĦÎ±
Î²ÎµÎ² Î»Î·
Ġá¼ĲÎ¼Î½ á½µÏĥÎ¸Î·
Ġá½ķÎ´Î± ÏĦÎ¿ÏĤ
Ġá½ĢÏĢÏĦÎ± Ïĥá½·Î±
Îķ á¼°
Î¶á½µÏĦÎ· ÏĦÎ±Î¹
ĠÏĢÏģÎ¿ÏĦá½³ÏĦÎ± ÎºÏĦÎ±Î¹
ÏĦ ÏĦÎ¿
Î± ÏĢÎ±
Ïģ Î±Î¹
Ïģ á¾¶
ĠÏĦ Îµá½·
Ïĥ á½±Î½
Ïĥ Î¼Î±ÏĦÎ±
Ïĥ Î¿Î½ÏĦÎ±Î¹
ÏĢ ÏĦÏīÎ½
Î» Î±Î½
ĠÎº ÏģÎ¹
á½· Î±Î¹
ÏĦÎ± á½¶
á½± Î¼ÎµÎ½Î¿Î½
Î¸ Î¿Ïħ
Î¸ ÏħÎ½
Ġá¼Ģ Î»
ĠÎ¼ Î±Î»
ĠÎ¼ Î·ÏĦ
ĠÎ¼ Î±Î»Î±
Î´ ÎµÎ¹ÏĤ
Î´ ÏģÎ±Î¼
á½» Î»Î¿Î½
ÏĥÎ¹ Î±ÏĤ
ÎµÏģ á¿¶ÏĤ
Ġá¼ĲÎ½ Î¸ÏħÎ¼
Ġá¼Ķ Î¿Î¹
ĠÎµá¼° Î¼Î¹
Ġá½ħ ÏĥÏĦÎ¹ÏĤ
Ġá¼ĢÎ½ ÏĦ
ÏĦÎµ ÏĩÎ½
Î¼á½³Î½ á¿ĥ
Ġá¼ĢÏĢ á½±
ĠÏĩ á½·Î»Î¹
Î¿á¿ĸ Î½
ĠÏĢÏģÎ¿ Î´Î¿
ĠÎ² Î¿á¿
á½·Î½ ÎµÏĥÎ¸Î±Î¹
á½·Î½ Î¿ÏħÏĥÎ¹
ĠÎ½ Ïī
ĠÎ½ ÎµÏħ
Ġá¼ĳ ÏĦá½³ÏģÎ±ÏĤ
ÏĪ Î¹Î½
ĠÎ»á½³Î³ Î¿ÏħÏĥÎ±
Ġá½Ģ Î´ÏħÎ½
Î¿á½» Ïĥá¿ĥ
ÏĦÎ¹Îº á½µ
ĠÏĥÏĦ á½³ÏĨ
á½±Î» ÏĢÎ¹
ĠÏĥÏħÎ½ á½±
Ġá¼ķ Îº
ÏĥÎ±Î½ ÏĦÎ¿ÏĤ
ĠÎ¿á½ĲÎ´ á½³Î½
Î»á½³ Î±
ĠÎł Î¿Ïĥ
Ġá¼¤ Ïģ
ĠÏĢÎ±ÏģÎ± Îº
ĠÏĢÎ±ÏģÎ± Î²
Ġá¼ĢÏĢÎ¿ ÏĨ
Ġá¼ĦÎ½ Î´
ÎµÏĢ Î¹
Î·Î¼ á½¹Î½ÎµÏħ
ĠÏĥÎº Î»Î·
ĠÎ¼á½¹Î½ Î±
á½»Î½ Î·
ĠÏĢÎ¿Î»Î» Î¿á¿¦
ĠÏĢÎ¿Î»Î» Î¿á½ºÏĤ
ĠÎ³á½³Î½ Ïħ
ĠÎ¾ Î·
ĠÎ¾ á½³Î½
ĠÎ¼ÎµÏĦÎ± ÏĥÏĦ
Ġá½ĢÎ½ Î¿Î¼á½±ÏĦÏīÎ½
Ġá¼ĶÎ½ Î´Î¿Î½
ĠÏĢÎ¿Î¹á½¹ÏĦÎ· ÏĦÎ¹
ĠÏĦá½± Î´Îµ
ĠÎ²Î± ÏĥÎ±Î½
ĠÎºÏģá½· ÏĥÎ¹ÏĤ
Ġá¼ĲÏĩ á½¹Î½ÏĦÏīÎ½
Ġá½ĳÏĢÎ¿Îº Îµá½·Î¼ÎµÎ½Î¿Î½
Ġá¼°ÏĥÏĩ á½·Î¿Î½
ĠÎ¿á½ĲÏĩ á½¶
Ġá½ĳÏĢÎ¿ ÏĥÏĦ
ĠÏĢÏģÎ±Î³ Î¼Î±ÏĦÎµ
ĠÏĢá¾¶ ÏĥÎ±Î¹
Ġá¼ĢÎ½á½±Î³ ÎµÏĦÎ±Î¹
ĠÎ½Î¿Î¼ á½·
Ġá½ĳÎ³ Ïģ
ÏĥÎ¸Î· ÏĥÎ±Î½
Ġá¼ĦÏģÎ¸Ïģ Î¿Ïħ
Ġá¼ĲÎºÎµá½·Î½ á¿³
ĠÎ¼Î± Ïĩ
ĠÎ¼Î± ÎºÎ±
ĠÎ»á½³ Î¾Î¹Î½
Ġá¼ĢÎ³Î±Î¸ á¿¶Î½
ĠÏĢÏħÏģ á½¸ÏĤ
Ġá¼ĲÏģ Îµá½·
ĠÏĦÏģá½¹ÏĢ Î¿ÏħÏĤ
Ġá¼ĢÎ½Î±Î³ÎºÎ± á¿ĸ
ĠÏĥÏħÎ½ÎµÏĩ Î¿á¿¦ÏĤ
ĠÏĥÎ±ÏĨ á¿Ĩ
Ġá¼ĳÎ±ÏħÏĦ Î¿á¿ĸÏĤ
ĠÎ´Î¹Î±Î¹Ïģ Îµá¿ĸÏĦÎ±Î¹
ĠÎ±á¼´ ÏĥÎ¸Î·
ĠÎ±á¼´ ÏĦÎ¹Î¿Î½
ĠÎ±á¼´ ÏĦÎ·ÏĥÎ¹Î½
á¼¢ Î½
Ġá¼ĢÎ½á½±Î³Îº Î·ÏĤ
ĠÎºÏģÎ¹Î½ á½¹Î¼ÎµÎ½Î¿Î½
ĠÎºá½·Î½ Î´ÏħÎ½
ĠÏĢÎµÏĢÎ¿Î¹ Î·Îºá½³Î½Î±Î¹
ĠÏĩÎ¿Ïģ á½¸ÏĤ
ĠÎ´Î¹Î±ÏģÎ¸Ïģ á½½ÏĥÎµÏīÏĤ
ĠÎºÎ¿ ÏĦá½»
ĠÎ³ÏħÎ½Î±Î¹ Îº
ĠÏĨÎ¹Î»Î¿ÏĥÎ¿ÏĨ á½·Î±ÏĤ
ĠÏĦÏħÎ³Ïĩá½±Î½ ÎµÎ¹
Ġá¼ĢÎ½Î´Ïģ á¿¶Î½
ĠÎ´Î¹á½±ÏĨÎ¿Ïģ Î¿Î½
ĠÎ´Î¹ÏīÏģÎ¹Ïĥ Î¼á½³Î½Î¿Î½
ĠÎ¼ÎµÏĦÎ±ÏĨÎ¿Ïģ á¾¶ÏĤ
ĠÎłÎ½ Îµá½»
Ġá¼ĶÏĥÏĦ Ïī
ĠÏĩÎ±Î» Îº
ĠÎ¶Î·ÏĦÎ· Î¼á½±ÏĦÏīÎ½
Ġá½ĳÏĢÎ¿Î¼ Î½
ĠÏĨÎ±Ïģ Î¼á½±
ĠÎ½Î¿Î¼Î¿ Î¸á½³ÏĦÎ¿Ïħ
Ġá¼ĲÎ½ÏĦÎµ á¿¦Î¸ÎµÎ½
Ġá¼¡Î»á½· Î¿Ïħ
ĠÎ½Îµá½» ÏģÏīÎ½
ĠÎ´ÏīÏģÎ¿ Î´Î¿Îº
ĠÎµá½ĲÎ¸á½³ ÏīÏĤ
Î½ Ïī
Ïĥ Î·
Ïĥ á¿³
Ïĥ Î¿Î¹ÏĥÎ¹
Î¼ Î¿Ïħ
ĠÎº á¿¶
ĠÎº Î·Ïģá½»
Îº ÎµÏĦÎ±Î¹
Î· Ïĩ
ĠÏĢ Î¿Ïħ
á½³ Î¼ÏĢ
ĠÎºÎ± Î¼ÏĢ
Ïī Î»
Ġá½ Ļ
ĠÎ´ Î±Î¹Î¼
ĠÏĦá½ µÎ½
Ġá¼Ģ ÏĦÎµ
ĠÎ¼ Î¹Ïĥ
Î´ á½±ÏĦÏīÎ½
Î¿á¿¦ ÏĥÎ±Î¹
á½» ÏĦÎ·
ĠÎ³ á¿ĩ
ĠÏĦÎ¿á¿¦ Î´Îµ
ÎµÏģ Ïĩ
ÎµÏģ á¿¶Î½
Î»Î» ÏīÎ½
Ġá¼ĲÏĢ á½±Î½
Ġá¼ĲÏĢ á½±Î³ÎµÎ¹
ĠÎ» Îµ
Ġá½ģ ÏģÎ¼
Ġá½ħ Î»Î·Î½
ĠÏĨ Ïģ
Ġá¼ĢÎ½ Îµ
Ġá¼ĢÎ½ Î¿á½·
Ġá¼ĢÏĢ Îµ
ĠÏĢÎ± Ïĥá¿¶Î½
ĠÏĩ Îµá½·
ĠÏĩ ÏħÎ¼
Ġá½ĳ Î´á½±ÏĦÏīÎ½
Î¹Îº á½¸ÏĤ
Ġá½Ģ Îº
Î»Î± ÏĥÏĨ
ĠÏĢÎ¿Î¹ á½¸Î½
ĠÏĢÎ¿ ÏĦá½³
Î¿Î³ ÎµÎ½
Ġá¿¥ Ïħ
Ġá¿¥ á½·Î¶
ĠÏĥÏħÎ½ á½½Î½ÏħÎ¼Î±
ĠÏĥÏħÎ½ ÏīÎ½á½»Î¼ÏīÏĤ
Ġá¼Ī Ïģ
á½±Î³ ÎµÎ¹Î½
ĠÎ»á½¹Î³ Î¿Î¹
Ġá¼ĢÎ³ Îº
Ġá¼ĢÏĢÎ¿ Î´ÎµÎ¹
ĠÏĦÎ¿Î¹ Î³Î±ÏģÎ¿á¿¦Î½
á½±Ïģ Î¸ÏģÏī
Î±á½· Î¿Ïħ
á½µÎ½ Î·ÏĤ
ĠÏĪ á½µ
ĠÎ¼Î· ÏĩÎ±Î½
ĠÎºÎ±Î» Î¿ÏħÎ¼á½³Î½
Ġá¼ĢÏĨ Î¿ÏģÎ¼
ĠÎĶ Î±Ïħ
ĠÏĢá½¹ ÏģÎ½
Ġá¼ĶÎ½ ÏĦÎµÏģÎ±
ÎµÎ³ Îº
Î»ÎµÏħ Î¸
ĠÏĢá½±Ïĥ Î±ÏĤ
Î´Ïī ÎºÎµ
Ġá½ł Î¼
Îºá½¹ ÏĦÎ±
á½ħ Î¸ÎµÎ½
ĠÏĨÏīÎ½ á½´
ĠÎ½Î¿ Î·Î¼á½±ÏĦÏīÎ½
Ġá¼ĢÎ½ÏĦá½· Î»Î·ÏĪÎ¹Î½
ĠÎ¼ÎµÏĦ Ïģá½·
ĠÏĢá½± Î¸Î¿ÏħÏĤ
ĠÎ¼á½³Î³ Îµ
ĠÎ½Î¿Î¼ á½·Î¶
ĠÏĢÏģá¾¶ Î¾Î¹ÏĤ
ĠÏĢÎ½ Îµá¿¦Î¼Î±
ĠÎ´Îµá½» ÏĦÎµÏģÎ¿ÏĤ
Ġá½¦ Î¼Î¿Î½
á½µÏĥÎ±Î½ ÏĦÎ¿ÏĤ
Ġá¼ĶÎ»ÎµÎ³ Îµ
á¼ĺ ÏĢ
ĠÎºá½¹ Î»Î±
ĠÎ³Î¹Î½ á½½ÏĥÎº
Ġá¼µÏĢÏĢ Î¿ÏĤ
á½½ÏĦÎ± ÏĦÎ±
Ġá½ĳÎ³Î¹ á½²ÏĤ
Î±Î² ÏħÎ»
ĠÎºá½·Î½ Î·ÏĥÎ¹ÏĤ
ĠÏĦá½³ÏĦÎ± ÎºÏĦÎ±Î¹
ĠÎ¾á½»Î» á¿³
ĠÎ±á¼µ Î¼Î±ÏĦÎ¿ÏĤ
ĠÎ´á½½ ÏĥÏī
Ġá½ĢÏģÎ³ á¿ĨÏĤ
ÎĶ Î¹
ĠÏĩÎ¿Ïģ Î¿á¿¦
Ġá½¤ Î½
ĠÎµá¼´ÏģÎ· ÎºÎµ
ĠÎ´Î¹Î±Î²á½±Î»Î» ÎµÎ¹
ĠÏĩÏģá½µÏĥÎ¹ Î¼Î¿Î½
Ġá¼ħÏĢÎ± Î¾
Ġá¼ĶÏĨ Î·Î½
ĠÎ¼ÎµÎ»Îµ ÏĦ
ĠÎ¼Î¿Ïģá½· ÏīÎ½
ĠÏĢÎ±Ïģá½±Î³ ÏģÎ±ÏĨÎ¿ÏĤ
Î¼ÎµÎ¹Î½ Î¿Î½
Ġá¼ĢÎ¼ÏĨÎ¹ Î²Î¿Î»
ĠÎºá½³ ÎºÎ»Î·
Î»Î·Î»Ïħ Î¸
ĠÎķá½ĲÎ±Î³Î³ÎµÎ» á½·Î¿Î¹ÏĤ
ÏĦ ÏģÎ¹
Î¿ ÏĥÏĦ
Î¿ ÏĦÎµÎ»
á¼ ħ
á¼ ķ
Î¹ ÏĢ
Î¹ á¿¶Î½
Î¹ á½³Î½Î±Î¹
ĠÏĦ Îµá¿ĸ
ÏĢ Î»Î±
Î» Î¼
Î» Î¸
Î» á½´
ĠÎº á½±Î»Î»
Îº Î¿Î½ÏĦÎ¿ÏĤ
Ïħ á¿ĸ
á½· Î·
Ġá¼Ĳ ÏĥÎ¸á½·
á½± ÏĨ
Î¿á¿ Ĩ
á½¹ ÏĨ
ĠÎ¼ Î·Î½
ĠÎ¼ Î½á½µÎ¼
Î¿Î¹ ÏĦ
á½µ Î¼Î±ÏĥÎ¹Î½
ĠÏĢÏģ Î±Îº
Îµá¿ĸ Î¿ÏĤ
Ġá¼ĲÎ½ Î´Îµ
ĠÎ´Î¹ ÎµÎ»
ĠÎ´Î¹ ÎºÎ±Î½
ĠÎ´Î¹ á½±ÏģÎ¸ÏģÏī
Î¾ Î·ÏĤ
Î² Î»Î·
ĠÎ±á½ĲÏĦ á½µÎ½
ĠÎ» á½µ
Ġá½ħ ÏĥÎ¿Î¹
á½½ Î¸Î·
á½½ Ïĥá¿ĥ
Ġá¼ĢÎ½ ÎµÎ»
Ġá¼ĢÎ½ Î±á½·
Ġá¼ĢÎ½ á½³Î¼
ÏĥÎ¸ á½µÏĥÎµÏĦÎ±Î¹
Îµá½· ÏĥÎ·ÏĤ
Î¿á¿ĸ Î±
á¿¶ ÏĦÎ¿Î½
Ġá¼ĲÎº ÏĢÎµÏĥ
Ġá¼ĲÎº á½±Î»Îµ
á½·Î½ á¿ĥ
ĠÎ¼Îµ ÏĦÎ±Î½
Ġá¼ĳ Î¾
ÏĦá½· ÏĤ
á½±Ïĥ ÏĦÎ±ÏĥÎ¹ÏĤ
Ġá¼ĶÏĩ á¿ĥ
Ġá¼ĶÏĩ Î¿Î½ÏĦÎ¿ÏĤ
Ġá¼ĶÏĩ Î¿Î½ÏĦÎ±ÏĤ
Ġá¼ĲÏĢÎ¹ Î²Î¿Ïħ
ÏĦá½³ ÏĤ
ĠÏĥÏĦ ÎµÎ½
ĠÎµá¼´ ÏĤ
ĠÎµá¼´ Î´Î¿ÏħÏĤ
Î¸Î· ÏĦÎ±Î¹
Ġá¿¥ á½·
ĠÏĩÏģ Ïī
ĠÏĩÏģ á¿¶Î½ÏĦÎ±Î¹
á½±Î» Î¿ÏħÎ½
Îµá½» ÏīÎ½
Ġá¼ĦÎ»Î» Î¿Î¹
ÎµÎ» á¿¶Î½
Î»á½³ Î¾Î±Î½
ĠÎ±á¼° á½½Î½ÏīÎ½
Ġá¼ĢÎ³ ÏīÎ½
ĠÏĢÎ» Î±Î½
ĠÎµá½Ĳ Î½
ĠÏĥÎº ÎµÏħ
Ġá½ĦÎ½ ÏĦÎµÏĤ
Ġá½ĦÎ½ ÏĦÎ±ÏĤ
Ġá¼´ ÏĥÎ¿Î½
ĠÎ¾ ÏħÎ¼ÏĨ
ĠÎ¼ÎµÏĦÎ± Î²Î¿Î»
Ġá¼ĢÏģÏĩ á¿ĩ
Ġá¼ĶÎ½ Î´Î¿Î¾Î¿Î½
ĠÏĦá½± Î¾ÎµÏīÏĤ
Î·Î³ Î¿Ïģ
Î¿ÏĨ á½±Î½
Ġá½ķ ÏĪ
ĠÎ¼á½³ Î¸
Ġá¼ł Î´á½»Î½Î±ÏĦÎ¿
Ġá¼ĪÏģÎ¹ÏĥÏĦ Î¿ÏĦÎµÎ»
á½µÎ» Î¿Ïħ
Ġá½ĳÏĢÎ¿Îº ÏģÎ¹
ĠÏĦÎ±á½» ÏĦÎ±ÏĤ
Ġá¼ĪÎ¸Î·Î½Î± á½·Î¿ÏħÏĤ
ĠÎ½Î¿ Ïĥ
Ġá¼ĢÏģ Î½á½·
á½±Î¼ Î¿Ïħ
ĠÎ¿á½ĲÏģÎ±Î½ á½¸Î½
Ġá¼ĢÎ½ÏĦá½· Î¸ÎµÏĥÎ¹ÏĤ
á¼ĲÏĢ Î¹
ÏĦá½µ Ïģ
Îµá¿¦ ÏĥÎ±Î¹
Ġá¼ĳÏĢ ÏĦá½±
ĠÎ¸á½± Î½Î±ÏĦÎ¿ÏĤ
ĠÎ´Î¹ÎºÎ± ÏĥÏĦÎ±
ĠÏĥÏĦÎ¿ÏĩÎ±ÏĥÎ¼ á½¸Î½
Î´á½¹ Î¾
ĠÎ¸ÎµÏģ Î¼Î±
ÏĨÎ· Ïĥá½¶
ĠÎµá¼°Î´ á½¼ÏĤ
Ġá¼ĦÏģÎ¸Ïģ ÏīÎ½
Ġá¼ĢÏĥ ÏħÏĥÏĦ
ĠÏĩá½½ ÏģÎ±ÏĤ
ĠÎºÎ¹Î½ á½µÏĥÎµÏīÏĤ
á½µÏĥÎ±Î½ ÏĦÎ±ÏĤ
á¼ĺ Î½
ĠÎºá¼ Ħ
Î¸Î±Î½ Î¿Î½
Ġá¼ĳÎ±ÏħÏĦ á½´Î½
Ġá¼ĲÎºÎºÎ»Î· Ïĥá½·
Î´á½³Ïĩ ÎµÏĦÎ±Î¹
ĠÏĥÎºÎ¿ÏĢ á½¸Î½
Ġá¼ĦÎ³Î³ÎµÎ» Î¿Î½
Ġá¼°Î´á½· á¾³
ĠÎ¸Ïģá½¹Î½ Î¿Î½
Ġá¼µÏĢÏĢ ÏīÎ½
ĠÎĴ Î±Î²ÏħÎ»
ĠÎ´Î¹ÎºÎ±Î¹ Î¿Î»Î¿Î³
ĠÏĢÎ±á¿ĸ Î´Î±ÏĤ
Ġá¼¹ÏĢÏĢÎ¿Îº Ïģá½±ÏĦÎ¿ÏħÏĤ
Ġá¼ĢÏģÎµ ÏĦá¿ĨÏĤ
ĠÏĩÏīÏģá½· Î¿Î½
Ġá¼¡Î¼á½³Ïģ Î±Î½
Ġá¼ĢÎ½Î±Î¹ ÏģÎµ
Ġá½ĳÎ¼ á¿ĸÎ½
ĠÎºÎ½á½µÎ¼ Î·ÏĤ
Ġá¼ĲÎ´ á½µÎ»Ïī
ĠÏĢÎ¿Î¹Î·ÏĦ á½´ÏĤ
ĠÏĢÎ±ÏģÎ±Î´Îµá½·Î³ Î¼Î±ÏĦÎ±
Ġá¼ģÏģ ÏĢ
ĠÏĢÎ¿Î»á½³Î¼ Î¿Ïħ
ĠÏĥÏħÎ½ÎµÏĥÏĦ Î·Îº
ĠÎ²Î±ÏĥÎ¹Î»Îµá½· Î±Î½
Î¿á¼ ·
Ġá¼ī Î³
Ġá¿¥á¾³ Î´á½·ÏīÏĤ
Ġá¼ĻÏģÎ¼Î¿Î³á½³Î½ Î·ÏĤ
ĠÏĦÏģÎ¿ÏĩÎ± ÏĬÎº
ĠÎµá½ĲÎ¸ÏħÎ´Î¹Îº á½·Î±ÏĤ
ĠÏĢÎ½ÎµÏħ Î¼Î±ÏĦÎ¹Îº
ĠÎ¼Î±Î»Î± Îº
ĠÏĩá½·Î»Î¹ Î±
ĠÎłÎ¿Ïĥ ÎµÎ¹Î´
ĠÎ¼á½³Î³Îµ Î¸Î¿ÏĤ
ÏĦ á½´
ĠÎ ĸ
Î± á¼±
Î¿ ÏĦá½±
Î¿ Î¼ÏĨ
Ġá¼ į
Ġá¼ Ŀ
ĠÏĦ á½³Î½
ĠÏĦ á½¶ÏĤ
Ïĥ Î´Îµ
Î¼ á½¹
Îº Î¿Ïħ
Îº á¿ĥ
Î· ÏĢ
ĠÏĢ ÏħÎ»
Ġá¼Ĳ ÏģÏĩ
Ïī Î¼Î¹
ĠÎ´ ÎµÎ¹Î½
Ġá¼Ģ Îµ
Ïĩ ÎµÎ½
Ïĩ ÏģÎ·
Ïĩ Î¸á¿ĨÎ½Î±Î¹
Î´ á¿¶Î½
Î´ ÎµÏĦÎ±Î¹
á½» Ïģ
Î±Î¹ Î¿Î½
ÏĦÎ¹ Î¸á½³
Îµá¿ĸ ÏĥÎ±
Î¾ á½±Î¼ÎµÎ½Î¿ÏĤ
Ġá¼Ķ Î¼Î¼Îµ
Ġá¼ĲÏĢ Î±Î³
ĠÎµá¼° Î´Î¹Îº
ĠÏĨ á¿¶ÏĤ
á¿¶Î½ Î¿ÏĤ
á¿¶Î½ ÏĦÎ¿
á½½ Î¼ÎµÎ½Î¿ÏĤ
á½¹Î½ Î¿Î¹Î±Î½
Î¼á½³Î½ Î±Î¹
Îµá½· Î±Î¹ÏĤ
Ġá¼ĲÎº á½±Î»Î¿ÏħÎ½
Î¹Îº Î½
Î¹Îº á½±
ĠÎ² Î»á½³
ĠÎ² á½·Î¿Ïħ
ĠÎ² á½·á¿³
ĠÎ¼Îµ ÏĦÏģ
ÏĪ Î¹ÏĤ
ĠÎ»á½³Î³ Î¿Î½ÏĦÎ±
Ġá½Ģ Î¸Î¿Î½
á½±Ïĥ ÎµÏīÎ½
Î¿Ïģ Î¸
Î»Î± Î¼Î²Î±Î½
ÏĥÎ± á½·
ĠÏĢÎ¿Î¹ Î¿á¿¦ÏĥÎ¹
Ġá¼ĲÏĢÎ¹ Î¸ÏħÎ¼
Ġá¼ĲÎ¾ á½µÎ³
ĠÏĥÏĦ ÎµÏĨá½±Î½
Ġá¿¥ á¿ĨÎ¼Î±
Îµá½» ÏĥÎ±ÏĤ
Îµá½» Î¸ÏħÎ½
Ġá¼ĦÎ»Î» Î¿Ïħ
Ġá¼Ī Î»á½³Î¾Î±Î½
ĠÎ¿á½ĲÎ´ ÎµÎ½
ĠÎł Î±ÏĨÎ»Î±Î³
ĠÎ±á¼° Ïĩ
ĠÎ±á¼° ÏĦÎ¹
ÏĦÎ¿Ïħ ÏģÎ³
á½³Ïĩ ÎµÎ¹
Ġá¼ĢÎ³ á¿¶Î½Î±
ĠÏĢÎ» ÎµÎ¹
ĠÎµá½Ĳ Î´Î¿ÎºÎ¹Î¼
ĠÎĺÎµ á½¹Î½
ÏĦÏģ Î¿Ïħ
Ġá¼µ ÏĥÏĦÎ±
á½µÎ½ Î·Î½
Ġá¼ĢÎ½Î± ÏĨá½³Ïģ
ĠÎºÎ±Î» Î¿á½»Î¼ÎµÎ½Î¿Î½
ĠÎ³á½³Î½ ÏħÎ½
Î¼Îµ Î»Î»
ĠÎ³ÎµÎ½ á½¹Î¼ÎµÎ½Î¿ÏĤ
Î¿Ïģá½· Î±Î½
ĠÎĶ Î¹
ĠÏĢá½¹ ÏĦÎµÏģÎ¿Î½
ĠÏĦá½± Î¾Î¹ÏĤ
Ïģá½³ Î¸Î·
Ġá½ķ Î»Î·ÏĤ
ĠÎºÎ¿Î¹Î½ á½°
ĠÏĢÏģá½±Î³ Î¼Î±ÏĦÎ¹
Ġá¼¥ Îº
ĠÎľ Ïī
Ġá½ĳÏĢÎ¿ ÏĪ
Ġá¼ĲÎ¼ÏĢ ÎµÎ¹
ĠÎ½á½¹Î¼ ÏīÎ½
ĠÎ¿á¼°Îº Îµá¿ĸÎ¿Î½
ÏĦÏĦÎ¿Î½ Î±
ĠÏĢÏģá½½ ÏĦÎ¿Ïħ
ĠÏĪÏħÏĩ á½´
ĠÏĥÏħÎ¼ÏĢ ÎµÏĢÎ»ÎµÎ³
ĠÏĥÏħÎ¼Î²ÎµÎ²Î·Îº á½¹ÏĦÏīÎ½
ĠÎļá½»ÏģÎ¹ Îµ
ĠÎ±á½Ĳ ÏĦÎ±á¿ĸÏĤ
ĠÎ½Î¿Î¼ Î¹
ĠÎ´Îµá½· Î¾á¿ĥ
ĠÎ»ÎµÎ³ Î¿Î¼á½³Î½ÏīÎ½
Ġá¼ĢÎ³Î±Î¸ á½¹Î½
ĠÏħá¼± Î¿á¿¦
Ġá½ħÎ» Î¿Ïħ
ĠÎ¿á¼¶ Î¼Î±Î¹
Ġá¼ĢÎ¼ á½µÎ½
á½¹Î´ Î¿Ïħ
Ġá¼ĳÎºá½±ÏĥÏĦ Î·ÏĤ
Ġá¼ĲÎ³Îº ÏīÎ¼Î¹
Ġá¼ĢÏģÎ¹Î¸Î¼ á½¸ÏĤ
Ġá¼ĲÎºÎµá¿ĸ Î½Î±
Ġá¼ĲÎºÎµá¿ĸÎ½ Î¿Î½
Ġá½ģÎ¼Î¿Î»Î¿Î³ Î¿ÏħÎ¼á½³Î½
ĠÎºÎ¿Î¹Î½ÏīÎ½ Îµá¿ĸ
Ġá¼ĲÎ½ÎµÏģÎ³ Îµá½·Î±ÏĤ
Ġá¿¥Î·ÏĦÎ¿ÏģÎ¹Îº á½´
Ġá½ħÏĢ Î»Î±
ĠÎºÏģÎ¹Î½ á½¹Î¼ÎµÎ½Î¿ÏĤ
ĠÏĩÎµá¿ĸ ÏģÎ±ÏĤ
Ġá½ĢÎ½Î¿Î¼á½± Î¶ÎµÎ¹
ĠÏĢÎ½Îµá½» Î¼Î±ÏĦÎ¹
ĠÎ¸á½³ ÏĥÎ¹ÏĤ
Ġá¼ħÏĢÎ±Î½ ÏĦÎ±
ĠÏĨÎ¹Î»Î¿ÏĥÎ¿ÏĨ á½·Î±Î½
Ġá¿¥á½±Ïĩ Î¹Î½
Ġá½ĢÎ»Î¹ Î³
ÎµÎ»Î¸ á½¼Î½
á½µÎ³Î±Î³ Îµ
á½µÎ³Î±Î³ ÎµÎ½
ÏĦá¿Ĩ ÏģÎ±
Ġá¼ĢÏĢÎ¿Ïģá½· Î±
ĠÏĨÏģÎ¿Î½ ÏĦá½·
ĠÎºÎ±ÏĦÎ±Î»Î·Îº ÏĦÎ¹Îº
ĠÎłÎ½ Îµá¿¦Î¼Î±
ĠÎµá½ĳÏģá½·ÏĥÎº ÎµÏĦÎ±Î¹
ĠÏĨÎ¹ Î»Î¿Î½
ĠÎ¸ÎµÏīÏģá½· Î±
Ġá½łÎ½á½¹Î¼Î± ÏĥÎµ
Ġá¼ĢÏĥá½»ÏĥÏĦÎ± ÏĦÎ¿Î½
ĠÏĢÎ±Î½Î·Î³ÏħÏģÎ¹Îº á½¸Î½
ĠÎ»Îµá½· ÏĢÎµÎ¹
ĠÎºÎ»Î· ÏģÎ¿Î½
ĠÏĦÎ±á¿¦ ÏĦá½±
Ġá¼ĢÎ½á½±ÏĢ Î±Î»Î¹Î½
ĠÎ¿á¼´Î½ Î¿Ïħ
ĠÎłÎ»Î± ÏĦÏīÎ½
ĠÎ¶á½½ ÏīÎ½
ĠÎºÎ¿ÏĦá½» Î»Î·ÏĤ
ĠÏĦÎµá¿ĸ ÏĩÎ¿ÏĤ
Î £
á½ §
ÏĦ ÏħÏģ
ÏĦ á½´ÏĤ
Î± ÏĥÎ¹
Î¹ Î¼Î¿Î½
Ïģ Î¿Î¹
ĠÏĦ Ïħ
ĠÏĦ Îµá½·Î½
ĠÎº ÏĦ
ĠÎº Î»á½·
ĠÎº Îµá¿ĸÏĥÎ¸Î±Î¹
ĠÎº ÏħÎºÎ»
ĠÏĢ á½µ
á½· Î´
á½³ ÎµÎ¹
á½³ Î¶
Ġá¼Ĳ Î»Îµ
Ġá¼Ĳ Î´Îµá½·
Ġá¼Ĳ ÏģÏī
Ġá¼Ĳ ÏĥÏĩÎ·
Ïī ÏĥÎ¹
Ïī ÏĦá½¸Î½
Ġá½ į
ĠÎ´ á½¹Î³
ĠÎ´ Îµá¿ĸÏĦÎ±Î¹
Î³ Îµ
á½± Î´ÎµÏĤ
Î¸ ÏīÎ½
Ïĩ Î¿ÏħÏĤ
Î´ ÎµÎ¹Î½
ĠÎ³ ÏħÎ¼Î½
Î±Î½ ÏĦ
ĠÏĥ ÏĢÎ±
ÏĦÎ¹ Î¸á½³Î½Î±Î¹
Ġá¼ĲÎ½ Î±Ïģ
ĠÎ´Î¹ ÏĦÏĦ
ĠÎ´Î¹ ÎµÏĥÏĦ
Ġá¼Ķ ÏĦÏħÏĩ
Ġá¼ĲÏĢ Î±Î³Î³
Ġá¼ĢÎ½ á½±
Ġá¼ĢÎ½ ÎµÎ»Îµá¿ĸÎ½
ÏĦÎµ ÏĥÎ¸Î±Î¹
á½¹Î½ ÏĦÎ¹
ĠÏĢÏģÎ¿ ÏĦá½±
ĠÏĢÏģÎ¿ Ïĭ
ĠÏĢÏģÎ¿ á½³ÏĦÎ±
á½³Ïģ Î¿ÏĤ
ĠÎ¸ Îµá½·Î±ÏĤ
á¿ĥ ÏģÎ·
ĠÏĦÎµ ÏĥÏĥÎ±
á½±Ïĥ Î·ÏĤ
ĠÎ´Î¹Î± Î¸á½µÎº
ĠÎ´Î¹Î± Î»á½³Î³ÎµÏĦÎ±Î¹
ĠÏĢÎ¿Î¹ Îµá¿ĸÏĥÎ¸Î±Î¹
Ġá¼ĲÏĢÎ¹ Î´
ÏĦÎ¹Îº Î¿á¿ĸÏĤ
ĠÏĥÏĦ á½±ÏĥÎµÏīÏĤ
Ġá¿¥ á½µÏĥÎµÏīÏĤ
ĠÏĩÏģ á½µÏĥÎ±ÏĥÎ¸Î±Î¹
ÏģÎ¿ Î¼
Ġá¼ĦÎ»Î» Î·
ÏĥÎ¼ á½±ÏĦÏīÎ½
Î¸Î± Îº
ÏĥÎ±Î½ ÏĦÎ±
ĠÎµá¼¶Î½ Î±á½·
ÏģÎµ ÏĥÎ¹
ĠÎºÎ±Î¸ á½µ
Î¸Îµ ÏĤ
ĠÏĢÎµÏģÎ¹ ÏĢÎ±
Î·Îº á½¹
ĠÎ¼Î· Ïģá½¸Î½
ĠÎ¸Îµ ÏīÏģÎ·
Î´ÎµÎ¹ Î³
ĠÏĢÎ¿Î»Î» á¿·
Ġá¾ Ħ
ĠÏĢá½¹ Î´Î±ÏĤ
ĠÏĥÏĨ á½¹Î½
Ġá¼ł Î½
ÎµÎ¹Ïģ Î±Î¹
Ġá¼ĢÎ½Î¸Ïģá½½ÏĢ á¿³
ĠÏĥÏĩ Îµ
ĠÎºá½± Î¸Î·ÏĦÎ±Î¹
ĠÎ½á½¹Î¼ Î¿ÏħÏĤ
ĠÏĢá½¹Î» ÎµÎ¹ÏĤ
Ġá¼ĢÎ½ÏĦá½· Ïĩ
ĠÎºÏģá½·Î½ ÎµÏĥÎ¸Î±Î¹
Ġá¼ģÎ³ á½·Î¿ÏħÏĤ
ĠÎ¼á½³Î³ Î±ÏĤ
ĠÎ¼á½³Î³ Î¹ÏĥÏĦÎ¿Î½
Ġá½ĢÎ»á½·Î³ á¿³
ĠÎ»á½³ Î¾ÎµÎ¹
ĠÏĥÏħÎ³ ÏĩÏīÏģ
ĠÎ´Î¹Î´ á½±
ĠÎ¿á¼¶ Î´Îµ
ĠÎłÎµÏģ Ïĥá¿¶Î½
ĠÏĦÎ¿Î¹Î¿á½» ÏĦÎ¿Î¹ÏĤ
á½µÏĥá¿ĥ ÏĤ
ĠÏĥÏħÎ»Î»Î¿Î³Î¹ÏĥÎ¼ á½¸Î½
ĠÏĦÎ¿Î¹Î±á½» ÏĦÎ·
Ġá½ħÎ¼Î¿Î¹ Î¿Î¹
Ġá½ĢÏĥÏĦ Î¿á¿¦
Ġá¼ĲÏĢÎ¹ÏĨ Î±Î½
ĠÏĢá½³Î½ Î·
Ġá½ĳÏĢÎ¿Î³ Ïģá½±ÏĨ
ĠÎºÎ¿Î¹Î½ÏīÎ½ á½·Î±Î½
ĠÎ±á½ĳ ÏĦá½¸
ĠÏĢÎ¿Î´ á½¶
ĠÎ¼ÎµÎ³á½±Î» á¿ĥ
ĠÎ´Îµá½·ÎºÎ½Ïħ ÏĥÎ¹
ĠÏĢÏģÎµÏĥÎ² á½»
Ġá¼ĲÏĢÎ¿á½·Î· ÏĥÎµ
ĠÎ±á¼µ Î¼Î±ÏĦÎ¹
ĠÏĦá½³ÏĥÏĥÎ± ÏģÎ±
ĠÎºÎ±ÏĦÎ±ÏĨ Îµá½»Î³
Ġá¼ĢÏĢÎ¿Ïģ Î¿á¿¦ÏĥÎ¹Î½
Î¿á½Ĺ ÏĦÎ¿ÏĤ
ĠÎºÏģ Îµá½·
Ġá¼°Ïĥ á½±Î¶
ĠÏĢÎ¿Î»ÎµÎ¼ á½·ÏīÎ½
Ġá¿¥á½±Ïĩ ÎµÏīÏĤ
ĠÏĪÎµÏħÎ´ á¿Ĩ
ĠÎ´Î¹á½±ÏĨÎ¿Ïģ Î¿ÏĤ
ĠÏĢÎ»ÎµÏħÏģ á½°ÏĤ
ĠÏĩÎ¹ Î»Î¹
ĠÏĢÎµÏĨ ÏħÎº
ĠÏĨÎ¿Î² ÎµÏģ
Ġá¼ĲÎ¼Î½ Î·Î¼á½¹Î½ÎµÏħ
ĠÎ´Î¹Î±ÏĨÎ¿ÏģÎ± á½¶
Ġá¼ģÎ¼Î±ÏģÏĦá½· Î±ÏĤ
ĠÎºá¼ĢÎº Îµá¿ĸÎ½
Ġá¼ħÎ³ Î¹Î¿Î¹
ĠÎłá½»Î» á¿³
ĠÎ£Î±ÏĦÎ±Î½ á¾¶
Ġá¼ĢÎºá½¹Î»Î¿Ïħ Î¸Î¿Î½
ĠÏĢÏģÎ¿Î²Î¿Î» á½´
ĠÎºÎ±ÏĦá½µÎ³Î¿Ïģ Î¿ÏĤ
Ġá¼ĲÏĢÎ¹ÏĨá½±Î½ ÎµÎ¹Î±Î½
ĠÏĨÎ¸Î¿Ïģ á¾¶ÏĤ
ĠÎ»ÏħÏĩ Î½
ĠÎ´Î¿á¿¦ Î»Î¿ÏĤ
Ġá¼ĲÎ´á½· Î´Î±
Ġá¼ĢÎ»á½µ Î¸ÎµÎ¹Î±Î½
ĠÏĢÎ»Î·Î¸ ÏħÎ½
á¼ª Î½
ĠÎ´Î¹á½±ÏģÎ¸ÏģÏī ÏĥÎ¹Î½
ĠÎºÎ»á½· Î¼Î±
á½ ¦
ÏĦ ÏĦÎ±
ÏĦ ÏģÎ±ÏĤ
Î¿ ÏĦÎ¹
Î¹ Î¼á½±
Îµ ÏĦÎ±á½·
Ïģ á¾´
ĠÏĦ Î·Ïģ
Ïĥ ÏĢÎµ
Ïĥ á½±Î¼ÎµÎ½Î¿ÏĤ
ÏĢ Ïģá½¹
Î» ÏīÎ½
ĠÎº á½½Î»
Îº Î·ÏĤ
Ïħ ÏĥÎ¹Îº
á½· ÏĥÏĩ
á½³ Î¼Î¹
Ïī ÏģÎ¿Î½
Ïī Î¸á¿ĨÎ½Î±Î¹
ĠÎ´ ÏģÎ¹Î¼
Î³ ÎµÎ¹Î½
ÏĦÎ± á½»
á½± Î´Î¿ÏĤ
Î¸ ÏīÏĤ
ĠÎ¼ Î·Îº
ÏīÎ½ ÏħÎ¼
Î¿Î¹ Î¼
ĠÎ³ Î±
ĠÎ³ Î±ÏĥÏĦ
Î±Î½ Î¹
ĠÏĥ ÎµÎ¹
Ġá¼ĲÎ½ Î±Î»Î»Î±Î³
Ġá¼Ķ Î¾Îµ
Ġá¼Ķ ÏĥÎµÏĥÎ¸Î±Î¹
Ġá¼ĲÏĢ á½³
ĠÎ±á½ĲÏĦ á½·ÎºÎ±
ĠÎ» Î±Î»
ĠÎµá¼° ÏĥÎµ
Ġá½ħ ÏģÎ±
Ġá½ħ ÎºÏīÏĤ
á½½ ÏģÎ·
á½½ Î¼Î±ÏĦÎ±
Ġá¼Ħ ÏĨ
ĠÏĢÏģÎ¿ Î²á½±Î»Î»
Î¿Î» Î±
ĠÏĢÎµÏģ á½·ÏĥÏĦÎ±
ĠÎ½ á½µÏĥ
á½µÏĥ ÎµÎ¹Î½
ĠÏĦÎµ Î»á½³ÏīÏĤ
ĠÏĦÎµ ÏĦá½±Ïģ
ĠÏĦÎµ Î¸Î½
á½±Ïĥ Ïī
ĠÏĦÎ± Ïģá½±
Î»Î± á½·
ÏĥÎ± á½»
ÏĥÎ± ÏģÎ¹ÏĥÏĦ
ĠÏĢÎ¿Î¹ á¿¶Î½
Ġá¼ĲÏĢÎ¹ ÏĥÎº
ÏĦÎ¹Îº á¿·
ÎµÏħ Î¸
ĠÏĨÎ· Î¼á½¶
Ïģá½± Îº
á½¹Î¼ÎµÎ½ Î±Î¹
ĠÏĩÏģ Ïħ
ĠÏĥÏħÎ½ á½·ÏĥÏĦÎ±ÏĦÎ±Î¹
ÏĥÎ¼ á½¸ÏĤ
ÎµÎ» á½·
ĠÎ´á½» Î½
ÏĦá½³Ïģ Î¿ÏħÏĤ
Î¿á½· ÏīÏĤ
ĠÎµá¼¶ ÏĩÎµÎ½
ĠÎł ÎµÎ»
ĠÎł ÎµÎ¹ÏģÎ±Î¹
á¼Ĳ á½°Î½
ĠÏĢÏģÎ¿Ïĥ Î´Î¹
á½½ÏĢ ÏĦÎµÎ¹
Ġá¼ĦÎ½ Î´ÏģÎ±
ĠÏĥÎº Î·Î½
Î¿Î¼ ÎµÏģ
ĠÏĦá½· Î¸Î·ÏĥÎ¹
ĠÎ±á¼± Ïģ
Ġá¼ĢÎ½ÏĦÎ¹ ÏĥÏĦÎ±
ĠÏĢÏģá½¹ ÏĥÎº
Î´Î± Î¼
ĠÎ¼Î· Ïģá½¸ÏĤ
ÏĢÎ± á½¶
á½½Î½ ÏĦÏīÎ½
Ġá½ģÎ¼ Î¿á¿¦
á½»Î½ Î·Î½
ĠÎ¸Îµ ÏĥÏĢÎµ
ĠÏĢÎ¿Î»Î» Î¿á¿ĸÏĤ
ĠÎ³ÎµÎ½ á½¹Î¼ÎµÎ½Î¿Î½
Ġá¼ĢÏĨ Îµ
ĠÎĶ á½µÎ¼
Î¸á½³ ÏĤ
á½¹Ïģ ÏīÎ½
ĠÏĥÏĩ á½µÎ¼Î±ÏĦÎ¿ÏĤ
ĠÎ¶Î·ÏĦ Îµá¿ĸÎ½
ĠÎ¶Î·ÏĦ á½µÎ¼Î±ÏĦÎ±
Î¿Î¼Î± á½·
ĠÏĢá½±Ïĥ Ïĩ
Ġá¼ĳÏĦá½³Ïģ Î¿Î¹ÏĤ
ĠÏĨÏħ ÏĥÎ¹
Ġá¼§ ÏĥÏĥÎ¿Î½
ĠÏĦÏģÎ¹ á½µÏģ
ĠÏĦÏģÎ¹ ÏĥÎ±ÏģÎ¹ÏĥÏĦ
Î±Î»Î± Î¼
Ġá¼ĲÏĢÎ¹ÏĥÏĦ Î¿Î»
ÏĨÎ± ÏĥÎ¹Î½
ĠÎ´ÏħÎ½ á½±Î¼ÎµÎ½Î¿ÏĤ
ĠÏĥÏħÎ¼Î²ÎµÎ²Î·Îº á½¹ÏĦÎ¿ÏĤ
Î¿á½ Ķ
ĠÎ±á½Ĳ Î¾
á½¹ÏĦÎ± ÏĦÎ¿Î½
Ġá¼ĳÎºá½± ÏĦÎµÏģÎ¿Î½
ÎºÎ±Î» á¿¶ÏĤ
ĠÎ´á½¹ Î¾Î·ÏĤ
Ġá¼ĢÎ»Î·Î¸ á¿¶ÏĤ
Ġá¼ĢÎ³Î³á½³Î» Î¿Î¹ÏĤ
Ïĥá¿ĥ ÏĤ
Ġá½ĳÏĢá½±ÏģÏĩ Î¿Î½
ĠÏĢÎ»Î· Ïĥá½·Î¿Î½
Ġá¼ĢÏĢÎ¿Îº ÏĦ
ĠÎ²Î¹Î²Î»á½· á¿³
Î¿ÏħÎ¼á½³Î½ Î¿Î¹ÏĤ
Ġá¼ĢÎ½Î±Î³ÎºÎ± á½·ÏīÏĤ
ĠÏĥÏħÎ½ÎµÏĩ á½²ÏĤ
ĠÏĦá½³ÏĩÎ½ á¿ĥ
Ġá¼ĲÎ¾Î¿Ïħ Ïĥá½·Î±
Ġá¼ĢÏģÎ¹Î¸Î¼ Î¿á¿¦
ĠÎ¼Î¿Î½ Î¿Î¼ÎµÏģ
ĠÎ¦ Î¹
ĠÏĥá½»Î½ Î¸Îµ
ĠÎ¼ÎµÎ³á½± Î»Î±
Ġá¼ķÎºÎ± ÏĥÏĦÎ¿ÏĤ
ĠÎºÏģÎ¹Î½ Î¿Î¼á½³Î½Î¿Ïħ
Ġá¼ĦÎ³ Î±Î½
ĠÏĨá½³Ïģ Îµ
ĠÏĢÏģÎ±Î³Î¼Î±ÏĦÎ¹Îº á½´
ĠÎ¼Î¹ á¾¶ÏĤ
ĠÎ´ÎµÎ¾Î¹ á½¸Î½
ÎºÎ¿ ÏĥÎ¹
Ġá¼ĲÎ» Î¸
ÏĦÎ¹Î½ ÎµÏĤ
ĠÎ²á½± Î¸Î¿ÏĤ
Ġá½ģÏĢ Î¿á¿ĸ
Ġá¼ĲÏĢÎ¹ÏĦÎ· Î´ÎµÎ¹
Ġá¼ĲÏĢÎ¹ÏĦÎ· Î´Îµá½·
Ġá¼ĲÎ½Î±Î½ Î¸ÏģÏīÏĢ
Ġá¼ĲÎ»á½³Î³ ÏĩÏīÎ½
ĠÎ¸ÏħÎ¼ Î¿á¿¦
ĠÎ´Î¹Î±ÏĨÎ¿ÏģÎ± á½·
ĠÏĦá½·Î½ Î¿ÏĤ
Ġá¼ĲÎ¼Î²Î¿Î» á¿ĨÏĤ
ĠÏĢÎ±ÏģÎ±Î´Îµá½·Î³ Î¼Î±ÏĦÎ¿ÏĤ
ĠÎ¼á½±ÏģÏĦÏħ ÏĤ
ĠÎłá½»Î» Î¿Ïħ
ĠÎ´ÎµÏĥÏĢ á½¹ÏĦÎ·ÏĤ
ĠÎĽÎ±ÎºÎµÎ´Î±Î¹Î¼Î¿Î½ á½·ÏīÎ½
Ġá¼ĲÎ½Î½ á½³Î±
ĠÏĥÏĦÎµÏģ á½µÏĥÎµÏīÏĤ
ĠÏĢá½³ÏĢ ÏģÎ±Îº
Ġá¿¬ ÏīÎ¼Î±
ĠÎ²ÏħÏģÏĥ Î¿
Ġá¼ĳÏī Ïħ
Ġá¼¦Î» Î¸ÎµÎ½
ĠÎµá½ĲÎ±Î³Î³ÎµÎ»Î¹ÏĥÏĦ á¿ĩ
Ġá¼ģÎ¼Î±ÏģÏĦÏī Î»
ĠÎļÎ±ÏĦÎ·Î³ Î¿Ïģá½·
Ġá¼ĢÏĥÏĢ á½·Î´Î±
ĠÎ¼á½±Î³ÎµÎ¹Ïģ Î¿ÏĤ
ĠÎ²Î¿á½»Î»Î· ÏĥÎ¹ÏĤ
Ġá¼ĲÎ¾ÎµÏĦÎ± Î¶
Î¼Î·Ïģ Î¿ÏĤ
ĠÏĨá½¹ Î²Î¿Î½
Ġá¼¸Î¿ÏħÎ´Î±á½· ÏīÎ½
á½³Î¼ÎµÎ¹Î½ Îµ
Ġá¼ĲÎ½á½³ÏģÎ³ ÎµÎ¹Î±Î½
Ġá¼ĦÎ»Î¿Î³ Î¿Î½
ĠÎ¼Î±Î» Î¸Î±Îº
ĠÎ½ÎµÏħ Ïģá½½
ĠÎ¼ÎµÏĦÏģá½· ÏīÏĤ
Ġá¼Ŀ Î»Î»
Ġá¼ĲÎ³ÎºÏīÎ¼Î¹ Î±ÏĥÏĦ
Ġá½ģÎ¼Î¿Î»Î¿Î³Î¿ÏħÎ¼á½³Î½ ÏīÏĤ
ÏĦ ÏģÎ¿ÏĢ
Î¹ ÏĥÎ¸
Îµ ÏĥÎ¹ÏĤ
Ïģ Î¿Î¹ÏĤ
Ïĥ ÏĢÎ±
Ïĥ á½±Î½ÏĦÏīÎ½
ÏĢ á½¹
ÏĢ ÏĢÎ¿Î½
Î» á½´Î½
Î¼ Î¿
Î¼ á½·Î±ÏĤ
ĠÎº Î·Î¼
Îº Ïī
Ïħ ÏĦÎ±Î¹
á½³ Î¿ÏĤ
á½³ ÏĥÎ±Î¹
á½³ ÏĥÎµÏīÏĤ
Ġá¼Ĳ Î»ÎµÏħÎ¸
ĠÎ´ Î±
Î³ Î±
á½± Î¼ÎµÎ½Î¿Î¹
á½¹ ÏĦ
á½¹ ÏģÎ¿Î½
Ġá¼Ģ Î²
Ġá¼Ģ ÏĥÎ±ÏĨ
ĠÎ¼ Î¹Î¼
ÏĨ ÏģÎ¿Î½
ÎµÎ¹ ÏĦÎ±Î¹
Î¿Ïħ Ïĥá¿¶Î½
á½» ÎµÎ¹
ÎµÎ½ á½¹
ĠÏĢÏģ Î¿Î½
ÏĦÎ¹ Î¿ÏĤ
Îµá¿ĸ Î±Î½
Ġá¼ĲÎ½ ÏĦá½¸ÏĤ
Ġá¼ĲÎ½ Î´Îµá½·ÎºÎ½Ïħ
Î¼Î± ÏĦá½¹ÏĤ
ĠÎ´Î¹ Îµ
Î¾ ÎµÏĦÎ±Î¹
Ġá¼Ķ Î²Î±Î»
Ġá¼Ķ ÏĢÎ±Î¹Î¾Îµ
Ġá¼Ķ ÏĨÎ±Î¼ÎµÎ½
ÏģÎ± á½¶
ĠÎ» Î±Î³
ĠÎ» ÎµÏĩ
Ġá½ħ ÏĤ
á½½ ÏĥÎµÎ¹ÏĤ
Ġá¼ĢÎ½ Î¿Î¼
á½¹Î½ Î¿ÏĤ
ÏĦÎ¿ á½¶
Ġá¼Ħ Î³ÏģÎ±ÏĨ
Ġá¼ĢÏĢ á½·
Îµá½· ÏīÏĤ
Îµá½· Î»Î±
ĠÏĥÏħ ÏĥÏĦ
Ġá¼ĲÎº ÏĨ
Ġá¼ĲÎº ÏĦÎµ
Ġá¼ĲÎº Î¸á½³ÏĥÎµÎ¹
ĠÏĢÏģÎ¿ ÏĦá½³ÏģÎ¿Ïħ
Î»Î· Ïģ
ĠÎ¸ Î±
ĠÎ¸ Îµá¿ĸÎ¿ÏĤ
ĠÎ² á½³Î»
Ġá½ĳÏĢ á½±Ïģ
ÏĪ Î±ÏĤ
á½µÏĥ Î¿ÏħÏĥÎ¹Î½
Î»Îµ Î¿Î½
ĠÏĦÎµ Î»Îµ
Ïĥá½· Î¿Î¹ÏĤ
ĠÏĢÎ±Ïģ Î±Î½
ÏĦá½· Î¸Î·ÏĥÎ¹Î½
ĠÏĦÎ± ÏĢÎµÎ¹Î½
Î»Î± á¿ĸÏĤ
ĠÎ´Î¹Î± ÏĥÏĦÏģÎ¿ÏĨ
ĠÎ´Î¹Î± Î»ÎµÎº
ĠÏĢÎ¿Î¹ Î¿á¿¦Î½
Ġá¼ĲÎ¾ Î·Ïģ
Ġá¼ĲÎ¾ Îµá¿ĸÎ½Î±Î¹
ÏĦÎ¹Îº á½¸ÏĤ
ĠÎµá¼´ ÏĢÎµÏģ
Î´Îµ ÏĥÎ¼
Î¿Î³ Î³
ĠÏĩÏģ Î¿Î½
á½±Î» Ïħ
Î±Î» Î¹
ĠÏĥÏħÎ½ á½³ÏĥÏĦÎ·ÎºÎµ
ĠÏĥÏħÎ½ á½³ÏĥÏĦÎ·ÎºÎµÎ½
Ġá¼ĦÎ»Î» Î¿Î½
Ġá¼ĦÎ»Î» Î±Î¹ÏĤ
Ġá¼Ī Î½
ÏĦá½³Ïģ á¾³
ĠÎ´á½³ ÏĩÎµÏĦÎ±Î¹
ĠÎºÎ±Î¸ á½¸
ĠÏĢá½±Î½ ÏĦÎ·
ĠÎĺ Ïģá¾´
Ġá¼ĢÎ³ Î½
ĠÏĢÎ±ÏģÎ± Î´á½·Î´Ïī
ĠÎ¿á¼· ÏĥÎ¹
Î±á½· Î±
ĠÏĢÎµÏģÎ¹ ÏĥÏĦÎ±
Î·Îº á½¹ÏĦÎ¿ÏĤ
ĠÎ³Îµ Ïī
ĠÎ¼Î· Î´á½³
á½½Î½ Î·Î½
Î´ÎµÎ¹ ÎºÏĦÎ±Î¹
Ġá¼ĢÎ½Î± ÏĦÎ¿Î¼
ĠÎºÎ±Î» Î¿á¿¦
ĠÎºÎ±Î» á½¸Î½
ĠÎºÎ±Î» Î¿á¿¦Î½ÏĦÎ±Î¹
ÎµÎº Î»Î¹
Î¼Îµ ÏĦÎ±
Î¼Î¹ ÏĥÏħ
Î¼Î¹ Î¼ÎµÏģ
ĠÏĢÎ¿Î¹á½¹ÏĦÎ· ÏĦÎµÏĤ
ĠÎµá½ Ĺ
Ġá½ķ Î»á¿ĥ
ĠÏĢÎ±Î½ Î¿ÏħÏģÎ³
ĠÎ¼á½³ ÏĥÎ±
Ġá¼ł Î¸
á½·Î¶ ÎµÏĦÎ±Î¹
Ġá¼ĪÏģÎ¹ÏĥÏĦ Î¿ÏĨá½±Î½
Ġá¼¥ Î¼Î¹ÏĥÏħ
ĠÎºÎ±Îº Î¿á¿¦
ĠÎ¼ÎµÎ³ á½³
ĠÏĦá½³ Î¸ÎµÎ¹
ĠÎ²Î¿Ïħ Î»ÎµÏħ
Î¾Î± Î¼ÎµÎ½
ĠÎ½Î¿ Îµá¿ĸÎ½
Î¾Îµ ÏīÎ½
á½±Î¼ Î·Î½
ĠÏĪÏħÏĩ á½´Î½
ĠÎ§ÏģÎ¹ÏĥÏĦ á½¹ÏĤ
ĠÎ¸á½± ÏĦÎµÏģÎ±
ĠÏĥÎ·Î¼ Îµá¿ĸÎ±
ĠÏĢÎ»Îµá½· Î¿ÏħÏĤ
á¼ĲÎ½ ÏĦÎ±á¿¦Î¸Î±
ĠÎ´Î¹Î±ÏĨÎ¿Ïģ á½°ÏĤ
Ġá¼ĲÏĢá½· ÏĥÏĦÎ±
ÏģÏħ Î¸
Ġá¼ĢÏĥ á½½
Î¤ á½°
Ġá¼ĢÎ»Î·Î¸ Î¹Î½
Ġá¼ĢÎ»Î·Î¸ á¿Ĩ
ĠÏĢÎ¿Î»Î¹ Î¿ÏģÎº
Ġá¼ģÏĢÎ» á¾¶
ĠÎ´ÎµÏħ ÏĦá½³ÏģÎ±ÏĤ
Î¿ÏħÎ¼á½³Î½ Î·ÏĤ
á¼ĺ Î¶á½µÏĦÎ·ÏĦÎ±Î¹
ĠÏĥÎºá½³Î» ÎµÎ¹
ĠÎ¿á½ĲÎ´Îµ Î¼á½·Î±Î½
ĠÏĥÏħÎ»Î»Î¿Î³Î¹ÏĥÎ¼ Î¿á¿¦
ĠÏĦÎ¿Î¹Î±á½» ÏĦÎ·ÏĤ
ĠÏĨÎ¸ á½±ÏĥÎ±
ĠÎ´Î¹Î±Î¹Ïģ á½³ÏĥÎµÎ¹
Ġá½ħÎ¼Î¿Î¹ Î±
ÏĥÎ¸Îµ ÏĥÎ¹ÏĤ
ĠÎ¼ÎµÏĦá½± Î¸ÎµÏĥÎ¹ÏĤ
Ġá¼ĢÏģÎ¹ÏĥÏĦ á½³Î±
ĠÎ¼Î±Îº Ïģá½¹
ĠÎºÎ±Î¸Î± Ïģ
Ġá¼°ÏĥÏĩÏħÏģ á¿¶ÏĤ
ÏĦÎ¿á½» ÏĦÏīÎ½
ÏĦÎ¿á½» Î¼ÎµÎ½Î¿Î½
ĠÎłÎ»á½±ÏĦÏīÎ½ Î¿ÏĤ
ĠÎ±á½ĳ ÏĦÎ¿á¿¦
á½³ÏĢ ÎµÎ¹Î½
Î¸ÎµÎ¹ Î±
Ġá¼ĢÎ»Î»Î±Î½ÏĦÎ¿ÏĢá½½ Î»Î¿Ïħ
ĠÎ¼ÎµÏĦá½³ ÏĩÎµÎ¹
Îºá½±Î¶ ÎµÎ¹Î½
ĠÎ´Îµá½·ÎºÎ½Ïħ ÏĦÎ±Î¹
Ġá¼ĦÏĦÎ¿ Î¼Î¿Î½
ĠÏĥÏĨÎ¿Î½Î´á½»Î» Î¿ÏħÏĤ
ĠÎ´Î¹Î±Îº Ïģá½·Î½
Ġá¼¤Îº Î¿Ïħ
ĠÏĨÎ±Î½ÎµÏģ á¿¶ÏĤ
Ġá¿¥á½µÏĦÎ¿ ÏģÎµÏĤ
ĠÏĢÎ±ÏģÎµ Î»Î·Î»ÏħÎ¸
ĠÎ¸Î±Î½á½± ÏĦá¿³
Ġá¼¥Î»Î¹ Î¿Î½
ĠÎ´ÏħÎ½á½± Î¼ÎµÎ½Î¿Î½
ĠÎ´Î¹ÏīÏģÎ¹Ïĥ Î¼á½³Î½Î¿Ïħ
ĠÏĥÏĦá½¹ Î¼Î±ÏĦÎ¹
Ġá¼ĢÎºÎ±ÏĦá½±Î»Î·Îº ÏĦÎ¿Î¹
ĠÏĦÎ¿á½»ÏĦÎ¿Î¹ ÏĥÎ¹Î½
Ġá¼¸ÏĥÏģÎ± á½µÎ»
ĠÎºá½¹ÏĥÎ¼ Î¿Ïħ
ĠÎ´Î¹Î´Î±ÏĥÎºÎ± Î»á½·Î±ÏĤ
Ġá¼ĲÎ¼Î²á½±Î»Î» ÎµÎ¹Î½
ĠÏĥÏĩá½³ ÏĥÎ¹ÏĤ
ÏĥÏħ Î¼Î²
ĠÏĦÎ¿á½Ĳ ÏĢá½·ÏĥÏī
ĠÏĢÎ»á½± ÏĦÎ¿ÏĤ
Ġá¼ĶÎ³ÏģÎ±ÏĪ ÎµÎ½
ĠÏĦá½³Î¼Î½ ÎµÏĦÎ±Î¹
ĠÏĥÏĨÏģÎ±Î³á¿ĸ Î´Î±
ĠÎ´á½·Î´Ïī ÏĥÎ¹
Ġá¼±Î¼á½± ÏĦÎ¹Î¿Î½
ĠÏĦÎµÏĦÏģá½± Î¼ÎµÏĦÏģÎ¿Î¹
ĠÏĢÎ»á½±Î³ Î¹Î¿Î½
ĠÏĢá¿Ĩ Ïĩ
ĠÏĢá½³ÏģÎ± ÏĦÎ±
ĠÏĨÎ»Îµ Î²
ĠÎ±á¼±Î¼ Î¿á¿¤á¿¥
ĠÏĨÎ±ÏģÎ¼á½± ÎºÏīÎ½
Ġá¼ĲÎºÎºÎ»Î·Ïĥá½· Î±Î¹ÏĤ
ĠÎłÎµÎ» Î¿ÏĢÎ¿Î½
Î §
ÏĦ ÏĦÎ±Î½
ÏĦ ÏħÎ»
ÏĦ á½´Ïģ
Î± ÏĥÎ¹Î½
Î¿ Î¾
Î¹ ÏĥÎµÎ½
Îµ ÏĦá½°
Îµ ÏĥÎ¸Î±á½·
Ïģ ÏĢ
Ïģ ÏīÏĤ
ÏĢ Î»á½±
ÏĢ á½±Î»Î¹Î½
ÏĢ ÏĦÎµÏĦÎ±Î¹
Î» á½¹
Î» Î¹Îº
Î· ÏĥÎ±
á½³ Î±ÏĤ
á½³ Î»Î±Î²
ĠÎºÎ± Î»Î»
Ġá¼Ĳ ÏĥÏĩá½±
ĠÎ´ ÎµÎ»
Î¸ ÏģÎ·
ÏĨ Ïģá½±
ÎµÎ¹ á¿¶Î½
Î¿Ïħ ÎºÏħ
á½» ÎµÏĦÎ±Î¹
á½» ÎµÎ¹Î½
ÏĥÏĦ Î¿Î¹
ÏĥÏĦ ÎµÏģÎ±
ĠÎ³ Î¿Î½
ĠÎ³ ÏīÎ½
ĠÎ³ Ïģá½±Î¼
Î±Î½ ÏĦÎ¿ÏĤ
Î¼Î± Î³
Î¼Î± Î¸
ĠÎ´Î¹ á½±ÎºÏģÎ¹
Ġá¼Ķ Î¸Î·
Ġá¼ĲÏĢ Î·Î³Î³
ĠÎ» Î¹
Ġá½ģ ÏĦÎ¹
Ġá½ģ Ïģá¿¶Î½
ĠÏĨ Î±Î¹Î½
á¿¶Î½ Î±ÏĤ
á½½ Î´Î·ÏĤ
ÏĦÎµ á½·
ÏĦÎ¿ ÏĢÎ¿Î¹
Î¹Î½ á½½ÏĥÎº
ÎºÎ± ÏĥÎ¹Î½
Ġá¼Ħ Î´Î·Î»Î¿Î½
ĠÏĢÎ± Î¸Îµá¿ĸÎ½
ĠÏĢÎ± Î¸á¿¶Î½
ĠÏĩ á½»
ĠÏĢÏģÎ¿ ÏĥÏĦÎ¹
á¿Ĩ Î»Î¿Î½
á¿¦ ÏĦÎ±Î¹
ĠÎ¸ Îµá½·Î¿Ïħ
Î¶ Î¿Î½ÏĦÎ±Î¹
Î¿Î» Î¿Î½
Î¿Î» Î¿á½»
Ġá½ĳÏĢ á¿Ĩ
á½·Î½ Î·Î½
á½·Î½ Î¿Î½ÏĦÎ±
ÏĪ Îµ
ĠÏĢÎ±Ïģ á½¹Î½ÏĦÎ¿ÏĤ
ĠÏĦÎ± Ïħ
ĠÏĦá¿ĩ ÏĥÎ¹
Î·Î½ ÏĦÎ±Î¹
ĠÎ´Î¹Î± Î»Î±Î²Îµá¿ĸÎ½
ĠÏĢÎ¿Î¹ Îµá¿ĸÏĦÎ±Î¹
ĠÏĢÎ¿Î¹ Î¿á¿¦ÏĥÎ¹Î½
ĠÏĢÎ¿Î¹ á½³ÎµÏĥÎ¸Î±Î¹
Ġá¼ĲÏĢÎ¹ ÏĦá½µÎ´ÎµÎ¹
Ġá¼ĲÎ¾ Î¹
Ġá¼ĲÎ¾ á½·ÏĥÏĩ
ÏĦÎ¹Îº á½°ÏĤ
ÎµÏħ Î³
ĠÎµá¼´ ÏĥÎ¸ÎµÏĥÎ¹ÏĤ
Ġá¿¥ Î¿Î¼ÏĨ
ÏĥÎµ ÏĥÎ¹
ĠÏĩÏģ á½µ
Îµá½» ÏĤ
ĠÏĥÏħÎ½ á½µ
Ġá¼ĦÎ»Î» Î·ÏĤ
ÏĥÎ¼ Î¿á¿¦
á½±Î³ ÏīÎ½
Ġá½Ħ ÏģÎ½
ĠÎºÎ±Î¸ á½³
ĠÎł Î±Î½
ĠÏĢá½±Î½ ÏĦá¿ĥ
Î»á½· á¾³
Ġá¼¡Î¼ ÎµÏģá¿¶Î½
ĠÎĺ Î¿ÏħÎºÏħ
á½³Ïĩ ÎµÎ¹Î½
ĠÏĢÎ±ÏģÎ± Î»Î¿Î³
ĠÏĥÎº á½¹
Î¿Î¼ Î¿Î»
ĠÏĦÎ¿Î¹ á½¹Î½
ĠÏĢÎµÏģÎ¹ ÏĦ
ĠÏĪ á½»
ĠÎ³Îµ Î»Î±ÏĥÏĦ
Ġá¼ĲÎ³ Ïĩ
Ġá½ģÎ¼ ÏīÎ½á½»Î¼ÏīÎ½
á½±Î¶ ÎµÏĥÎ¸Î±Î¹
Ġá¼ĢÎ½Î± ÏĨá½»
Î¼Îµ ÏĦÏģÎ±
ĠÎ³ÎµÎ½ á¿¶Î½
ĠÎ³ÎµÎ½ Î¿Î¼á½³Î½Î¿Ïħ
Î¿ÏĢ á½½
Ġá¼ĢÏĨ Î¹ÎºÎ½
ĠÎµá¼°ÏĢ á½½Î½
Î¼Î¹ Î±
Ġá¼ĢÏģÏĩ á½µ
Ġá¼ĶÎ½ Î½Î¿Î¹Î±Î½
Ġá½ķ Î²
Ġá½ķ Î»Î·
ĠÎºÎ¿Î¹Î½ á½¹Î½
ĠÏĨÎ± ÏĥÎ¹
ĠÏĨÎ± Ïĥá½¶
Î´Î¿ ÏĦÎ±Î¹
ĠÎºÏģá½· ÏĥÎµÏīÏĤ
á½·Î¶ ÎµÏĥÎ¸Î±Î¹
á¼Ķ ÏĢÎ±Î¹Î¾Îµ
ĠÎ³Î½ á¿¶Î½Î±Î¹
ĠÎ¼ÎµÎ³ á½·ÏĥÏĦ
Îµá¼° Ïĥá½¶
ĠÏĢá½±Ïĥ Î±Î¹ÏĤ
Ġá½ĳÏĢÎ¿ Î´
ĠÎ½á½¹Î¼ Î¿Î¹
ĠÎ¼á½µ ÏĢÏī
ĠÏĢÏģÎ¿ÏĨ Î·ÏĦÎµ
ÏĥÎ¸á½³Î½ ÏĦÎ¿ÏĤ
ĠÎ§ÏģÎ¹ÏĥÏĦ á½¸ÏĤ
Î·Ïģá½· Î¿Ïħ
ĠÎ¸á½± ÏĦÎµÏģÎ¿Î½
ĠÎ»Î¿Î³ Î¹ÏĥÎ¼
ĠÏĥÏĦÏģÎ± ÏĦÎ¹
ĠÎ½Î¿Î¼ Î¹Îºá¿¶Î½
ÏģÏħ ÏĤ
ĠÎ´á½¹ Î¾á¿ĥ
Ġá¼ĦÏĩ ÏģÎ·
ĠÏħá¼± á½¹ÏĤ
ĠÏĢÎ»Î· Ïģ
ĠÎ´ÎµÏħ ÏĦá½³ÏģÎ¿Ïħ
ĠÏĨÎµá½»Î³ Î¿Î½ÏĦÎ±
ĠÏĥÏĦá½±Ïĥ ÎµÎ¹
ĠÏĥÏĦá½±Ïĥ ÎµÏĥÎ¹Î½
á½¹Î´ á¿³
Ġá¼ĳÎ±ÏħÏĦ á¿ĨÏĤ
ĠÎºá½» ÏĨ
ĠÎĶÎ·Î¼Î¿ÏĥÎ¸á½³Î½ Î¿ÏħÏĤ
Î»Î±Î¼Î²á½±Î½ ÎµÏĦÎ±Î¹
Ġá¼ĢÏģÎ¹Î¸Î¼ á¿·
ĠÏĩÎµÎ¹Ïģ á¿¶Î½
ĠÏĥÎ¹ ÏĦ
Ġá½ģÎ¼Î¿Î»Î¿Î³ Îµá¿ĸ
ĠÎ³á½³Î³ ÏģÎ±ÏĢÏĦÎ±Î¹
ĠÏĢÎ±ÏģÎ±Î³ÏģÎ±ÏĨ Î¹ÎºÎ¿á¿¦
Ġá¼°Î´á½· Î¿Ïħ
ĠÏĩÎµá¿ĸ ÏģÎ¿Î½
ĠÎ¼ÎµÏĦá½³ Ïĩ
ĠÎ¸ÎµÏģÎ¼ á½¸Î½
ĠÎ³Ïģá½±ÏĨ ÏīÎ½
ĠÏĢÎ±á¿ĸ Î´ÎµÏĤ
Ġá¼ĲÎ» ÏĢá½·
ĠÎ¸á½³ ÏĥÎµÏīÏĤ
Ġá¼ĢÎ´á½» Î½Î±
ÏĦÎ¹Î½ á½²ÏĤ
ĠÎ¿á¼µ ÏĦÎ¹Î½ÎµÏĤ
ĠÎºÎ±ÏĦÎ±ÏĨ ÏģÎ¿Î½
ĠÎ³ÏħÎ½Î±Î¹ Îºá½¸ÏĤ
ĠÎ³ÏħÎ½Î±Î¹ Îºá¿¶Î½
Ġá½ģÏģÎ¹ÏĥÎ¼ á½¸ÏĤ
ĠÏĨÎ±Î½ÎµÏģ á½¸Î½
ĠÏĢÎ»Îµá¿ĸ ÏĥÏĦÎ±
ĠÏĢÎ»ÎµÏħÏģ á¿¶Î½
ĠÎ³Ïģá½±ÏĪ Î¿Î½
Ġá¼¤Î½ Î¿Î¹
ĠÎ¸Î±Î»á½±Ïĥ Ïĥá¿ĥ
ĠÎºÎ¿Ïģ ÏīÎ½á½·
Ġá¼ĶÏģÏĩ ÎµÏĦÎ±Î¹
ĠÏĩÏģÏħÏĥ Î¿á¿¦Î½
Ġá¼ĢÎºÎ±ÏĦá½±Î»Î·Îº ÏĦÎ¿Î½
ĠÎ¼Î¿Ïĩ Î»
ĠÏĢá½·ÏĥÏĦ ÎµÎ¹ÏĤ
Ġá¼ģÏģ Î¼Î¿Î½
Ġá¼ĲÎ¼ÏĢÎµÏĥ Îµá¿ĸÏĦÎ±Î¹
ĠÏĥÏĦÎ¿Î¹Ïĩ Îµá¿ĸÎ±
ĠÏĢá½³Î¼ÏĢ ÏĦÎ¿Î½
ĠÎºá½»ÏģÎ¹ Î¿Î½
ĠÎºÎ±ÏĦá½µÎ³Î¿Ïģ Î¿Î½
ĠÎ»ÎµÎ¹ ÏĦÎ¿ÏħÏģÎ³
ÏģÎ·Î½ ÏĦÎ±Î¹
Ġá¼ĶÏĥÏĩ Î±
ĠÎĶá¿Ĩ Î¼Î¿Î½
ĠÎµá½ĳÏģ Îµá¿ĸÎ½
Ġá¼ģÎ¼Î±ÏģÏĦÏī Î»á¿¶Î½
Ġá¼ĲÎ¾ÎµÏĦá½± Î¶ÎµÏĦÎ±Î¹
ÏĢÏĦÎ¿Ïħ ÏĥÎ¹Î½
ĠÏĥÏĦÎ± ÏħÏģ
ĠÎ¼ÎµÏĦÎ±Î»á½µÏĪ ÎµÏīÏĤ
ĠÎºÏĦá½· ÏĥÎµÏīÏĤ
Î²á½± Î»Î»Î¿Î½
ĠÎµá½ĲÏĩ ÎµÏģá¿¶ÏĤ
ĠÏĦá½»ÏģÎ±Î½ Î½Î¿Î½
Ġá¼ĲÎ´Îµ á½µÎ¸Î·
ĠÎ¸á½½ ÏģÎ±
Ġá¼ĢÎ½ÏĦÎ¹ÏĩÏģá½·ÏĥÏĦ Î¿Ïħ
ĠÏĢÎ±Î½ÏĦÎ¿ ÎºÏģá½±
ĠÏĥÎ¹Î½Î±Ïģ á½¸Î½
ĠÏĢÏģÏħÏĦÎ±Î½ Îµá½·á¿³
ĠÏĨÎ»ÎµÎ³ Î¼Î¿Î½
á½½Î½ÏħÎ¼ Î¿ÏĤ
ĠÏĢÏģÎ¿Î´Î¿ Ïĥá½·Î±ÏĤ
ĠÏĥÏħÎ½á½± ÏĢÏĦÎµÎ¹
Ġá¼ĢÎ½Î±Î³ÎºÎ±á¿ĸ á½¹Î½
ĠÎ´Î±Î¹Î¼ á½¹Î½ÏīÎ½
Ġá¼ĲÏĢá½±Î½ Ïī
Î»Î±ÏĥÏĨ Î·Î¼
á¼ĺÏĢ ÎµÎ¹Î´á½´
Ġá¼ĢÏĥÏħÏĥÏĦ á½±ÏĦÏīÎ½
ĠÎ±á¼°Ïĩ Î¼Î±
Ġá½į Î¼Î·ÏģÎ¿ÏĤ
ĠÎºá½½Î» ÏīÎ½
ĠÏĢá½³ÏĢÏģÎ±Îº ÏĦÎ±Î¹
ĠÎĺÎ¿ÏħÎºÏħ Î´á½·
Î ¦
Î½ Î·ÏĤ
Î½ ÏħÎ½
ĠÎ ŀ
Î¿ Î´Î¿Î½
á¼ ¤
Ïĥ ÎµÏĦÎ±Î¹
Î» Î±Î½ÏĦÎ±
Î¼ á½¹Î½
ĠÎº ÏģÎ·
ĠÎº á½±Ïģ
Ïħ Î»Î»
á½· ÏĥÎº
á½³ ÏĦ
ĠÎºÎ± Î»á½³
Ġá¼Ĳ Î¶
Ġá¼Ĳ á½±Î½
Î¸ á½²Î½
Ġá¼Ģ á½³ÏģÎ¿ÏĤ
ĠÎ¼ Î¿Î»
ĠÎ¼ á¿¦ÏĤ
Ïĩ Î¿Î¹
ÏĨ ÎµÎ¹
ÏĥÏĦ ÎµÏģ
ÏĥÏĦ á½³Ïģ
Î±Î¹ ÏģÎµ
á¿ĸ Î½Î±
Î±Î½ á½¸ÏĤ
á½µ ÏģÏħ
ĠÏĥ á¿¦
ĠÏĥ á½±Î»ÏĢÎ¹
Ġá¼ĲÎ½ Î¸
Î¾ ÎµÎ¹Î½
Ġá¼Ķ ÏĥÎ¿Î½ÏĦÎ±Î¹
ĠÎ±á½ĲÏĦ á½±
ÏģÎ± Î¸á¿¶Î½
ĠÎ» á¿ĥ
ĠÎ» ÎµÎº
ĠÎ» á½µÎ³
ĠÎ» Î¹Î¼
ĠÎµá¼° Îºá½¸ÏĤ
ĠÏĨ Î¿Î½
ĠÏĨ á½±
ĠÏĨ Î±Î³Îµá¿ĸÎ½
Ġá¼¡ Î´Î¿Î½
Ġá¼ĢÎ½ ÏĦá½³
ÏĦÎµ ÏĦÎ±Î³
á½¹Î½ Î¹
Ġá¼ĲÎº ÏĦÎµá½·Î½
Î½Î± á½·
Î¹Îº á¿·
Î¶ Î¿ÏħÏĥÎ¹Î½
ĠÎ² Î»Î±ÏĥÏĨÎ·Î¼
ĠÎ½ á½µ
ĠÎ½ Î¿á¿¦ÏĤ
Ġá¼ĳ ÏĦÎ¿á½·
Ġá¼ĳ ÏĨÎ¸Î·
ÏĪ á½»
á½µÏĥ ÎµÏĥÎ¸Î±Î¹
á½µÏĥ Î¿ÏħÏĥÎ¹
á¿ĥ ÏĥÎ¹
ĠÏĢÎ±Ïģ ÏīÎ½á½»Î¼ÏīÏĤ
Ġá¼ĶÏĩ Î¿Î¼ÎµÎ½
Ġá¼ĶÏĩ Î¿Î½ÏĦÎ¹
ĠÎ´Î¹Î± Î³
ĠÏĢÎ¿Î¹ Î·Ïĥ
Ġá¼ĲÏĢÎ¹ Î²
Ġá¼ĲÏĢÎ¹ Î¼ÎµÎ»
Ġá¼ĲÎ¾ Î±á½·
Ġá¼ĲÎ¾ Î±ÏĢÎ±
ĠÏĥÏĦ Ïģ
ĠÏĥÏĦ á¿ĨÎ¸Î¿ÏĤ
ĠÎµá¼´ Ïī
Î´Îµ Ïĩ
Ġá¿¥ Î¹Î½
Ġá¿¥ á½±Î²
ĠÎºÎ±ÏĦÎ± Î³Î½
á½±Î» ÏīÎ½
ÏģÎ¿ ÏĦá½±
Ġá¼Ī Î»Îº
Ġá¼ķ Î´
Ġá¼ķ ÏĦÎµÏģá½¹Î½
Î¿Î¼á½³Î½ Î±ÏĤ
ÏĦá½± ÏĢÎ±
Î¼ÏĨ Ïī
Ġá¼ĢÎ³ Î¼á¿¶Î½
ĠÏĢÎ±ÏģÎ± ÏĥÎºÎµÏħ
ĠÏĦÎ¹Î½ Î±ÏĤ
Ġá¼ĢÏĢÎ¿ ÏĢ
Ġá¼ĢÏĢÎ¿ Î´Î¹
Ġá¼ĢÏĢÎ¿ Î¸Î±Î½
Ġá¼ĢÏĢÎ¿ ÏĨá½»
ĠÎ¿á¼· Î±
ĠÏĦá½· Î¸
Ġá½ĦÎ½ ÏĦÎ¹
Ġá½ĦÎ½ ÏĦÏīÏĤ
ÏĦÏģ ÏīÎ½
ÏĦÏģ á½¹ÏĢ
á½¹Î¼ ÏīÎ½
Î±Î½ÏĦá½· Î¿Î½
ĠÏĢÎ¿Î» á½»
á½±Î¶ ÏīÎ½
ĠÎ¸Îµ Î¿á¿¦
ĠÎ¸Îµ á¿¶Î½
ĠÎ¸Îµ á¿·
Ġá¼ĢÎ½Î± Î²Î±
ĠÎºÎ±Î» Î¿á¿¦ÏĥÎ¹Î½
á¼° ÏĥÏĦá½³Î¿Î½
ÎµÎº ÎµÎ½
Ġá¼ĢÎ¼ÏĨ Î¹Î²
ĠÎ³ÎµÎ½ Î¿Î¼á½³Î½Î·ÏĤ
Î»á½± Î²
Ġá¼ĢÏĨ Î±Î¹Ïģ
Ġá¾ Ķ
Ġá¼ĢÏģÏĩ Î±
Ġá¼ĢÏģÏĩ á½°ÏĤ
ÏħÎ³ Î±
ĠÏĦá½± Î¾ÎµÎ¹
Ġá½ķ ÏĢÎ±Ïģ
ĠÎ´Îµ Ïĩ
á¿ĸÎ½ Î±Î¹
ĠÎ¼á½³ Î¼Î½Î·ÏĦÎ±Î¹
ĠÎ£ Î±Î»Î±Î¼
ĠÎ»Î± Î¼Î²Î±Î½
Î·Î¼Î± ÏĦá½·
ĠÏĢÏģá½±Î³ Î¼Î±ÏĥÎ¹Î½
Î´á½³ ÏĪ
ÏĥÏĦá½³ Î»Î»
Îµá¼° Îºá½¹ÏĦÏīÏĤ
Ġá½ĳÏĢÎ¿ Î¼Î¿Î½
Ġá¼ĲÎ¼ÏĢ á½³Ïĥá¿ĥ
ĠÏĢÏģá½½ ÏĦÏīÎ½
ĠÎºÎ±ÏĦÎ·Î³Î¿Ïģá½· Î±Î¹ÏĤ
Ġá¼ĲÎ¼ Î¿á½¶
ĠÎ¼ÎµÏĦ á½½ÏĢ
Ġá½ĳÏĢÎµÏģ Î²Î¿Î»
Ġá¼ĢÎ½á½±Î³ Î¿Î½ÏĦÎ±Î¹
Ġá¼ĲÏĢá½· Î´Îµ
ÏĥÏĥ Î¿Ïħ
Ġá¼ĢÏĥ á½±ÏĨ
Ġá¼ĢÎ»Î·Î¸ á½²ÏĤ
Î»Î±Î² á½¼Î½
ĠÎ½Î± á¿¦ÏĤ
ĠÏĥá½½ Î¼Î±ÏĦÎ±
Ġá½ĳÏĢá½±ÏģÏĩ ÎµÎ¹Î½
ĠÎ¼á½³Ïĥ Î¿Ïħ
ĠÎ´ÎµÏħ ÏĦá½³Ïģá¿³
Î¸Îµá¿ĸÎ½ Î±Î¹
Ġá¼ĢÎ¼ Îµá½·
ĠÏĦÎ¿Î¹Î¿á½» ÏĦÎ¿Î¹
Ġá¼ĲÏĩÏģ á¿¶Î½ÏĦÎ¿
ĠÎºÎ±Î¹ Ïģá½¸ÏĤ
ĠÎºÎ±Î¹ Ïģá¿·
Ġá¼ĲÎ¸ á½³Î»
ĠÎºá½» ÏīÎ½
Ġá¼ĲÎºÎºÎ»Î· Ïĥá½·á¾³
ĠÎ´Î±Îº Ïģá½»
ĠÏĢá½³Î½ Î·ÏĤ
ĠÎ¼á½³Î»Î» Î¿Î½ÏĦÎ±
ĠÏĥÎ¹ Î´Î·
ĠÎ´Î¹ÏĢÎ» Î¿á¿¦Î½
ĠÎ³ÏģÎ±ÏĨ á¿ĩ
Ġá¼°Î´á½· ÏīÎ½
Ġá¼°Î´á½· ÏīÏĤ
ĠÎºÎ±Î¸Î± Ïģá½¸Î½
Ġá¿¥Î·ÏĦÎ¿ÏģÎ¹Îº á½´Î½
ĠÎºÎµÏĨÎ±Î»Î± á½·Î¿Ïħ
ĠÎºÎµÏĨÎ±Î»Î± á½·Î¿Î¹ÏĤ
Ġá¼ĲÏģÎ³ Î±
ĠÏĦÏħÏģ á½±Î½Î½
Ġá¼ĦÎº ÏģÎ±
ĠÎ¼á½±Ïĩ Î¿Î½ÏĦÎ±Î¹
ĠÏĢÎ¿Î´ á¿¶Î½
ĠÎºÏħ ÏģÎ¹
ĠÎ»Î±Î¼Î²á½±Î½ ÎµÎ¹
ĠÏĢÏģÎ±Î³Î¼Î±ÏĦÎ¹Îº á¿ĩ
á½½ÏĦÎ± ÏĦÎ¿ÏĤ
ĠÎ¸ÎµÏģÎ¼ á½¹ÏĦÎ·ÏĤ
Ġá¼ĢÏĢÎ± ÏĦ
ĠÎ´Î¹ÎºÎ±ÏĥÏĦ á½µÏģÎ¹Î¿Î½
ĠÎ½Îµ ÏīÏĥÏĦ
ĠÏĥÎ±Ïģ Îºá½¸ÏĤ
ĠÏĥÏħÎ³Î³ ÏģÎ±ÏĨ
Ġá¼ĲÏĢÎ¹Î´á½³Ïĩ ÎµÏĥÎ¸Î±Î¹
ĠÏĥÏħÎ½Î± Î³
ĠÏĢÎ¿Î½Î·Ïģ á½¸Î½
Ġá½ģÏģÎ¹ÏĥÎ¼ á½¸Î½
Ġá¼ĲÏĢÎ¹ÏĦÎ· Î´Îµá½»
ĠÎłÎ± á¿¦
ĠÎłÎ± ÏĦÏģ
ĠÎ´Î·Î¼Î¿ Ïĥá½·á¾³
ĠÏĥÏĦá½³Ïģ Î·ÏĥÎ¹Î½
Î¹Î¶ á½¹Î¼ÎµÎ½Î¿ÏĤ
Ġá¼ĲÏĢÎµ Î¾
ĠÎ²Î¿ Î·Î¸
Ġá¼±ÏĢÏĢ á½³ÏīÎ½
ĠÏĦÏģÎ¿ÏĢ á¿ĩ
Ġá¼°Î±ÏĦÏģ á¿¶Î½
ĠÎ´á½³Ïģ Î¼Î±
ĠÏĥá½±Ïģ ÎºÎ±
ĠÎ²Î±Ïģ Î²
ĠÏĢÎ¿ÏģÎ½ Îµá½·Î±ÏĤ
ÏĢÏģ á¿¶ÏĦÎ¿Î½
Ġá½łÏĨ á½³Î»
ĠÎµá¼°Îº á½¹Î½Î±
Ġá¼±ÏĥÏĦÎ¿Ïģá½· Î±ÏĤ
Ġá½ģÏģá½· Î¶ÎµÏĦÎ±Î¹
ÏĦÎµÏĦÎ± Î¼á½³Î½Î¿Î½
ĠÏĦÎ¿á½Ĳ Î½
ĠÎºÏīÎ»á½» ÎµÎ¹
Ġá¼ĢÎ½Î±Î» Î¿Î³
ĠÏĢÏģÎ¿ÎµÎ¹ÏģÎ· Î¼á½³Î½ÏīÎ½
Ġá¼ĢÎ´ÏħÎ½Î± Î¼á½·Î±
Ġá¼ĲÎºÎ»Îµá½· ÏĢÎµÎ¹
ĠÎļÎ±ÏĦÎ·Î³ Î¿ÏģÎ¹á¿¶Î½
Ġá½ģÎ´Î¿Î¹ÏĢ Î¿Ïģá½·
ĠÎļÏģÎ±ÏĦ á½·Î½Î¿Ïħ
ĠÎĺÎµÎ¼Î¹ÏĥÏĦÎ¿Îº Î»á¿ĨÏĤ
ĠÎ¼Îµá½·Î¶Î¿Î½ Î±
Ġá¼ĶÎ»Î±Î² Îµ
ĠÏĥÎºá½³Î»Îµ Î¿ÏĤ
ĠÎ¼Î½Î· Î¼Î¿Î½
ĠÎłÎµÏģÎ¹Îº Î»á¿ĨÏĤ
Ġá¼ĢÏĢÎ¿ÎºÎ±Î»á½» ÏĪÎµÏīÏĤ
ÏĦá½·Î¸ ÎµÏĦÎ±Î¹
á½µÎ½ÎµÎ³ ÎºÎµ
ĠÏĥÏħÎ½Î±Î½ Î±Î¹Ïģ
Ġá¼ĢÏĢá½³ÎºÏĦÎµÎ¹Î½ Îµ
Ġá¼ĢÎ¸Ïģ á½¹
Ġá¼ĲÏĢÎµÎ¹Î´ á½°Î½
ĠÎµá¼°á½½Î¸Î± ÏĥÎ¹Î½
ĠÎ¿á¼¶Î½ Î¿Î½
Ġá¼ĶÎ¿Î¹ ÎºÎµ
ĠÎ³á½³Î½Ïħ Î¿ÏĤ
ĠÎłÎ½Îµá½» Î¼Î±ÏĦÎ¿ÏĤ
ĠÎ¼Î½á½µÎ¼ Î·Î½
Ġá½ķÏĪ Î¿ÏĤ
Îµá½»Î¸ÏħÎ½ Î¿Î½
Ġá¼ĪÎ»á½³Î¾Î±Î½ Î´ÏģÎ¿ÏĤ
ĠÎ¼Î·Îº á½³ÏĦÎ¹
ĠÏĢÏģá½¹ÏĥÎº ÎµÎ¹ÏĦÎ±Î¹
ĠÏĦÏģÎ¹á½µÏģ ÎµÎ¹ÏĤ
Ġá¼ĢÏĢá½· Î¸Î±Î½Î¿Î½
Îµá½·Î»Î± ÏĦÎ¿
ĠÎĺÏģá¾´ ÎºÎ·ÏĤ
ĠÎłÎµÎ»Î¿ÏĢÎ¿Î½ Î½Î·
Ġá¼ĢÎ½Î±ÏĨá½» ÎµÏĦÎ±Î¹
Ġá¼ĳÏĨÎ¸Î· Î¼Î¹Î¼ÎµÏģ
Ĩ ÏģÎ±
ÏĦ ÏĦÏī
Î½ ÏĦÎ¹Î½Î±
Î± á½·Î½ÎµÎ¹
Î± á½·Î½ÎµÎ¹Î½
Î¿ Î´á½·
á¼ µ
Ïģ Îµá¿ĸÎ½
Ïģ Î¿á½»
Î¼ Î¿á¿¦
Î¼ á½³Î»
ĠÎº ÎµÏģÎ±
Îº Î¿Î¹
Ïħ Î»á½±
ĠÏĢ á½±Î»Î±Î¹
ĠÎºÎ± ÏĦÎµÏģ
Ġá¼Ĳ ÏĦÎµ
Ġá¼Ĳ ÏģÎ·
Ïī ÏĦÎ±Î¹
Î³ Î¼Î±ÏĦÎ±
Î¿Î½ Î¿Î¼
Î¸ á½µÏĥÎ¿Î½ÏĦÎ±Î¹
Î¸ á½³ÏĥÎµÎ¹ÏĤ
á½¹ ÏĦÎµÏģÎ¿ÏĤ
Î´ á¿³
ÏĨ á½·
Î¿Ïħ ÏģÎ±Î½
á½» ÏĥÏĥÎ¿Ïħ
ÏĥÏĦ ÏīÏĤ
ÏĥÏĦ á½¹Î½
Î¿Î¹ Î¼ÎµÎ½
ÏĥÎ¹ ÎµÏĤ
Î±Î½ ÏĦÎµÏĤ
ĠÏĥ ÏĢÎ±Î½
á½³Î½ ÏĦÎ±
Ġá¼ĲÎ½ Îµ
Î¾ á½³
Ġá¼Ķ Î¾
Ġá¼ĲÏĢ Î¿á½·
Ġá¼ĲÏĢ Î±Î³ÏīÎ³
ĠÎ» Î·
Ġá½ģ Îºá½¹
ĠÎµá¼° Î´Ïī
Ġá¼¡ Î»Î¹Îº
Ġá¼ĢÎ½ Î¿
Ġá¼ĢÎ½ á½¹
Ġá¼ĢÎ½ Î±Î½ÏĦá½·
Ġá¼Ħ Î¼ÎµÎ¹Î½Î¿Î½
Ġá¼Ħ Î¼ÏĨÏī
Ġá¼ĢÏĢ Î±Ïģ
Ġá¼ĢÏĢ Î±á½·
ĠÏĩ Ïī
ĠÏĩ á½¹Î½
ĠÏĩ Î»Î¹
ĠÏĦÎ¿ Î¼
ĠÏĦá¿· Î´Îµ
ĠÏĢÏģÎ¿ Î´
ĠÏĢÏģÎ¿ Î²
ĠÏĢÏģÎ¿ ÎµÎ¹Ïģ
ĠÏĢÏģÎ¿ Î¿Î¹Î¼
á¿³ Î´
á½³Ïģ ÏĩÎµÏĦÎ±Î¹
ĠÎ¸ Î½
Î¹Îº á¿ĩ
Î¹Îº á½°ÏĤ
Î¶ Î¿Î½ÏĦÎ±
Î¶ á½¹Î¼ÎµÎ½Î¿ÏĤ
ĠÎ»á½³Î³ ÎµÎ¹ÏĤ
Î»Îµ ÎºÏĦÎ±Î¹
ĠÏĢÎ±Ïģ ÎµÏĥÏĦ
ĠÏĢÎ±Ïģ á½½Î½ÏħÎ¼Î±
Ġá¼ĶÏĩ Î¿ÏħÏĥÎ±Î½
Î¿á½» ÏģÎ³
ĠÏĢÎ¿Î¹ á½¹Î½
ÏĦÎ¹Îº ÏģÏħÏĤ
ĠÏĥÏĦ Î·Ïģá½·
ĠÎµá¼´ Î»Î·ÏĨ
ĠÏĢÎ¿ á½ºÏĤ
ĠÏĢÎ¿ ÏĦá½µÏģÎ¹Î¿Î½
Ġá¿¥ Î¿ÏĢ
ĠÎºÎ±ÏĦÎ± Î²
ĠÎºÎ±ÏĦÎ± Î½Î±Î³
á½±Î» ÎµÎ¹
á½±Î» á¿³
Î±Î» Îµá¿ĸÎ½
Ġá¼° Î´á½³
Îµá½» Î¿ÏħÏĥÎ¹Î½
Îµá½» ÏĥÎµÎ¹
ĠÏĥÏħÎ½ Î¸á½³
Î·ÏĦ á¿¶Î½
á¿ĩ ÏĤ
Î´Î¹ Î±ÏĨ
ĠÎļ á½¹
ĠÎ´á½³ Î¿Î½ÏĦÎ±Î¹
Î¿á½· Î¿Ïħ
Ġá½Ħ Ïĩ
ĠÎµá¼¶ ÎµÎ½
ÏĥÏĦÎ± ÏĥÎ¹ÏĤ
ĠÎł ÏħÎ¸
ĠÎł á½»Î»Î¿Î½
á¼Ĳ ÏĨ
Ġá¼¤ ÏĢÎµÏģ
Ġá¼ĢÏĢÎ¿ Î²
Ġá¼ĢÏĢÎ¿ ÏĥÏĦÎ±
Î·Î¼ Î¹
á½¹Î» á¿³
ĠÏĥÎº Î¿Ïģ
ĠÏĥÎº á½¹ÏĦÎ¿ÏĤ
Ġá½ĦÎ½ Î¿Î¼á½±
ÏĦÏģ á½³ÏĢ
Î¸Îµ ÏĦÎ¿
Ġá¼ĲÎ³ ÎºÎ±ÏĦÎ±
Ġá¼ĢÎº á½·Î½
Ġá¼ĢÎº Î¿Î»Î¿á½»
ĠÎ¼Î· Î´Î±Î¼
Ġá½ģÎ¼ ÏīÎ½á½»Î¼ÏīÏĤ
ĠÎ¸Îµ á½¸ÏĤ
Î´ÎµÎ¹ ÎºÎ½
ĠÏĢÎ¿Î»Î» á½±
á¿¦Î½ Î±Î¹
ĠÎ´Î¹Î±ÏĨ á½¹ÏģÎ¿ÏħÏĤ
Î¼Îµ ÏĦÏģá½·
Ġá¼ĢÎ¼ÏĨ á½¶
Ġá¾ ł
ĠÎĶ Î±Î½Î¹
á½»Î» Î±ÏĤ
Î¼Î¹ Î³
Ġá¼ĶÎ½ Î¹Î¿Î¹
ĠÏĢÎ¿Î¹á½¹ÏĦÎ· ÏĦÎ±ÏĤ
ĠÏĢÎ±Î½ ÏĦá½±ÏĢÎ±
Î´Î¿ ÏĥÎ¹ÏĤ
ÏħÎº ÎµÎ½
ĠÏĥÏĩ á½µÎ¼Î±ÏĦÎ¹
ĠÏĦÏģá½· ÏĦÎ¿Ïħ
ĠÏĦÏģá½· Î¼ÎµÏĦÏģÎ¿Î¹
ÏĥÏĢ Î¹ÏĤ
ĠÎ¼á½³Î½ ÎµÎ¹
Î¿ÏĦá½³ ÏģÎ±ÏĤ
ĠÎ¶Î·ÏĦ Îµá¿ĸÏĦÎ±Î¹
Ġá½ĳÏĢÎ¿Îº á½±ÏĦÏī
ĠÎ¼ÎµÎ³ Î±Î»
ÏĥÏĦá½³ ÏģÎ±ÏĤ
ĠÎ´Î¿Îº á¿ĩ
Ġá¼ĪÏģÎ¹ÏĥÏĦÎ¿ÏĦá½³ Î»ÎµÎ¹
ĠÎ²Î±ÏĥÎ¹ Î»Îµ
ĠÎ²Î±ÏĥÎ¹ Î»á½³ÏīÎ½
ĠÎ²Î±ÏĥÎ¹ Î»á½³ÏīÏĤ
ĠÏĢÏģá½½ ÏĦÎ·ÏĤ
ĠÏĢÏģá½½ ÏĦá¿³
ĠÎºÎ±ÏĦÎ±ÏĥÎºÎµÏħ Î±Î¶
Ġá¼ĲÎ¼ ÏĢÎµÏģÎ¹
ĠÎ§ÏģÎ¹ÏĥÏĦ á½¸Î½
ĠÎ¼ÎµÏĦ á½±ÏĥÏĦÎ±ÏĥÎ¹Î½
ĠÏĥÎ·Î¼ Îµá½·Î¿Ïħ
ĠÏĩÏģÎ· Î¼á½±ÏĦÏīÎ½
Ġá½ĢÎ½á½¹ Î¼Î±ÏĥÎ¹Î½
ĠÎ¼Ïħ Î¾
ĠÎ¼á½³Î³ Î±Î½
ĠÎ´Î¹Î±ÏĨÎ¿Ïģ á¾¶ÏĤ
ĠÎ»ÎµÏħÎº Î¿á¿¦
Ġá¼ĲÎºÎµá½·Î½ Î·Î½
ĠÎºá¼Ģ Î³
ĠÎ»á½³ Î¾Î¹ÏĤ
Ġá¼ĢÏĢÎ¿Îº á½±Î»Ïħ
ĠÎ²Î¹Î²Î»á½· Î±
Ġá½ħÎ» á¿³
á¼ĺ ÏĨ
ĠÏĥá½» Î¼ÏĢ
ĠÏĥÎ±ÏĨ á½³ÏĥÏĦÎµÏģÎ¿Î½
ÏĦÎ·Ïģá½· á¿³
ĠÏĦÎ¿Î¹Î±á½» ÏĦÎ±ÏĤ
ĠÏĢÎ¿Î½ Î·Ïģá½·
ĠÏĥÎ¹ ÏĦá½·
ÏĦÏģá½· Î²
ĠÏĥá½»Î½ ÏĦÎ±
ĠÏĢÎ±ÏģÎ±Î³ÏģÎ±ÏĨ á½´
ĠÎºÎ±ÏĦÎ±ÏĥÎºÎµÏħá½±Î¶ ÎµÏĦÎ±Î¹
ĠÏĢÏģÎ¿ÏĨá½µ ÏĦá¿ĥ
Ġá¼ĲÏģÎ³ Î±Î¶
Ġá¼ĳÎºÎ± ÏĦá½³ÏģÏī
Ġá¼ĦÎº ÏģÎ¿Î½
Ġá½ĢÎ½Î¿Î¼á½± Î¶ÎµÏĦÎ±Î¹
Ġá¼ĢÏĦ á½°Ïģ
ĠÎ¼á½±Ïĩ ÎµÏĦÎ±Î¹
ĠÎ´á½µ ÏĢÎ¿Ïħ
Ġá¼ĲÎºÏĢ Î¿Ïģ
ĠÎ¼Î¹ á¾·
Ġá¼´Ïĥ Î¿Ïħ
ĠÎ¼ÎµÎ³á½±Î» Î¿Ïħ
Ġá¼±ÎµÏģ á½¸Î½
ĠÎ´á½·ÎºÎ±Î¹ Î¿ÏĤ
ĠÎ£ÏīÎº Ïģá½±
Ġá½ĳÏĢÎ¿Î³ÏģÎ±ÏĨ á½´
Î¸Îµá½· ÏĥÎ·ÏĤ
ĠÎ²Î±ÏĥÎ¹Î» Îµá½·Î±ÏĤ
ĠÎ²á½± Î¸Ïģ
ĠÏĦá½³ÏĥÏĥÎ± ÏģÎµÏĤ
ĠÎ²ÏģÎ±Ïĩá½·Î¿Î½ Î±
ĠÎ´Î¹Î±ÏģÎ¸Ïģ á½½ÏĥÎµÎ¹
á¿ĨÎ» Î¸Îµ
ĠÎ´Ïģá½± ÎºÎ¿Î½ÏĦÎ±
Ïĥá½± ÏĦÏī
ĠÏĢÎµÏĢÎ¿Î½Î¸ á½¸ÏĤ
ĠÏĢÎµÏĢÎ¿Î½Î¸ á½¹ÏĦÎ¿ÏĤ
Ġá¼ĲÎ¾á½³ ÏĢÎµ
ĠÏĥÏħÎ¼ÏĨá½³Ïģ Î¿Î½ÏĦÎ¿ÏĤ
ĠÎºá¼ĢÎ½ ÏĦÎ±á¿¦Î¸Î±
Ġá¼ĢÎ½ÏĦÎ¹ÏĥÏĦÏģá½³ÏĨ Î¿Î½ÏĦÎ±
ÏĢÏģÎ¿ Ïĥ
Ġá½ĳÎ¼ á¾¶ÏĤ
ĠÎºÎ½á½µÎ¼ Î·Î½
ĠÎ¸á½³Î» ÎµÎ¹
ĠÏĦÎµÎ»ÎµÏħÏĦÎ± á¿ĸÎ¿Î½
ĠÎ´á½³Ïģ Î¼Î±ÏĦÎ¿ÏĤ
ĠÎ±á¼°á¿¶Î½ Î¿ÏĤ
Î¿á½ĲÎ´ á½²Î½
ĠÎ´ÏīÏģÎµ á¾¶ÏĤ
Î¿ÏģÎ¹Îº á¿¶ÏĤ
Î´á½¹Î½ ÏĦÎ±ÏĤ
ĠÏĥÏĢÎ¿Ïħ Î´Î±
ĠÏĢÏģÎ¿ÏĥÎ¸ á½µÎº
ĠÏĦÎ±Ïĩ á½³ÏīÏĤ
Ġá¼ħÎ³ Î¹Î¿ÏĤ
ĠÎ´ÎµÏĥÏĢ á½¹
Ġá½łÏĨ ÎµÎ»
Ġá¼ĲÎ»Î» Îµá½·
ĠÏĥÏĦÎ¿Î¹Ïĩ Îµá½·ÏīÎ½
ĠÎµá¼´ÏĢ Î¿Î¼ÎµÎ½
ĠÏĢÎµÏĢÎ¿á½· Î·ÎºÎµÎ½
ĠÎ´Î¹ÎºÎ±Î¹Î¿Ïĥá½»Î½ Î·ÏĤ
Ġá¼ķÎ»Îº Î¿ÏĤ
ÏĦÏĦÎ¿Ïħ ÏĥÎ¹
ĠÎºÎ±Î¸Î¿Î» Î¹Îº
ĠÎ¸Î±Ïħ Î¼Î±
Ġá¼°Î±Î¼Î² Î¹ÎºÎ¿á½¶
ĠÎ±á½ĲÏĩ á½³Î½
ÎºÎ¿Î» Î¿á½»
ĠÎ»Î¿Î¹ Î´
ĠÎ²Ïģ Î¿Î½ÏĦÎ±
ĠÎ½á½·Îº Î·Î½
Ġá¼ĢÎ½ÏĦÎ¹Î½Î¿Î¼ á½·Î±
Î±á½·ÏģÎµ ÏĥÎ¹Î½
ĠÎ¼á½±Î³ÎµÎ¹Ïģ Î¿Î¹
ĠÏĥÏħÎ½á½³Ïĩ Î¿Î½
Ġá½ģÎ´Î¿Î¹ÏĢ Î¿Ïģ
ĠÎĳá¼´ Î±ÏĤ
ĠÏĦÏħÏĨÎ» á½¹ÏĦÎ·ÏĤ
ĠÎľÎ± ÏģÎ±Î¸á¿¶Î½
ĠÎºÏģá½³ Î±
ĠÎĳá¼°ÏĥÏĩ á½·Î½Î·ÏĤ
ĠÏĦÏħÏģÎ±Î½Î½á½· Î´Î¿ÏĤ
ĠÎºÎ±ÏĦÏī ÏĦá½³ÏģÏī
Ġá¼ĶÎ³Î³ ÏģÎ±ÏĨÎ¿ÏĤ
Ġá¼ĢÏģÎº Îµá¿ĸ
Ġá¼¹ÎµÏģÎ¿ÏħÏĥÎ± Î»á½´
Ġá¼ĶÎ»Î± ÏĦÏĦÎ¿Î½
ĠÎºá½·Î½Î´ÏħÎ½ Î¿ÏĤ
Î¿á¿Ĩ ÏĥÎ±Î¹
Ġá¼ĶÎ¼Î¼Îµ ÏĥÎ±
ĠÎ¿á½ĲÎ´ÎµÎ½ á½¸ÏĤ
ĠÏĢÎ»ÎµÎ¹ á½¹Î½ÏīÎ½
ĠÏĦÏħ ÏĢÏĦ
Ġá¼ĲÏĥÏĩÎ· Î¼Î±ÏĦÎ¹
ĠÏĨÏħÏĥÎ¹ Î¿Î»Î¿Î³
ĠÎ²ÏħÏģÏĥÎ¿ Î´á½³ÏĪ
ĠÏĦÎ¿Î¹á½¹Î½ Î´Îµ
ĠÎĺÎ¿ÏħÎºÏħÎ´á½· Î´Î·ÏĤ
ĠÏĢÏģÎ¿ÎµÎ¹Ïģ á½µÎºÎ±Î¼ÎµÎ½
Ġá¼¹ÎµÏģÎ¿ÏħÏĥÎ±Î»á½´ Î¼
ÏĦ Ïģá½±
ÏĦ á½¼
Î½ Î¿ÏħÏĤ
Î± á¼°
Î¿ Î·
Ïģ ÎµÎ¹Î½
Ïģ á¿¶ÏĤ
ĠÏĦ Î·Î½
ÏĢ ÏīÏĤ
ÏĢ Î¿Î»
ĠÎº Î¿á¿¦
ĠÎº á½»Î½
ĠÎº á½¹ÏĢ
Îº Î»á½µ
Ïħ ÏĥÎ¹Î½
ĠÏĢ á½¹Î½
ĠÏĢ Î·Î³
ĠÏĢ ÎµÏĥ
á½³ ÏĥÎ¹
á½³ ÎµÏĦÎ±Î¹
ĠÎ´ á¿¶
ĠÎ´ Î¿Î³
ĠÎ´ Ïģá¾¶
Î³ á½³Î½
Î³ Î´Î¿
Î¿á¿ ĵ
Î¸ Î·Î½
ĠÎ¼ á½·
Î´ á½»Î½
ÏĨ ÏģÎ±
ÏĨ ÎµÎ»
ÏĥÏĦ á½±
ÏĥÎ¹ á¿¶Î½
ĠÎ³ ÏħÎ¼Î½Î±
ĠÎµá¼ ±
á½µ Î¼Î¿Î½
ÎµÏģ Î¿ÏĤ
Î»Î» Î±Î³
ĠÎ´Î¹ Î¿Î¹Îº
Î¾ á½·
Î² ÏģÎ±
Ġá¼ĲÏĢ ÎµÎ¹
ĠÎ±á½ĲÏĦ Î¿Î¼Î¿Î»
ĠÎ» Î±Î½
ĠÎ¿á½Ĳ Ïģá½±Î½
Ġá½ħ Î»Î·
á½½ Î³
ÏĦÎµ á½·Î½ÎµÎ¹Î½
ÏģÎ¹ ÏĥÏĦÎ±
Î¼á½³Î½ ÏīÏĤ
ÎºÎ± Ïģ
Î¼ÎµÎ½ Î±Î¹
ĠÏĢÎ± á½»
ĠÏĢÎ± ÏĦá½µÏģ
Ïģá½· Î¸Î¼
Ġá½¡ ÏģÎ±
á½³Î³ ÏģÎ±ÏĢÏĦÎ±Î¹
ĠÏĢÏģÎ¿ Î¿á½·
ĠÏĢÏģÎ¿ ÏĥÏĦÎ±
á½³Ïģ ÎµÎ¹Î½
á¿¦ Î¼Î±
ĠÎ¸ Î±Ïģ
ĠÎ¸ á½»Î½
ĠÎ² ÏģÎ±
ĠÎ² á½»Ïģ
Ġá¼ĳ ÏĦÎ±Î¹
á½µÏĥ ÎµÏīÎ½
Î»Îµ ÏĦÎ¿
ĠÏĦÎµ Î»ÎµÎ¹
ÏĦá½· Î¸Î·ÏĥÎ¹
Î»Î± Î¶
Î¿á½» Î¼ÎµÎ¸Î±
ĠÏĢÎ¿Î¹ á½µÏĥÎ±ÏĥÎ¸Î±Î¹
ÏĦÎ¹Îº á½¹ÏĤ
ĠÏĥÏĦ Î¿Î»
Î±Î³ Îµ
Ġá¿¥ Î±
ÏĥÎµ ÏĥÎ¹Î½
ĠÏĩÏģ á½³ÎµÏĥÎ¸Î±Î¹
Î±Î» ÎºÎ¹
á½³Î» Ïī
ĠÏĥÏħÎ½ ÏĦ
Ġá¼Ī Î³
Ġá¼ķ Î»
Ġá¼ķ Î¾ÎµÎ¹
ĠÎļ Î»Îµ
ÏĥÎ±Î½ ÏĦÎ¿
Î¼ÏĢ ÏģÎ¿ÏĥÎ¸ÎµÎ½
ĠÎ´á½³ Î¾Î±ÏĥÎ¸Î±Î¹
ĠÎ´á½³ Î´ÎµÎ¹ÎºÏĦÎ±Î¹
ĠÎµá¼¶ Î¸
ĠÎµá¼¶ ÏĢÎ¿Î½
ÏĦá½± ÏĦÏī
ÏĥÎ±Î¹ ÏĤ
á¼Ģ Î½Î±
ĠÎ±á¼° Îµ
Ġá¼¡Î¼ Îµ
Ġá¼¡Î¼ á½³ÏģÎ±
ĠÏĢÎ±ÏģÎ± Î´ÎµÎ¹Î³
ĠÏĦÎ¹Î½ á¿¶Î½
ĠÏĦÎ¹Î½ á½°ÏĤ
Ġá¼ĢÏĢÎ¿ ÏĨÎ±
ĠÎµá½Ĳ ÏĢ
ĠÏĥÎº Î¹
ĠÏĦá½· Î½Î±
ĠÎ¼á½¹Î½ Î·Î½
Î¸Îµ ÏĦÎ¿Î½
ĠÏĢÎµÏģÎ¹ ÎµÏģÎ³
Î±Îº Î¿
á½µÎ½ ÏīÎ½
Ġá¼ĲÎ³ ÎºÎ±Î»
Î´á½· á¾³
á½»Î½ ÏĦÏīÎ½
á½±Î¶ Î¿Î½ÏĦÎ±Î¹
ĠÎ¸Îµ Î¿á¿ĸÏĤ
ĠÎ¸Îµ Î¿Î»Î¿Î³
ĠÎºÎ±Î» Îµá¿ĸÎ½
ĠÎºÎ±Î» Î¿á¿¦ÏĥÎ¹
Ġá¼´ ÏĥÎ±
Î¼Îµ ÏĦá½°
Î¿ÏĢ Î»á½±
ĠÏĦÏģ á½¶ÏĤ
Ġá¼ĳÎ±Ïħ ÏĦá½¸
Ġá¼ĲÎ½Î±Î½ÏĦá½· Î¿Ïħ
Ġá¼ĲÎ½Î±Î½ÏĦá½· Î±Î½
Î³Î½ á½¹
ĠÎºÎ±ÏĦ ÎµÎ¹
ÏħÏĩ Î¿Î½
Ġá¾ Ĳ
á½»Î» ÏīÎ½
ĠÏĢá½¹ Ïģ
ĠÏĦá½± Î»Î±Î½ÏĦÎ±
á½µÏĦÎ· Ïģ
ĠÎºÎ¿Î¹Î½ Î¿á¿¦
ĠÏĥÏĨ Î¿
ĠÏĥÏĨ ÏħÏģ
ĠÎ¼á½³ ÏĦÏģÎ¿Î½
Ġá¼ł ÏģÎµ
ÏĢÏĢ Î¿ÏĤ
á½¹Ïģ Ïħ
á½¹Ïģ Î¸
ĠÏĢÏģá½±Î³ Î¼Î±ÏĥÎ¹
ĠÏĦÏģá½· ÏĦÎ¿ÏĤ
ĠÎ´á½· Î¼ÎµÏĦÏģÎ±
ĠÎºÎ±Îº á½°
ĠÎ¿á¼° ÎºÎµÎ¹
ĠÎ§ á½±
ĠÎ¶Î·ÏĦ á½µÏĥÏīÎ¼ÎµÎ½
ĠÎ³Î½ á½µÏĥÎ¹
Î»Îµá½» ÏĦÎ·
ĠÎľ Î·
ĠÎ¿á¼°Îº Îµá½·Î±ÏĤ
ĠÎ¿á¼°Îº Î¿Î½Î¿Î¼
ĠÎ³ÎµÎ³ á½¹Î½Î±
Ġá¼ĢÏĢá½¹ ÏĨÎ±ÏĥÎ¹ÏĤ
á½³ÏĥÏĦ ÎµÎ¹
ÏĦá½µ Î´ÎµÏħ
á½µÏĥÎµÎ¹ ÎµÎ½
Ïģá½±ÏĨ Î¿Ïħ
ĠÏĩÏģÎ· Î¼Î±ÏĦá½·
Ġá¼ģÎ³ á½·Î±Î½
ĠÎ±á½Ĳ Î»
Ġá½ĢÎ»á½·Î³ Î±
ĠÎ»ÎµÏħÎº á½¹ÏĦÎ·ÏĤ
Î¤ Î¿á¿¦
Ġá¼ĦÎ»Î»Î¿ ÏĦÎµ
ĠÎ»Î¿Î¹ÏĢ á½°
ĠÎ½Î± Î¿á¿¦
Ġá¼ĢÎ³Î±Î¸ Î¿á¿¦
ĠÏĢÎ»Î· ÏĥÎ¹
Ġá½¦ ÏĥÎ¹Î½
Ġá¼ģÏĢÎ» Î¿á¿¦Î½
ĠÏĦÎ¿Î¹Î¿á¿¦ ÏĦÎ¿Î¹
ĠÎļÏħÏģá½· á¿³
Î¿ÏħÎ¼á½³Î½ Î·Î½
á½¹Î´ ÏīÎ½
ĠÏĢÎ±Î¹ ÏīÎ½
ĠÎ¿á½ĲÎ´Îµ Î¼á½·Î±
ĠÎºÎ±Î¹ ÏģÎ¿á¿¦
ĠÏĥÏĦÏģÎ±ÏĦÎ·Î³ á½¸ÏĤ
ĠÏĥÏħÎ»Î»Î¿Î³Î¹ÏĥÎ¼ á¿·
Ġá¼ĲÎºÎºÎ»Î· Ïĥá½·Î±Î½
ĠÏĨÎ¸ á½±ÏĥÎ±Î½ÏĦÎµÏĤ
ĠÏĦÎ¹Î¼ á¿ĨÏĤ
ĠÏĩÎ± Ïģá½·
ĠÎ¼ÎµÏĦá½± Î»Î·ÏĪÎ¹Î½
ĠÎºÎµÎº Î»
ÏĢÎ±Ïģ á½°
ĠÎ³ÏģÎ±ÏĨ á¿ĨÏĤ
ĠÏĥá½»Î½ Î´ÎµÏĥÎ¼
ĠÎ¼ÎµÎ³á½± Î»Î·ÏĤ
ÎµÎ´ á½¸Î½
Ġá¼ĢÎ½á½±Î³Îº Î·Î½
á½³Î² Î·
Ġá¼ĦÎº ÏģÏīÎ½
Ġá¼ķÎ½ ÎµÎºÎµÎ½
ĠÎ¤ ÏģÎ¹
á½µÎ¸Î· ÏĥÎ±Î½
ĠÎ¾á½» Î»Î±
ĠÎ´Ïħ ÏĥÎº
ĠÎ´Ïħ ÏĥÏĩ
ĠÏĢÎ»Îµá½·Î¿Î½ ÎµÏĤ
ĠÎ´Î±ÎºÏĦ ÏħÎ»
ĠÎ³Ïģá½±ÏĨ ÎµÎ¹
Ġá½ĳÏĢÎ¿Î³ÏģÎ±ÏĨ á½´Î½
Ġá¼ĲÎ» Î¸Îµá¿ĸÎ½
Ġá½ĢÏģÎ³ á½´Î½
Ġá¼ĲÎ³Î³ á½»ÏĤ
ĠÏĢÎ»Î± ÏĦ
ĠÏĢÎ±ÏĦÏģ á½¹ÏĤ
Ġá¼ĦÏģÏĩ ÎµÏĥÎ¸Î±Î¹
ĠÎ¶Î· ÏĦÎ¿á½»Î¼ÎµÎ½Î¿Î½
ĠÏĨá½¹Î½ Î¿Î½
ĠÎ³Î½á½½Î¼ Î·ÏĤ
ĠÎ¶á¿´ ÏīÎ½
Î´Îµá½» ÏĦÎµÏģÎ¿Î½
Ġá¼¡Î¼á½³Ïģ Î±Î¹ÏĤ
Ġá½ģÏģ á¾·
ĠÏĨÏī ÏĦá½¸ÏĤ
Ġá¼ĢÎ½ÏĦÎ¹Îº ÎµÎ¹Î¼á½³Î½ÏīÎ½
Ġá½ĦÏĪ Î¹Î½
Ġá¼±ÏĢÏĢ Îµá¿ĸÏĤ
Ġá½ĢÏĨ Ïģ
ĠÏĦÏģÎ¿ÏĢ Î¹Îºá¿¶ÏĤ
Ġá¼ĢÎ½ÏĦÎµÎ³ ÎºÎ»á½µ
ĠÏĥÏĦá½± ÏĥÎ¹Î½
Î´Î¹Î± Î²á½±Î»Î»ÎµÎ¹
Ġá¼ĢÏĢÎ¿Ïģá½· Î±Î½
ĠÎ³Î½á½± Î¸Î¿Î½
Î»á½¹Î³ ÏīÎ½
ĠÏĥá½±Ïģ ÎºÎµÏĤ
ĠÎºá¼ĢÎº Îµá¿ĸ
ĠÎºÎ±Î½ á½¹Î½Î±
ĠÏĥÏħÎ½ÏĦÎµÎ» Îµá¿ĸ
ĠÏĥÎ·Î¼Î±Î¹Î½ á½¹Î¼ÎµÎ½Î¿Î½
ĠÏĢá½·ÏĥÏĦ ÎµÏīÏĤ
Î±á½ ĹÏĦÎ±Î¹
ĠÎ´Î¹Î±ÏĨá½³Ïģ Î¿ÏħÏĥÎ¹
ĠÏĥÏħÎ¼ÏĢÎ»Î¿Îº á½´Î½
Ġá¼±ÏĥÏĦÎ¿Ïģá½· Î±
Ġá¼ĢÎ½Î¸Î¿ÏģÎ¹ÏĥÎ¼ á½¸ÏĤ
Î¿ÎµÎ¹Î´ á¿Ĩ
ĠÎµá¼´ÏĢ á¿ĥ
ĠÎ¸ÎµÏīÏģ Îµá¿ĸÏĦÎ±Î¹
ĠÏĥÏĩá½³ ÏĥÎ¹Î½
ĠÏĦá½»Ïĩ Î·ÏĤ
Ġá¼ĢÏĦá½¹Î¼ ÏīÎ½
ĠÎ¼á½³Î»Î»Î¿Î½ ÏĦÎ¹
ĠÎºá½»Îº Î»á¿³
Ġá¼ĶÎ³ÏģÎ±ÏĪ Îµ
ĠÎ¼Î±ÏģÏĦÏħÏģ Îµá¿ĸ
ĠÏĥÏħÎ³Î³Î½á½½Î¼ Î·Î½
ĠÎ¼á½³Î»Î¹ ÏĦÎ¿ÏĤ
ĠÎ¼Î±ÏģÏĦÏħÏģá½· Î±Î½
ĠÎ³Î»ÏħÎº á½»
ĠÎ¼ÎµÏĦÎ±Î»á½µÏĪ ÎµÎ¹
Ġá¼¸Ïīá½±Î½Î½ Î·ÏĤ
Î´Î·Î» Î¿á¿ĸ
Ġá¼ĢÏĥÎµÎ² á¿¶Î½
Ġá¼ĶÏĦÎ± Î¾Îµ
Ġá½ģÎ¼Î¿Î¹ á½¹ÏĦÎ·ÏĦÎ±
Ġá¼ĲÎºÎ² Î·Ïĥ
ĠÎ²Î¹ Î±á½·
ĠÎ½á½» Îº
ĠÏĩÎ±Î»Îµ ÏĢ
ĠÏĢÏģÎµÏĥÎ²Ïħ ÏĦá½³ÏģÏīÎ½
ĠÏĥá½· ÏĦÎ·ÏĥÎ¹Î½
ĠÎ¼ÎµÎ»Î» á½¹Î½ÏĦÏīÎ½
ĠÎ±á¼´ÏĥÎ¸Î· ÏĥÎ¹ÏĤ
ĠÎºá¿¶ Î»Î¿Î½
Ġá½łÎ¼ Î¿ÏĢÎ»á½±
Ġá¼ĢÏģÎ½á½· Î¿Î½
ĠÎºá¼Ħ ÏĢÎµÎ¹ÏĦÎ±
Î¼ÎµÎ»Î» ÎµÎ½
á½§ Î½
ĠÏĢÏģÎ¿á½³ÏĦÎ± Î¾Îµ
Ġá½ĳÏĢÎ¿Î³Ïģá½±ÏĨ ÎµÎ¹
ÎµÏħÎ¸ á½»Î½
Ġá¼ĢÎ² á½»ÏĥÏĥÎ¿Ïħ
ĠÎ±á¼±Î¼Î¿á¿¤á¿¥ Î±Î³
ÏĢÎ»á½± ÏĥÎ¹Î¿Î½
ĠÎºÎ¿ÏģÏīÎ½á½· ÏĤ
ĠÎºá½±Ïģ ÏĦÎ±
ĠÏĥá¿¦ ÎºÎ±
ĠÏĥá½±Î»ÏĢÎ¹ Î³Î³
ĠÎ½ÎµÏīÏĥÏĦ á½¶
ĠÎłÎ±á¿¦ Î»Î¿ÏĤ
Ġá¼ĢÎ½Î±Î½ÏĦá½· á¿¤á¿¥
Ġá½łÎ¼Î¿ÏĢÎ»á½± ÏĦÎ·ÏĤ
¥ á¼±
Î½ Î¿ÏĤ
Î½ á¿ĥ
Î½ Î¿Î¼Î±
ĠÎ ¥á¼±
Îµ á½Ķ
Îµ ÏĥÏĦá½³ÏģÎ±
ĠÏĦ á¼Ģ
Ïĥ Î¿
Ïĥ Î¿ÏĤ
Ïĥ Î²
Ïĥ Î¿á¿¦Î½
Ïĥ Î·Î¼Î±
ÏĢ á½³Ïģ
ÏĢ Îµá¿ĸÎ½
Î» Î¸Îµá¿ĸÎ½
Î¼ á½´
ĠÎº Î»Î¹
Îº ÏģÎ¹
Ïħ ÏĦá½¹Î½
ĠÏĢ ÏĦ
ĠÏĢ ÏħÏģá½·
ĠÏĢ Î»ÎµÏħ
ĠÏĢ Î¿á¿ĸÎ¿Î½
á½· ÏĥÎ±ÏĥÎ¸Î±Î¹
ĠÎºÎ± ÏĦÎ¹
Ġá¼Ĳ ÎºÎ±Î»
Ïī Î¼á½³Î½Î¿Ïħ
Ïī ÏĦá½¹Î½
ĠÎ´ ÏħÏĥ
ÏĦÎ± Ïģá½±
á½± Î¼Î²
á½¹ ÏĦÎµÏĤ
á½¹ Î¸ÎµÎ½
Ġá¼Ģ Î¸á½±
ĠÎ¼ á½¹Î»
Ïĩ á¿³
Ïĩ Îµá¿ĸÎ½
Î´ á¿¶ÏĤ
Î´ Î¿Î½ÏĦÎ±Î¹
Î´ ÏħÎ»
ÏĨ Î¿ÏģÎ±
ÎµÎ¹ Î¿Î½
ÎµÎ¹ ÏģÎ¹Îº
á½» Î¸Î·
ÏĥÎ¹ Î±
ÏĥÎ¹ Î¿Î¹
ĠÏĥ Î±
ĠÏĥ Î±Î½
ÏĦÎ¹ Î¼Î¿Î½
Ġá¼ĲÎ½ ÏĦ
Ġá¼ĲÎ½ á½·Îº
Ġá¼ĲÎ½ Î´á½¹Î¾
Î¼Î± ÎºÎ¿Î½
Ġá¼Ķ ÏģÎ·
Ġá¼Ķ Î³Î½Ïī
Ġá¼ĲÏĢ Î±
ĠÎ» á½±
ĠÎ» Î·Î½
ĠÎ¿á½Ĳ Î±á½¶
ĠÎµá¼° Î»Î·ÏĨ
Ġá½ħ Î»Î·ÏĤ
ĠÏĨ á½¹ÏģÎ¿ÏħÏĤ
Ġá¼ĢÎ½ Î±Î½
Ġá¼ĢÎ½ Î±Ïħ
ÏģÎ¹ Î¿Î¹
ÏĥÎ¸ á½³ÏĥÎµÎ¹
Î¼á½³Î½ ÎµÎ¹Î½
ÏĦÎ¿ á½»Î½ÏĦÏīÎ½
Ġá¼Ħ ÏĢ
Ġá¼Ħ ÏĥÏī
Ġá¼ĢÏĢ Î¿Î½
Ġá¼ĢÏĢ ÎµÏģ
ĠÏĢÎ± á½·Î¶ÏīÎ½
Îµá½· Î·Î½
Ïģá½· Î¿Î¹ÏĤ
Î¿á¿ĸ Î¾Î±Î¹
á¿¶ ÏĥÎ¸Î±Î¹
á½º Î¾
Ġá¼ĲÎº ÏĦ
ĠÏĢÏģÎ¿ Îµá½·
Î»Î· ÏģÏī
Î¶ ÏħÎ³
á½±Î½ ÏĦÎ¿ÏĤ
á½±Î½ Î´Ïģ
á½·Î½ Î¿ÏħÏĥÎ¹Î½
ĠÎ¼Îµ Î¼Î½Î·
ĠÎ½ Î·
Ġá¼ĳ ÏĦÎ±á½·
Ġá¼ĳ Î²Î´
ÏĪ ÎµÎ¹ÏĤ
Ġá¼ĢÎ»Î» Î±
ĠÏĢÎ±Ïģ Î¿Î¾
Î¿Ïģ Îµá¿ĸ
ĠÏĦÎ¹ ÏĥÎ¹
Î»Î± á¿ĸ
ĠÎ´Î¹Î± Î»ÎµÎ³
ĠÎ´Î¹Î± Î»Î¿Î³
ÏĥÎ± Î»
Ġá¼ĲÏĢÎ¹ Î³Î½
Ġá¼ĲÎ¾ Î±Î½
ÏĦá½³ ÏĩÎ½
Î´Îµ Î´Îµ
Ïģá½± ÏĦÎ¿Ïħ
Ïģá½± ÎºÎ¿Î½ÏĦÎ±
ĠÏĩÏģ á¿ĨÏĥÎ¹Î½
ĠÎºÎ±ÏĦÎ± ÏĦ
ĠÎºÎ±ÏĦÎ± Î´
á½³Î» Î³
ĠÏĥÏħÎ½ á½½Î½ÏħÎ¼Î¿Î½
ĠÏĥÏħÎ½ Î¸á½³ÏĦÎ¿Ïħ
Ġá¼Ī Ïģá½·
Ġá¼Ī Î³Î¿Ïģ
Ġá¼ķ Î¾
Î¼á½± Ïģ
ÏĦá½³Ïģ ÏīÏĤ
ĠÎ´á½³ Î´ÏīÎºÎµÎ½
Ġá½Ħ ÏģÎ³
Ġá½Ħ ÏģÎ¿ÏĤ
ĠÎµá¼¶ Î´ÎµÎ½
ÏĦá½± ÏĤ
á¼Ģ ÏĢÎ¿
ÏģÎ¹ÏĥÏĦ Î¿ÏĤ
ĠÎ±á¼° ÏĦ
ÏħÏģ Ïĥá½·Î½
ĠÏĢÎ±ÏģÎ± ÏĥÏĦ
Ġá¼ĢÏĢÎ¿ Ïĥ
ĠÏĢÎ» á½µ
ĠÎµá½Ĳ Î»á½¹Î³
ĠÎ¼á½¹Î½ Î¿Î¹ÏĤ
ĠÏĢÏģá½¹ ÏĥÏĨ
ĠÏĢÏģá½¹ ÎºÎµÎ¹ÏĦÎ±Î¹
ĠÏĢÎµÏģÎ¹ ÎµÏĩ
ĠÏĢÎµÏģÎ¹ ÏĥÏĦá½±ÏĥÎµÏīÏĤ
ĠÏĢÎµÏģÎ¹ Î²ÎµÎ²Î»Î·
ÏģÎ³ Î¿Î½
Ġá¼ĢÎº Ïģá½·
ĠÏĢÎ¿Î» á½³Î¼Î¹
ÏĢÎ± ÏĦÎ·
á½»Î½ Î·ÏĤ
á½±Î¶ ÎµÎ¹ÏĤ
Ġá¼ĢÎ½Î± ÏĥÏĢ
Ġá¼ĢÎ½Î± ÏĨÎ¿Ïģ
Ġá¼ĢÎ½Î± ÏĢÎ±Î¹
ĠÎºÎ¿Î¹ Î»á½·
ĠÎºÎ¿Î¹ Î»á½·Î±ÏĤ
Ġá¼´ Î´ÏīÎ¼ÎµÎ½
ĠÎ³ÎµÎ½ Î½
ĠÎ³ÎµÎ½ Îµ
ĠÎ³ÎµÎ½ á½³ÏĥÎµÏīÏĤ
Î¿ÏĢ ÏģÎµÏĢ
ĠÎ¾ ÎµÎ½
ĠÎ¾ ÏħÎ³
ĠÎ¾ Î·Ïģ
ĠÎ¾ ÏħÎ½Î±
ĠÏĦá½± Ïĩ
ĠÎ´Îµá¿ĸ Î³Î¼Î±
ĠÎ´Îµ Î´Îµ
ĠÏĨÎ± á½·Î½
ĠÎļÎ»á½³ÏīÎ½ Î¹
Î´Î¿ Î¾Î±
ĠÎ£ Î¿ÏĨ
Ġá¼ł Î³
Ġá¼ł Î³Î½á½¹
ĠÎºÎµÏĨÎ±Î» á¿ĩ
á½¹Ïģ Î¿ÏĤ
á½¹Ïģ á¿³
ÎµÎ³ ÏģÎ±Î¼
ĠÏĥÏĩ Î¿Î»
ĠÏĥÏĩ ÎµÎ´á½¸Î½
Ġá¼ĲÏĩ Î¿á½»ÏĥÎ·ÏĤ
ĠÏĦÏģá½· ÏĦÎ·Î½
ĠÎ´á½· Î¼ÎµÏĦÏģÎ¿Î½
ĠÎ§ Î±Î»ÎºÎ¹
á¼Ķ ÏĩÎµÎ¹
Î»Î·Î¸ á¿ĨÎ½Î±Î¹
ĠÏĢá½³ ÏĢÎ¿Î½
Ġá¼°ÏĥÏĩ á½·Î¿Ïħ
Ġá¿¥Î·ÏĦ á¿¶Î½
Ġá¼ĢÎ½Î±Î³ Î¹Î½á½½ÏĥÎº
á½ģ Î¼
Î´Î¹Îº Î¿ÏĤ
Î¹Î² Î¹á½±
ĠÏĨÏħ Î»Î±Îº
Ġá¼ĲÎ¼ÏĢ Î¿Î¹
Ġá¼ĢÏĢá½¹ Î´Î¿ÏĥÎ¹ÏĤ
á½±Î¼ ÏīÎ½
ĠÏĢÏģá½½ ÏĦá¿ĥ
ĠÎ¿á½ĲÏģÎ±Î½ Î¿á¿ĸÏĤ
Ġá¼ĢÎ½ÏĦá½· Î¸ÎµÏĥÎ¹Î½
Î¹ÏĥÎ¼ á½¸ÏĤ
ĠÎºÏģá½·Î½ ÎµÎ¹
ĠÎºÏģá½·Î½ Î¿Î¹ÏĦÎ¿
ÏģÎ¿ÏĨ á¿ĨÏĤ
ĠÎ²ÏģÎ±Ïĩ Ïħ
ĠÎ¸á½± Î»Î±
ĠÎ»Î¿Î³ Î¹Îºá¿¶Î½
Ġá¼ĢÎ³Î³ ÎµÎ»
ÏĬ Î±
Ġá½ĢÎ½á½¹ Î¼Î±ÏĥÎ¹
ĠÎ¼Ïħ ÏģÎ¹
Ġá¼ĲÎ¼Î² Î±Î»Î»
ĠÎ´Î¹Î±ÏĨÎ¿Ïģ á½±Î½
á½¹ÏĦÎ± ÏĦÎ±
ĠÏĢÎ¿Ïĥ á¿·
ÏĥÏĥ á¿¶Î½
ĠÎ´Î¹á½± ÏĨÎ¿ÏģÎ±
Ġá¼ĢÎ»Î·Î¸ Îµá½»
Ġá¼ĢÎ»Î·Î¸ á½´ÏĤ
ĠÎ»Î¿Î¹ÏĢ Î¿á½¶
ĠÎºá¼Ģ ÏĢ
ĠÎ»á½³ Î¾ÎµÏīÏĤ
ĠÏĢÎ¿Î»Î¹ ÏĦÎµÏħ
ĠÎ´Îµá½» ÏĦÎµÏģÎ±Î¹
ĠÎºÎ¹Î½ á½µÏĥÎµÎ¹
ĠÎºÎ±ÏĦÎ·Î³Î¿Ïģ Îµá¿ĸÏĥÎ¸Î±Î¹
Ġá¼ĢÏĢÎ¿Îº ÏĦÎµá½·Î½
Ġá¼ĢÏĢÎ¿Îº Î·Ïģá½»
ĠÏĦÎ¿Î¹Î¿á¿¦ ÏĦÎ¿ÏĤ
Î¿ÏħÎ¼á½³Î½ Î·
Î¿ÏħÎ¼á½³Î½ Î¿ÏħÏĤ
ĠÏĥÏī Î¼Î±ÏĦÎ¹Îº
ĠÏĥá½» Î¼Î²
ĠÏĥá½» Î¼ÏĨ
ĠÏĥÎºá½³Î» Î¿ÏħÏĤ
ĠÏĦÏģá½¹ÏĢ Î¿Ïħ
á½µÎº Î¿Î½ÏĦÎ±
Ġá¼ĳÎºá½±ÏĥÏĦ Î·Î½
Ġá½ĢÏĥÏĦá½³ Î¿Ïħ
ĠÏĥÏħÎ¼ÏĨ ÏīÎ½
Ġá¼ĲÎºÎºÎ»Î· ÏĥÎ¹á¿¶Î½
Îļ Î±
Î»Î±Î¼Î²á½±Î½ ÎµÎ¹Î½
ĠÏĦÎµÏĦ Ïģá½±Î³
Ġá¼ĶÎº ÏģÎ±
ĠÎ¦ á½·Î»Î¹
ĠÎºÎ±ÏĦÎµ Î±Î³
ĠÏĥÎ·Î¼Î± á½·Î½ÎµÎ¹Î½
ĠÏĨÎ±Î½ ÏĦÎ±
Ġá¼© ÏģÎ±Îº
ĠÏĩá½± ÏģÎ¹
ĠÎµá½Ķ Î·
ÏĦÎ¿á½» ÏĦÎ¿Ïħ
Ġá¼ĳÎºÎ± ÏĦá½¸Î½
Ġá½ĢÎ½Î¿Î¼á½± Î¶ÎµÎ¹Î½
ĠÎºÏħ Î»Î»
Ġá¼ķÎ½ Î´ÎµÎºÎ±
ĠÏĢÏģÎ±Î³Î¼Î±ÏĦÎ¹Îº á½´Î½
Ġá½ģÎ´ á½¸Î½
ĠÎ¼ÎµÏĦá½³ ÏīÏģÎ¿Î½
ĠÎ»á½· Î¼Î½
Ġá¼ĢÏĢÎ± ÏģÎ¹Î¸Î¼
ĠÏĩÏģÎ·ÏĥÎ¼ á¿¶Î½
ĠÎ³Ïģá½±ÏĨ ÎµÏĦÎ±Î¹
ĠÎ½Îµ Ïī
á¼Ī ÏĢÎ¿Ïģ
ĠÏĥÎ±Ïģ Îºá¿¶Î½
ĠÎ¸á½³ ÏĥÎ¹Î½
ĠÎ¼Î¿Î¹Ïĩ Îµá½·Î±ÏĤ
Ġá¼ĺ ÏĨ
ĠÎ²á½± Î¸Î¿ÏħÏĤ
ĠÎ¼Îµá½· Î¶
á¿ĨÎ» Î¸Î¿Î½
Ġá¼ħÏĢÎ±Î½ ÏĦÎ±ÏĤ
ĠÎ»Î¿Î³Î¹Îº á½´
ĠÎ»Î¿Î³Î¹Îº á¿ĨÏĤ
ÏĨá½³Ïģ ÎµÎ¹Î½
ĠÏĥÏĦá½·Ïĩ ÏīÎ½
ĠÎ±á¼°ÏĥÎ¸Î·ÏĦ Î¿á¿¦
ĠÎłÎ± á½»Î»
ĠÎ³ÏħÎ½Î±á¿ĸ ÎºÎµÏĤ
ĠÎ»á½±Î² á¿ĥ
ĠÎ´Î·Î¼ Î¹
Ġá¿¥á½µÏĦÎ¿ ÏģÎ±ÏĤ
ĠÎºÎ»á½³ ÏĢÏĦÎµÎ¹Î½
ĠÏĥÏĢ á½³Ïģ
ĠÏĨá½· Î»Î¿ÏĤ
Ġá¼ĢÎ½ÏĦÎ¹Îº Îµá½·Î¼ÎµÎ½Î±
Ġá½ĦÏĪ ÎµÏīÏĤ
Ġá½ĳÎ¼ Îµá¿ĸÏĤ
Ġá¼°Î±ÏĦ ÏģÎ¿á½¶
ÏĦá¿Ĩ ÏģÎ¿ÏĤ
ĠÏĦÏģÎ¿ÏĨ á½´Î½
Ġá¼ĢÏĦÎµÎ» á½²ÏĤ
Î´ÎµÏħ ÏĦá½³ÏģÎ±
Ġá¼ĢÏĢÎ¿Î´Îµá½· Î¾ÎµÎ¹ÏĤ
ĠÎ´ÏħÎ½á½± Î¼Îµ
ĠÎ³ÏģÎ±Î¼Î¼Î±ÏĦÎ¹Îº á½´
ĠÏĦÎµÎ»ÎµÏħÏĦÎ± á¿ĸÎ¿ÏĤ
ĠÏĨÏħÎ»á½± ÏĦÏĦÎµÏĥÎ¸Î±Î¹
Ġá¼ģÎ¼Î±ÏģÏĦá½· Î±Î¹ÏĤ
ĠÏĦá½·Î½ Î¹
ĠÎ¼Î¿Ïĩ Î¸Î·
ĠÎ¼ÎµÎ¹ Ïģá½±Îº
ĠÎµá½ĲÎµÏģÎ³ á½³
Ġá¼°Î´Î¹ á½½
Ġá½łÎ½á½¹Î¼Î± ÏĥÎµÎ½
Ġá¼ĢÎ¾ á½·
ĠÎ´á½µÎ¼ á¿³
ĠÏĢÎµÏĢÎ¿á½· Î·ÏĦÎ±Î¹
Ġá¼ĻÎ»Î» Î·Î½
Ġá¼°Î´ Î¿á½»
Ġá¼°Î´ á½·Î±Î½
ĠÎ¼á½³Î»Î»Î¿Î½ ÏĦÎ¿ÏĤ
ĠÎ²Î±ÏĥÎ¹Î»Îµá½· Î±
Ïĭ Ïĥ
Îºá½³ ÎµÎ¹
ĠÏĢÎ¿Î»Î¹ÏĦÎµ á½·Î±ÏĤ
Ġá¼ĢÎ½Î±Î¹Ïģ Îµá¿ĸ
ÏĦÏģá½³ ÏĪÎ±Î¹
ĠÎĶá¿Ĩ Î¼Î¿ÏĤ
Ġá¼ĲÏĢÎ¹ÏĨá½±Î½ ÎµÎ¹Î±
ĠÎ±á½ĶÎ¾ Î·ÏĥÎ¹ÏĤ
ĠÎºÏģÎµ á¿¶Î½
ĠÎ½ÎµÏĨ á½³
Ġá¼°ÏĩÎ¸ á½»
Ġá½ĢÎ½Î¿Î¼Î± Î¶
Ġá¼ĲÏĢÎ¹ÏĥÏĦÎ·ÏĦ Î¿á¿¦
ĠÏĢÎ±Î¹Î´á½· Î¿Î½
Îľ ÎµÏĦá½°
ĠÏĢÏģÎ¿ÏĥÎ± Î³Î¿Ïģ
Ġá¼°Î³Î½á½» Î±Î½
ĠÏĢÏģÎ¿ÏĥÏĦ á½·
Ġá¼ĢÎºÎ¿Ïħ Ïĥá½±ÏĦÏī
ĠÎ³ÎµÎ³ÎµÎ½Î· Î¼á½³Î½Î¿Î½
ĠÏĥÎµÎ» á½µÎ½Î·
Ġá¼ĲÎºÏĢá½· ÏĢÏĦÎµÎ¹
ĠÏĥÏĦÎ¿ÏĩÎ±ÏĥÏĦ Î¹Îºá¿¶ÏĤ
ĠÏĢÎ±Î¹Î´ á½¸ÏĤ
ĠÎķá½ĲÏģÎ¹ÏĢá½· Î´Î¿Ïħ
ĠÏĢÎ·Î»Î¹Îº á½¹ÏĦÎ·ÏĤ
ĠÎºÎ±ÏĢÎ½ á½¸ÏĤ
Ġá¼ĢÎ»Î· Î¸á½³ÏĤ
Ġá½ģÏĢá½¹ ÏĦÎµ
ĠÎ¸ÏħÏĥÎ¹Î±ÏĥÏĦ Î·Ïģá½·Î¿Ïħ
á½ķ ÏģÎ·ÏĦÎ±Î¹
ĠÎ´á½±Îº ÏģÏħ
Ġá¼ĲÎºÏĢÎµÏĢ ÏĦÏī
ĠÎĶÎ±Ïħ á½·Î´
ĠÎ´Î¹ÎºÎ±ÏĥÏĦÎ± á½¶
Ġá¼¥Îº Î¹ÏĥÏĦÎ±
Ġá¼ĢÎ½ÏĦá½·Ïĩ ÏģÎ¹ÏĥÏĦÎ¿Î½
Ġá¼ĲÎ¼Î½Î·Î¼á½¹Î½ÎµÏħ ÏĥÎµÎ½
Ġá¼ĲÎ½Î´Îµá½·ÎºÎ½Ïħ ÏĦÎ±Î¹
Ġá¼ĶÎ²Î±Î» ÎµÎ½
Ġá¼ĲÏĢÎ·Î³Î³ Îµá½·Î»Î±ÏĦÎ¿
ĠÏĢÏģÎ¿ÏĨÎ·ÏĦÎµ á½·Î±ÏĤ
ĠÎ¸á½½ÏģÎ± ÎºÎ±
Ġá¼ĲÎ½Î¸ á½»Î¼
ĠÎ»ÎµÎº ÏĦá½³Î¿Î½
Ġá¼ĢÎ¼Îµá½· Î²
ĠÏĦÎ¿á½ĲÎ½ Î±Î½ÏĦá½·Î¿Î½
Ġá¼ĢÎ¸Ïģá½¹ ÏīÏĤ
ĠÏĩÎ»Î¹ Î±Ïģ
Î´Î¹Î±ÏĨ á½³ÏģÎµÎ¹
Ġá¼ĳÎºÎ±ÏĦá½³ÏģÏī Î¸ÎµÎ½
ĠÎľÎ±ÏģÎ±Î¸á¿¶Î½ Î¹
ĠÏĢÎ±ÏģÎ±Î´ÎµÎ¹Î³ Î¼á½±ÏĦÏīÎ½
ĠÏĥÏĨÎ¿ Î´Ïģ
ĠÎºÎ»Î¹ Î¼Î±Îº
Ġá¼ĦÏĥÏī ÏĦÎ¿ÏĤ
Ġá¼ĪÎ³Î¿Ïģ á½±ÎºÏģÎ¹
Ġá¼ĢÎ½Î±ÏĢÎ±Î¹ ÏĥÏĦ
Î Ľ
á½ ĸ
ÏĦ á½°Ïģ
ÏĦ á½µÎ½
Î½ ÎµÏħ
Î¿ ÏĥÎ¹Î½
Î¿ ÏĥÎº
á¼ Į
Îµ ÏĥÎ¸Îµ
á¿ Ĵ
Ïģ á½°Î½
Ïĥ Î¿Ïħ
Ïĥ ÏĥÎ±Î½
Ïĥ Î¿ÏħÏĥÎ¹
ÏĢ ÏĢÎ±
Î» Î¹Î½
Î» á¿ĨÏĥÎ¸Î±Î¹
ĠÎº á½³Î½
ĠÎº á½½
ĠÎº á½¹Î¼
ĠÎº Î»á½±
ĠÎº Î·Ïģ
Îº á¿³
Îº Î¹Î½Î¿Î½
Î· Î¸Îµá¿ĸÎ½
ĠÏĢ Îµá¿ĸ
ĠÏĢ á½³Ïģ
ĠÏĢ ÏĦá½½
á½· Î´Î±ÏĤ
á½³ á¿ĥ
ĠÎ´ Î¿Ïħ
ĠÎ´ ÎµÏģ
ĠÎ´ á½³Î½
ĠÎ´ Î¿Ïģ
ĠÎ´ Ïģá½³
Î³ ÏħÏĢ
á½¹ ÏĥÎ¹Î½
á½¹ ÏĦÎµÏģÎ±
Ġá¼Ģ Î¼Î¿Î¹
Ġá¼Ģ á½³ÏģÎ±
ĠÎ¼ á½±Î½
ĠÎ¼ ÏħÏģá½·
ĠÎ¼ á½±Î³ÎµÎ¹
Ïĩ Î¹
Ïĩ Î¿Ïħ
Î´ á¿ĥ
Î´ á½·Î±Î½
ÏĨ Î±Î½
ÏĥÏĦ Î·Î¼Î±
ĠÎ³ Î»Î¿Ïħ
Î±Î¹ ÏĦÎ¿
Î±Î½ á½¹Î½
á½µ ÏĦÏīÎ½
ĠÏĢÏģ ÏīÎº
ĠÏĥ á½²
ĠÏĥ á½°Ïģ
ĠÏĥ Î±Î»
ĠÏĥ Î¿á½¶
ÏĦÎ±Î¹ ÏģÎ·
Îµá¿ĸ ÏĥÎ±Î½
Îµá¿ĸ Î»ÎµÎ½
Ġá¼ĲÎ½ ÎµÏĥÏĦ
Î¼Î± á½·
Î¼Î± ÏĦÎ¿Î½
ĠÎ´Î¹ ÎµÎ½
ĠÎ´Î¹ ÎµÎ²
ĠÎ´Î¹ Î´á½¹
ĠÎ´Î¹ ÎµÎ»Îµá¿ĸÎ½
Ġá¼Ķ Î¶
Ġá¼ĲÏĢ Î±Î³Î³ÎµÎ»
ĠÎ» á½µÎ¼
ĠÏĨ Î¹á½±
ĠÏĨ á½±Î½Î±Î¹
Ġá¼¡ ÏĦÏĦ
Ġá¼¡ ÏĦÎ±Î¹ÏģÎ·
á½½ Î´Îµ
á½½ Î¼Î±ÏĦÎ¿ÏĤ
á½½ Î²Î¿Î»Î¿Î½
á½½ Î´ÎµÎ¹ÏĤ
ÏĦÎ· ÏĥÎ¹ÏĤ
Ġá¼ĢÎ½ Î¿á¿ĸÎ¾Î±Î¹
Ġá¼Ħ ÏĢÎ¿Î¹
Ġá¼ĢÏĢ Î±Î»Î»Î±Î³
Îµá½· Î¼ÎµÎ½Î¿ÏĤ
Ïģá½· Î¿Ïħ
Ïģá½· ÏĦÎ¿Ïħ
ĠÏĩ Îµá½¶
á¿¶ ÏĦÎ¿ÏĤ
á¿¶ ÏĥÎ¹ÏĤ
á½³Î³ ÏģÎ±ÏĪ
Ġá¼ĲÎº ÏĥÏĦ
ĠÏĦÎ¿ Î»Î¼
ĠÏĢÏģÎ¿ ÎºÎ±ÏĦÎ±
Î»Î· Î¼
á½³Ïģ Î¾
ĠÎ¸ Ïģ
ĠÎ¸ ÏħÎ³Î±
Î¹Îº á½µ
Î¶ Î¿Î½ÏĦÎµÏĤ
Î¿Î» á½»
ĠÎ² ÏģÎ¿Î½
ĠÎ² á½±Î»Î»
ĠÎ² Î¿á¿¦ÏĤ
ĠÎ² á½·Î¿Î½
á½±Î½ ÏĦÎ±
Ġá½ĳÏĢ á½¹Î½Î¿Î¹Î±Î½
Ġá¼ĳ Î¿Ïģ
Ġá¼ĳ ÏĦÎ¿Î¹
ÏĪ Î±Î½
ÏĪ ÎµÏħ
ÏĪ ÏħÏĩ
ĠÎ»á½³Î³ Î¿Î½ÏĦÎ±ÏĤ
á½µÏĥ Î¿Î¼ÎµÎ½
Ġá¼ĢÎ»Î» Î¿á½·
ĠÏĦÎµ Îº
ĠÏĦÎµ Ïĩ
ĠÏĢÎ±Ïģ ÎµÎ¹
ĠÏĢÎ±Ïģ á¿Ĩ
Ġá¼ĶÏĩ Î¿Î¹
ĠÏĦÎ¹ Î¼Î¹
ĠÎ´Î¹Î± Î¸á½³ÏĥÎµÏīÏĤ
ÏģÎ· ÏĦÎ¿
ÏģÎ· ÏĥÎµ
Ġá¼ĲÏĢÎ¹ Ïģ
Ġá¼ĲÎ¾ Î±Î¹
Î´Îµ Î»
Î¿Î³ Î¿Î½
Ġá¿¥ á¾´
ĠÎ¶ ÏħÎ³
ĠÎºÎ±ÏĦÎ± Ïĥ
ĠÎºÎ±ÏĦÎ± Î½Î±
Ġá¼° Î¸Ïħ
Îµá½» Î¼Î±ÏĦÎ±
ĠÏĥÏħÎ½ ÎµÏĢ
ÏĥÎ¼ á¿¶Î½
á½¹Î³ Î¿ÏĤ
Ġá¼ķ ÏĢ
Î´Î¹ á½±
ÏģÏĩ Î¿Î½
ÎµÎ» Î¹Î´
Î¼á½± ÏĦÎ¹
ÎµÏĨ ÏħÎº
Î¿Î¼á½³Î½ Î¿Î¹ÏĥÎ¹
ĠÎ´á½³ ÏĩÎµÏĥÎ¸Î±Î¹
ĠÎµá¼¶ Î´ÎµÏĤ
ĠÎ±á¼° ÏĥÎ¸Î·
ĠÎ±á¼° á¿¶Î½Î±
ĠÎ±á¼° Î½Î¹
ÏħÏģ Î¿Î½
Ġá¼ĢÎ³ Î¿ÏģÎ±
Ġá¼ĢÎ³ á½±ÏĢ
ĠÏĢÎ±ÏģÎ± ÏĦá½³
Ġá¼ĢÏĢÎ¿ ÏĦÎµÎ»
ĠÏĢÎ» á½µÏģ
ĠÎµá½Ĳ Îº
ĠÎµá½Ĳ Ïī
Ġá¼ĦÎ½ ÏĦÎ¹ÎºÏģÏħÏĤ
á½¹Î» ÏīÏĤ
ÏĦÏģ Î±Î½
Î±á½· á¾³
ÏĥÏī Î¼ÎµÎ½
Ġá½¥ ÏģÎ±Î½
ÏĢÎ¿Î½ ÏĦÎµÏĤ
Î´á½· Î±
Î´Î· Î¼Î±
ĠÎ¿á½Ķ ÏĦ
á½»Î½ Î±ÏĤ
á½»Î½ ÎµÏĦÎ±Î¹
Î»Î¹ Î±
Î»Î¹ ÏĥÎ¹ÏĤ
Ġá¼ĢÎ½Î± Î²
ĠÎºÎ±Î» á¿¶Î½
ĠÏĢÎ¿Î»Î» á½°ÏĤ
ĠÎ³ÎµÎ½ Î¿Î¼á½³Î½Î·
ĠÏĦÏģ ÏħÏĨ
Ġá¼ĢÏĨ Î¿Ïģ
ĠÎ¼ÎµÏĦÎ± ÏĥÏĦá½±ÏĥÎµÏīÏĤ
Î¿Ïĩ ÏīÏģ
ĠÎºÎ±ÏĦ á½±Î³
ÏħÎ³ Î³
ÏĢÎµ Î¶
Î»á½µ Î¼
ĠÏĢá½¹ Î´ÎµÏĤ
ĠÎºÎ¿Î¹Î½ á½´Î½
ĠÏĢÎ±Î½ Î¿á¿¦
ÏĢÎ» á¿Ĩ
Ġá½§ Î´Îµ
ĠÎ£ Î¹
ĠÎ£ á½·
ĠÎºÎµÏĨÎ±Î» á½µ
Î²Î± ÏĥÎ¹Î½
ĠÎºÎ±Îº á¿¶Î½
ĠÎºÎ±Îº á½¹Î½
ĠÎľ Î±Îº
ĠÏĦÎ±á½» ÏĦÎ±Î¹ÏĤ
Ġá½ł Ïĩ
ĠÏĨÏħ Î»Î±
ĠÎ¿á¼°Îº Îµá½·Î¿Ïħ
ĠÎ¿á¼°Îº Îµá½·á¿³
Ġá¼ĪÏģÎ¹ÏĥÏĦÎ¿ÏĦá½³ Î»Î·Î½
ĠÎ²Î¿Ïħ Î»Îµá½»
ĠÏĢÏģÎ¿ÏĨ Î·
ĠÏĢÏģÎ¿ÏĨ Î·ÏĦá¿¶Î½
ĠÎ½Î¿ á½µÏĥÎµÎ¹ÏĤ
Î±Î¹Î½ Î¿Î½
ĠÎ¿á½ĲÏģÎ±Î½ á½¸ÏĤ
ĠÏĢÏģÎ¿Ïĥá½½ÏĢ Î¿Î¹ÏĤ
ĠÎºÎ±ÏĦÎ±ÏĥÎºÎµÏħ á¿ĨÏĤ
ÏĥÎ¸á½³Î½ ÏĦÎ±
Ġá¼ĲÎ¼ Î¼
Ġá¼ĲÎ¼ á½²
Î¹ÏĥÎ¼ Î¿á¿¦
ĠÏĨÎ¹Î» Î¿
á½»Î¼ Î¼Î±ÏĩÎ¿ÏĤ
ĠÎ±á½Ĳ ÏĦÎ±á½¶
ĠÎ´á¿Ĩ Î¸ÎµÎ½
Î¼Î±Ïģ ÏĦá½»
ÏģÎ±Îº Î¹
ÏģÎ±Îº Î¿ÏĤ
ĠÎ´á½¹ Î¾ÎµÎ¹
ĠÏĢÎ¿Ïĥ á½¹Î½
Î´á½» Î¿
ĠÎ»ÎµÏħÎº á½¹Î½
ĠÏĥÎµ Î±Ïħ
ĠÎ»ÎµÎ³ á½¹Î½ÏĦÏīÎ½
ĠÎ´Î·Î» Î¿á¿¦Î½
ĠÏĩá½½ ÏģÎ±
ĠÏĢÎ¿Î»Î¹ ÏĦÎ¹ÎºÎ¿á¿¦
ĠÏħá¼± á¿·
ĠÎ¼á½³Ïĥ Î·Î½
Î¾Î±Î½ ÏĦÎ¿ÏĤ
ĠÏĦÎ¿Î¹Î¿á½» ÏĦÎ¿Ïħ
ĠÏĦÎ¿Î¹Î¿á½» ÏĦá¿³
ĠÏĢÎ±Î¹ Î´Îµá½»
á½µÏģ ÏħÎº
ÏĩÎ¸ á½µÏĥÎµÏĦÎ±Î¹
ĠÏĥÏĦÏģÎ±ÏĦÎ·Î³ Î¿á½¶
ÏĦÎ·Ïģá½· Î±Î½
Ġá¼ĶÏģÎ³ á¿³
ĠÎºÎ¿Î» á½±ÏĥÎµÏīÏĤ
ĠÎ¼Î¿Î½ á½¹Î¼Îµ
Î·Î¸ á¿ĩ
ĠÎ´ÏħÎ½Î± ÏĦá½¹Î½
Ġá½ĢÏĥÏĦ á¾¶
Ġá¼ĲÏĢÎ¹ÏĨ ÎµÏģ
ĠÎ¼á½³Î»Î» ÏīÎ½
ĠÏĥÎ¹ ÏīÏĢ
Î±Î»Î» á½±
ĠÎºÎ±ÏĦÎµ ÏĢ
ĠÎ³ÏģÎ±ÏĨ á½´
ĠÏĢÎ±ÏģÎ±Î³ÏģÎ±ÏĨ á¿ĨÏĤ
ĠÏĦá½³Î»ÎµÎ¹ Î¿ÏĤ
ĠÎµá½Ķ Î½Î¿Î¹Î±Î½
Ġá¼ĲÏģÎ³ á½±Î¶ÎµÏĦÎ±Î¹
ĠÎłÎ»á½±ÏĦÏīÎ½ Î¹
Ġá½ĢÎ½Î¿Î¼á½± Î¶Î¿ÏħÏĥÎ¹
ĠÎµá¼°Ïģ á¿ĨÏĥÎ¸Î±Î¹
ĠÎ¼ÎµÎ³á½±Î» ÏīÎ½
ĠÎ³ÎµÎ³ÏģÎ±Î¼ Î¼á½³Î½ÏīÎ½
ĠÏĢÎ»Îµá½·Î¿Î½ Î±ÏĤ
ĠÎºÏħÏģá½· ÏīÎ½
Ġá½ĳÏĢÎ¿Î³ÏģÎ±ÏĨ á¿ĩ
Î¸Îµá½· ÏĤ
ĠÏĥÎ¿ÏĨ ÏīÏĦá½±
ĠÏĥÏħÎ³Î³ Ïģá½±Î¼
Ġá¼ĲÎ¼ÏĢá½· ÏĢÏĦÎ¿ÏħÏĥÎ¹Î½
ĠÎ»Î¿Î³Î¹Îº á½´Î½
Ġá½¤ ÏĨÎµÎ¹
ĠÏĨÎ¹Î»Î¿ÏĥÎ¿ÏĨ á½·Î±
Ïĥá½± Î¼ÎµÎ½Î¿Î¹
Ġá¼ĲÏĢÎ¹Ïĩ Îµá½·
ĠÎ´Î·Î¼Î¿ Ïĥá½·ÏīÎ½
Ġá¿¥á½µÏĦÎ¿ ÏģÎ¿ÏĤ
ĠÎ¸ÏħÎ¼ á½¸ÏĤ
Î³Î½Ïī Ïĥ
Ġá¼ĢÎ½ÏĦÎ¹ÏĥÏĦÏģá½³ÏĨ Î¿Î½
ĠÎ¼á½» Î±ÏĤ
ĠÎ²Î¿ Î·Î¸Îµá¿ĸÎ½
ĠÎ³Ïģá½±ÏĪ Î±ÏĤ
Ġá½ĢÏĨÎ¸Î±Î» Î¼á¿¶Î½
ĠÎºÎ½á½µÎ¼ Î·
ĠÎ³ÏģÎ±Î¼Î¼Î±ÏĦÎ¹Îº á¿ĨÏĤ
ĠÏĩÏģá½½ Î¼Î±ÏĦÎ±
ĠÎ³Î½á½± Î¸Î¿Ïħ
ĠÎ½Î±Ïħ Î¼Î±Ïĩ
ĠÎ´ÎµÎ¹ÎºÎ½ á½»Î½Î±Î¹
ĠÎ²Î±Ïģ á½»
ĠÎ¼ÎµÏĦÎµ Ïĩ
ĠÏĨÏħÎ³ á½´Î½
ĠÏĢÏģÎ¿ÏĥÎ¸ Îµá¿ĸÎ½Î±Î¹
ĠÎ´Î¹Î±ÏĢ ÏģÎ±
ĠÎµá½ĲÏĨ Î·Î¼
ĠÎµá½ĲÏĨ ÏģÎ¿Ïĥ
Ġá½ķÎ´Î± ÏĦÎ¹
ĠÎ¼á½±ÏģÏĦÏħ ÏģÎµÏĤ
ĠÎ¼ÎµÎ»Îµ ÏĦá¿¶Î½
Ġá¼©ÏĥÎ±á¿ĵ á¾³
Î¸á½µÎº Î·Î½
ĠÏĢÎ»Îµá½·ÏĥÏĦ Î·
Ġá¼ĢÏĥá½»ÏĥÏĦÎ± ÏĦÎ±
ĠÎ´Î¿á½»Î» ÏīÎ½
ĠÎ´Î¿á½»Î» Î¿ÏħÏĤ
ĠÎ³ÎµÎ³Î¿Î½ á½³Î½Î±Î¹
ĠÏĥÏīÏĦÎ·Ïģá½· Î±Î½
ĠÎ³ÏģÎ±Î¼Î¼ á½´Î½
ÏĦÏĦÎ¿Ïħ ÏĥÎ¹Î½
ĠÏĢÏĦá½³Ïģ Î½Î±Î½
Î²Î±á½·Î½ Î¿Î½ÏĦÎ±
ĠÎ¶Î·ÏĦÎ· ÏĦá½³Î¿Î½
ĠÎºá½»ÏģÎ¹ Î±
ĠÎ¸Î±Ïħ Î¼
ĠÎºÏīÎ¼á¿³ Î´
ÎºÎµÎ¹Î½ ÏĦÎ±Î¹
ĠÏĢÏħ ÏģÎµ
ĠÎ»ÎµÎ¹ ÏĢÎ¿
Ġá¼ĪÎ¸Î·Î½ á¿¶Î½
ĠÏĪÎµá½» Î´ÎµÏĦÎ±Î¹
Ġá½¡ÏģÎ¹Ïĥ Î¼á½³Î½Î¿Î½
ĠÏĢÏģÎ¿ÏĦÎµ Î¸á½³Î½ÏĦÏīÎ½
ĠÎ½ÎµÏĨ á½³Î»
Ġá¼ĲÏĢÎ¹ÏĥÏĦÎ·ÏĦ á½¸Î½
ĠÏĥÏħÎ³Î³Î½á½½Î¼ Î·ÏĤ
Ġá¼°Î³Î½á½» Î·Î½
ĠÏĦÏħÏģÎ±Î½Î½ Î¿Îº
ĠÎ²Î¿á½»Î»Î· ÏĥÎ¹Î½
Ġá¼Ģá½¹ ÏģÎ¹ÏĥÏĦÎ¿Î½
ĠÎĺÎµÎ¼Î¹ÏĥÏĦÎ¿Îº Î»á½³Î¿ÏħÏĤ
Ġá¼ĢÏĨÎ±Î½ á½²ÏĤ
ĠÏĦÎ¿á½Ķ Î¼ÏĢÏģÎ¿ÏĥÎ¸ÎµÎ½
ĠÏĦÎ¿á½Ķ Î½Î¿Î¼Î±
ĠÎ¼Î·Î´Îµ á½¶ÏĤ
ĠÎ¼Î·Î´Îµ Î¼á½·Î±Î½
Ġá¼±Î¼á½± ÏĦÎ¹Î±
Ġá¼ĲÏĥÏĨ Î±Î³
ĠÏĥÏħÏĥÏĦÎ± ÏĦÎ¹ÎºÎ±á½¶
ĠÏĢÏģÎ¿Î·Î³ Îµá¿ĸÏĦÎ±Î¹
ĠÎ¶á¿¶ Î¿Î½
ĠÎ¼Î±Î¸ Îµá¿ĸÎ½
Ġá¼ĶÏĦÎ± Î¾ÎµÎ½
Î»Î·ÏĢ ÏĦÎ±Î¹
Ġá¼ĢÎ³Î¿Ïģ á¾·
ĠÏĢÎ·Î»Î¹Îº á½¹ÏĦÎ·ÏĦÎ±
ĠÎ³Î»á½·ÏĥÏĩ ÏģÎ¿Î½
Ġá¼ĢÏĢÎ¿ÏĥÏĦá½¹Î» Î¿ÏħÏĤ
Ġá¼´Î± Î¼Î²
ĠÎ´Î¹ÎºÎ±ÏĥÏĦÎ·Ïģá½· Î¿Î¹ÏĤ
ĠÎ²Î¿á¿ ¶Î½
ĠÏĥÏĦá½³ÏĨ Î±Î½Î¿Î½
Ġá¼¤Ïģ Î¾Î±ÏĦÎ¿
Ġá¼ĦÎ½Î´ ÏģÎ±ÏĤ
Ġá¼ĦÎ½Î´ ÏģÎµÏĤ
ĠÎ¾Î· ÏģÎ±
ĠÎ³ÏħÎ½Î±Î¹Îº á½¶
Ġá½ĢÎº ÏĦá½¼
Ġá¼ĢÏĢÎ¿Î´ÎµÎ¹ Îº
ĠÏĪá½µ ÏĨ
Ïħá¿ĸ Î±
á½¹ÏĨ Î¿Ïħ
Ġá¼ĲÎºá½±Î»Îµ ÏĥÎµÎ½
Î¿á¼· Î¿Î½
Ġá¼ĲÎ¾á½µÎ³ Î·ÏĥÎ¹ÏĤ
ĠÎľÏī ÏĭÏĥ
ĠÏĨÎ¹Î»Î¿Î½ ÎµÎ¹Îº
ĠÏĢá½µ ÏĩÎµ
Ġá¼ĲÎ½Î±Ïģ Î³
Ġá¼ĶÏĦÏħÏĩ Îµ
ĠÎºÎ±Î¸á½µ Î¼ÎµÎ½Î¿ÏĤ
ĠÏĥÏĨá½¹Î½ Î´ÏħÎ»
Ġá¼ĲÏĢÎ¹ÏĨÎ±Î½ Îµá½·Î±ÏĤ
ĠÏĨÎ¿Î²ÎµÏģ á½¸Î½
ĠÎºÎ»á½·Î¼Î± ÎºÎ±
ĠÎ³Î±ÏĥÏĦ Ïģ
ĠÏĢÏģÎ¿Î²á½±Î»Î» ÎµÏĦÎ±Î¹
Î¿á½Ķ ÏĦÎµ
Ġá¼ĢÏĢÎ¿ÎºÏĦ Îµá¿ĸÎ½Î±Î¹
Ġá¼ĦÎ³ÏģÎ±ÏĨ Î¿ÏĤ
Ġá½ĳÏĢá½±Ïģ Î¾ÎµÏīÏĤ
ĠÏĢÎ±ÏģÎ±Î´á½·Î´Ïī ÏĥÎ¹
ĠÎ³ÎµÏī ÏģÎ³
ĠÎ¼ÎµÎ³á½³ Î¸Î¿ÏħÏĤ
ĠÎ´ÎµÎ» ÏĨ
ĠÎ±á¼°ÏĩÎ¼Î± Î»á½½
ĠÏĥÏĦÏģ Î¿Î³Î³
Ġá¿¥á½±Î² Î´á¿³
Ġá¼ĪÎ»Îº Î¹Î²Î¹á½±
Ġá¼ĢÎ¼ÏĨÎ¹Î² á½±Î»Î»
Ġá½ķÏĢÎ±Ïģ Î¾Î¹Î½
Ġá¼ĳÏĨÎ¸Î·Î¼Î¹Î¼ÎµÏģ á½³ÏĤ
ĠÎ¸Î½ Î·ÏĦ
Ġá¼ĢÎºÎ¿Î»Î¿á½» Î¸ÏīÏĤ
ĠÏĢÎ±Î½ÏĦá½±ÏĢÎ± ÏĥÎ¹Î½
Ġá¼ĢÏĢÎ¿Îºá½±Î»Ïħ ÏĪÎ¹ÏĤ
ĠÎ²ÏģÎ¿Î½ÏĦÎ± á½¶
ĠÎ»Î±Î½ Î¸á½±Î½
Î¤Î¿á¿¦ ÏĦÎ¿
ĠÎ¸á½±Î»Î± ÏĦÏĦÎ±Î½
ĠÎ¼á½±Î³ÎµÎ¹ ÏģÎ¿Î½
ĠÏĥá½°Ïģ Î¾
ĠÏĩÎµá½¶ Ïģ
Î ĳ
Î Ĵ
ÏĦ ÏĦÎ·ÏĤ
Î½ Îµ
ĠÎ Ł
Î¿ ÏĥÎ¹
Î¿ ÏĦÎµ
Î¿ ÏĦÎµÏģ
Î¿ ÏĦÏģá½·
Î¿ á¼¶
á¼ ĵ
á¼ Ŀ
Î¹ Î¼Î±
Î¹ ÎºÎ±
Î¹ ÏĢÎ±ÏĦÎ·
Îµ á½¶ÏĤ
Ġá¼ ¨
Ïģ Îº
Ïģ ÎµÎ½
Ïģ ÏģÏħÎ¸
ĠÏĦ ÏģÎ±Î³
Ïĥ Î¿ÏħÏĥÎ¹Î½
Î» á½±Ïĥ
Î¼ á½±Î»
ĠÎº á½½ÏĢ
ĠÎº Î¹Î²
ĠÎº Ïģá½»
Îº á½¼ÏĤ
Ïħ á½·Î±ÏĤ
Î· ÏĥÎ±ÏĤ
Î· ÏĦá½³Î¿Î½
Î· ÏģÎ¹Î¶
á½· ÏĦÎ·ÏĤ
á½³ ÏĥÏĩ
Ġá¼Ĳ ÏĦ
Ġá¼Ĳ ÏĦá½·
Ġá¼Ĳ Î¸Îµ
Ġá¼Ĳ Î²Î±
Î³ á½¸Î½
Î³ Î¼Î±ÏĦÎ¹
á½± ÏĥÎ¸Î±Î¹
á½± ÏĥÎ¹Î±ÏĤ
Î¸ Î¿Î¹
Î¸ á½±Ïģ
Ġá¼Ģ ÏĥÎ¹Î½
Ġá¼Ģ ÏĥÎ¸á½³Î½
ĠÎ¼ á¿¦
ĠÎ¼ á½µÏĦÎ·Ïģ
Ïĩ Î¸Î·ÏĥÎ±Î½
Î´ á½¸Î½
Î´ á½³Î½Î±Î¹
ÏĨ Î»
ÏĨ Î¿ÏģÎ¹Îºá¿¶ÏĤ
Î¿á¿¦ ÏĦÎ¿ÏĤ
ĠÏĦá¿ Ĩ
ÏĥÏĦ Î¿Ïħ
ÏĥÏĦ Î¿ÏħÏĤ
Î¿Î¹ Ïī
ĠÎ³ á½³
ĠÎ³ á½±
ĠÎ³ á½³Ïģ
ĠÏĥ ÏĢÎ¿Î½
á½³Î½ Î·ÏĦÎ±Î¹
Ġá¼ĲÎ½ á½³
Ġá¼ĲÎ½ ÏĦá½³ÏģÏīÎ½
ĠÎ´Î¹ Î¿ÏģÎ¸
Î¾ Î¿Î½
Ġá¼Ķ Î²
Ġá¼Ķ Î¼ÏĪ
Î² ÎµÏĦÎ±Î¹
Î² Î±Ïģ
Î² Î¿á½»Î»
Ġá¼ĲÏĢ ÎµÎ½
ĠÎ±á½ĲÏĦ Î¿á½·
ÏģÎ± Î³Î¼Î±
ĠÎ» Î¿Ïģ
ĠÎ» ÎµÎ»
Ġá½ģ ÏģÎ¹Îº
Ġá½ģ ÏĢÏī
ĠÎµá¼° ÏĥÎ¸á½³ÏĥÎµÎ¹
ĠÏĨ Î»á½³
ĠÏĨ á½³ÏģÎµÎ¹
á¿¶Î½ ÎµÏĤ
á½½ Î¼ÎµÎ½Î±
Ġá¼ĢÎ½ á½³
Ġá¼ĢÎ½ ÏĦÏī
Ġá¼ĢÎ½ á½±Îº
Ġá¼ĢÎ½ á½µÏģ
ÏĦÎµ Î»Îµ
á½¹Î½ Î±Î¹
á½¹Î½ ÏĦÏīÏĤ
ÏĦÎ¿ ÏĢ
ÎºÎ± ÏĥÎ¹
Ġá¼Ħ ÏĢÎ¿Ïģ
Ġá¼ĢÏĢ á½½Î»
Î¼ÎµÎ½ á½¹ÏĤ
ĠÏĢÎ± ÏĦÏģá½·
Îµá½· ÏģÎ±Î½
ĠÏĩ Î»
ĠÏĩ á½±Ïĥ
ĠÏĩ á½¹Ïģ
Ġá½¡ ÏĥÎµ
á½³Î³ ÎºÎ»Î·Î¼Î±
Ġá¼ĲÎº ÏĦÎ±Î½
Ġá¼ĲÎº ÏĨÏīÎ½
ĠÏĢÏģÎ¿ ÏĢÎµ
Î»Î· ÏĥÎµÎ½
á¿¦ Î»Î¿Î½
ĠÎ¸ Îµá½·á¾³
Î¹Îº Î¿á½·
Î¶ Îµ
ĠÎ² á½¹
ĠÎ² Í´
ÏĪ ÎµÎ½
ĠÎ»á½³Î³ Î¿Î½ÏĦÎ¹
Ġá¼ĢÎ»Î» Î¿ÏĦÏģá½·
Ġá½Ģ ÏģÎ½
Ġá½Ģ Î´á½¹Î½ÏĦÎ±ÏĤ
ĠÏĦÎµ Î¼Î½
Ïĥá½· Î»ÎµÏħ
ĠÏĢÎ±Ïģ ÏģÎ·
ĠÏĢÎ±Ïģ ÎµÏħ
ĠÏĢÎ±Ïģ ÎµÏĩ
ĠÏĢÎ±Ïģ Î±Î¹Î½
ĠÏĢÎ±Ïģ Îµá¿ĸÎ½Î±Î¹
ĠÏĦÎ¹ Î¸á½³
Î¿á½» Î´Î±
á¾¶ ÏĥÎ¹Î½
ĠÎ´Î¹Î± ÏĦá½·
ĠÏĢÎ¿Î¹ á½µÏĥá¿ĥ
ĠÎ¿á½ĸ ÏĥÎ±Î¹
Ġá¼ĲÏĢÎ¹ ÎµÎ¹Îº
Ġá¼ĲÏĢÎ¹ Î¿ÏģÎº
Ġá¼ĲÎ¾ Î¿Ïĩ
Ġá¼ĲÎ¾ Î¹Ïĥ
Ġá¼ĲÎ¾ Î±ÏĢ
ÏĦá½³ ÏĥÏĥÎ±
Î¸Ïģ á½½ÏĢ
Ġá¿¥ á½»
Ġá¿¥ á½³ÏĢÎµÎ¹Î½
ĠÎ¶ ÏīÎ¼
ĠÏĩÏģ Îµá½·Î±ÏĤ
ĠÎºÎ±ÏĦÎ± ÏĥÎº
ĠÎºÎ±ÏĦÎ± ÏĨÎ±
ĠÎºÎ±ÏĦÎ± ÏĦÎµá½·Î½
á½±Î» Î¿Ïħ
Î±Î» Îµá½·
ÏģÎ¿ á½·
ĠÏĥÏħÎ½ Îµ
ĠÏĥÏħÎ½ ÎµÎ¹
ĠÏĥÏħÎ½ á½·Î¶
ĠÏĥÏħÎ½ Î´á½³
ĠÏĥÏħÎ½ ÎµÏģÎ³
ĠÏĥÏħÎ½ á½±ÏĢ
ÏĥÎ¼ á½¹Î½
Ġá¼ķ ÏĦÎµÏģÎ¿Î¹
Î´Î¹ á½¹
Î´Î¹ Î´
Î¼á½± ÏĦÎ¹Î¿Î½
ÎµÏĨ Î±Î½
ĠÎ¿á½ĲÎ´ Î±Î¼
á½¹ÏĦÎ· Î½
Ġá½Ħ ÏĨ
Ġá½Ħ ÏģÎ¸
ÏĦÏī ÏĥÎ¹Î½
Î»á½³ Îº
á¼Ģ Îº
ĠÎºÎ±Î¸ á½·
ĠÎºÎ±Î¸ á½¹
Ġá¼ģ Î»
ĠÎł á½³
ĠÎł ÏģÏī
Î»á½· ÏĥÎº
ÏĦÎ¿Î¹ Î¼Î±
ĠÏĢÏģÎ¿Ïĥ Î´
ĠÏĢÏģÎ¿Ïĥ á½³Ïĩ
ĠÏĢÏģÎ¿Ïĥ á½µÎºÎµÎ¹
ĠÏĢÎ±ÏģÎ± ÏĥÏĩ
ĠÏĢÎ±ÏģÎ± ÏĩÏģ
Ġá¼ĢÏĢÎ¿ Î´Îµ
Ġá¼ĢÏĢÎ¿ ÏĥÏĨ
ĠÏĢÎ» á½±Î½
ĠÎµá½Ĳ Î´Î¿Îº
ĠÏĥÎº Îµá½»
ĠÏĥÎº Î¿Î»Î¹
á½¹Î¼ Î¿Î¹
Ġá¼ħ ÏĢÏĦÎµÏĦÎ±Î¹
á½³Ïĥ Î¿Î¹
á½³Ïĥ Î²
ÏģÎ±ÏĨ Î¿Î½
á½½Î½ Î¿Ïħ
Ġá½ģÎ¼ ÏīÎ½ÏħÎ¼
ĠÎ¿á½ĲÏĥá½· Î±Î¹ÏĤ
ĠÎ¸Îµ Î¿
ĠÎ¸Îµ Î¿á½ºÏĤ
ĠÎ¸Îµ Î¼á½³Î»
Î´ÎµÎ¹ Î±Î½
Ġá¼ĢÎ½Î± ÏĦÎ¿
á¼° Î´Î¿á½º
ĠÎ³á½³Î½ ÎµÏĥÎ¹Î½
ĠÎ³á½³Î½ ÎµÏĥÎ¹ÏĤ
Ġá¼´ Î¾Î¹Î½
Ġá¼ĢÎ¼ÏĨ á½·
Ġá¼ĢÏĨ Î¹
Ġá¼ĲÎ½Î±Î½ÏĦá½· Î¿ÏĤ
á½»Î» á¿ĥ
ÏħÎ³ Î¼Î±
Î»á½µ Î¸Î·ÏĥÎ±Î½
Ġá½ķ ÏĢ
ĠÎºÎ¿Î¹Î½ á¿ĩ
ĠÎ´Îµ Î´Ïī
ÏĢÎ» á½´Î½
ĠÏĨÎ± Ïĥá½·
ĠÎ£ Ïħ
Ġá¼ł ÎºÎ¿Î»Î¿á½»
á½¹Ïģ ÏīÏĤ
á½¹Ïģ ÎµÏħ
ĠÏĥÏĩ á½µÎ¼Î±ÏĦÎ±
Ġá¼¥ Î¾ÎµÎ¹
ĠÎ´á½· Ïī
Ġá½ħÏģ Î¿Î¹
á¼Ķ Î´ÎµÎ¹
ĠÎ³Î½ á¿¶ÏĥÎ¹Î½
ĠÏĦá½³ ÏīÏĤ
ĠÏĦá½³ ÏĦÏĦÎ±
ĠÎľ á½µ
ĠÎľ Î±Î³
ĠÏĢá½³ ÏĨ
ĠÏĢá½³ Î¼ÏĪ
Ġá¼°ÏĥÏĩ á½»
Îµá¼° ÏĤ
Ġá¿¥Î·ÏĦ á½¹Î½
á¾¶Î½ Î±Î¹
Ġá½ĳÏĢÎ¿ Î´Îµ
á½»ÏģÎ¹ Î¿Î½
ĠÏĨÏħ Î»á¿ĨÏĤ
ĠÎ½á½¹Î¼ Î¹Î¼Î¿Î½
ĠÎ¿á¼°Îº á½³
Îºá½± Î¼ÏĢ
ĠÏĨÏīÎ½ Î±á½¶
ĠÎ´Î¿Îº Î¿á¿¦ÏĥÎ¹
ĠÎ²Î¿Ïħ Î»Î±á¿ĸÏĤ
ĠÏĢÏģÎ¿ÏĨ ÎµÏģ
ĠÏĦÏģÎ¹ á½½Î²Î¿Î»Î¿Î½
ĠÎ¼Î·Î´ ÎµÎ½
ĠÎ¼Î·Î´ á½³Î½Î±
Ġá¼ĢÏģ Îºá½³ÎµÎ¹
Ġá¼ĲÏĢÎ¹ÏĥÏĦ á½µÎ¼Î¿Î½
ĠÏĪÏħÏĩ Ïģ
á½±ÏģÏĩ Î¿Ïħ
á½µÏĥÎµÎ¹ Îµ
ĠÎ²ÏģÎ±Ïĩ á½º
ÎµÏĥÏĦ á½³Ïģ
ĠÎ»Î¿Î³ Î¹
ĠÏĢÎ»Îµá½· Ïī
ĠÎ±á½Ĳ Î»Î·
ĠÎ¼Î¹Îº ÏģÎ¿á¿¦
Î±Î³Î³ á½³Î»
ĠÎ´Î¹Î±ÏĨÎ¿Ïģ á½±
Ġá¼ĳÎ½ Î¹Îºá¿¶ÏĤ
ĠÏĢÎ¿Ïĥ á½°
ĠÎ´Îµá½· Î¾Ïī
ĠÎ´Î¹á½± Î¸ÎµÏĥÎ¹Î½
ĠÎ¼Î± Ïĥ
ĠÏĢÎ¿Î»Î¹ ÏĦÎ¹Îºá¿¶Î½
ĠÎºÎ¹Î½ Îµá¿ĸÎ½
ĠÎºÎ¹Î½ Î´ÏħÎ½
ĠÎ¼ÎµÏģ Î¹Îºá½´Î½
ĠÎºÎ±ÏĦÎ·Î³Î¿Ïģ Î¿á¿¦Î½ÏĦÎ±Î¹
ĠÎ´Î¹Î´ á½¹Î½Î±Î¹
á½µÏĥÎ±Î½ ÏĦÎ¿
á¿¤á¿¥ Î¿ÏĢÎ¿Î½
á¼ĺ ÏĢÎ¹
ĠÎ»á½» ÎµÎ¹
ĠÎ»á½» ÏĥÎ¹Î½
ÏīÎ½á½»Î¼ Î¿Ïħ
Ġá¼ĳÎ±ÏħÏĦ á½µÎ½
Ġá¼ĲÎ³Îº ÎµÏĨ
ĠÏĥÏĦÏģÎ±ÏĦÎ·Î³ á¿¶Î½
Ġá¼ĲÎ¸ á¿¶Î½
Ġá¼ĶÏģÎ³ ÏīÎ½
ĠÎĶÎ·Î¼Î¿ÏĥÎ¸á½³Î½ Î·Î½
á½³Î¸Î· ÎºÎµ
ĠÏĢÎ¿Î»á½º Î½
ĠÎ¼á½³Î» Î±ÏĤ
ĠÎ²Î¿ÏħÎ» á¿ĩ
ĠÎ¼Î¿Î½ Î¿Î³ÎµÎ½
ĠÏĦÎ¹Î¼ á½´Î½
ĠÎºÎ±ÏĦá½± ÏĨÎ±ÏĥÎ¹ÏĤ
Ġá½ħÎ¼Î¿Î¹ Î¿ÏĤ
Ġá½ĢÏĥÏĦ Î¿á¿¦Î½
Ġá¼ĲÏĢÎ¹ÏĨ Î¿Î¹ÏĦ
ĠÏĥÎºÎ¿ÏĢ á½¹Î½
ĠÏĢÎ¿Î½ Î·
Ġá¼ĲÏĢÎ¹ÏĥÏĦá½µÎ¼ Î·Î½
ÏĦÏģá½· ÏĦÎ¿Î½
Ġá½ģÎ¼Î¿Î»Î¿Î³ Î¿á½»Î¼ÎµÎ½Î¿Î½
ĠÎ³ÏģÎ±ÏĨ á½´Î½
ĠÏĥá½»Î½ ÏĦÎ¿
ĠÎ¼Î±Îº Ïģá½°
Ġá¼°ÏĥÏĩÏħÏģ á½°
Ġá¼ĢÎ¾Î¹ á¿¶Î½
ĠÎºÎµÏĨÎ±Î»Î± á½·á¿³
ĠÎ³Î¹Î½ á½¹Î¼ÎµÎ½Î¿Î½
Îł ÎµÏģ
á½³Î² Î»Î·
Ġá¼ĦÎ³ ÎµÎ¹Î½
Ġá¼ĢÎ´Î¹Îº Î·Î¼á½±ÏĦÏīÎ½
á¼ĢÏĢ Î¿Ïģ
Ġá¼µÏĢÏĢ Î¿Î¹ÏĤ
ÏĩÎ± ÏģÎ¹ÏĥÏĦ
á½µÎºÎ± ÏĥÎ¹Î½
ĠÎ»Î±Î¼Î²á½±Î½ ÎµÎ¹Î½
ĠÎ¤ Î¹Î¼á½±
ĠÎ¸Î·Ïģá½· á¿³
ĠÎ¼ÎµÏĦá½³ ÏĩÎµÎ¹Î½
Ġá½ĳÎ³Î¹ á¿¶ÏĤ
á¼ĢÎ½ ÏĦá½¶
Ġá½ĢÏģÎ¸ á½¸Î½
Ġá¼´Ïĥ Î¼ÎµÎ½
ĠÎºÎ±Ïģ Î´á½·Î±ÏĤ
ĠÎ½Îµ á¿¶Î½
ĠÏĢÎ½Îµá½» Î¼Î¿Î½
ĠÎ²Î±ÏĥÎ¹Î» Îµá¿ĸ
Ġá½łÎ½ Î¿Î¼á½±
ĠÎ´Î¹Î±ÏģÎ¸Ïģ á½½ÏĥÎµÎ¹ÏĤ
ĠÎºÎ¿ ÏĥÎ¼
ĠÏĢÎ»Î± Îº
ĠÏĢÎ»Î± Î³
ĠÎ¼Îµá½· Î¶ÏīÎ½
ĠÎ´Î¹Î´Î± ÏĥÎº
ĠÏĥÏħÎ³Î³ ÎµÎ½
Ġá¼ĦÏģÏĩ ÎµÏĦÎ±Î¹
ĠÏĥÏĨÎ¿Î½Î´á½»Î» Î¿Î¹ÏĤ
Ġá¼ĢÏģÎµ ÏĦá½´Î½
Ġá¼ĢÏģÎµ ÏĦá½´
ĠÏĢÎ¿Î»ÎµÎ¼ á½·Î¿ÏħÏĤ
Ġá¿¥á½±Ïĩ Î¹ÏĤ
ĠÎ±á¼°ÏĥÎ¸Î·ÏĦ á¿¶ÏĤ
ĠÏĢÎ»Îµá¿ĸ ÏĥÏĦÎ¿Î¹
ĠÎ³Î½á½½Î¼ Î·
Ġá¼ĪÏĦ ÏĦÎ¹Îºá¿ĨÏĤ
ĠÏĢÎµÏĢÏģÎ±Î³ Î¼á½³Î½Î±
ĠÎºÏī Î»Ïħ
Ġá¼ĲÎ»á½³Î³ ÎµÏĦÎ¿
ĠÎ´Î·Î¼ Î¿Îº
ĠÎ³Î» á½½
Ġá¼ĦÎ¾Î¹ Î¿ÏĤ
Ġá¼¡Î¼á½³Ïģ á¾³
Ġá¼ĢÎ½ÏĦÎ¹ÏĥÏĦÏģá½³ÏĨ ÎµÎ¹
Ġá¼ĲÏĢÎµ ÏĦá½µÎ´ÎµÏħ
ĠÏĢÏģÎ¿ÏĥÎµ Îº
Ġá¼ĢÏģÎ½ Îµá¿ĸÏĦÎ±Î¹
ĠÎ´Î¹Î±Î²á½±Î»Î» ÏīÎ½
ĠÎ´Î¹Î±Î²á½±Î»Î» ÎµÎ¹Î½
Ġá¼ĲÎ»á½± Î¼Î²Î±Î½
ĠÎµá½ĲÏĦ ÏħÏĩ
ĠÎ½ÎµÎº Ïģá½¸ÏĤ
ĠÎ½ÎµÎº Ïģá¿¶Î½
ĠÎ½ÎµÎº ÏģÎ¿á½ºÏĤ
ĠÎ½Î¿Î·ÏĦ á¿¶ÏĤ
ĠÏĦÏģÎ¿ÏĨ á¿ĨÏĤ
Ġá¼ĶÏģÏĩ Î¿Ïħ
Ġá¼ĢÏĢÎ¿Ïģá½· Î±ÏĤ
ĠÎ¼ÎµÏĦÎ±ÏĨÎ¿Ïģ á½°
ĠÎ´á½³Ïģ Î¼Î±ÏĦÎ±
ĠÎ¸á½» ÏģÎ±ÏĤ
ĠÎ³Î½á½± Î¸Î¿ÏĤ
ĠÏĦÎµÎ» Îµá¿ĸ
ĠÎ´ÏīÏģÎµ á½±Î½
ĠÎ´ÏīÏģÎµ á½°Î½
ĠÏĦá½·Î½ ÎµÏĤ
ĠÏĥá½±Ïģ ÎºÎ±ÏĤ
ĠÏĢÎµÏģÎ¹á½³Ïĩ ÎµÎ¹
Ġá¼ĢÏĢá½¹ÏĥÏĦÎ¿Î» Î¿Î½
ĠÎºÎ±Î½ á½¼Î½
á½±ÏĥÎ±Î½ ÏĦÎ¿ÏĤ
ĠÏĦÎ±Ïĩ á½»
ĠÏĥÏħÎ½ÏĦÎµÎ» Îµá½·Î±ÏĤ
ĠÎµá½ĳÏģá½·ÏĥÎº Î¿Î½ÏĦÎ±Î¹
Ġá¼ĲÎ² Î»á½µÎ¸Î·
ĠÎ´Î¹Î±ÏĨá½³Ïģ Î¿ÏħÏĥÎ¹Î½
ĠÎºá½¹ÏĥÎ¼ Î¿ÏĤ
ĠÎĽÎ±ÎºÎµÎ´Î±Î¹Î¼Î¿Î½ á½·Î¿Î¹ÏĤ
ĠÎĽÎ±ÎºÎµÎ´Î±Î¹Î¼Î¿Î½ á½·Î¿ÏħÏĤ
ĠÏĢÏģÎ¿ÏĤ Î´Î¹
ĠÎµá½ķ ÏģÎ·ÏĦÎ±Î¹
Ġá¼ĢÏĦá½¹Î¼ Î¿Ïħ
ĠÏĢÏĦá½³Ïģ Î½á¿ĥ
Ġá¼ĲÎ¾Î±ÏģÎ¸Ïģ á½µÏĥá¿ĥ
á¼ĦÎ»Î» Î¿Î¹
ĠÎºÏīÎ¼á¿³ Î´á½·Î±ÏĤ
á¼ľ ÏĢÎµÎ¹ÏĦÎ±
ĠÏĢÏģÎ± Ïĩ
Ġá¼ĢÏĢá½³ Î¸Î±Î½
ĠÏĦÎµÎ»Îµá½· ÏīÏĤ
ĠÏĢÏģÎ¿ÏĥÎ·Î³ Î¿ÏģÎ¹Îº
ĠÎ±á½ĲÏĩ á½³Î½Î±
Ġá¼°Î±ÏĦÏģÎ¹Îº á¿ĨÏĤ
Î±Î¹Î¼ á½¹Î½
Ġá¼ĪÎ¸á½µÎ½ Î±Î¹ÏĤ
ÎŁ á¼±
Ġá½¡ÏģÎ¹Ïĥ Î¼á½³Î½Î±
Ġá¼°ÏĩÎ¸ á½»ÏīÎ½
Ġá¼´ÏĥÏĩ Ïħ
ĠÎ´á½·Î´Ïī ÏĥÎ¹Î½
ĠÎºÎµÎ½ Îµ
ĠÎļÏģÎ±ÏĦ á¿ĸÎ½Î¿ÏĤ
á¼ĶÎ½ Î¹Î¿Î¹
Ġá¼ĢÎ½ÏĦÎ¹Î´Î¹ Î±Î¹Ïģ
Ġá¼°ÏĥÏĩÏħ ÏģÎ¿
ĠÎ¶á¿¶ Î±
Ġá¼ĢÏĢÎ±Î¹ ÏĦ
ĠÏĢÎ±ÏģÎ¿Î¹ Î¼Î¹
ĠÎľÎ¹Î½Î¿ÏħÎºÎ¹Î±Î½ á½¸ÏĤ
ÏĦá½·Î¸ ÎµÏĥÎ¸Î±Î¹
Ġá½łÎ´ á½´Î½
Ġá¼ĲÎ³ÎºÎ»á½µ Î¼Î±ÏĦÎ¿ÏĤ
ĠÏĦá½»ÏģÎ±Î½ Î½Î¿ÏĤ
ĠÏĦÎ¹Î¼ÏīÏģá½· Î±ÏĤ
ĠÎ½á½» Î¼ÏĨ
ĠÎ¸ÏħÏĥÎ¹Î±ÏĥÏĦ á½µÏģÎ¹Î¿Î½
Ġá¼¹ÎµÏģÎ¿ÏħÏĥÎ± Î»á½µÎ¼
Ġá¼ĲÎºÏĢÎµÏĢ ÏĦá½½
ĠÏĦÎµá½· ÏĩÎ·
Î´ÏģÎ±Î¼ á½¼Î½
Ġá¼ĢÎ½ÏĦ á½³Î³ÎºÎ»Î·Î¼Î±
ĠÎ½Ïī ÏĦÎ¹
Ġá½Ļ ÏĢá½³Ïģ
á½»ÏĦÎ· ÏĦÎ±
Ġá¼ĢÎ½Î¿á½· Î³
Ġá¼ĢÎ³Îº á¿¶Î½Î±
ĠÏĪá½µ ÏĨÏīÎ½
Ġá¼ĢÏĨÎ¿ÏģÎ¼ á½´Î½
ĠÎºá½¹Î»Î± ÏĥÎ¹Î½
Ġá¼ĢÎ½á½³Î¼ ÏīÎ½
Ġá¼ĲÎ´á½µÎ»Ïī ÏĥÎµÎ½
ĠÏĦÏģÎ¿ÏĩÎ±ÏĬÎº Î¿á½¶
Ġá¼ĲÎ´Îµá½· ÏĩÎ¸Î·
ĠÏĦÎµÏĥÏĥÎ± ÏģÎ±Îº
ÏĥÎ±á½» ÏĦÏīÏĤ
ĠÎ´á½»Î½ Î±Î¹ÏĦÎ¿
ĠÎ¸ÎµÏĥÏĢÎµ Ïĥá½·á¿³
Ġá¼ĲÎ½Î±Î½Î¸ÏģÏīÏĢ á½µÏĥÎµÏīÏĤ
ĠÏĢÎµÏģÎ¹ÏĥÏĦÎ± ÏĦÎ¹Îºá¿¶Î½
ĠÏĨÎ¸á½±ÏĥÎ± ÏĥÎ¹Î½
ĠÎ´Î¹á½±ÎºÏģÎ¹ ÏĥÎ¹Î½
Î¿ÏĢá½½ Î»Î·ÏĤ
ĠÏĢÎ±Î½ÏĦÎ¿ÎºÏģá½± ÏĦÏīÏģ
ĠÎµá¼´Ïī Î¸Îµ
á¼µ Î½Î±
ĠÎºÎ±ÏĦÎµÏģ Î³
ĠÎ»Î· ÏĨÎ¸
ĠÎµá¼°Î´Ïī Î»
Ġá¼ĢÏĢÎ±á½· ÏĦÎ·ÏĥÎ¹ÏĤ
ĠÎ´ÎµÏĥÏĢá½¹ ÏĦÎ¿Ïħ
ĠÎ²ÏħÏģÏĥÎ¿Î´á½³ÏĪ Î·Î½
ĠÎºá½»Î½ ÎµÏĤ
ĠÎ´Î¿Î³ Î¼á½±ÏĦÏīÎ½
ĠÎ´Ïģá¾¶ Î¼Î±
ĠÎľÎ· Î´Î¹Îº
ĠÎ½á½»Îº ÏĦÏīÏģ
ÏħÏĦá½¹Î½ ÏīÏĤ
ĠÎµá½ĲÎ»á½¹Î³ ÏīÏĤ
ĠÏĢÎ¿Î»á½³Î¼Î¹ Î¿Î¹
ĠÎ»á½·Î¼Î½ Î·Î½
ĠÎ´Î·Î¼Î¹ Î¿ÏħÏģÎ³
Ġá¼ĲÎ½Î¸á½»Î¼ Î·Î¼Î±
ĠÎ´Î¿Ïģ ÏħÏĨ
ĠÏĥÏĨá½¹Î½Î´ÏħÎ» Î¿Î¹
Ġá¼ĢÏĥÎ¸á½³Î½ ÎµÎ¹Î±Î½
Ġá½ģÏĢÏī ÏĥÎ¿á¿¦Î½
Ġá¼ĢÎ½á½±Îº Î»Î¹ÏĥÎ¹ÏĤ
Ġá¼ĢÏĢá½½Î» ÎµÎ¹Î±Î½
Ġá½¡ÏĥÎµ á½¶
ĠÏĢÎ±ÏģÎµÏħ Î´Î¿ÎºÎ¹Î¼
ĠÏĢÎ±ÏģÎ±ÏĩÏģ á¿ĨÎ¼Î±
ĠÎ¤Î¹Î¼á½± ÏģÏĩ
ÏĦ á¾¶Î½
Î½ ÏĦÎ±Î¹
Î¿ Î´Î¿ÏĤ
Î¿ ÏĦá½µ
á¼ ¥
á¼ ¸
Î¹ Î³Î³
Îµ ÏĪ
Îµ Î¼Î¿Î½
Ġá¼ ¶
Ïģ á½¹ÏĢ
ĠÏĦ ÏģÎ±ÏĢ
Ïĥ Î·Î¼
ÏĢ ÏĦÎ±Î¹
ÏĢ á½³Î½
Î» Î¸á¿ĥ
Î¼ Ïħ
Î¼ á¿³
Î¼ Î¿ÏħÏĤ
Î¼ á½µÎ½
Î¼ Î¿Ïĩ
ĠÎº ÎµÎ¹
ĠÎº Îµá¿ĸÎ½
ĠÎº Î¿á½·
ĠÎº Î»Îµá½·
Îº Î¿ÏħÏĤ
Îº ÏĦá½³Î¿Î½
Ïħ Î²
Ïħ Î»á½·Î±Î½
á½¶ Î´
Î· ÏģÎµ
Î· Î»Î¿Î½
Î· ÏĥÎ¿Î½
Î· Î¸á¿ĨÎ½Î±Î¹
ĠÏĢ Îµá¿ĸÏĥÎ±Î¹
ĠÏĢ Î¿á¿ĸÎ±
á½· ÏĢ
á½· Î·Î½
á½· ÏĥÎ¸Î·
á½· Î¿Î¹ÏĥÎ¹
á½· Î¿Î¹ÏĥÎ¹Î½
Ġá¼Ĳ Î¼Î±
Ġá¼Ĳ ÏģÎ±
Ïī Î¼á½±ÏĦÏīÎ½
Ġá½ ī
ĠÎ´ Ïģ
ĠÎ´ á½±
ĠÎ´ Í´
ĠÎ´ á½¹ÏģÏħ
Î¿Î½ ÏĦá½³ÏĤ
á½± Î´ÏīÎ½
Î¿á¿ ¶Î½
Î¸ á½¹Î½
á½¹ ÏĥÎ¹Î¿Î½
Ġá¼Ģ Ïĩ
Ġá¼Ģ Î¼Î²
Ġá¼Ģ Î¼ÏĢ
Ġá¼Ģ Î¼Îµ
Ġá¼Ģ á¿¤á¿¥
Ġá¼Ģ ÏĩÏģ
ĠÎ¼ Î¹Î½
ĠÎ¼ ÏħÎº
Ïĩ Î¿ÏħÏĥÎ¹
Î´ á½¼Î½
á½° Î¼
ÎµÎ¹ Î»á½±
á½» ÏĥÎµÎ¹
ÏĥÏĦ á¿³
ĠÎµ Í´
ĠÎ³ á½³ÏģÎ±ÏĤ
Î±Î¹ Î±
ĠÎµá¼ ·
á¿ĸ ÏĦÎ±Î¹
á½µ ÏģÎ¹
ÎµÎ½ á½¹Î½ÏĦÏīÎ½
ĠÏĥ Î¿á½·
ÎµÏģ Î½
ÏĦÎ¹ ÎºÎ±á¿ĸÏĤ
Îµá¿ĸ Î±Î¹
Îµá¿ĸ Î»Îµ
Ġá¼ĲÎ½ Î±á½·
Ġá¼ĲÎ½ á½¹Î¼
Ġá¼ĲÎ½ ÎµÏĩ
ĠÎ´Î¹ ÏĢÎ»Î±
Ġá¼Ķ Î³Î½
Ġá¼Ķ Î´ÏīÎºÎµÎ½
Ġá¼Ķ Î»Î¸á¿ĥ
Î² ÎµÏģÎ½
Ġá¼ĲÏĢ á½±
Ġá¼ĲÏĢ Îµá½·
Ġá¼ĲÏĢ á½µÎ½ÎµÎ³ÎºÎµ
ÏģÎ± á¿ĸÏĤ
ĠÎ» á½±Ïĩ
Ġá½ģ ÏģÎ±
ĠÎµá¼° Î´á½¹
ĠÏĨ á½±Î³
ĠÏĨ ÏħÏģ
ĠÏĨ Î¸Î±Ïģ
á½½ ÏĦÎµÏģÎ±
ÏĦÎ· Î¼Î±
Ġá¼ĢÎ½ á½°
Ġá¼ĢÎ½ ÎµÏĢÎ¹
Ġá¼ĢÎ½ Î±á½·ÏģÎµÏĥÎ¹Î½
ÏģÎ¹ ÏĥÏĦÎ±Î¹
ÏĥÎ¸ á½µÏĥÎ¿Î½ÏĦÎ±Î¹
ÎºÎ± Î¼ÏĢ
Ġá¼Ħ ÏĦ
Ġá¼Ħ ÏĢÎµ
Ġá¼Ħ ÏĦÎµÏĩÎ½
Ġá¼ĢÏĢ Î·Î½
Ġá¼ĢÏĢ ÎµÏĩ
Ġá¼ĢÏĢ Î±Î³ÏīÎ³
ĠÏĢÎ± Ïģá½·
ĠÏĢÎ± á½·Î´ÏīÎ½
Îµá½· Î·ÏĤ
Ïģá½· ÏīÎ½
Ïģá½· Î¶ÎµÎ¹Î½
ĠÏĩ ÎµÎ»Î¹Î´
Ġá½ĳ Î²
ĠÏĥÏħ Î¶ÏħÎ³
Ġá¼ĲÎº Î´á½³
Ġá¼ĲÎº ÏĢÏĦ
ĠÏĦÎ¿ ÏĢ
ĠÏĢÏģÎ¿ á½Ķ
Î»Î· Î½Î±
á¿Ĩ ÏĥÎ¹ÏĤ
á¿Ĩ ÏĨÎ¿Î½
ĠÎ¸ ÎµÎ¹
ĠÎ¸ ÎµÎ»
ĠÎ¸ Ïģá½³
ĠÎ¸ Î·Î»
ĠÎ¸ Î±Î»Î±
Î¶ Î¿Î¼ÎµÎ½
Î¿Î» á½·
Î¿Î» á¿ĨÏĤ
ĠÎ² Ïģá½³
Ġá¼ĲÏĥÏĦ ÏģÎ±
Ġá½ĳÏĢ á½±Î»Î»
Ġá½ĳÏĢ á½±Î³ÎµÏĦÎ±Î¹
ĠÏĢÎµÏģ á½·Î¿
ĠÎ½ á½´
ĠÎ½ ÏħÎ½
ÏĪ Î¿Î½
ÏĪ á¿ĥ
ĠÎ»á½³Î³ ÏīÎ¼ÎµÎ½
á½µÏĥ Î±Î¹
Ġá¼ĢÎ»Î» Î·Î»
Ġá¼ĢÎ»Î» á½¹ÏĦ
ĠÎ±á¼ ·ÏĤ
Ġá½Ģ Ïģ
Ġá½Ģ ÏģÏĩ
Ġá½Ģ ÏĥÏĨ
Ïĥá½· ÏīÏĤ
ĠÏĢÎ±Ïģ Î±Î¹
ÏĦá½· Î¿Ïħ
ĠÏĦÎ± Ïģ
ĠÏĦÎ± Î»Î±Î¹
Î¿á½» ÏĬÎ±
ÏĥÎ± ÏĦÎµ
ÏĥÎ± Î¼ÎµÎ½
ĠÏĢÎ¿Î¹ á½µÏĥÎµÎ¹
ĠÏĢÎ¿Î¹ Î¼Î±Î½
ÏĦÎµÏģ á½±
ÏģÎ· Î¼á½±ÏĦÏīÎ½
ÏģÎ· ÏĥÎµÎ½
Ġá¼ĲÏĢÎ¹ ÏĦ
Ġá¼ĲÏĢÎ¹ ÏĦÎµ
Ġá¼ĲÏĢÎ¹ ÎºÎ±Î»
Ġá¼ĲÏĢÎ¹ ÏĩÎµÎ¹
ÏĦÎ¹Îº á¿ĩ
ÏĦÎ¹Îº Î¿á½ºÏĤ
ÎµÏħ á½¹Î¼ÎµÎ½Î¿Î½
Î´Îµ ÏĥÎ¸Î±Î¹
Ġá¿¥ á½¹
ĠÎ¶ ÏīÎ³
ĠÏĩÏģ á½µÎ¼Î±ÏĦÎ±
ĠÎºÎ±ÏĦÎ± ÏĦÎµÎ¹Î½
Î±Î» Î¿ÏĤ
á½³Î» Î¸á¿ĥ
ĠÏĥÏħÎ½ Î·Î¸
Î·ÏĦ á¿Ĩ
Ġá¼Ī ÏģÎ¹
ÏĢÎµÏģ Î±Ïĥ
Ġá¼ķ ÎºÏĦÎ¿Î½
ÏģÏĩ Î¿ÏĤ
á½±Î³ á¿ĥ
ÎµÎ» Î¿Î½
ĠÎ´á½³ Î´ÏīÎºÎµ
ÏĦÏī ÎºÎµ
ĠÎµá¼¶ Î´á½¹Î½
ÏĥÏĦÎ± Î»
ÏĥÎº á½½ÏĢÏĦÎµÎ¹
ÏģÎµ Î±
ĠÎºÎ±Î¸ á½·ÏĥÎ±Î¹
ĠÎł Î¿ÏģÏĨ
ĠÎ±á¼° ÏĦÎµá¿ĸ
ÏĥÏĩ ÏħÎ½
ĠÏĢÏģÎ¿Ïĥ ÏĨ
ĠÏĢÏģÎ¿Ïĥ Î·Î½
Ġá¼ĢÎ³ Ïģ
Ġá¼ĢÎ³ Î±ÏĢ
ĠÏĢÎ±ÏģÎ± Î¼
ĠÏĢÎ±ÏģÎ± Î²Î±Î»Î»
ĠÏĢÎ±ÏģÎ± ÏĦÎµÏĦÎ±
ĠÏĦÎ¹Î½ á½³ÏĤ
ĠÎµá½Ĳ ÏĥÎµÎ²
ÎµÏĢ ÏĦ
ĠÏĥÎº á½»
ĠÏĥÎº ÎµÎ»á¿¶Î½
ĠÏĦá½· Î¸Î·ÏĥÎ¹Î½
á½¼ Î²
Ġá¼ĢÎ½ÏĦÎ¹ Î»Î·ÏĢ
á¿ĨÎ½ Î±ÏĤ
Î±á½· Ïģ
ĠÏĢÏģá½¹ ÏĦÎ±ÏĥÎ¹Î½
ĠÏĢÏģá½¹ Î´Î·Î»Î¿Î½
ĠÏĢÎµÏģÎ¹ ÏĨÎµÏģ
Î±Îº Î¿Î½
Î·Îº á½¹ÏĦÏīÎ½
ĠÏĪ Î·ÏĨ
ĠÏĪ á¿ĨÏĨÎ¿Î½
Ġá½¥ ÏĥÎµÎ¹
ĠÏĢÎ¿Î» á½ºÏĤ
ÏĢÎ± ÏĦ
ĠÏĦá½¹ ÏĢÎ¿Î¹
á½½Î½ Î¹Î¿Î½
Ġá½ģÎ¼ Î¿
á½»Î½ Î¿Î½ÏĦÎ±Î¹
á½±Î¶ Î¿Î½ÏĦÎ¿ÏĤ
ĠÎ¸Îµ Î¼ÎµÎ»
Î»Î¹ Î²
Î»Î¹ ÏĥÎ¸
ÏģÎ¿Î½ ÏĦÎµÏĤ
ĠÏĢÎ¿Î»Î» á½´Î½
ĠÎ³ÎµÎ½ á½µÏĥÎµÏĦÎ±Î¹
Î¿ÏĢ ÏģÎ¿ÏĨ
ĠÎ¾ á½·
ĠÎ¼ÎµÏĦÎ± ÏĥÏĦÎ±
ĠÎ¼ÎµÏĦÎ± Î²á½±Î»Î»ÎµÎ¹Î½
Î¼Î½ Î¿Î½
Î¼Î½ á¿ĨÏĥÎ¸Î±Î¹
Ġá½ĢÎ½ ÎµÎ¹Î´
Ġá¼ĶÎ½ Î¹Î±
Î·Î³ á½º
Î¿ÏĨ ÏīÎ½
ĠÎºÎ¿Î¹Î½ á¿¶Î½
ĠÎºÎ¿Î¹Î½ á½¸ÏĤ
á½±Î»Î» ÎµÏĦÎ¿
ĠÎ´Îµ á¿¦
ĠÏĢÏģá¿¶ ÏĦá½¹Î½
ĠÏĨÎ± á½»Î»
ĠÏĨÎ± á½·Î½Î¿Î½ÏĦÎ±Î¹
ĠÏĥÏĨ á½·
ĠÎ¼á½³ Î¼ÏĨ
Ġá¼ł ÏĢ
Ġá¼ł Î¾Î¹
ĠÎ»Î± Ïĩá½±Î½
ÏĢÏĢ Î¿Ïħ
Î·Î» Î¿ÏĤ
ĠÏĥÏĩ Î·Î¼á½±ÏĦÏīÎ½
Î²Î± Î»Îµ
Î²Î± Î»Î»Î¿Î½
ÏĦÏĦ á¿ĥ
ÏĦÏĦ á½¹Î¼ÎµÎ½Î¿ÏĤ
ĠÎºÎ±Îº á½·Î±Î½
ĠÎºÎ±Îº á½·Î±
Î¹Ïĥ Î¿Î½
á¼Ķ ÏĦÎ¹
ĠÎ³Î½ á½½
ĠÎ³Î½ ÏīÏģá½·
Î»Îµá½» ÎµÎ¹Î½
ĠÏĦá½³ Îº
Î´á½³ ÎºÎ±
Î´á½³ Î¾Î±ÏĦÎ¿
ÏģÎ±Ïĩ á¿¶ÏĤ
ĠÎľ Î±Ïģ
ĠÎľ ÎµÎ³
Ġá¼°ÏĥÏĩ á½ºÎ½
Ġá¼°ÏĥÏĩ á½±Î´Î±ÏĤ
Îºá½¹ ÏĦÏīÎ½
á½ħ ÏĢÎµÏģ
Î½á½· Î±Î¹
Î½á½· ÏĦÎ·ÏĤ
ĠÎ´Î¿Îº Îµá¿ĸÎ½
ĠÏĢÏģÎ¿ÏĨ Î¿ÏģÎ¹Îº
ÏīÏģá½· Î±Î½
ĠÎ½Î¿ á½µÎ¼Î±ÏĦÎ±
ĠÎ¶á½µÏĦÎ· Ïĥá½·ÏĤ
ĠÏĢÏģá½½ ÏĦÏīÏĤ
ĠÏĪÏħÏĩ á½°ÏĤ
ĠÏĥÏħÎ¼ÏĢ á½³ÏģÎ±
ĠÏĥÏħÎ»Î» Î±
Ïģá½±ÏĨ Î¸Î±Î¹
ĠÏĢÎ»Îµá½· Î¿ÏĥÎ¹Î½
ÏĬ Î½
ÏĬ ÏĥÏĦ
ĠÏĢá½± ÏģÎµ
ĠÎ¼Ïħ á½¸ÏĤ
Ġá¼ĲÎ¼Î² Î±Î»Îµá¿ĸÎ½
ĠÎ¼Î¹Îº Ïģá½°
ĠÎ´á¿Ĩ Î»Î±
ÏģÏħ ÏĨ
á½µÏĥÏī ÏĥÎ¹
Î´á½» Î½Î±
Ġá¼ĲÎºÎµá½·Î½ Î¿ÏħÏĤ
Î¤ á¿¶Î½
ĠÏĥÎµ Î¼Î½
ĠÎ²Î¹Î² Î»Î¹
ÏīÎ¼ Î¿
ĠÎ»á½³ ÏīÎ½
ĠÏĢÎ»Î· ÏģÏī
ĠÏĢÎ»Î· Ïģá½½
Î»Î±Î¹ Î¿Î½
Ġá½ħÎ» ÏīÎ½
Î¾Î±Î½ ÏĦÎµÏĤ
ĠÎķ á½Ķ
ĠÎłÎµÏģ Î¹ÏĢÎ±ÏĦÎ·
ĠÏĥá½» Î³
ĠÎ»á½» ÏĩÎ½
ĠÎ»á½» ÏĥÎµÎ¹ÏĤ
ĠÏĥÎ±ÏĨ Î·Î½
ĠÎ¿á½ĲÎ´Îµ Î¼Î¹
ĠÏĥÏħÎ¼ÏĨ Î¿Ïģ
ĠÏĥÏĦÏģÎ±ÏĦÎ·Î³ á½¸Î½
ĠÏĥÏĦÏģÎ±ÏĦÎ·Î³ Î¿á¿¦Î½ÏĦÎ¿ÏĤ
Ġá¼ĲÎ¸ ÎµÎ»
ÏĦÎ·Ïģá½· ÏīÎ½
ĠÎĶÎ·Î¼Î¿ÏĥÎ¸á½³Î½ ÎµÎ¹
ĠÎ½á½¹ ÏĥÎ¿Ïħ
ĠÎ´Î¹Î±Î¹Ïģ Îµá¿ĸ
ĠÎ´Î¹Î±Î¹Ïģ Îµá¿ĸÏĥÎ¸Î±Î¹
ĠÏĥÎºÎ¿ÏĢ Î¿á¿¦
ÏĦÏģá½· ÏĦÎ·
ĠÎ¦ ÏħÏĥÎ¹Îº
ĠÎºÎ±ÏĦÎµ ÏĥÎ¸á½·
ĠÎ´Î¹ÏĢÎ» á¿¶Î½
ĠÎ¶Ïī á½´Î½
á½³ÏĨ Î±Î»Î¿Î½
Ġá¼ķÎºÎ± ÏĥÏĦÎ±
ÏĦÏħ Î»Î¿Î½
á½±ÏĢ ÏĦÎµÏĦÎ±Î¹
ĠÏĢÎ±Î»Î±Î¹ á½¸Î½
ĠÏĢÎ±Î»Î±Î¹ á¾¶ÏĤ
ĠÏĩá½± Î»Î±Î¶
Ġá¼ĲÎ¾Îµ ÏĦ
ĠÎ±á¼°ÏĥÎ¸ á½µÏĥÎµÏīÏĤ
Ġá¼ĳÎºÎ± ÏĦá½³ÏģÏīÎ½
ĠÎłÎ»á½±ÏĦÏīÎ½ Î±
ĠÎ¼á½¹ ÏģÎ¹Î¿Î½
ĠÎ¼á½±Ïĩ Î·Î½
ĠÎ¼á½±Ïĩ ÎµÏĥÎ¸Î±Î¹
ĠÎºÎµ ÎºÎ±
á½µÎºÎ± ÏĥÎ¹
ĠÎµá¼°Ïĥ á½±Î³
ĠÎµá¼°Ïĥ Î·Î³
ĠÎĴ Î¿Î¹Ïī
Ġá¼ĢÎ»Î»Î±Î½ÏĦÎ¿ÏĢá½½ Î»á¿ĥ
á½·ÏĥÏĦÎ± ÏĥÎ¸Î±Î¹
Ġá¼ģÏĢ Î±Î»
Ġá¼ģÏĢ Î»Î±á¿ĸ
ĠÏĢÎ¹ÏĥÏĦ Îµá½»
ĠÏĢÎ¹ÏĥÏĦ Î¿á¿¦ÏĦÎ±Î¹
ĠÏĢÎ¹ÏĥÏĦ Îµá½»ÎµÎ¹Î½
ĠÎ»á½· ÏĢÎ¿ÏĤ
ĠÎ»á½· Î¸Î¿Î½
ĠÏĢÎ»Îµá½·Î¿Î½ Î¿ÏĤ
ĠÏĩÏģÎ·ÏĥÎ¼ á½¸ÏĤ
ĠÏĢÏģÎµÏĥÎ² ÎµÏħ
ĠÎ£ÏīÎº Ïģá½±ÏĦÎ¿ÏħÏĤ
ĠÎºÎ±Ïģ Î´á½·Î±Î½
ĠÏĥÎ¿ÏĨ á½¸ÏĤ
ĠÏĦÎµÏĩÎ½Î¹Îº á½¹ÏĤ
Î³ÏīÎ³ á¿ĨÏĤ
Î³ÏīÎ³ á½´Î½
ĠÏĢÎ½Îµá½» Î¼Î±ÏĦÎ¿ÏĤ
ÏĢÎ±Î¹ Î¾ÎµÎ½
ÎĶ Îµá¿ĸ
ÎĶ Îµá½»
Ġá¼ĢÏĢÎ¿ÏĥÏĦ á½±
Ġá¼ĦÏĦÎ¿ Î¼Î¿ÏĤ
ĠÏĢÎ±ÏĦÏģ á½¶
Ġá¼ĦÏģÏĩ ÏīÎ½
Ġá½¤ ÏĨÎ¸Î·
ĠÎ´Î±ÎºÏĦá½»Î» ÏīÎ½
ĠÎ±á¼°ÏĥÎ¸Î·ÏĦ á½¸Î½
ĠÏĢÎµÏĢÏģÎ±Î³ Î¼á½³Î½ÏīÎ½
Ġá¼ĶÎ´ÎµÎ¹ Î¾ÎµÎ½
ĠÎ¶á¿´ á¿³
ĠÎ³Î» á¿¶
Ġá¼ĢÏĢá½¹Î´ÎµÎ¹ Î¾Î¹ÏĤ
ĠÎĽÎ±ÎºÎµÎ´ Î±Î¹Î¼á½¹Î½
Î¹Î¶ Î¿Î¼á½³Î½ÏīÎ½
ĠÎºÎ» Î¿ÏĢ
ĠÏĩÎ¹ Î»á½·
ĠÏĢÏģá½± ÏĦÏĦÎµÎ¹Î½
Ġá½ģÏģ á¾¶Î½
ĠÏĨÏī ÏĦÎ¹
ĠÏĢÎ»Î·Î³ á½°ÏĤ
ĠÏĦÎ¿Ïĥ Î¿á½»
Ġá¼ĲÎ¾Î·Î³ Î·ÏĦ
ĠÏĢÎ¿ÏĦÎ±Î¼ Î¿á¿¦
ĠÏĢÎ¿ÏĦÎ±Î¼ á½¸Î½
ĠÏĢÎµÏĨ á½»
ĠÎ¸á½³Î» ÏīÎ½
Ġá¼ĢÎºÎ¿á½» ÎµÎ¹Î½
ĠÎºÎ¿Ïģ ÏīÎ½
ĠÏĩÏģá½½ Î¼ÎµÎ½Î¿ÏĤ
ĠÎ¸á½» ÏģÎ±Î½
ĠÏĢÎ¿Î¹Î·ÏĦ á½µÏĤ
Ġá¼ĢÎºÎ±ÏĦá½±Î»Î·Îº ÏĦÎ±
ĠÏĢÎµÏģÎ¹á½³Ïĩ ÎµÏĦÎ±Î¹
Ġá¼ĲÏĢÎ¹Î³ Ïģá½±ÏĨ
Ġá¼ĲÎ¼Î²Î¿Î» á½´
Î»Ïī ÏĦ
Î¿Î¹Î½ ÏīÎ½
ĠÎ¼á½±ÏģÏĦÏħ ÏģÎ±ÏĤ
ĠÎ´Î¹á½½ ÎºÏīÎ½
ĠÎ´Î¹á½½ ÎºÎ¿Î½ÏĦÎ¿ÏĤ
Ġá¼ĢÎ½ÏĦÎ¹Î¸Îµ ÏĦÎ¹Îºá¿¶Î½
Ġá¼ĲÏĢÎ¹Î½ ÎµÎ½á½¹
Ġá¼ĲÎ¼ÏĢÎµÏĥ Îµá¿ĸÎ½
Ġá¼ĢÎ½Î¸Î¿ÏģÎ¹ÏĥÎ¼ Î¿á¿¦
Ġá¼ĳÏģÎ¼Î·Î½ Îµá½·Î±ÏĤ
ĠÏĢÎµÏĢÎ¿á½· Î·ÎºÎµ
ĠÎ´Î¹ÎºÎ±Î¹Î¿Ïĥá½»Î½ Î·Î½
ĠÎ£Î±ÏĦÎ±Î½ á¾¶Î½
ĠÎ¸ÎµÏģÎ±ÏĢ Îµá½·Î±Î½
Ġá¼ĻÎ»Î» á½µÎ½ÏīÎ½
ĠÎºÎ±Î¸Î· Î¼á½³Î½Î¿Ïħ
Ġá¼ĶÏĢÎµ ÏĥÎ±Î½
ĠÏĥÏĦÎµÏģ Î·
ĠÎ»Î±Î¼ÏĢ Ïģ
á¼ĦÎ»Î» ÏīÏĤ
ĠÎ¸Î±Ïħ Î¼á½±
Ġá¼ĳÏĥÏĦ á¿¶
ĠÎĶÎ¹á½± Î²Î¿Î»Î¿Î½
Ġá¼°Î±Î¼Î² Î¹Îºá½¸Î½
ĠÏĢÏģÎ¿ÎºÎµÎ¹ Î¼á½³Î½Î¿Ïħ
Ġá¼ĳÏī ÏģÎ±
ĠÏĥÏħÎ»Î»Î±Î² á¿¶Î½
ĠÏĢÎ¿Î»Î¹ÏĦÎµ á½·Î±Î½
ĠÎºá½»Îº Î»Î¿Ïħ
Ġá¼ĪÎ¸Î·Î½ á¾¶ÏĤ
ĠÎºÎ»á½³ÏĢ ÏĦÎ·Î½
ĠÎ· á½ķÏģÎ·ÏĦÎ±Î¹
Ġá¼ĲÏĢÎ¹Î³ÏģÎ±ÏĨ á¿ĨÏĤ
Ġá¼ĢÎ½ÏĦÎ¹Î½Î¿Î¼ á½·Î±Î½
ĠÏĥÏĨÏģÎ±Î³á¿ĸ Î´Î¿ÏĤ
ĠÎ¼ÏħÏĥÏĦ á½µÏģÎ¹Î¿Î½
ĠÏĥÎ±ÏģÎº á½¶
ĠÏĦÏħÏģÎ±Î½Î½ á¿ĨÏĥÎ±Î¹
ĠÏĥÏħÎºÎ¿ÏĨ á½±Î½
Ġá¼Ģá½¹ ÏģÎ±
ĠÏĢÎ±ÏģÎ¿Ïħ Ïĥá½·Î±ÏĤ
ĠÏĦÎ±á¿¦ ÏĦ
Ġá¼ĢÏĢÎ¿Î´ Î¿á¿¦Î½Î±Î¹
á¼ĶÎ½ Î¸Î±
Ġá¼ĢÎºÏģÎ¿Î± Î¼Î±ÏĦÎ¹Îº
ĠÏĩÎµÏģ ÏĥÎ±
ĠÏĩÎµÏģ Ïĥá½¶
ĠÎ¼Î¹ÏĥÎ¸ á½¸Î½
Ġá¼ĶÎ¸Î½ Î¿ÏĤ
ĠÎºÏģá½³ Î±ÏĤ
ĠÎ¼Î±Î³ ÎµÎ¹ÏģÎ¹Îº
ĠÏĥÏħÎ¼Î²Î¿ÏħÎ»Îµá½» ÎµÎ¹
ĠÏĢÎ±ÏģÎ¿Î¹ Î¼á½·Î±
ĠÎ»á½·Î¸ á¿³
á½»Î³ ÏīÎ½
ĠÏĥÎµÎ» á½µÎ½Î·Î½
Ġá½ĳÏĢÎ¿ÏĢ á½·
ĠÎ¼ÎµÏĥ Î·Î³á½º
ĠÏĨÎ¹Î»á½¹ÏĥÎ¿ÏĨ Î¿ÏĤ
á½¹ÏĥÎ¹ Î±
Ġá¼ĢÎ½Î´ Ïģá½±
Ġá½ĢÏĨÎµá½· Î»ÏīÎ½
Ġá¼´Î± ÏĥÏĢÎ¹ÏĤ
Ġá¼ĲÎ½Î¸ÏħÎ¼ Î·Î¼á½±ÏĦÏīÎ½
ĠÏĥÏĦá½³ÏĨ Î±Î½
Ġá¼ĢÏĢÎ¿ÏĨ á½±ÏĥÎµÏīÏĤ
ĠÎ±á¼´ÏĥÎ¸Î· ÏĥÎ¹Î½
Î·Ïĩ Ïħ
ĠÏĨÏģ ÎµÎ½
ĠÏĩÎµá½· ÏģÏīÎ½
ĠÎĶÎ±Ïħ á½¶Î´
Ġá¼ĢÎ¼ÏĨÎ¹Î²Î¿Î» á½·Î±
á¼ħ Î¼Î±
ĠÎºá½±Î»Î» Î¹ÏĥÏĦÎ±
Ġá¼ĲÏĥÎ¸á½· ÎµÎ¹Î½
Î²Î»Î· Î¼Î±
á¼ĺÎ½ ÏĦÎ±á¿¦Î¸Î±
Ġá¼īÎ³ á½·Î¿Ïħ
Ġá¼ĢÎ½Î±ÏĨá½³Ïģ ÎµÏĦÎ±Î¹
ĠÎºÎ±ÏĦÎ±Î»Î·ÎºÏĦÎ¹Îº Î¿á½¶
ĠÎ´Î¹ÏĦÏĦ á½¹Î½
ĠÏĢÏģÎ¿ÏĦá½± ÏĦÏĦÎµÎ¹
ĠÏĢÏģÎ¿Ïĭ ÏĢ
ĠÏĢá½³Î½Î· ÏĦÎ¿ÏĤ
ĠÎºá¼ĢÎºÎµá¿ĸÎ½ Î¿ÏĤ
ÏĦÎ±á½» ÏĦÎ·Î½
ĠÎ³Î± ÏĥÏĦá½³ÏģÎ±
Ġá¼ĲÏĢá½³ ÎºÎµÎ¹
ĠÎµá¼°ÏĥÎµ Î»Î¸Îµá¿ĸÎ½
ĠÏĢÎµÏģá½·ÏĥÏĦÎ± ÏĥÎ¹ÏĤ
ĠÏĩÏģÏħ Ïĥá½·Î¿Î½
Ġá¼ĢÎ½ÏĦÎ¹ÏĥÏĦÎ± ÏĦÎ¹Îºá½´
ĠÎ¼Î¿Î½Î¿Î¼ÎµÏģ á½²ÏĤ
Ġá¼ĲÎ»ÎµÏħÎ¸ ÎµÏģ
ĠÏĥÏħÏĥÏĦ á¿ĨÎ½Î±Î¹
ĠÎ¸Î± ÏĦá½³ÏģÎ¿Ïħ
ĠÎ²á½³Î» ÏĦÎ¹Î¿Î½
ĠÎ¼Î±ÎºÏģá½¹ ÏĦÎµÏģÎ¿Î½
ĠÏĢá¿ĨÏĩ ÏħÏĤ
Î§ Ïģ
ĠÎ³Ïģá½±Î¼ Î¼Î±ÏĦÎ±
Ġá½ģÏĦÎ¹ Î¿á¿¦Î½
ĠÎ¼ÎµÎ³á½·ÏĥÏĦ Î·Î½
Ġá¼ĢÎ´á½»Î½Î± ÏĦá½¹Î½
ĠÏĨÎ»ÎµÎ³Î¼Î¿Î½ á¿ĨÏĤ
Î½ÏħÎ½ á½¶
ĠÎ»á¿ĥ ÏĥÏĦ
ÏĪá½» ÏĩÏīÎ½
Ġá¼ĢÎ½Î±Î²Î± á¿ĸÎ½Î¿Î½
Ġá¼ĢÏĥá½±ÏĨ ÎµÎ¹Î±Î½
ĠÎ²Î±ÏģÎ² á½±Ïģ
ĠÎłÏħÎ¸ Î±Î³
ĠÎĶÎ±Î½Î¹ á½´Î»
ĠÎ£ÏīÎºÏģá½± ÏĦÎ·Î½
Ġá¼ĲÏĥÏĩÎ·Î¼Î±ÏĦÎ¹ ÏĥÎ¼á½³Î½Î¿Î½
ĠÎ´á¿¶ ÏģÎ±
Ġá¼ĳÏĦÎ±Î¹ Ïģ
ĠÎ´ÏħÏĥÏĩ ÎµÏģ
ĠÎ¥á¼± Î¿á¿¦
Ġá¼ĢÎ½Î±Ïħ Î¾
Ġá¼ĳÎ²Î´ á½¹Î¼
Ġá¼ĢÎ»Î»Î± ÏĩÎ¿á¿¦
ĠÏĥá½»Î¼Î² Î¿Î»Î¿Î½
ĠÏĦÎµÏĦÏģá½±Î³ ÏīÎ½Î¿Î½
ĠÎ¼ÎµÎ¹Ïģá½±Îº Î¹Î¿Î½
Ġá¼ĢÎ¾á½· ÏīÏĥÎ¹Î½
ĠÎ´Ïģá½³ ÏĢÎ±Î½
ĠÏĢÎ»á½µÏģ Î·ÏĤ
Ġá½¤ÏĨÎµÎ¹ Î»ÎµÎ½
Î¹ÎºÎ± á¿¦ÏĦÎ±
Ġá¼ĶÎ¼ÏĪ ÏħÏĩÎ¿Î½
ĠÏĥÏħÎ½á½·Î¶ Î·ÏĥÎ¹ÏĤ
ĠÏĥÏħÎ½Î´á½³ ÏĥÎ¼
ĠÎłÏģÏī ÏĦÎ±Î³
á¼ĢÏĢÎ¿Ïģ Î¿á¿¦ÏĥÎ¹
Î¿ÏĦá½µ ÏĦÏīÎ½
ĠÎ´á½± ÎºÎ½
Ġá¼ĢÎ»Î»Î·Î» Î¿á½»ÏĬÎ±
ĠÏĦÎ±Î»Î±Î¹ ÏĢ
Î½ á½»Î½Î±Î¹
Î± ÏģÏĩ
Î¿ ÏĥÎ¼
Î¿ Î´Î¹
Î¿ á½µÎ¸Î·
á¼ ·
á¼ ģ
á¼ ł
Î¹ ÏĥÎ±
Î¹ Î¸Î¿ÏĤ
Îµ Î»Îµ
Îµ ÏĥÎ±Î½
Ïģ ÎµÏĨ
Ïģ á½°ÏĤ
Ïģ á¾¶ÏĤ
Ïģ Î±Î¹Î½
Ïĥ ÏīÎ½
Ïĥ á½½Î¼ÎµÎ¸Î±
ÏĢ Î±á½·
Î» á½¹Î½
Î» Î±ÏĤ
Î» á½°ÏĤ
ĠÎº ÏģÎ¿
ĠÎº Îµá¿ĸÏĦÎ±Î¹
ĠÎº á½¹Ïģ
Îº Î¿ÏħÏĥÎ¹
Ïħ Î¹
Ïħ Î¾
Ïħ Î´ÏģÎ¿Î½
Î· ÏģÎ±
Î· ÏģÎ¹
Î· Î»á½±
Î· Î¼á½³Î½Î¿Î½
ĠÏĢ Î·Ïģ
ĠÏĢ ÏĦÎ±á½·
ĠÏĢ ÏĦÎ±á¿ĸ
á½³ ÏĥÏĦÎ±
á½³ Î¿ÏħÏĥÎ¹
Ġá¼Ĳ Î¸Î±
Ġá¼Ĳ ÏĥÎº
Ġá¼Ĳ ÏģÎµ
Ġá¼Ĳ ÏĥÏĩ
Ġá¼Ĳ ÏĥÏī
Ġá¼Ĳ Î´Îµá½·ÎºÎ½Ïħ
Ïī ÏĥÎº
Ïī Î´á½³
Ïī ÏĦá½³ÏģÎ±
Î³ Î¼Î±ÏĦÎ¿ÏĤ
ÏĦÎ± Î¾
ÏĦÎ± ÏĦÎ¿Î½
á½± Î´Îµ
Î¿á¿ ĩ
Î¸ Î±ÏĤ
Î¸ Î»Î±
Î¸ Î·ÏĤ
á½¹ ÏĦÎµÏģá½¹Î½
Ġá¼Ģ ÏĦÎ¹Î¼
Ïĩ Î¿Î½ÏĦÎ±Î¹
Ïĩ á½¹Î¸ÎµÎ½
Î´ Î¿Î¹
Î´ Îµá¿ĸÏĤ
ÏĨ ÏħÏģ
ÏĨ Î±Îº
ÏĨ Î½Î·ÏĤ
ÎµÎ¹ Ïī
Î¿Ïħ Î¼á½³Î½á¿³
Î¿Ïħ Ïĥá½·Î±ÏĤ
Î¿Ïħ Ïģá½±Î½
á½» Îº
ĠÎ³ á½±Î¼
Î±Î¹ Î½á½·
Î±Î½ Î±
á½µ ÏĦÏī
á½µ ÏĬ
á½µ ÏģÎ¹Î±
ÎµÎ½ á½¹Î¼Î·Î½
ĠÏĥ ÏĢÎ»
ĠÏĥ ÏĦÎ±á¿ĸÏĤ
ĠÏĥ Î¼Î¹Îº
ÏĦÎ¹ á¿¶Î½
á½³Î½ ÏĦÎµÏĤ
á½³Î½ ÎµÏĦÎ¿
Îµá¿ĸ Î¿Î¹
Î»Î» ÎµÎ¹
Î»Î» Î¿ÏĤ
Ġá¼ĲÎ½ Î¹
Ġá¼ĲÎ½ ÏĦÎ¿
Ġá¼ĲÎ½ Î´á½³ÏĩÎµÏĦÎ±Î¹
Î¼Î± á½¶
ĠÎ´Î¹ ÏĪ
ĠÎ´Î¹ ÏĢÎ»á½±ÏĥÎ¹Î¿Î½
Î¾ á½»
Ġá¼Ķ ÏĦÎµ
Ġá¼Ķ Î´Î¿
Ġá¼Ķ Î´Ïī
Ġá¼Ķ Î»Î±Ïĥ
Ġá¼Ķ Î»Î±Î¹Î¿Î½
Ġá¼Ķ ÏĢÎ±Î¹Î¾ÎµÎ½
Î² Í´
Î² Î¿á½·Î±ÏĤ
Ġá¼ĲÏĢ Î¿Ïĩ
Ġá¼ĲÏĢ á½µÎ³Î±Î³Îµ
ĠÎ» ÎµÏħ
ĠÎ» Î¹Î²
Ġá½ģ ÏģÎ¹ÏĥÏĦ
ĠÎ¿á½Ĳ Ïĥá¿¶Î½
ĠÏĨ Î±Î¹
ĠÏĨ Î±á½·
ĠÏĨ Ïģá½¹Î½
á¿¶Î½ ÏĦÎ±
á¿¶Î½ ÏĦÎµÏĤ
Ġá¼¡ ÏģÎ¼
Ġá¼¡ ÏĦÎ¿Î¹Î¼Î±
á½½ ÏĦÏīÎ½
á½½ ÏĥÎ±ÏĤ
á½½ Î´Î¿ÏħÏĤ
á½½ Î¼Î¹Î¿Î½
ÏĦÎ· ÏĦÎ±Î¹
ÏĦÎ· ÏĥÎµÎ½
ÏģÎ¹ á¿¶Î½
ÏĥÎ¸ Îµá¿ĸÏĥÎ±
ÏĦÎ¿ ÏĢá½½
Ġá¼Ħ Î³Î½
Ġá¼Ħ ÏĦÎ¹Î¼Î¿Î½
Ġá¼ĢÏĢ á½½
Ġá¼ĢÏĢ Î¿Î³
Ġá¼ĢÏĢ á¿ĨÎ»Î¸ÎµÎ½
ĠÏĢÎ± á½·Î¶ÎµÎ¹
ĠÏĢÎ± á½»Ïĥ
ĠÏĢÎ± ÏĨÎ»
Ġá½¡ ÏĥÎ±á½»ÏĦÏīÏĤ
Ġá¼ĲÎº ÏĨá½³Ïģ
ĠÏĦÎ¿ ÏĥÎ±
ĠÏĢÏģÎ¿ Îµ
ĠÏĢÏģÎ¿ ÎºÎ±
ĠÏĢÏģÎ¿ Î²Î±
ĠÏĢÏģÎ¿ ÏĥÏĦÎµ
Î»Î· ÏĥÎµ
ĠÎ¸ Í´
ĠÎ¸ Îµá¿ĸÎ½Î±Î¹
ĠÎ¸ Îµá½·ÏīÎ½
ĠÎ¸ ÏģÎ·Î½
Î¶ Î·ÏĦÎ±Î¹
Î¶ Î¿Î¼á½³Î½ÏīÎ½
Î¿Î» á½´Î½
ĠÎ² Î»á½·
ĠÎ² Î´ÎµÎ»
Ġá½ĳÏĢ Î±ÏģÏĩ
á½·Î½ Î·
á½·Î½ á¿³
á½·Î½ Î¿Î½ÏĦÎµÏĤ
ĠÎ¼Îµ Î»Î¹
ĠÎ¼Îµ Î»Î±Î½
ĠÏĢÎµÏģ Î¹Î½
ĠÎ½ á½³ÏīÎ½
ĠÎ½ Î¿á¿ĨÏĥÎ±Î¹
Ġá¼ĳ Î»
ÏĪ Î¹
ÏĪ ÎµÏĦÎ±Î¹
Î»Îµ Î¸
Î»Îµ Î¾
Ġá¼ĢÎ»Î» Î¿Î¹
Ġá½Ģ Î¾á½º
ĠÏĦÎµ Î¸
ĠÏĦÎµ ÎºÏĦÎ¿Î½
ÏĦÎ¿Î½ Î¿Î¼á½±
ĠÏĢÎ±Ïģ á½¸Î½
ĠÏĢÎ±Ïģ Î¿á½»ÏĥÎ·ÏĤ
ĠÏĢÎ±Ïģ á½¹Î½ÏĦÎ±
ĠÏĢÎ±Ïģ ÎµÏĢÎ¹
ĠÏĢÎ±Ïģ á½¹Î½ÏĦÎ¹
ÏĦá½· ÏīÎ½
Ġá¼ĶÏĩ Î¿ÏħÏĥÎ±Î¹
Î¿Ïģ Î¿Î½
ĠÏĦÎ¹ ÏĥÎ¹Î½
ĠÏĦÎ± Î³
ÏģÎ· ÏĦÎ¿Î½
Ġá¼ĲÏĢÎ¹ ÏĦÎ¹
Ġá¼ĲÏĢÎ¹ ÏĥÏĢ
Ġá¼ĲÏĢÎ¹ ÏĥÏĨ
Ġá¼ĲÎ¾ ÎµÏĥÏĦ
ÏĦá½³ Î¸Î·
ĠÏĥÏĦ ÏģÏī
ĠÎµá¼´ ÎºÎ¿ÏĥÎ¹
ĠÏĢÎ¿ á½·
ĠÏĢÎ¿ á½·Î±
ĠÎ¿á½ĲÎº Î¿á¿¦Î½
Ġá¿¥ Î¿Î¹
Ġá¿¥ á¿ĸÎ½Î±
ĠÏĩÏģ Îµ
ĠÏĩÏģ á½³
ĠÎºÎ±ÏĦÎ± ÏĦá½±
ĠÎºÎ±ÏĦÎ± Î¼ÎµÏĦÏģ
ĠÎºÎ±ÏĦÎ± Î½Î¿
á½±Î» Î¿Î¹ÏĤ
á½³Î» Î¹
á½³Î» Î¸
ÏģÎ¿ ÏĦÎ¿Î½
Ġá¼ĦÎ»Î» á¿ĥ
Î¿á¿¦Î½ ÏĦÎ¹
á½¹Î³ Î¿Î½
ĠÎļ Î¿
ĠÎļ Î±Î»Î»
ÎµÏĨ á½½Î½
ÏĦá½³Ïģ Î±Î¹ÏĤ
ĠÎ´á½³ Î´Î¿ÏĦÎ±Î¹
ÏĥÎº Îµá½»
ĠÎ±á¼° ÏĦÎµá¿ĸÎ½
ÏĦÎ¿Ïħ ÏĥÎ¹
Ġá¼¡Î¼ Î¹
Ġá¼¡Î¼ á½·
Ġá¼¤ Î¼ÎµÎ»Î»ÎµÎ½
ĠÎĺ Î·Ïĥ
ĠÏĢÏģÎ¿Ïĥ Î³
ĠÏĢÏģÎ¿Ïĥ Î´Î¿Îº
Î±Ïģ ÏĢ
Ġá¼ĢÎ³ Î±
ĠÏĢÎ±ÏģÎ± Î²ÎµÎ²
ĠÏĦÎ¹Î½ ÏīÎ½
Ġá¼ĢÏĢÎ¿ ÏĥÏĢ
ĠÏĢÎ» Î¿á½·Î¿Ïħ
ĠÏĥÎº Ïħ
ĠÏĥÎº á½½ÏĢÏĦÎµÎ¹
ĠÏĦá½· ÏĦ
ĠÎ¼á½¹Î½ Î·ÏĤ
ÏĦÏģ Ïħ
ÏĦÏģ á½½
Ġá¼ĢÎ½ÏĦÎ¹ Î´á½¹
Ġá¼ĢÎ½ÏĦÎ¹ Î¸á½³ÏĥÎµÏīÏĤ
Ġá¼ĢÎ½ÏĦÎ¹ Î»á½³Î³ÎµÎ¹
Î±á½· Î±ÏĤ
Ġá¼µ ÏĢÏĢÎ¿Î½
ĠÏĢÎµÏģÎ¹ ÎµÎº
ĠÏĢÎµÏģÎ¹ Î²ÎµÎ²
Î±Îº ÎµÎ»á½·
á½¹Î¼ Î¿ÏħÏĤ
á½µÎ½ Ïħ
Î·Îº á½¹ÏĦÎ±
ĠÏĪ Î±á½»
ÏģÎ³ Î¿ÏĤ
Î´á½· ÏīÎ½
á½³Ïĥ ÏīÎ½
á½½Î½ Î·ÏĦÎ¿Î½
á½±Î¶ Î¿Î½ÏĦÎ±
ĠÎ¸Îµ Î±
ĠÎ¸Îµ ÏĦá½¸Î½
ĠÎ¸Îµ Î¿ÏĥÏĦ
Î»Î¹ Î¿Î½
Ġá¼ĢÎ½Î± ÏĦÎµá½·Î½
ĠÎºÎ±Î» Î¿á½»Î¼ÎµÎ½Î¿ÏĤ
á¼° Î´á½·ÏīÏĤ
ĠÎ³á½³Î½ ÏīÎ½ÏĦÎ±Î¹
ĠÎ¿á½Ĺ ÏĦá½¹ÏĤ
Î¿ÏĢ Î¹ÏĥÏĦ
Ġá¼ĳÎ±Ïħ ÏĦá½°
Î¿Ïģá½· Î±ÏĤ
Ġá¼± Î¼Î±ÏĦá½·
ĠÎµá¼°ÏĢ á½¹Î½ÏĦÎ¿ÏĤ
ĠÎ¼ÎµÏĦÎ± Î²á½±Î»Î»ÎµÎ¹
ĠÎ¼á½³Ïģ ÎµÏĥÎ¹Î½
ĠÎ¼á½³Ïģ ÎµÏĥÎ¹
ĠÎĶ Î·Î¼
ÏħÎ³ Îµá¿ĸÎ½
ĠÏĢá½¹ Î¸ÎµÎ½
Ġá¼ĶÎ½ ÏħÎ´ÏģÎ¿Î½
ĠÏĦá½± ÏĩÎµÎ¹
ĠÏĦá½± ÏĦÏĦÎµÏĥÎ¸Î±Î¹
ĠÏĦá½± Î³Î¼Î±ÏĦÎ±
Î¸á½³Î½ ÏĦÎ¹
ĠÏĢÎµÏĢ Î»Î·ÏģÏī
ĠÎºÎ¿Î¹Î½ á½±
ĠÎ´Îµ Î´
ĠÏĢÎ±Î½ Î¿á½»ÏģÎ³
Î¿Î»Î¿Î³ á½·Î±Î½
Î¸á½³ ÏĥÎµÏīÎ½
ÏħÏģá½· Î¿Ïħ
ĠÎ£ Î¹Îº
ĠÎ£ ÏĨÎ±Îº
Ġá¼ł Î´ÏħÎ½
Ġá¼ł Î²Î¿Ïħ
ĠÎºÎµÏĨÎ±Î» á½µÎ½
Ġá¼ĦÏģ ÏĦÎ¹
Ġá¼ĦÏģ ÏĦÎ¹Î¿Î½
Ġá¼ĪÏģÎ¹ÏĥÏĦ Îµá½·
ĠÎºá½± Îº
ÏĦÏĦ ÎµÎ¹ÏĤ
ĠÏĦÏģá½· Ïĩ
ÏģÎ±Î¼ Î¼á½±ÏĦÏīÎ½
ÏĥÏĢ á½±
ĠÎ´á½· ÏģÏģÏħÎ¸
Î»ÎµÏħ ÏĦÎ¿Î½
ĠÎ³Î½ á¿¶ÏĥÎ¹ÏĤ
ÏĥÎºÎµÏħ Î±Ïĥ
Î»Î·Î¸ á¿ĩ
Ġá¼¸ á½½
Ġá¼¸ Î±Îº
Îºá½¹ ÏĦÎ¿ÏĤ
Îºá½¹ ÏĥÎ¿Î¹ÏĥÎ¹
ĠÎ±á¼°ÏĦá½· á¾³
á½ħ ÏĢÏīÏĤ
ĠÏĦÎ¿Î¹Î± á¿¦ÏĦÎ±Î¹
ĠÎ¿á¼°Îº á½·Î±Î½
ĠÎ¼á½µ ÏĦ
ĠÎ´Î¿Îº Î¿á¿¦Î½
ĠÎ´Î¿Îº Î¿á¿¦Î½ÏĦÎ±
ĠÎ´Î¿Îº á½³á¿ĥ
ĠÎ´Î¿Îº Î¹Î¼Î±
ĠÏĢÏģÎ¿ÏĨ á½±ÏĥÎ¹Î±ÏĤ
ĠÏĦÏģÎ¹ Ïĥá½¶
ÏģÎ¹Î½ Îµ
Î±Î¹Î½ á½¹Î½ÏĦÏīÎ½
á½µÏĥÎ± ÏĦÎµ
Ġá¼ĢÎ½ÏĦá½· ÏĥÏĦÏģÎ¿ÏĨ
Ġá¼ĢÎ½ÏĦá½· ÎºÎµÎ¹ÏĦÎ±Î¹
ÏĦá½µ ÎºÎ¿Î½ÏĦÎ±
Î»Îµá½· ÏĢÎµÎ¹
ÏģÎ¿ÏĨ á½´Î½
Ïģá½±ÏĨ á¿³
ĠÎ´Î¹ÎºÎ± á½·ÏīÎ½
ĠÏĥÎ·Î¼ Î±Î½
ĠÏĥÎ·Î¼ Îµá½·Î¿Î¹ÏĤ
ÎµÏĥÏĦ á½±Î½Î±Î¹
Î´á½¹ ÏĥÎ¸Î±Î¹
ĠÏĨÎ¹Î» Î±Î½
Ġá½ĳÏĢÎµÏģ Î¿ÎµÎ¹Î´
Ġá¼ĢÎ½á½±Î³ ÎµÏĥÎ¸Î±Î¹
ĠÏĥÏĦÏģÎ± ÏĦÎµá½»
ĠÎ±á½Ĳ ÏĦÎ±á½·
ĠÎµá¼°ÏģÎ· Î¼á½³Î½Î¿Î¹ÏĤ
Î¼Î±Ïģ ÏĦÏħÏģ
ĠÏĢÏģá¾¶ Î¾Î±Î¹
ĠÎĽ ÏħÏĥÎ¹Îº
ÏģÏħ Î¹
ÏģÏħ ÏĢÎ½
ĠÎµá¼°Î´ Î¿ÏĢÎ¿Î¹
Ġá¼ĲÎºÎµá½·Î½ Î¿Î¹ÏĤ
Ġá¼ĢÎ»Î·Î¸ Îµá¿ĸÏĤ
Ġá¼ĢÎ»Î·Î¸ Îµá½·á¾³
Ġá¼ĢÎ³Î³á½³Î» á¿³
ĠÎ»ÎµÎ³ Î¿Î¼á½³Î½Î¿Î¹ÏĤ
ĠÎ»Î¿Î¹ÏĢ Î¿á¿¦
ĠÎ´Î·Î» á¿¶Î½
ĠÎ½Î± á½¸Î½
ĠÎ»á½³ Î¾Îµ
ĠÎ»á½³ Î»ÎµÎºÏĦÎ±Î¹
ĠÎ¼ÎµÏģ Î¹ÏĥÏĦ
ĠÎ¼ÎµÏģ Î¹Îºá¿¶Î½
ĠÏĥÏħÎ³ Î³Î½Ïī
ĠÏħá¼± á½¹Î½
Ġá¼ĢÏĢÎ¿Îº ÏĦÎ¹Î½
Ġá¿¥Î· Î¼á½±ÏĦÏīÎ½
Ġá¼ģÏĢÎ» á¿Ĩ
ĠÎµá½ĳ Ïģá½³Î¸Î·
ĠÎ´ÎµÏħ ÏĦá½³Ïģá¾³
ĠÏĨÎµá½»Î³ ÎµÎ¹
ĠÏĥÏī ÏĨÏģÎ¿Î½
Ġá¼ĢÎ¼ ÎµÎ»
ĠÏĦÏģá½¹ÏĢ Î¿Î¹
ĠÏĥÏħÎ½ÎµÏĩ á½³ÏĤ
ĠÏĦá½³ÏĩÎ½ Î±Î¹
ĠÎµá½ĲÎ¸ á½º
ĠÎµá½ĲÎ¸ Îµá¿ĸÎ±Î½
Ġá¼ĳÎºá½±ÏĥÏĦ á¿ĥ
Î»Ïħ Î¼ÏĢ
ÏĩÎ¸ á½²Î½
Ġá¼ĲÎ³Îº á½½Î¼Î¹Î¿Î½
ĠÏĦÎµÏĩÎ½ Î¹Îºá¿¶Î½
ĠÎºá½» ÎºÎ½
Ġá¼ĶÏģÎ³ Î¿Î¹ÏĤ
á½³Î¸Î· ÎºÎµÎ½
ĠÎ½á½¹ Î·Î¼Î±
ĠÎķá½Ĳ Î²Î¿á½·Î±ÏĤ
ĠÎ²Î¿ÏħÎ» á½µÏĥÎµÏīÏĤ
ĠÎºÎ¿Î» Î±Î¶
Î·Î¸ á½µÏĥÎµÏĦÎ±Î¹
ĠÎ´ÏħÎ½Î± Î¼á½³Î½ÏīÎ½
ĠÏĦÎµÏĦ ÏģÎ±Ïĩá¿¶ÏĤ
Ġá¼ĢÏĢÎ¿Î»Î¿Î³ á½·Î±ÏĤ
ĠÎºÎµÎº Ïī
Ġá¼ĶÎº ÏĦÎ±ÏĥÎ¹Î½
ĠÎºÎ¿Î¹Î½ÏīÎ½ á½·Î±ÏĤ
ĠÎ¼Î±Îº á½±
ĠÎ¼Î±Îº ÏģÎ¿
ĠÎ²Î¿á½»Î» Î¿Î½ÏĦÎ±Î¹
ĠÏĢÎ±Î»Î±Î¹ Î¿á½¶
ĠÏĢÎ±Î»Î±Î¹ á¾·
Ġá¼°ÏĥÏĩÏħÏģ á½¸Î½
Ġá¼ĢÎ¾Î¹ Î¿ÏĢÎ¹ÏĥÏĦ
ĠÎ³Î¹Î½ Î¿Î¼á½³Î½Î·
ĠÎ´Î¹Î±Î½ Î¿
á½³ÏĢ ÏĦÏīÎºÎµ
Ġá¼ĢÏĦ ÏģÎµ
Ġá¼ĢÎ´Î¹Îº á½·Î±
ĠÎ¼á½±Ïĩ Î±Î¹
ĠÏĨá½³Ïģ ÎµÏĦÎ±Î¹
ĠÏĨá½³Ïģ Î¿Î½ÏĦÎµÏĤ
ĠÎºÏħ Î²ÎµÏģÎ½
Ġá¼ĲÎºÏĢ á½³Ïĥá¿ĥ
Ġá½ĳÎ³Î¹ ÎµÎ¹Î½
ĠÏĦÎµÎ»ÎµÏħ ÏĦ
ĠÎ¸ÎµÏģÎ¼ á½¹Î½
Ġá¼ĢÏĢÎ± Ïģá½·Î¸Î¼
ĠÎ´ÎµÎ¾Î¹ á½°
ĠÎ´ÎµÎ¾Î¹ á¾·
ĠÎ´Î¹Î´á½±Ïĥ ÎºÎ±Î»
ÏĢÎ½ Î¿Î½
ĠÎ³Ïģá½±ÏĨ ÎµÎ¹Î½
ĠÏĦá½¹ÏĢ Î¿Î¹ÏĤ
ĠÏĥÎ¿ÏĨ á½·Î±ÏĤ
ĠÎ¼ÎµÎ¸ á½»
á¼Ī ÏĦá½°Ïģ
Ïģá½·Î½ ÎµÏĦÎ±Î¹
Ġá¼ĲÎ³Î³ Ïħ
Ġá¼ĲÎ³Î³ á½ºÏĤ
ĠÎ¿á¼µ Î·
ĠÏĢÎ»Î± ÏĦÎµ
ĠÏĥÏħÎ³Î³ ÏģÎ±Î¼Î¼á½±ÏĦÏīÎ½
Ġá¼ĲÏĢÎ¹Î´á½³Ïĩ Î¿Î½ÏĦÎ±Î¹
Ġá¼ħÏĢÎ±Î½ ÏĦÎµÏĤ
Ġá¼ĦÏģÏĩ ÎµÎ¹Î½
ĠÎ¸Î±Î» á½±
Ġá¼°Ïĥ á½¹
Î»Î·ÏĨ Î¸á½³Î½ÏĦÎ±
ĠÏĨÏħÏĥÎ¹Îº á½°
ĠÏĨÏħÏĥÎ¹Îº á¿¶Î½
á½ĳ ÏĢÎµÏģ
ĠÏĦÏħÎ³Ïĩá½±Î½ ÎµÎ¹Î½
ĠÏĦÏħÎ³Ïĩá½±Î½ Î¿ÏħÏĥÎ¹
ĠÎ´Ïģá½± ÎºÎ¿Î½ÏĦÎ¿ÏĤ
ĠÏĩÏīÏģá½· á¿³
ĠÏĢÎ¿Î½Î·Ïģ Î¿á¿¦
ĠÏĢÎ¿Î½Î·Ïģ á½¹Î½
Ïĥá½± Î¼ÎµÎ½Î¿Î½
ĠÎºÎµÎ»Îµá½» ÏīÎ½
ĠÏĢÎµÏĢÎ¿Î½Î¸ á½¹ÏĦÎ±
Ġá¼ĢÏĥÏĦ ÏģÎ±
Ġá¼ĢÏĥÏĦ Ïģá½±Î³
Ġá¼ĲÎ¾á½³ ÏĦÎ±ÏĥÎ¹ÏĤ
Ġá¼ĢÎ½Ïī ÏĨÎµÎ»
Ġá¼ĢÏĢÎ¿Î» Î±á½»
Ġá½ĢÎ»Î¹ ÏĥÎ¸á¿ĩ
ĠÎ´Î¹á½±ÏĨÎ¿Ïģ Î¿Î¹
Ġá¼ĲÏĩÎ¸Ïģ á¿¶Î½
Ġá¿¥á½µÏĦÎ¿ ÏģÎ±
ĠÏĥÏĢ Îµá½»
ĠÎ¸ÏħÎ¼ á½¸Î½
Ġá¼ĢÎ½ÏĦÎ¹ÏĥÏĦÏģá½³ÏĨ ÎµÎ¹Î½
Ġá¼ĲÎ´á½¹ ÎºÎµÎ¹
Î¿Î»Î¿Ïħ Î¸Îµá¿ĸÎ½
ĠÏĢÎµÎ¹ Î¸
ĠÎ³Ïģá½±ÏĪ Î±Î¹
Ġá¼ĢÎ½ÏĦÎ¹Îº ÎµÎ¹
Ġá½ĳÏĢá½¹ Î´Î·Î¼Î±
Ġá¼±ÏĢÏĢ á½³Î±ÏĤ
ĠÏĢÎ¿ÏĦÎ±Î¼ á½¸ÏĤ
ĠÎºÎ±Î¹Î½ á½°
Ġá¼ĲÎ»á½± ÏĦÏĦÎ¿Î½Î±
ĠÎ³ÎµÎ½Î¹Îº ÏīÏĦá½±
ĠÎ³ÎµÎ½Î¹Îº á½½ÏĦÎ±ÏĦÎ¿Î½
ĠÎ½Î¿Î·ÏĦ á½´Î½
Ġá¼ĢÏĦÎµÎ» Îµá¿ĸÏĤ
Ġá¼ĢÏĦÎµÎ» á½´ÏĤ
Ġá¼ĢÏĢÎ¿Î´Îµá½· Î¾ÎµÏīÏĤ
Ġá¼ĢÎºÎ¿á½» ÏīÎ½
ĠÎ»ÎµÏĢ ÏĦá¿¶Î½
ĠÎļÎ± ÏģÏĩ
ĠÏĥÎºá½³ Î»Î·
ĠÏĩÏģá½µÏĥÎ¹ Î¼Î¿Î¹
ĠÎ´ÎµÎ¹ÎºÎ½ á½»
ĠÎ´ÎµÎ¹ÎºÎ½ á½ºÏĤ
ĠÎºÎ±ÏĦÎ±Î³ á¿ĩ
á¼ĲÎ³ á½½
Ġá¼ħÏĢÎ± ÏĥÎ¹
ĠÎ´Î¹Î±ÏĨÎ¿ÏģÎ± á¿ĸÏĤ
Ġá¼ģÎ¼Î±ÏģÏĦá½· Î±Î½
ÏĩÏģ á½´
ĠÎ¼ÎµÎ¹ ÏģÎ±Îº
Î´Ïħ Î»Î¿Î½
Î¿Î¹Î½ ÏĦÎ¿
ĠÏĥÎ·Î¼Î±Î¹Î½ Î¿Î¼á½³Î½ÏīÎ½
ĠÏĢá½·ÏĥÏĦ ÎµÎ¹
Ġá½ĢÏĢÏĦÎ± Ïĥá½·á¾³
ĠÏĢÎ¿Î»á½³Î¼ á¿³
ĠÏĢÏģÎ¿ÏĥÎºÏħÎ½ á¿ĨÏĥÎ±Î¹
ĠÎ´Î¹Î´Î±ÏĥÎºÎ± Î»á½·Î±Î½
Ġá½ĢÏĨÎ¸Î±Î»Î¼ Î¿á¿ĸÏĤ
Ġá¼ĢÎ¾ á½·Î±ÏĤ
ĠÏĢÎ»Îµá½·ÏĥÏĦ Î·Î½
Ġá¼ĶÏĥÏī Î¸ÎµÎ½
ĠÎ´Î¹ÎºÎ±Î¹Î¿Ïĥá½»Î½ Î·
ĠÏĢÎ±Î½Î·Î³ÏħÏģÎ¹Îº Î¿á¿¦
ĠÎ¶á¿¶Î½ ÏĦÎ¿ÏĤ
ĠÏĢá½³Î¼ÏĢ ÏĦÎ¿ÏĤ
ĠÏĥÏīÏĦÎ·Ïģá½· Î±
Ġá¼ĲÎ½Î½ Î¿á½·Î±ÏĤ
Ġá½ĢÎ¾ á½»
Ġá¼°Î´ Îµá¿ĸÎ½
ĠÎ»Î±Î¼ÏĢ Ïģá½¸Î½
Ġá¿¬ á½½Î¼
ĠÏĢÎµÎ½ ÏĦá½µÎºÎ¿Î½ÏĦÎ±
Ġá¼ĢÏĢÎµÎ¹ Î»
á¼ľ ÏĥÏĦÎ¹
ĠÎ¼Î±Î½ Î¸á½±Î½
ĠÏĦÎµÎ»Îµá½· Î±
ĠÏĢÏģÎ¿ÏĥÎ·Î³ Î¿Ïģá½·Î±Î½
ĠÏĢÎ¿Î»Î¹ÏĦÎµ á½·á¾³
Ġá¼ĪÎ¸Î·Î½ á¾¶
ĠÎ³Î¹Î³Î½ á½½ÏĥÎº
ĠÏĥÏħÎ¼ Î¼Î±Ïĩ
Ġá¼ĪÎ¸á½µÎ½ Î·ÏĥÎ¹Î½
Î±á½ĲÏĦ á½¸ÏĤ
ĠÎ¼á½± Î»Î±
ĠÎ¼á½± ÏĦÎ·Î½
ÎŁ á½Ĳ
ÎŁ á¼·
ĠÏĢÏģÎ¿ÏĦÎµ á½·Î½ÎµÏĦÎ±Î¹
ĠÎ½á½·Îº Î·ÏĤ
Ġá¼ĢÎ½Î±Î³Îºá½±Î¶ Î¿Î½ÏĦÎ±Î¹
ĠÏĢÎ±Î¸Î· ÏĦÎ¹Îºá½´
ĠÏĥÏħÎºÎ¿ÏĨ Î±Î½
ĠÏĢÎ±ÏģÎ¿Ïħ Ïĥá½·á¾³
Ġá¼ĢÏģÏĩÎ±á½· ÏīÎ½
ĠÎľÎ¹ ÏĦÏħÎ»
ĠÎĳá¼´ Î³ÏħÏĢ
ĠÎ´Î¹Î±Î¹ÏģÎµ ÏĦÎ¹ÎºÎ±á½¶
Ġá¼ĲÎ½Î±Î½ÏĦÎ¹ á½¹ÏĦÎ·ÏĤ
Ġá¼¸Ïīá½±Î½Î½ Î¿Ïħ
ĠÏĢÏģÎ¿ÏĦ á½±ÏĥÎµÎ¹ÏĤ
Ġá¼ĪÏģÏĩ ÎµÏĢ
Ġá¼±Î¼ á¾¶Î½
ÏħÎºÎ» Î¿Î²
Ġá¼ĶÎ¸Î½ ÎµÏĥÎ¹
á½į ÏĦÎ±Î½
á½į ÏĥÎ¿Î¹ÏĥÎ¹
ĠÏĦÎ¼ á¿ĨÎ¼Î±
ĠÎ²Î»á½±Î² Î·ÏĤ
ĠÎºÎµÏĩ Î·Î½
ĠÎºá½±Î¼ÏĢ ÏĦÎµÎ¹Î½
ĠÎľÎ¹Î½Î¿ÏħÎºÎ¹Î±Î½ á½¸Î½
ĠÏĢÎ·Î´ á½±Î»
ÏĦÎ±á¿ĸ ÏĥÎ¹
ĠÏĢÎ±ÏģÎ¸á½³Î½ Î¿ÏĤ
ÏĩÎ· Î»Î¿Î½
ĠÎ²á½±Ïģ Î¿ÏĤ
ĠÏĦÏģá½± ÏĢÎµÎ¶
Ġá¼ĢÎ½ÏĦÎ¹ÏĩÏģá½·ÏĥÏĦ á¿³
ĠÎ²Î±Î´á½· Î¶ÎµÎ¹Î½
ÏĢÎ¿Î»Î» á½°
á¼ĳ Î¾á¿ĨÏĤ
ĠÏĢÎµÎ¹Ïģ á¾¶ÏĦÎ±Î¹
Ġá¼ĲÏĢÎµÎ¹Î´ á½µ
ĠÎµá¼°á½½Î¸Î± ÏĥÎ¹
ĠÎ¿á¼¶Î½ Î¿ÏĤ
ĠÎ¼Î±Î¸Î· Î¼Î±ÏĦÎ¹Îº
ĠÏĩÎ±ÏģÎ±Îº ÏĦÎ·Ïģá½·
ĠÏĥÏħÎ¼Î²Î¿ÏħÎ»ÎµÏħ ÏĦÎ¹Îºá½¸Î½
ĠÎ¼Î·ÏĦ ÏģÏħÎ¹
Ġá¼ĢÏĢá½± ÏĦÎ·ÏĤ
ĠÎ¾Î· ÏģÎ±Î½
ĠÎ¼ÎµÏĦÎ±ÏĥÏĦ á½±ÏĥÎµÎ¹
ĠÏĢÏģÎ±Î³Î¼Î±ÏĦÎµ á½·á¾³
ĠÎ¼Î±ÎºÎ± ÏģÎ¹
ĠÎ¼Î±ÎºÎ± Ïģá½·Î±Î½
ĠÎºá¿¶ Î»Î±
á½»ÏĦÎ· ÏĦÎ¿ÏĤ
ĠÎºá½³ÎºÎ»Î· ÏĦÎ±Î¹
ĠÎºá½³ÎºÎ»Î· ÎºÎµÎ½
Ġá¼ĢÎ½ÎµÎ» á½¼Î½
Ġá½ĳÏĢÎ¿ÎºÏģÎ¹ ÏĦá¿¶Î½
ĠÎĴÎ±Î²ÏħÎ» á½¼Î½
Ġá¼ĲÎ´á½µÎ»Ïī ÏĥÎµ
ĠÎłÎ¿ÏĥÎµÎ¹Î´ á¿¶Î½Î±
Ġá¼ĢÎµ ÏĦÎ¿á¿¦
ĠÎºÎ»Î·ÏģÎ¿Î½ Î¿Î¼
ĠÎºÏħÎºÎ» Î¿ÏĦÎµÏģ
Ġá¼ĲÏĢÎ±Î³Î³ ÎµÎ¹Î»á½±
ĠÏĦÎµÏĥÏĥÎ± Ïģá½±ÎºÎ¿Î½ÏĦÎ±
Î·Îºá½¹ ÏĦÎ±ÏĤ
Ġá¼ĲÎ´á½·Î´Î± Î¾Îµ
ĠÏĢÎ»Î·Î¸ÏħÎ½ ÏĦÎ¹Îºá¿¶ÏĤ
ĠÏĦÎµÏĦá½±Ïģ ÏĦÎ·Î½
ĠÎĶá½µÎ¼ á¿³
ĠÎ½ÎµÏħÏģá½½ Î´ÎµÎ¹ÏĤ
Ġá¼ĢÎ½Î¿Î¼ Î¿Î¹
ĠÏĢÎ±ÏģÎ±Î½ á½¹Î¼ÏīÎ½
Ġá¼ĲÎ¾Î·Ïģ Î¸ÏģÎ·
ĠÎ¼Î·Î´á½³ ÏĢÏī
Ġá¼ĪÏģÎ¹ÏĥÏĦÎ¿ÏĨá½±Î½ Î·ÏĤ
ĠÎ´Î¹Î±ÎºÏģá½·Î½ ÎµÎ¹
á½³Î»Î±Î² Îµ
ĠÏĩá½» ÏĦÏģÎ±ÏĤ
ĠÏĦÎ±Ïħ ÏĦ
Ġá½ķÎ² ÏīÎ¼Î±
ĠÏĥÎ¹ÏĦ á½µÏĥÎµÏīÏĤ
Î²á½±Î»Î»Î¿Î½ ÏĦÎµÏĤ
ĠÎ»á½µÎ³ ÎµÎ¹
Ġá¼ĲÎ¾Î±á½· ÏĨÎ½Î·ÏĤ
Ġá¼ķÎ´ ÏģÎ±Î½
Ġá¼ĢÏĢÎ¿Î¸Î±Î½ Îµá¿ĸÎ½
ĠÎ¼ÎµÏĦá½½ÏĢ ÏīÎ½
ĠÏĥÎ¹Î´Î· Ïģá¾·
Ġá¼ĲÏģÎ³Î± Ïĥá½·Î±Î½
Ġá½łÏĨá½³Î» ÎµÎ¹Î±Î½
ĠÏĩá½¹Î½ Î´Ïģ
ĠÎ¼Î·Î´Î±Î¼ á¿¶ÏĤ
ĠÎºá¼ĢÎ³ á½¼
ĠÏĥÎ¹ÏĦá½· Î±
ĠÏĥá½»Î½ÏĦÎ± Î¾Î¹ÏĤ
ĠÎºÎ±Î¸Î¿Î»Î¹Îº á½½ÏĦÎµÏģÎ¿Î½
ĠÎ±á½ĲÏĩá½³Î½ Î¿ÏĤ
ĠÎ¿á½ĲÏģá½±Î½ Î¹Î±
ĠÏĢÏģÎ¿Î¿á½· Î¼Î¹Î¿Î½
ĠÎ¸á½»Î½ Î½
ĠÏĥÏĦÎ¿Î» á½°ÏĤ
ĠÎ³ÎµÎ³á½¹Î½Î± ÏĥÎ¹Î½
á½³ÏĥÏĦÎµÎ¹ Î»Îµ
Ġá¼ĲÎºÎ±Î» Îµá¿ĸÏĦÎ¿
ĠÎ¼á½¹Î» ÏīÎ¼ÎµÎ½
Ġá¼ĶÏģÎ· Î¼Î¿Î½
ĠÎ´Î¹Î±Î»ÎµÎ³ á½¹Î¼ÎµÎ½Î¿ÏĤ
ĠÎºÎ±ÏĦÎ±ÏĦ á½±ÏĥÎµÎ¹
ĠÎ¾ÏħÎ³ Îºá½±Î¼ÏĢ
ĠÏĢá½³ÏĢÎ¿Î½ Î¸ÎµÎ½
á½ģÎ¼ Î¿á½·ÏīÏĤ
ĠÎºá¼ĢÏĢ á½¶
ĠÎ¦á½·Î»Î¹ ÏĢÏĢÎ¿ÏĤ
Ġá¼ĺÏĨ á½³Ïĥ
ĠÎłÎ±á½»Î» á¿³
ĠÏĨÎ¹á½± Î»Î·Î½
ĠÎ¸ÏħÎ³Î± ÏĦá½³ÏģÎ±
Ġá¼ĢÎ»Î»Î¿á½· ÏīÏĥÎ¹ÏĤ
ĠÎºÎ±ÏĦÎ±Ïĥ Îµá½·
ĠÏĢÎ±ÏģÎ±ÏĦá½³ Î»ÎµÏħÏĦÎ¿Î½
ĠÎ¼Î¿Î½á½¹Î¼Îµ ÏĦÏģÎ¿Î½
Ġá¼ĲÏĢÎ¹ÏĩÎµá½· ÏģÎ·Î¼Î±
ĠÎ³Î±ÏĥÏĦÏģ á½¶
Ġá¼ĲÎ²Î± Ïĥá½·Î»ÎµÏħ
ĠÏĩÎ» ÏīÏģ
Ġá¼ĲÎºÏĦÎ±Î½ Î½
Ġá¼ĢÏĢÎ¿ÏĥÏĨ á½±
Ġá¼łÎºÎ¿Î»Î¿á½» Î¸Î·
ÎłÎµÏģ á½¶
Ġá¼ĢÏĢá½³Î¸Î±Î½ ÎµÎ½
Ġá¼ĲÎºÏĢÎµÏĢÏĦá½½ Îºá¿ĥ
ĠÎ¤Î¹Î¼á½±ÏģÏĩ Î¿Ïħ
Ïģá½¹ÏĢ Î¿Î»
ĠÏĦÏģÎ±ÏĢ á½³Î¶
Ġá¼ĢÎ¼ÏĢ á½³Î»
ĠÎ»Î±Ïĩá½±Î½ Î¿Ïħ
ĠÏĩá½±Î»Î±Î¶ Î±
ÎĶÎµá½» ÏĦÎµÏģÎ¿Î½
ĠÎĽÎ±ÎºÎµÎ´Î±Î¹Î¼á½¹Î½ Î¹Î¿Î¹
ĠÎºÎ¿ÏģÏīÎ½ á½¶ÏĤ
ĠÏĨÏģÎµÎ½ á¿¶Î½
Ġá¼ĲÏĢá½³ÎºÎµÎ¹ Î½Î±
Î§Ïģ á½´
ĠÎºÏģÎ¿ ÏĦÎ±
ĠÏĦÎ¿ÏĥÎ± á¿¦ÏĦÎ±
ĠÏĢÎ±ÏģÎµÏĢÎ¹ Î³ÏģÎ±ÏĨ
ĠÎ¸ÎµÎ¿ÏĥÏĦ ÏħÎ³
ĠÏĥÏħÎ³Î³Î½Ïī Î¼Î¿Î½
Ï ļ
Ġ '
á½ Ħ
ÏĦ á½²
ÏĦ ÏģÎ¿
ÏĦ Î¸Î±
Î± Î¼Î²
Î¿ á½·Î½
Î¿ ÏĪ
Î¿ Î¼ÏĢ
Î¿ ÏĦÎ¿Î¼
á¼ ĨÏģÎ±
Î¹ Î³
Î¹ Î±Î½
Î¹ Î³Î¼Î±
Îµ Î¸
Îµ ÏĦá½¹
Îµ á½ĸ
Ġá¼ Ĩ
Ïģ á½µ
Ïģ ÏĥÎ¹Î½
Ïģ Î¿ÏħÏĥÎ¹
Ïģ ÏħÎ¼
Ïģ á¿ĨÏĥÎ¸Î±Î¹
ĠÏĦ ÏģÎ±
ĠÏĦ ÎµÎ¹Î½
ĠÏĦ ÏģÎ±ÏĨ
ĠÏĦ ÎµÎ½á½¹Î½ÏĦÏīÎ½
ĠÏĦ Î±Î¹Î½á½·
Ïĥ ÎµÎ¹Î½
Ïĥ Î¼Î±ÏĦÎ¿ÏĤ
Ïĥ ÏħÏĩ
Ïĥ Î¼á½³Î½Î¿ÏĤ
Ïĥ Î¿Î¼Î±Î¹
Ïĥ Î¼á½³Î½Î¿ÏħÏĤ
ÏĢ Ïħ
ÏĢ ÎµÏĢ
ÏĢ á½¼Î½
ÏĢ á½³Î¼ÏĢ
ÏĢ ÏĦÎµÏĥÎ¸Î±Î¹
Î» ÏīÏĤ
Î» á½±Î½
Î» Î¿á½»
Î» ÏħÎ½
Î» Î¿Î¹ÏĢ
Î¼ Ïī
ĠÎº Î·
ĠÎº á½¹Î»
ĠÎº ÏħÎº
ĠÎº á½µÏģ
ĠÎº ÏīÏĢ
ĠÎº Îµá½·Î¼ÎµÎ½Î¿Î½
Îº Î¿Î¹ÏĤ
Îº Î¿Î¼
Îº Î¹Î»
Îº ÏīÎ¼
Îº Î¿Î¹Î½
Ïħ ÏĥÎ¹
Î· Î¸Îµá½¶ÏĤ
ĠÏĢ ÏĦÎ·Î½
á½³ ÏĪ
á½³ Î¿ÏħÏĥÎ¹Î½
ĠÎºÎ± Î¼á½±
Ġá¼Ĳ ÏĥÎ¸
Ġá¼Ĳ á¿¤á¿¥
Ïī Î²
Ïī ÏĦá¿¶Î½
ĠÎ´ ÏģÎ¿
ĠÎ´ á½¶ÏĤ
ĠÎ´ ÏģÎ¿Î¼
Î³ á½¹
Î³ Î±Î¸
á½± Î¾
á½± Î´Î¹
á½± ÏģÎµ
á½± ÏĦÎ·ÏĤ
á½± Î»Î»Î¿Î½
á½± ÏĦÎ¿Î¹ÏĤ
Î¿á¿ ¶
Î¸ Î»á½·
Î¸ á½²ÏĤ
Î¸ á¿¶ÏĥÎ¹Î½
á½¹ ÏĦÏīÏĤ
á½¹ ÏĦÎ±ÏĤ
á½¹ Î´Î¿
á½¹ Î·ÏĥÎ¿Î½
Ġá¼Ģ Îµá½·
Ġá¼Ģ Î»Î±
Ġá¼Ģ ÏĥÏĩ
Ġá¼Ģ ÏĥÏī
Ġá¼Ģ Î»Î¹
Ġá¼Ģ á½´Ïģ
Ġá¼Ģ Ïģá½·ÏĥÏĦ
Ġá¼Ģ ÏĥÏĦá½³ÏģÎ±
Ġá¼Ģ ÏĥÏĦá½³ÏģÎ±ÏĤ
ĠÎ¼ Î¿á½·
ĠÎ¼ Îµá¿ĸÎ½Î±Î¹
Ïĩ Ïħ
Î´ á¿ĨÎ»Î¿Î½
ÏĨ Î½á½·
ÎµÎ¹ ÏĥÎ¹
ÏĥÏĦ Î·Î½
ÏĥÎ¹ Î¼
ÏĥÎ¹ Î±Îº
ĠÎ³ á½³Î¼
á¿ĸ Î±Î¹
á½µ Î½Î±
á½µ Î¼Î±ÏĦá½±
ĠÏĢÏģ á½³
ĠÏĥ Î²
ĠÏĥ Î¿á½»
ÎµÏģ á½´ÏĤ
Î»Î» á½¹Î½
Ġá¼ĲÎ½ Î¿Ïħ
ĠÎ´Î¹ á¿Ĩ
ĠÎ´Î¹ Î¿á½·
ĠÎ´Î¹ ÎµÎ³
ĠÎ´Î¹ Îºá½±Î¶
ĠÎ´Î¹ Ïĩá¿¶ÏĤ
Î¾ ÏħÎ½
Î¾ Î·ÏĦÎ±Î¹
Ġá¼Ķ Ïģ
Ġá¼Ķ ÏĨÎ±
Ġá¼Ķ Î»Ïħ
Ġá¼Ķ Î¼ÎµÎ¹Î½
Ġá¼Ķ Î»Î¸
Ġá¼ĲÏĢ Î¿ÏħÏģÎ±Î½
ĠÎ±á½ĲÏĦ Î¿á¿ĸÏĥÎ¹
ĠÎ» á¿¦
ĠÎ» Î±á½·
ĠÎ» á¿¦ÏĥÎ±Î¹
Ġá½ģ Î¼Î±
ĠÎµá¼° Î¸
ĠÎµá¼° ÏĥÏĨ
ĠÎµá¼° ÏģÎµÏĥÎ¹
Ġá½ħ Ïĥá¿³
ĠÏĨ á½±Ïĥ
ĠÏĨ Ïģá½±
ĠÏĨ Ïģá½³
ĠÏĨ ÏģÎ¿Ïħ
Ġá¼¡ Î´
Ġá¼¡ ÏĥÏħÏĩ
á½½ ÏģÎ±
á½½ ÏģÎ¹
á½½ ÏĦÎµÏģÎ¿ÏĤ
Ġá¼ĢÎ½ ÏĦÎ±
Ġá¼ĢÎ½ á½»
Ġá¼ĢÎ½ á½³Ïĩ
Ġá¼ĢÎ½ ÏĦÎµÎ¹
Ġá¼ĢÎ½ á¿Ħ
Ġá¼ĢÎ½ á¿ĥÏģÎ·
Ġá¼ĢÎ½ á½³Î²Î·
ÏģÎ¹ ÏĢÎ¹
á½¹Î½ Î±ÏĤ
Î¼á½³Î½ Î±Î¹ÏĤ
ÏĦÎ¿ á½Ĳ
Î¹Î½ Î¿ÏĤ
ÎºÎ± ÏĦ
ÎºÎ± ÏĦÎµ
ÎºÎ± Î¶
ÎºÎ± Î»á½³
ÎºÎ± ÏĦá½±Î»Î·Îº
Ġá¼Ħ Î½Î±
Ġá¼Ħ Î¼Îµ
Ġá¼Ħ ÏĥÎ±Ïģ
Ġá¼ĢÏĢ Î¹
Ġá¼ĢÏĢ á½³Ïĩ
Ġá¼ĢÏĢ á½³Ïĥ
Ġá¼ĢÏĢ Î¹ÏĥÏĦ
Ġá¼ĢÏĢ Î±Î¸
Îµá½· Ïī
Îµá½· Î½Î·
Îµá½· Î»Î·ÏĨ
Îµá½· Î¼ÎµÎ½Î±Î¹
Ïģá½· á¿³
Ïģá½· Î½Î±ÏĦÎ¿
Ġá½ĳ Î±Î»
Ġá½ĳ Î»Î±Îº
Ġá¼ĲÎº ÏĦÎµÎ¹Î½
ĠÏĦÎ¿ ÏĥÎ±á½»
ĠÏĢÏģÎ¿ Î³
ĠÏĢÏģÎ¿ Î±Î½
á½³Ïģ ÎµÏĦÎ±Î¹
á½³Ïģ Î¿ÏħÏĤ
á¿Ĩ Î½Î±á½·
ĠÎ¸ Î¿Ïģ
ĠÎ¸ á¾¶
ĠÎ¸ Îµá¿ĸÎ±
ĠÎ¸ Îµá½·Î±
ĠÎ¸ Î»Î¹Î²
Î¹Îº á½¹ÏĤ
ĠÎ² Î»Îµ
ĠÎ² Î¹Î±
á½±Î½ Î¿Ïħ
á½±Î½ ÏĦÎµÏĤ
Ġá½ĳÏĢ á½³Ïģ
Ġá½ĳÏĢ Î¿ÏĦá½³
ĠÎ¼Îµ Î»Î±
ĠÎ¼Îµ Î¼Î±Î¸
ĠÎ¼Îµ Î¼Î½á¿ĨÏĥÎ¸Î±Î¹
ĠÎ½ Î¿á¿¦
ĠÎ½ Î¿Ïħ
ĠÎ½ á¿Ĩ
Ġá¼ĳ ÏĦÎ±á¿ĸ
ÏĪ Î±Î½ÏĦÎ±
ÏĪ Î·ÏĨ
ĠÎ»á½³Î³ Î¿ÏħÏĥÎ±Î½
ĠÎ»á½³Î³ Î¿Î¹Î¼ÎµÎ½
á½µÏĥ Îµ
Î»Îµ ÏĥÎ¸Î±Î¹
Î»Îµ ÏħÎº
Î»Îµ Î³Î³
Î»Îµ ÏħÏģÎ¿Î½
Ġá¼ĢÎ»Î» á¾¶Î½
ĠÎ±á¼ ³
Ġá½Ģ ÏĥÎ¼
á¿ĥ ÏĥÎ¹Î½
ĠÏĦÎµ ÏĦÎ±
ĠÏĦÎµ ÏĦá½±
ĠÏĢÎ±Ïģ ÎµÎ»
ĠÏĢÎ±Ïģ ÏīÎ½á½»Î¼ÏīÎ½
ÏĦá½· Î¶ÎµÎ¹Î½
Î¿Ïģ Î³
ĠÎ´Î¹Î± ÏĦ
ĠÎ´Î¹Î± Î²
ĠÎ´Î¹Î± ÏĥÏĢ
ĠÎ´Î¹Î± Î»á½³Î³
ĠÎ´Î¹Î± ÎºÎ¿
ĠÎ´Î¹Î± ÏĥÏĦá½±ÏĥÎµÏīÏĤ
ĠÎ´Î¹Î± Î²ÎµÎ²Î»Î·
ÏĥÎ± Î¼á½³Î½Î¿Ïħ
ĠÏĢÎ¿Î¹ Î¿á½·
ĠÏĢÎ¿Î¹ á½µÏĥÏī
ĠÏĢÎ¿Î¹ Î¿á¿¦Î½ÏĦÎ±
ĠÏĢÎ¿Î¹ Î¿á¿¦Î¼ÎµÎ½
ĠÏĢÎ¿Î¹ á½µÏĥÎ±Î½ÏĦÎ¿ÏĤ
Ġá¼ĲÏĢÎ¹ ÏĦÎµÎ»
Ġá¼ĲÏĢÎ¹ Î´ÎµÏĩ
Ġá¼ĲÎ¾ ÎµÏħ
Ġá¼ĲÎ¾ Î±Î³
Ġá¼ĲÎ¾ ÎµÏĢ
Ġá¼ĲÎ¾ á½±Ïģ
Ġá¼ĲÎ¾ á¿ĨÎ»Î¸ÎµÎ½
ÏĦá½³ ÏīÎ½
Î±Î³ á½¼Î½
ĠÏĢÎ¿ á½º
Î´Îµ á¿¶Î½
Ġá¿¥ á½±
Ġá¿¥ á¿ĨÏĥÎ¹Î½
ÏĥÎµ á½½ÏĤ
Ïģá½± ÏĦÎµÎ¹
Ïģá½± ÏĦÎµÏħ
ĠÏĩÏģ á½µÏĥÎµÎ¹
ĠÎºÎ±ÏĦÎ± Î»Îµá½·
ĠÎºÎ±ÏĦÎ± á¿¤á¿¥
ĠÎºÎ±ÏĦÎ± Î´Î¿Ïħ
ĠÎºÎ±ÏĦÎ± Î»á½³Î³ÎµÎ¹
ĠÎºÎ±ÏĦÎ± ÏĦÎµá½·Î½ÎµÎ¹Î½
Î±Î» Î¹Îº
Ġá¼° Î´Î¹Îº
Ġá¼° Î´Îµá¿¶Î½
ĠÏĥÏħÎ½ Î´
ĠÏĥÏħÎ½ ÏħÏĢ
ĠÏĥÏħÎ½ ÏīÎ½á½»Î¼ÏīÎ½
Ġá¼ĦÎ»Î» Î±Î¹
Ġá¼Ī ÏĢá½¹
ÏĥÎ¼ á½±
Ġá¼ķ ÏĦÎµÏģÎ±Î¹
ĠÎļ ÏħÎºÎ»Î¿Î²
Î¸Î± á½·
á½¹ÏĦÎ· ÏĦÎ±ÏĤ
ÏĦá½± Îº
ÏĥÏĦÎ± á½·
ÏģÎµ ÏĥÎ²
ĠÎºÎ±Î¸ Îµá½»
ĠÎł Ïħ
ÏĦÎ¿Ïħ ÏĦá½³
Ġá¼¡Î¼ á½³
ĠÎĺ Î·
ĠÏĢÏģÎ¿Ïĥ ÏĢ
ĠÏĢÏģÎ¿Ïĥ á½±Î³
ĠÏĢÏģÎ¿Ïĥ á½µÎº
ĠÏĢÎ±ÏģÎ± Î´
ĠÏĢÎ±ÏģÎ± ÎºÎµÎ¹
ĠÏĢÎ±ÏģÎ± Î²á½±Î»Î»
ĠÏĦÎ¹Î½ á½¹ÏĤ
Ġá¼ĢÏĢÎ¿ ÏĦÎµ
Ġá¼ĢÏĢÎ¿ Î´á½·
ĠÎµá½Ĳ ÏĩÎ±ÏģÎ¹ÏĥÏĦ
Î¿Î¼ Îµ
Î¿Î¼ Î¿ÏĤ
ĠÏĦÎ¿Î¹ á½±Î´Îµ
ĠÎ±á¼± Î¼Î±
ÏĦÏģ á½³ÏĨ
ÎµÎ¹Î´ á¿Ĩ
Ġá¼ĢÎ½ÏĦÎ¹ ÏĢÎ±Ïģ
Ġá¼ĢÎ½ÏĦÎ¹ ÏĢÎ±ÏģÎ±
ĠÏĢÏģá½¹ Î²Î±
ĠÏĢÏģá½¹ Î²Î»Î·Î¼Î±
Î±Îº Î¿á½»
ÏĥÏī ÏĥÎ¹
ĠÏĪ ÏīÎ¼
Ġá½¥ ÏĥÏĦ
Ġá¼ĲÎ³ ÏĩÏīÏģ
Ġá¼ĲÎ³ ÎµÎ½á½¹Î¼Î·Î½
ÏĢÎ¿Î½ ÏĦÎ¿ÏĤ
Î´á½· á¿³
ĠÏĨá½» Î»Î±
Ġá¼ĢÎº ÏģÎ±
Ġá¼ĢÎº ÏģÏī
Ġá¼ĢÎº Ïģá½¹ÏĢÎ¿Î»
ĠÎ¼Î· ÏĦá½³ÏģÎ±
ĠÏĢÎ¿Î» ÏħÏĢ
á½½Î½ Î·
Ġá½ģÎ¼ Î¹Î»
Ġá½ģÎ¼ á½½Î½ÏħÎ¼Î¿ÏĤ
á½»Î½ ÎµÎ¹Î½
á½»Î½ Î·ÏĥÎ±Î½
á½±Î¶ Î¿Î½
á½±Î¶ Î¿Î½ÏĦÎµÏĤ
ĠÎ¸Îµ á½¹ÏĤ
ĠÎ¸Îµ Î¿á½»ÏĤ
Î´ÎµÎ¹ Î±
Ġá¼ĢÎ½Î± ÏĦ
Ġá¼ĢÎ½Î± Î¾
ĠÎºÎ±Î» Îµá¿ĸÏĥÎ¸Î±Î¹
ĠÏĢÎ¿Î»Î» Î±á½¶
ĠÎ³á½³Î½ Î½Î·
Ġá¼ĢÎ¼ÏĨ Î¿á¿ĸÎ½
Ġá¼ĢÏĨ Îµá¿ĸÎ½Î±Î¹
Ġá¼ĢÏĨ Î±Î¹ÏģÎµ
Î¿Ïĩ Îµá½·
ĠÎºÎ±ÏĦ ÎµÎ½
Ġá½ĢÎ½ Îµá½·
ĠÏĢá½¹ ÏĦÎµ
ĠÏĥÏħÎ¼Î² á½³Î²
ÏĦÎ¿á¿¦ ÏĥÎ¹
ÏĦÎ¿á¿¦ ÏĥÎ¹Î½
ÏĦÎ¿á¿¦ ÏĦÎ¿Î½
Ġá¼ĶÎ½ ÏĥÏĦÎ±ÏĥÎ¹Î½
ÏĥÎµÎ½ ÏĦÎµÏģ
ĠÎ´Îµá¿ĸ ÏĥÎ¸Î±Î¹
ĠÎ´Îµá¿ĸ ÏĢÎ½Î¿Î½
Î¸á½³Î½ ÏĦÎ±ÏĤ
ĠÏĢÎµÏĢ Î·Ïģ
ĠÏĢÎµÏĢ Î¹ÏĥÏĦ
ĠÎºÎ¿Î¹Î½ á½´
ĠÎºÎ¿Î¹Î½ á¿ĨÏĤ
ĠÏĨÎ± á½·Î½ÎµÏĥÎ¸Î±Î¹
Î¸á½³ Î±
ĠÎ¼á½³ Î»Î·
ÎµÏĩ Î¸á¿ĨÎ½Î±Î¹
á½¹Ïģ ÎµÎ¹
á½¹Ïģ Î¿Î¹ÏĤ
á½·Î¶ Î¿ÏħÏĥÎ¹Î½
Ġá¼ĦÏģ ÏĦÎ¿Î½
Ġá¼ĦÏģ ÏĦÎ¿ÏħÏĤ
ĠÏĥÏĩ á½³ÏĥÎµÎ¹
ĠÏĥÏĩ Î¿Î¹Î½
ĠÏĥÏĩ Î·Î¼Î±ÏĦá½·
ÏĦÏĦ á½¹Î½
ĠÏĦÏģá½· ÏĦá¿³
ĠÎ¼á¾¶ Î»Î»á½¹Î½
ĠÎ¼á½³Î½ ÎµÎ¹Î½
ĠÎ´á½· ÏĩÎ±
ÎºÎµ Î»Îµá½»
ĠÎºÎ±Îº á½±
ĠÎºÎ±Îº á¿·
ĠÎºÎ±Îº Î¿ÏħÏģÎ³
Î»ÎµÏħ ÏģÎ±
á½¹ÏĢ Î¿Ïħ
á½¹ÏĢ ÏģÎ±
Ġá½ħÏģ ÏīÎ½
ĠÎ¶Î·ÏĦ Îµá¿ĸ
ĠÎ¶Î·ÏĦ á½µÎ¼Î±ÏĦÎ¹
ĠÎ³Î½ Ïī
Î»Î·Î¸ á½¹ÏĦÏīÏĤ
ĠÏĦá½³ ÎºÎ½
ĠÏĦá½³ Î¼Î±ÏĩÎ¿ÏĤ
ĠÏĢá½³ ÏĦÏģ
á½±Î»Î±Î¹ Î¿Î½
Îµá¼° á½½Î¸Î±
ĠÏĢá½±Ïĥ ÏĩÎ¿Î½
Ġá¼ĢÎ½Î±Î³ Î¿Î¼á½³Î½ÏīÎ½
ĠÎ½á½¹Î¼ Î¿Î¹ÏĤ
ĠÎ¿á¼°Îº Îµá¿ĸÎ±
ĠÎ¿á¼°Îº Îµá½·ÏīÎ½
Î¿á½Ĳ Ïĩ
Ġá¼§ ÎºÎµÎ½
ĠÎ´Î¿Îº á½³ÎµÎ¹
ĠÏĢÏģÎ¿ÏĨ á¿ĨÏĦÎ±Î¹
ĠÏĦÏģÎ¹ Î±ÎºÎ¿
ĠÎ²Î±ÏĥÎ¹ Î»á½³Î±
ÏĦÏĦÎ¿Î½ Î¿ÏĤ
ÏĦÏĦÎ¿Î½ ÏĦÎµÏĤ
ĠÏĩÏģá½¹Î½ ÏīÎ½
á½±Î¼ Î¿Î¹ÏĤ
ĠÎºÎ±ÏĦÎ±ÏĥÎºÎµÏħ á½´
ĠÏĪÏħÏĩ á¿¶Î½
ĠÏĪÏħÏĩ á½µÎ½
á½µÏĥÎ± Î¼ÎµÎ½
ĠÎºÎ±ÏĦÎ·Î³Î¿Ïģá½· á¾³
Ġá¼ĢÎ½ÏĦá½· ÏĥÏĦÎ±ÏĥÎ¹Î½
á¼ĲÏĢ á½³Î¼ÎµÎ¹Î½Îµ
á½³ÏĥÏĦ Î·
á½³ÏĥÏĦ ÎµÏģ
ĠÎºÏģá½·Î½ Î·ÏĦÎ±Î¹
ĠÎ¼ÎµÏĦ á½±ÏĥÏĦÎ±ÏĥÎ¹ÏĤ
ĠÏĥÏħÎ¼ÏĢ Î¿
ĠÏĥÏħÎ¼ÏĢ á½±
ĠÏĥÏħÎ¼ÏĢ Ïģá½±
ĠÏĥÏħÎ¼ÏĢ Î±Î¸
ĠÎ²ÏģÎ±Ïĩ á½·ÏīÎ½
ĠÎ´Î¹ÎºÎ± á½·ÏīÏĤ
Î²á½±Î»Î» Î¿Î½ÏĦÎ±
ĠÎ¸ÎµÏģ á½±ÏĢ
ĠÏĢá½¹Î»Îµ ÏīÎ½
Ġá¼ĲÎ¼Î² Î»Î·
ĠÎ¼Î¹Îº Ïģá½¹Î½
ĠÎ¼Î¹Îº Ïģá¿¶Î½
ĠÎ´Î¹Î±ÏĨÎ¿Ïģ á½±ÏĤ
Ġá½ĳÎ³ Î¹Î±
Ġá¼ĲÏĢá½· Î»Î¿Î³
Ġá¼ĲÎºÎµá½·Î½ Î·ÏĤ
Î¤ Ïģá½·
ĠÎ½Î± á¿¦Î½
ĠÏĢÎ¿Î»Î¹ ÏĦÎ¹Îºá½¸Î½
ĠÎ¼ÎµÏģ Î¹Îºá½¹Î½
ĠÎºÎ±ÏĦÎ·Î³Î¿Ïģ Îµá¿ĸÎ½
ĠÏħá¼± á¿¶Î½
Ġá¿¥Î· ÏĦá½°
Ġá¿¥Î· á¿ĵ
á½³Î¼ ÏĪÎ±
Î¾Î±Î½ ÏĦÎ±
Î¾Î±Î½ ÏĦÎ¿
Ġá½ģÎ¼Î¿á½· ÏīÎ½
ĠÏĨÎµá½»Î³ ÎµÎ¹Î½
ĠÏĢÏħÏģ á¿¶Î½
ĠÏĥÏī ÏĨ
ĠÏĢá½· ÏĥÏĦÎµ
á¼ĺ á½°Î½
Î¸Î±Î½ Î±
ĠÏĦÏģá½¹ÏĢ ÏīÎ½
ĠÏĢÎ±Î¹ Î´Î¹
ĠÎµá½ĲÎ¸ á½»Î½Î±ÏĤ
á¼´ Ïĥ
Ġá¿¥á½µ Î¼Î±ÏĥÎ¹Î½
ĠÏĥÏĦÏģÎ±ÏĦÎ·Î³ Î¿á½ºÏĤ
Ġá¼ĲÎ¸ á½³Î»ÎµÎ¹
ÏĦÎ·Ïģá½· Î¿Ïħ
ĠÏĦÎµÏĩÎ½ á¿¶Î½
Î¿Î² Î¿ÏĥÎº
Î¿Î² Î±Î»Î¹Îº
Ġá¼ģÎ¼Î±Ïģ ÏĦÎ¹á¿¶Î½
ÏīÎº á½³Î½Î±Î¹
ĠÏĢÎ¹ á½³
ĠÏĨÎ¸ á½±ÏĥÎ±ÏĤ
Ġá¼ĢÎºÏģÎ¹Î² á½³ÏĥÏĦÎµÏģÎ¿Î½
ĠÎºÎ¿Î» á½±ÏĥÎµÎ¹ÏĤ
ĠÎºá½¹ Îº
Ġá¼ĢÎ½ÏĦÎ¹ÏĥÏĦ ÏģÎ¿ÏĨ
Ġá¼ĢÎ½ÏĦÎ¹ÏĥÏĦ á½±ÏĥÎµÏīÏĤ
Ġá¼Ļ Î²ÏģÎ±
ĠÎ¼ÎµÏĦá½± Î¸ÎµÏĥÎ¹Î½
ĠÏĥÎ¹ Î¼
Ġá½ģÎ¼Î¿Î»Î¿Î³ Î¿ÏħÎ¼á½³Î½Î¿Ïħ
ĠÎºÎµÎº á½½Î»
ĠÎ¦ Î±
ĠÎ¶Ïī á½µÎ½
ÏĦÏħ Î»Î·Î½Î±
á¿´ Î´Î·
Ġá¼ĲÎ½ÎµÏģÎ³ ÎµÎ¹á¿¶Î½
ĠÏĩá½± ÏģÎ±Î³Î¼Î±
Ġá¼ĢÎ¾Î¹ á½¹Î»
ĠÎ¼Î±Ïģ Î³Î±
ĠÎµá½Ķ ÏĩÏģÎ·
ĠÎ³Î¹Î½ Î¿Î¼á½³Î½Î·ÏĤ
ĠÎ³Î¹Î½ Î¿Î¼á½³Î½Î·Î½
Î¼ÎµÏĦÏģ Î¿ÏĤ
ĠÏĩÎµá¿ĸ ÏģÎµÏĤ
Ġá¼±ÏĥÏĦ Î¿á¿¦
Ġá¼ĢÎ´Î¹Îº á½µÎ¼Î±ÏĦÎ¿ÏĤ
ĠÎ¼á½±Ïĩ Î·
ĠÏĨá½³Ïģ ÎµÎ¹Î½
Ġá¼µÏĢÏĢ Î¿Î¹
Ġá½ģÎ´ á½¹ÏĤ
Ïģá½±ÏĪ Î±Î¹
Ġá½ĳÎ³Î¹ á½³Î¿ÏĤ
á½·ÏĥÏĦÎ± ÏĦÎ¿Î½
ĠÏĢÎ¹ÏĥÏĦ á½¸ÏĤ
ĠÎµá¼°Ïģ á½µÎ½Î·ÏĤ
ĠÏĩÏīÏģ Îµá¿ĸ
ĠÏĩÏīÏģ á¿ĨÏĥÎ±Î¹
Ġá¼´Ïĥ Î¿Î¹ÏĤ
ĠÎ»Î±Î² á½¼Î½
ĠÎ¼ÎµÎ³á½±Î» Î¿ÏħÏĤ
Ġá¼ĢÏĢÎ± ÏģÏĩ
ĠÎ³ÎµÎ³ÏģÎ±Î¼ Î¼á½³Î½Î±
ĠÎ´Î· Î»Î·
Ġá¼±ÎµÏģ Îµá¿ĸÏĤ
ĠÏĩÏģÎ·ÏĥÎ¼ Î¿á¿¦
ĠÎ´Î¹Î´á½±Ïĥ ÎºÏīÎ½
ĠÎ´Î¹Î´á½±Ïĥ ÎºÎµÎ¹Î½
ĠÏĦá½³ÏĦÎ± Ïģ
Ġá½ĳÏĢÎ¿Î³ÏģÎ±ÏĨ á½µ
ĠÎ±á¼µ ÏģÎµ
ĠÎ´Î¹Î±ÏģÎ¸Ïģ Î¿á¿¦ÏĦÎ±Î¹
ĠÎºÎ¿ ÏĦ
ĠÎ´Î¹Î´Î± Ïĩ
ĠÏĢÎ±Ïģá½³Ïĩ ÎµÎ¹Î½
ĠÎ´Î¹Î±Îº Î¹Î½
ĠÏĨÏħÏĥÎ¹Îº á¿ĨÏĤ
ĠÏĨÏħÏĥÎ¹Îº á¿¶ÏĤ
Ġá¼ĢÎ½Î´Ïģ á½¸ÏĤ
ĠÏĩÏīÏģá½· Î¿Ïħ
ĠÎ¸Î±Î½ Î±
ĠÏĢÎ¿Î½Î·Ïģ á½¸ÏĤ
Ġá½ģÏģÎ¹ÏĥÎ¼ Î¿á¿¦
Ġá½ģÏģÎ¹ÏĥÎ¼ á½¹ÏĤ
ĠÏĥÏĦá½·Ïĩ Î¿ÏĤ
ĠÏĨÎ±Î½ÎµÏģ Î¿á¿¦
Î²Î±Î» Îµá¿ĸÎ½
ĠÎĵ Î¿ÏģÎ³
Ġá¼ĲÎ½Î±Î½ Î¸Ïģá½½ÏĢ
ĠÏĢÎ»ÎµÏħÏģ á½³ÏīÎ½
Ġá¼ĲÎ»á½³Î³ Î¿Î¼ÎµÎ½
ĠÎ»á½±Î² Î¿Î¹
Ġá¼ĲÏĩÎ¸Ïģ á½¸ÏĤ
ĠÎĳá¼° Î¸
ĠÏĥÏħÎ¼Î²Î± á½·Î½ÎµÎ¹Î½
ĠÏĨá½· Î»
ĠÎºÎ±ÏĦÎ¿ÏģÎ¸ á¿¶ÏĥÎ±Î¹
Ġá¼ĢÎ½ÏĦÎ¹Îº Îµá½·Î¼ÎµÎ½Î¿Î½
ĠÏĢÏģÎ¿ÎµÎ¹ Î»Î·Î¼
Ġá½ĳÏĢá½¹ ÎºÎµÎ¹ÏĦÎ±Î¹
Ġá¼ĲÏĥ á½±Î»ÏĢÎ¹
ĠÎ±á½ĲÏĦá½¹ Î¸Î¹
ĠÎ½Î¿Î·ÏĦ á¿¶Î½
Ġá¼ĢÏĦÎµÎ» á¿Ĩ
ĠÎ»ÎµÏĢ ÏĦÎ¿
ĠÏĩÏģá½½ Î¼ÎµÎ½Î¿Î½
ĠÏĩÏģá½½ Î¼ÎµÎ½Î¿Î¹
Ġá¼°Î±ÏĦÏģ á½¸Î½
ĠÏĩÏģá½µÏĥÎ¹ Î¼Î±
ĠÎ´ÎµÏĥÎ¼ á½°
ĠÎ´ÎµÎ¹ÎºÎ½ á½»Î½
ĠÎ¼Î¿Ïĩ Î»Îµá½·
Ġá¼ĲÏĢÎ¹Îº ÎµÎ¹
ĠÎ´Î¹Î±ÏĢ Ïģá½±
ĠÎºÎ±ÏĦÎ±Î»Î·Îº ÏĦÎ¹Îºá½¸Î½
ĠÎºÎ±ÏĦÎ±Î»Î·Îº ÏĦÎ¹Îºá½¹Î½
ĠÏĥÏħÎ³Îº Ïģá½·Î½
ĠÏĢÎ¿ÏģÎ½ Î¿Î²Î¿ÏĥÎº
ĠÏĥÎ·Î¼Î±Î¹Î½ á½¹Î¼ÎµÎ½Î±
ĠÏĢÎ»Î¿á½» ÏĥÎ¹Î¿Î½
ĠÎºá½¹ÏĥÎ¼ Î¿Î½
Ġá¼ĲÎ»Î» ÎµÎ»
Ġá¼ĲÏĢÎ¹Î½ Î¿
ĠÎ¸ÎµÏīÏģá½· á¾³
Ġá¼ĲÎ¼ÏĢÎµÏĥ Î¿á½»ÏĥÎ·ÏĤ
Ġá¼ĢÎ½Î¸Î¿ÏģÎ¹ÏĥÎ¼ á½¸Î½
Ġá¼ĢÎ¾ á½·Î±Î½
ÏĦá½³ÏĦÎ± ÏģÏĦÎ¿Î½
ĠÎµá¼´ÏĢ á¿ĥÏĤ
ĠÎ¸á½±Î»Î±Ïĥ ÏĥÎ±
ĠÏĢÎ±Î½Î·Î³ÏħÏģÎ¹Îº á½¹Î½
Ġá¼¡Î³ ÎµÎ¼
Î¿ÏģÎ¼ á½·ÏīÎ½
ĠÎ¸ÎµÏģÎ±ÏĢ ÎµÏħ
ĠÎ¸ÎµÏģÎ±ÏĢ Îµá½·Î±ÏĤ
ĠÎ³ÏģÎ±Î¼Î¼ á½´
ĠÎºÏīÎ»á½» ÎµÏĦÎ±Î¹
ĠÎºÎ±Î¸Î· Î¼á½³Î½á¿³
Î²Î±á½·Î½ Î¿Î½ÏĦÎµÏĤ
Ġá¼ĢÏĢÎµÎ¹ Î¸
Ġá½ĳÏĪÎ·Î» á½¸Î½
ĠÎºÏīÎ¼á¿³ Î´Îµá¿ĸ
ĠÎ´Î¹Î±Î²Î¿Î» á¿ĩ
ĠÎºÎµÏģ á½±ÏĦÏīÎ½
Ġá¼ĶÏĥÏĩ Îµ
ÏĦÏģá½³ ÏĢÎµÎ¹
Ġá¼ĪÎ¸á½µÎ½ Î±ÏĤ
ĠÎºÎ¹ Î¸Î±Ïģ
ĠÎºÏģÎ± ÏħÎ³
Î·ÏĦÎ± á½¶
ĠÏĨÎ±Ïģ Î¼Î±Îº
ĠÎ±á½ĶÎ¾ ÎµÏĦÎ±Î¹
ĠÎ±á½ĶÎ¾ Î·ÏĥÎ¹Î½
ĠÎºÏģÎµ Î¼
ĠÎ»ÏħÏĩ Î½á½·Î±Î¹
Î±á½·ÏģÎµ ÏĦÎ¿Î½
Ġá½ĢÎ½Î¿Î¼Î± ÏĦÎ¿ÏĢÎ¿Î¹
ĠÏĢÎ±Î¹Î´á½· Î±
Ġá¼ĢÏģÎ¹ÏĥÏĦÎµÏģ á½¸Î½
ĠÎ´Î·Î¼Î±Î³ÏīÎ³ á¿¶Î½
ĠÎ´Î¿á¿¦ Î»Î¿Î¹
Ġá¼´ÏĥÏĩ ÎµÎ¹
ĠÏĢÎµá½·Î¸ ÎµÏĥÎ¸Î±Î¹
Ġá¼ĢÎ»á½µ Î¸ÎµÎ¹Î±
ĠÏĢÎ±ÏģÎ±ÏĢ Î»Î·
ĠÎľÎ¹ ÏĦÏħÎ»Î·Î½Î±
ĠÎ¼Îµá½·Î¶Î¿Î½ Î¿ÏĤ
Ġá¼ĢÎ½ÏĦÎµÎ³ÎºÎ»Î·Î¼Î±ÏĦÎ¹Îº á½´
Ġá¼ĶÎ»Î±Î² ÎµÎ½
ĠÏĩÎµÏģ Ïĥá½¶Î½
ĠÏĢÏģÎ¿Îº Îµá½·Î¼ÎµÎ½Î¿Î½
ĠÎ½ÎµÎ½ ÎµÏħÎº
Ġá¼ĪÏģÏĩ Î¹Î´
Ġá¼ĢÎ½ÏĦÎ¹Î´Î¹ Î±ÏĥÏĦ
ĠÎºÎ¿Î¹Î» á½¹ÏĦÎ·ÏĦÎ±
ĠÎľÎ± ÏĦÎ¸Î±
Ġá¼ĲÏĥÏĨ ÏģÎ±Î³
ĠÎ¼Î±Î³ Îµá½·
ĠÏĦÎµÏĦÎ±Î³ Î¼á½³Î½ÏīÎ½
ĠÏĦÏħÏĩ á½¸Î½
Ġá¼ĢÎ´ÎµÎ»ÏĨ á¿¶Î½
Ġá¼ĲÏĢÎ¿Î¹ Î¿á¿¦Î½ÏĦÎ¿
ĠÏĢÎ»á½±Î³ Î¹Î±
ĠÎºá½±Î¼ÏĢ ÏĦÎµÏĥÎ¸Î±Î¹
Ġá¼ĢÎ¼ÏĨÎ¹ÏĥÎ²Î·ÏĦ Î¿á¿¦ÏĥÎ¹Î½
ĠÏĥÏĢÎ¿ÏħÎ´ á¿ĨÏĤ
Ġá¼ĢÏĢÎ¿ÎºÎ±Î»á½» ÏĪÎµÎ¹
ĠÏĢÎ·Î´ Î±Î»Î¹
ĠÎ¼Î¿ÏģÏĨ á½´
ĠÎ¼Î¿ÏģÏĨ á¿ĨÏĤ
ĠÏĢÎ±Ïģá½³ Î´ÏīÎºÎµÎ½
á½±ÏĥÏĥ ÎµÎ¹Î½
ĠÎ´Î¹Î±Ïĥ Îµá½·
ĠÎ´Î¹Î±Ïĥ ÏĢÎ±
ĠÎ±á¼°Î´ Î¿á¿ĸÎ¿Î½
á½µÎ½ÎµÎ³ ÎºÎµÎ½
ĠÏĥÏĦÎ¿ÏĩÎ±ÏĥÏĦ Î¹Îºá½¸Î½
ĠÎ²ÏģÎ±Ïĩá½» ÏĦÎµÏģÎ¿Î½
Ġá¼ĲÎ³ÎºÎ»á½µ Î¼Î±ÏĦÎ±
ĠÎºÎ±ÏģÏĢ á½¸Î½
ĠÎµá½ĲÎµÏģÎ³Îµ Ïĥá½·Î±Î½
ĠÏĨÎ¹Î»á½¹ÏĥÎ¿ÏĨ Î¿Î¹
ĠÎºÎ±ÏĦÎ¿Î¹Îº Î¿á¿¦Î½ÏĦÎµÏĤ
Ġá¼Į ÏģÎµÎ±
ĠÎ¸Î»á½· ÏĪÎ¹Î½
ĠÏĦÏģá½± ÏĩÎ·Î»Î¿Î½
ĠÎºÎ±ÏĢÎ½ Î¿á¿¦
Ġá¼°Î·ÏĦÏģ Îµá½»ÎµÎ¹Î½
ĠÏĨá½±Ïģ Î¼Î±ÎºÎ¿Î½
ĠÎ¼ÎµÎ»Î» Î¿á½»ÏĥÎ·ÏĤ
ĠÎ½ÏħÎº ÏĦá½¸ÏĤ
Ġá¼ĲÎ¾á½³Ïĩ Îµ
ĠÏĢÎ»Î¿Ïħ Ïĥá½·Î¿Ïħ
ĠÎ¼Î¹ÎºÏģ Î¿á¿ĸÏĤ
Ġá¼ĢÎ» á½½ÏĢ
Ġá¼ĶÎ¿Î¹ ÎºÎµÎ½
ÏĦÎµÏĩÎ½ á½·Î±
ĠÎ²Î¿á¿ ĩ
Ġá¼¤Ïģ ÎºÎµÎ¹
ĠÎºá½·Î½Î´ÏħÎ½ Î¿Î½
Ġá½Ļ ÏĢÎµÏģ
Ġá¼ĢÏĦÎµ Î»Îµá½»ÏĦÎ·
ĠÎ»Îµ Î»Î·Î¸á½¹ÏĦÏīÏĤ
ĠÎ¼ÎµÎ»ÎµÏĦ á¾¶ÏĦÎ±Î¹
Ġá¼ĲÎºÏĢÎµÏĥ á½¸Î½
ĠÎ¼ÎµÏĦÎ±Î½ Î¿
Ġá¼ĲÏĢÎ¹Î²Î¿Ïħ Î»á¿ĨÏĤ
ĠÎµá½ĲÎ½ Î¿á½»
ĠÎ¾ÏħÎ¼ÏĨ Î¿Ïģ
ĠÎ¼ÎµÏĦÎ±Î²Î¿Î» á½´Î½
Ġá¼ĪÏģÎ¹ÏĥÏĦÎ¿ÏĦÎµÎ» Î¹Îºá¿¶Î½
Ġá¼ĢÏģÎ½á½· á¿³
ĠÎ¸ÎµÏģÎ¼Î± á½·Î½ÎµÎ¹Î½
ĠÎĸ Îµá½ºÏĤ
ĠÏĢÏħÎ» á¿¶Î½ÎµÏĤ
Ġá¼ĲÏģÏĩ á½¹Î¼ÎµÎ¸Î±
ĠÎ²Î»á½³ ÏĢÎµÎ¹Î½
Î»Î±Î¼Î²Î±Î½ á½¹Î¼ÎµÎ½Î¿ÏĤ
ĠÏĥÏĦÎµÏĨá½±Î½ Î¿Ïħ
Ġá½ĳÏĢÎ¿ÏĪ á½·Î±Î½
Ġá½ĳÏĢÎ¿ÏĪ á½·Î±ÏĤ
ĠÎºÏĦ á½µÎ½Î·
ĠÎ´á½¹Î³ Î¼Î±
Ġá¼ĲÏĢÎ±Î³Î³ á½³Î»Î»
ĠÎ´Î¹Î±Î¸á½µÎº Î·ÏĤ
ĠÏĥÏĨá½¹Î½ Î´ÏħÎ»Î¿Î½
ĠÎ´Î¹Î´á½± Î¾Î±Î¹
ĠÏĢÏģÎµÏĥÎ²á½» ÏĦÎµÏģÎ¿Î¹
ĠÏĩÎ¹Î»Î¹ á½±Î´ÎµÏĤ
ĠÎ»ÏħÏĩÎ½ á½·Î±ÏĤ
ÏĢÏģá½¹ Î´Î·Î»Î¿Î½
ĠÏĢÎµÏģá½·ÏĥÏĦÎ± ÏĥÎ¹Î½
ĠÎ½á½µÏĥ Î¿ÏħÏĤ
ĠÏĢÏģÎ¿ÏĥÎ´Î¹ Î¿ÏģÎ¹ÏĥÎ¼
ĠÎ¦Î¹ Î»á½·
Ġá¼ĳÏīÏħ ÏĦÎ¿á¿¦
ĠÎļÎ±ÏĦÎ·Î³Î¿Ïģá½· Î±Î¹
ĠÎļÎ±ÏĦÎ·Î³Î¿Ïģá½· Î±Î¹ÏĤ
Ġá¼ĿÎ»Î» Î·ÏĥÎ¹
Ġá¼ĲÎ³ÎºÏīÎ¼Î¹Î±ÏĥÏĦ Î¹Îºá¿¶Î½
ĠÎ´Î¹Î±ÏĥÏĦÏģÎ¿ÏĨ á½´Î½
ĠÏĦá½³Î¸ÎµÎ¹ ÎºÎµÎ½
Ġá¼ĢÏĥá½½ Î¼Î±ÏĦÎ¿Î½
ÏĥÏħÎ¼Î² Î±á½·Î½ÎµÎ¹
ĠÏĢá¿ĨÏĩ ÏħÎ½
ĠÏĨÎ»ÎµÎ² á¿¶Î½
ĠÎ³ÏīÎ½ á½·Î±ÏĤ
Ġá¼ĶÎ¸Î· ÎºÎµÎ½
Ġá¼ĦÏĩÏģÎ· ÏĥÏĦÎ¿Î½
Ġá¼ĳÏĦÎ¿á½· Î¼ÏīÏĤ
Ġá¿¥Î¹Î½ á½¸ÏĤ
ĠÏĦá½·Î¸ ÎµÏĦÎ±Î¹
ĠÏĦá½·Î¸ ÎµÏĥÎ¸Î±Î¹
Ġá¼ĲÏĢá½·Î´Îµ ÏĥÎ¹ÏĤ
ĠÏĦÎ¿Î¹Î¿á½»ÏĦÎ¿Î¹ ÏĥÎ¹Î½
ĠÎłÎ±ÏĦÏģ á½¸ÏĤ
ĠÎłÎµÎ»Î¿ÏĢÎ¿Î½Î½Î· ÏĥÎ¹Î±Îº
Ġá¼ĲÏĢÎ¿á½· ÎµÎ¹
Î´ÎµÎ¹ÎºÎ½ á½»
Î¼ÎµÏĦÏģá½· Î±
ĠÏĢÎ¿Î½Î·Ïģá½· á¾³
Ġá¼ĲÎºÏĢÎ¿Ïģ Îµá½»ÎµÏĦÎ±Î¹
ĠÎ¸Î±ÏħÎ¼Î± ÏĥÏĦ
ĠÎ»Î¿Î¹Î´ Î¿Ïģ
ĠÏĦÎ·Î½ Î¹ÎºÎ±á¿¦ÏĦÎ±
Î³Î´Î¿ Î¿Î½
ĠÎºÎ±ÏĦÎµÎ¹ Î»Î·ÏĨ
ĠÏĢá½¹Ïģ ÏĢÎ±
Ġá¼łÏģÎµ Î¼á½·Î±
ĠÎ³Î½á½µÏĥÎ¹ Î¿Î½
ĠÎºÎµÎºÎ» Î¿ÏĨ
ĠÏĥá½»Î½Î´ÎµÏĥÎ¼ Î¿Î½
Ġá¼ĢÎ½Î±Î½ÏĦá½·á¿¤á¿¥ Î·ÏĦÎ¿Î½
Îµá½Ķ Î´Î·Î»Î¿Î½
ÎºÏģÎ¹ ÏĥÎ¹Î½
Ġá¼ĢÏĢÎµÏģ á½·ÏĥÏĦÎ±ÏĦÎ¿Î½
ÏĦá½³ÏĩÎ½ ÏīÎ½
Ġá¼ĪÏģá½· Î³Î½Ïī
Ġá½ĦÏģÎ³ Î±Î½Î¿Î½
ĠÎ£Î¿ÏĨ Î¿Îº
ĠÏĢÎ¿Î»Î¹ÏĦÎµÏħ Î¿Î¼á½³Î½ÏīÎ½
ĠÎµá½ĶÎ· Î¸ÎµÏĤ
á¼ĪÏĢÎ¿Ïģ Î¿á¿¦ÏĥÎ¹
ĠÎ´Î¿Ïħ Î»
ĠÎ¸Ïģ á½±Ïĥ
Ġá¿¥á¾´ Î´Î¹Î¿Î½
ĠÎ²Î¿ÏħÎ»Îµá½» ÎµÏĥÎ¸Î±Î¹
ĠÏĥÎµÎ±Ïħ ÏĦÎ¿á¿¦
Ġá¼´Î±Î¼Î² Î¿Î¹
Ġá¼ĪÎ»ÎºÎ¹Î²Î¹á½± Î´Î·ÏĤ
ĠÏĦá¿Ĩ ÏĥÎ´Îµ
ĠÏĨÎ»á½³ Î²
Ġá¼ĦÏĢÎ¿Ïģ Î¿Î½
ĠÏĢÏģÎ¿ÏĥÎ´ á¿ĨÏĥÎ±Î¹
ĠÎ£Ïħ ÏģÎ¹
ĠÎ´á½·Ïī Î¾Î¹Î½
Ġá¼ĲÎ³ÎºÎµÏĨ á½±Î»Î¿Ïħ
ĠÎºÎµá¿ĸÎ½ ÏĦÎ±Î¹
Ġá¼Ģá¿¤á¿¥ ÏīÏĥÏĦ
ĠÏĦá½³Îº Î½Î±
ĠÏĥÏħÎ¼ÏĢá½³ÏģÎ± ÏĥÎ¼Î±
Ġá¼ĳÏĥÏĦá¿¶ ÏĦÎ±ÏĤ
Ġá¼ĳÏīÏģÎ± Îºá½¹
ĠÏĩÎµÏģÏĥÎ± á¿ĸÎ¿Î½
ĠÏĥÏĦá½³ÏĨÎ±Î½ Î¿ÏĤ
ĠÎ´Ïģá½³ÏĢÎ±Î½ Î¿Î½
Ġá¼ĶÎ»Î±Ïĥ ÏĥÎ¿Î½
ĠÎ»Î¹Î² Î±Î½
ĠÎ£Î¹Îº ÎµÎ»
Ġá¼ĢÏĢÎ¿ÎºÏĦÎ¹Î½ Î½á½»Î½Î±Î¹
Ġá¼ĢÏĢÎ±Ïģá½·Î¸Î¼ Î·ÏĥÎ¹Î½
ĠÎ´Î¹Î´á½±ÏĥÎºÎ±Î» Î¿ÏĤ
ĠÎ¼ÎµÎ¹ÏģÎ±Îº á½·Î¿Ïħ
ĠÏĢÎ·Î´á½±Î» Î¹Î¿Î½
Ġá¼ĲÏĢÎ±Î³Î³ÎµÎ¹Î»á½± Î¼ÎµÎ½Î¿ÏĤ
ĠÎ¾ÏħÎ³Îºá½±Î¼ÏĢ ÏĦÎµÎ¹Î½
ĠÎºá½µÏģ ÏħÎ³Î¼Î±
ĠÎ»Î±á½· Î¸Î±
Ġá¼ĢÏĢá½³Ïĥ ÏĨÎ±
Ġá¼ĪÏĢá½¹ Î»Î»ÏīÎ½
Ġá¼ĢÏĦÎµÎ»Îµá½»ÏĦÎ· ÏĦÎ¿Î½
Î ĸ
Ġ ÏĤ
Ġ Ïī
á½ ©
á½ ł
ÏĦ á½±Ïĥ
ÏĦ á¿ĨÏĥÎ±Î¹
ÏĦ á¿ĨÏĥÎ¸Î±Î¹
Î½ á½¹
Î½ á¾¶ÏĤ
Î± á½Ĳ
Î± ÏĥÏĢ
Î¿ á½º
Î¿ ÏĢÎ±
á¼ §
Î¹ ÏĥÎ±Î½
Îµ ÏĦÎµÏģ
Îµ Í´
Ġá¼ ĨÏģÎ±
Ïģ á¿ĸÎ½Î±Î¹
ĠÏĦ Î¿á¿ĸ
ĠÏĦ Î¼Î·
Ïĥ Î¼á½³Î½ÏīÎ½
Ïĥ Î¼á½³Î½Î¿Ïħ
Ïĥ Î·ÏĦÎ±Î¹
Ïĥ Î¼á½³Î½Î±
Ïĥ Î¼á½³Î½Î·Î½
ÏĢ á½³
ÏĢ ÏģÎ±
ÏĢ Î±ÏĤ
ÏĢ Ïģá½½
ÏĢ Î·ÏĩÏħ
Î» á¿Ĩ
Î» ÎµÎ¹Î±Î½
Î» á½¹Î¼Î·Î½
Î¼ Î¼Î±
Î¼ Î·Î´
ĠÎº Î½
ĠÎº á½³Ïģ
ĠÎº Î»Î±
ĠÎº Î¿Ïĩ
ĠÎº Î¿Î½Î´á½»Î»
ĠÎº á½±Î»ÏīÎ½
ĠÎº á¿¦Î¼Î±
Îº á½»
Îº ÏģÎµ
Îº á½±Î»Î»
Ïħ Î±
Ïħ Î¼Î²
Ïħ Î´Ïģ
Î· ÏĥÏĦ
Î· Î»Î¹
Î· Î¼á½³Î½ÏīÎ½
Î· Î¸á½³Î½ÏĦÏīÎ½
ĠÏĢ Ïī
ĠÏĢ á½»
ĠÏĢ á½½
ĠÏĢ Î¿á¿ĸ
ĠÏĢ á½±Ïĩ
ĠÏĢ á½¹Î½ÏīÎ½
ĠÏĢ á½»Î»Î±ÏĤ
á½· Î´Î¹
á½· Î´ÎµÏĤ
á½· ÏĥÎ¼Î±ÏĦÎ±
á½³ ÎºÎ±
á½³ Î»ÎµÏħ
ĠÎºÎ± ÏĦÎµÎ»
Ġá¼Ĳ ÏģÎ¹
Ġá¼Ĳ ÏĦá½³
Ġá¼Ĳ Î»Îµá½»
Ġá¼Ĳ ÏģÏħ
Ġá¼Ĳ á½¹Î½ÏĦÎ±
Ïī ÏģÎ±
Ïī ÏĦÎ¿á¿¦
Ïī ÏĥÎµÎ½
Ïī ÏģÎ¹Îº
Ïī ÏĦá½¹ÏĤ
Ïī Î¸á¿ĩ
ĠÎ´ á½µÎ»
Î³ Î¿ÏĤ
Î³ Î¿ÏħÎ½
Î¿Î½ ÎµÏĤ
Î¿á¿ ĨÏĤ
Î¸ á½»
Î¸ á¿³
Î¸ á½·Î¿Î¹ÏĤ
á½¹ Î´Î¹
á½¹ ÏģÎ±ÏĤ
Ġá¼Ģ á½³
Ġá¼Ģ ÏĥÏĨ
Ġá¼Ģ ÎºÎ±ÏĦÎ±
Ġá¼Ģ Î´ÏħÎ½
Ġá¼Ģ ÏĥÏĩÎ·
ĠÎ¼ ÎµÎ½
ĠÎ¼ á¿ĨÎ½Î±ÏĤ
Ïĩ á½³
Ïĩ Î¿Î½ÏĦÎ±
Ïĩ á½¹Î½ÏĦÏīÎ½
Ïĩ á½·ÏĥÏĦ
Î´ á½µÎ¼Î±ÏĦÎ±
Î¿á¿¦ Î¼Î±Î¹
ÎµÎ¹ Ïĩ
ÏĥÏĦ Î·
ÏĥÏĦ á½·
ÏĥÏĦ ÎµÏħ
ÏĥÏĦ Îµá½·Î±ÏĤ
Î¿Î¹ ÎºÎµ
ĠÎ³ Î¿á½»
ĠÎ³ ÎµÎ»
ĠÎ³ á½¹Î½Î±
Î±Î¹ Î¿ÏĤ
ĠÎµá¼ µ
á¿ĸ Î±
Î±Î½ á½¹ÏĤ
á½µ ÎºÎµ
á½µ ÏĢÎ¿ÏĦÎµ
á½µ ÏĩÎ¸Î·
ÎµÎ½ ÎµÎ³Îº
ĠÏĥ Î·
ĠÏĥ Î±Ïħ
ĠÏĥ á½³Î²
ĠÏĥ Î±á½·Î½
á½³Î½ ÏĦÎ¿ÏĤ
á½³Î½ ÏĦÏīÎ½
´Î½ Î¹Î³Î¼Î±
Îµá¿ĸ Î»Î¿Î½
Îµá¿ĸ ÏĩÎ¿Î½
Î»Î» Ïħ
Ġá¼ĲÎ½ Î´Îµá½·
Ġá¼ĲÎ½ Î¿Î¹Îº
Ġá¼ĲÎ½ Î´ÎµÎ¹ÎºÎ½á½»
Î¼Î± Îºá½±
ĠÎ´Î¹ á½³Î»
ĠÎ´Î¹ ÎµÎ»Î¸Îµá¿ĸÎ½
ĠÎ´Î¹ á¿ĥÏģÎ·
ĠÎ´Î¹ á½¹ÏģÎ¸
Î¾ á½±
Î¾ Î¿ÏħÏĥÎ¹
Î¾ Î¿Î¼ÎµÎ½
Ġá¼Ķ ÏĦ
Ġá¼Ķ ÏĢÎµÎ¹
Ġá¼Ķ á¿¤á¿¥
Î² Î·
Î² ÏħÏģ
Î² á½¹Î»
Î² Î´Î¿
Ġá¼ĲÏĢ Î»á½µ
Ġá¼ĲÏĢ á½³Î¼ÎµÎ¹Î½Îµ
ĠÎ±á½ĲÏĦ Î¿á¿ĸÏĥÎ¹Î½
ÏģÎ± ÏĦÎµ
ÏģÎ± Î¼Î½
ĠÎ» á¿Ĩ
ĠÎ» Î¿ÏĢ
ĠÎ» ÏħÎ¸
Ġá½ħ Î»Î±
ĠÏĨ Î»Î¹
á¿¶Î½ Î¹
Ġá¼¡ Î´á½»
á½½ Î»Î·
á½½ Î¼ÎµÎ½Î¿Î¹
ÏĦÎ· ÏĥÎµ
Ġá¼ĢÎ½ Î¹
Ġá¼ĢÎ½ á½½
Ġá¼ĢÎ½ á½³Î»
Ġá¼ĢÎ½ Î¹Ïĥ
Ġá¼ĢÎ½ ÏĦÎ±Î³
Ġá¼ĢÎ½ ÏħÏĢ
Ġá¼ĢÎ½ á½±ÏĥÏĦÎ±ÏĥÎ¹ÏĤ
Ġá¼ĢÎ½ Îµá½»Î¸ÏħÎ½Î¿Î½
ÏĥÎ¹Î½ Î¿Î½
ÏģÎ¹ ÏĤ
ÏĥÎ¸ Î¹
ÏĦÎ¿ Î¼á½³Î½ÏīÎ½
ÏĦÎ¿ ÏģÎ¿ÏĤ
ÎºÎ± Ïħ
Ġá¼Ħ ÏĥÏĦ
Ġá¼Ħ Î²
Ġá¼Ħ Î¼Î²
Ġá¼Ħ Î»ÎµÏħÏģÎ¿Î½
Ġá¼Ħ Î»ÎµÏħÏģÎ±
Ġá¼ĢÏĢ Îµá½·
Ġá¼ĢÏĢ Îµá¿ĸÎ½Î±Î¹
Ġá¼ĢÏĢ Î¿á¿¤á¿¥
ĠÎ¿á½ ĳ
ĠÎ¿á½ Ĵ
Î¼ÎµÎ½ á½¹Î½
ĠÏĢÎ± ÏĦá½±
Îµá½· Î¿ÏħÏĤ
Îµá½· ÏĦÎ¿Î½
ĠÏĩ Î¿Î¹
ĠÏĩ Î¿á½·
ĠÏĩ Î±Ïģ
Î¿á¿ĸ ÎµÎ½
á½³Î³ ÎºÎ¿Î¹
Ġá¼ĲÎº á½±
Ġá¼ĲÎº Î´
Ġá¼ĲÎº Î¿Î»
Ġá¼ĲÎº Î»Îµ
Ġá¼ĲÎº Î²Î¿Î»
ĠÏĢÏģÎ¿ ÏĥÎ¹
ĠÏĢÏģÎ¿ ÎµÎ´
ĠÏĢÏģÎ¿ ÏĦÎµá½·Î½
ĠÏĢÏģÎ¿ ÏĥÎ¸Îµá½¶ÏĤ
Î»Î· Î¸Îµá½¶ÏĤ
Î»Î· Ïģá½½
á¿¦ ÏĥÎ¹
ĠÎ¸ ÏģÎ±
ĠÎ¸ á½³Î±
ĠÎ¸ Îµá½·á¿³
ĠÎ¸ Îµá½·Î¿Î¹ÏĤ
Î¹Îº Î¿ÏĤ
Î¶ Ïī
Î¶ Î¿Ïħ
Î¶ Î·ÏĦ
Î¶ á½¹Î¼ÎµÎ½Î¿Î½
Î¶ á½¹Î½ÏĦÏīÎ½
Î¿Î» á½¹
ĠÎ² ÏħÎ¸
á½±Î½ Î¸ÏģÏī
Ġá½ĳÏĢ ÎµÎ½
á½·Î½ Î¿Î½ÏĦÎ¿ÏĤ
á½·Î½ ÎµÏĦÎ¿
á½·Î½ Î±Î¹Î¿Î½
ĠÎ¼Îµ Î¼Î±
ĠÎ¼Îµ Î´á½³
Ġá¼ĳ ÏĪ
Ġá¼ĳ á½½ÏģÎ±
ÏĪ Ïī
ÏĪ Î¹Î»
ĠÎ»á½³Î³ Î¿Î½
á½µÏĥ ÎµÏĥÎ¹Î½
Î»Îµ Î±Ïģ
Î»Îµ ÏĢÎ¿Î½
Î»Îµ á¿¦ÏĥÎ±Î¹
ĠÎ±á¼ ´Î½Î¹Î³Î¼Î±
Ġá½Ģ ÏĪ
ĠÏĦÎµ ÏĦÎµÎ»
ĠÏĢÎ±Ïģ á½½Î½ÏħÎ¼Î¿Î½
ÏĦá½· Î±ÏĤ
á½±Ïĥ Ïĩ
Ġá¼ĶÏĩ ÎµÏĦÎ±Î¹
Ġá¼ĶÏĩ ÎµÏĦÎµ
Î¿Ïģ Î¿Î¹
Î¿á½» Î»ÎµÏħ
Î¿á½» Î»ÎµÏĦÎ¿
Î¿á½» ÏĥÎ±Î¹ÏĤ
ĠÎ´Î¹Î± á¿¤á¿¥
ÏĥÎ± Î¼á½³Î½Î·
ÏĥÎ± Ïĩá¿¶ÏĤ
ĠÏĢÎ¿Î¹ Î¿á½»Î¼ÎµÎ½Î¿ÏĤ
ĠÏĢÎ¿Î¹ á½³ÎµÎ¹Î½
ĠÏĢÎ¿Î¹ Î¿ÏĦá½µÏĦÏīÎ½
ĠÎ¿á½ĸ ÏĥÎ¹Î½
ÏĦÎµÏģ Îµá½·
ÏģÎ· ÏĦÎ±
ÏģÎ· Î²
ÏģÎ· Î³Î¿Ïģ
ÏģÎ· Î³á½¹
Ġá¼ĲÏĢÎ¹ Î´Î¹
Ġá¼ĲÏĢÎ¹ á¿¤á¿¥
Ġá¼ĲÎ¾ Î¿Î¼
Ġá¼ĲÎ¾ Î±Î³Î³
Ġá¼ĲÎ¾ Î±Î»Îµá½·
ÏĦÎ¹Îº á½µÎ½
ĠÏĥÏĦ Î¿Î¼
ĠÏĥÏĦ Î·ÏģÎ¹Î¶
ĠÏĥÏĦ ÎµÏĨÎ±Î½
ÎµÏħ Î¿Î½
ĠÎµá¼´ Î´Îµ
ĠÎµá¼´ ÎºÎ¿
ĠÎµá¼´ ÏģÎ·Î½ÏĦÎ±Î¹
Î±Î³ Îºá½±Î¶
ĠÏĢÎ¿ Ïĥá½¶
Î¸Ïģ Î¿Î½
Î¿Î³ Î½
Ġá¿¥ á½³Î³
Ġá¿¥ á½¶ÏĤ
ÏĥÎµ ÏĦÎµ
Ïģá½± ÏĤ
á½¹Î¼ÎµÎ½ á½¹Î½
ĠÎ¶ ÎµÏĥÏĦ
ĠÎ¶ á½»Î³
ĠÎ¶ Î·Î¼Î¹
ĠÎºÎ±ÏĦÎ± Î½
ĠÎºÎ±ÏĦÎ± ÏĦÎ±
ĠÎºÎ±ÏĦÎ± Î´Îµ
ĠÎºÎ±ÏĦÎ± ÏĢÎ¹
ĠÎºÎ±ÏĦÎ± Î²Î±á½·Î½ÎµÎ¹Î½
á½±Î» Î±ÏĤ
Î±Î» Î¼Î±
Îµá½» Î¿ÏħÏĥÎ¹
Îµá½» Î¼Î±ÏĥÎ¹
ÏģÎ¿ Î¾
ÏģÎ¿ Î´Î¹
ĠÏĥÏħÎ½ á½±Î³
ĠÏĥÏħÎ½ ÎµÎº
ĠÏĥÏħÎ½ ÎµÎ¶
ĠÏĥÏħÎ½ á½µÎ³Î±Î³ÎµÎ½
ĠÏĥÏħÎ½ ÏĦÎ±Ïģá½±
Î·ÏĦ Î¿á¿¦
Î·ÏĦ á½µÏģÎ¹Î¿Î½
Ġá¼Ī Î´
Ġá¼Ī Î½Î±
Ġá¼Ī Î¼ÏĨ
Ġá¼Ī Î»ÎµÎ¾
ÏĥÎ¼ á¿·
Ġá¼ķ Î¾ÎµÎ¹ÏĤ
á½±Î³ Î³
ÎµÎ» á½³
ÎµÎ» á½³ÏīÎ½
ĠÎ´á½³ Î¿Î¹
ĠÎ´á½³ ÎµÏĦÎ±Î¹
ĠÎ´á½³ Î»ÎµÎ±Ïģ
ĠÏĦÎ¿á½» ÏĤ
Ġá½Ħ ÏģÎ·
ĠÎµá¼¶ Î´Îµ
ÏĥÏĦÎ± ÏĦÎ¿Î½
ÏĥÏĦÎ± á¿ĸÏĤ
ÏĥÎº Ïī
Ġá¼ģ Î»Î¼
ĠÎł Î±Î»Î»
ĠÎł á½»Î¸
ĠÎł Î»ÏīÏĦ
ÏĥÏĩ Îµ
ĠÏĢÏģÎ¿Ïĥ ÎµÏħ
ĠÏĢÏģÎ¿Ïĥ ÏĢÎ¿Î¹
ĠÏĢÏģÎ¿Ïĥ ÎºÎ±ÏĦÎ±
ĠÏĢÏģÎ¿Ïĥ ÏīÏĢ
ĠÏĢÎ» Îµá¿ĸÎ¿Î½
ĠÏĢÎ» Î¿á¿¦ÏĦÎ¿ÏĤ
ĠÏĥÎº Îµá¿¦
ĠÏĥÎº ÎµÎ»á½³ÏīÎ½
ĠÏĦÎ¿Î¹ Î¿Ïħ
ĠÎ±á¼± ÏģÎµ
ÏĦÏģ ÎµÏĨ
ÏĦÏģ á½³Ïĩ
ÎµÎ¹Î´ á½°Î½
Ġá¼ĢÎ½ÏĦÎ¹ ÏĦ
Ġá¼ĢÎ½ÏĦÎ¹ ÏĢ
Ġá¼ĢÎ½ÏĦÎ¹ Î»á½³Î³
Ġá¼ĢÎ½ÏĦÎ¹ ÏĦÎµÏĦÎ±Î³
Ġá¼ĢÎ½ÏĦÎ¹ ÏĦá½·Î¸Î·ÏĥÎ¹
Î¸Îµ ÏĦÎ¿ÏĤ
Î¸Îµ ÏĥÎ±Î½
ĠÏĢÎµÏģÎ¹ Îµ
ĠÏĢÎµÏģÎ¹ Î»Î±Î¼Î²á½±Î½ÎµÎ¹
á½µÎ½ á¿ĥ
Î·Îº Î¿
Î·Îº á½¸ÏĤ
Ġá¼ĲÎ³ Î½
Ġá¼ħ ÏĦÎ¹Î½Î±
Î´Î· Î»Î¿ÏĤ
Ġá¼ĢÎº á½±
Î´Î± ÏĨÎ¿ÏĤ
ĠÎ¼Î· Ïĩá½±Î½
ĠÎ¼Î· Ïģá¿¶Î½
ĠÎ¼Î· Ïģá¿·
ÏĢÎ± á½»
ÏĢÎ± ÏĥÏĦÎ±
ÏĢÎ± ÏģÎµ
ÏĢÎ± ÏģÎ¿Î¾
ĠÎ¿á½Ķ Ïĥá¿ĥ
á½»Î½ ÎµÎ¹
á½±Î¶ Î¿ÏħÏĥÎ¹
á½±Î¶ Î¿ÏħÏĥÎ±
ĠÎ¸Îµ á½¸Î½
Î¸ÎµÎ½ ÏĦÎ¿
Ġá¼ĢÎ½Î± ÏĦÎµ
Ġá¼ĢÎ½Î± ÏĥÎºÎµÏħ
Ġá¼ĢÎ½Î± ÏĢÎ½
Ġá¼ĢÎ½Î± ÏĥÏĦá½±ÏĥÎµÏīÏĤ
Ġá¼ĢÎ½Î± Î²Î±á½·Î½ÎµÎ¹Î½
ĠÎºÎ±Î» Î¿á¿¦Î¼ÎµÎ½
ĠÎºÎ±Î» Î¿á½»Î¼ÎµÎ½Î±
ĠÎ´Î¹Î±ÏĨ ÏīÎ½
ĠÎ´Î¹Î±ÏĨ Î¸Îµá½·
ĠÎ³ÎµÎ½ Î½Î±
ĠÏĦÏģ á½½
ĠÏĦÏģ ÎµÏĨ
ĠÎ¼ÎµÏĦÎ± Î¸á½³ÏĥÎµÏīÏĤ
ĠÎ¼ÎµÏĦÎ± Î¾á½»
ĠÎºÎ±ÏĦ á½¹ÏģÎ¸
ÎµÎ¹Î´á½´ ÏĤ
á½»Î» Î¿ÏĤ
Î¼Î¹ Î»Î»
Ġá¼ĢÏģÏĩ Î¹
ÏħÎ³ ÎµÎ½
ÏħÎ³ ÏĩÎ±Î½
Ġá½ĢÎ½ ÎµÎ¹
Ġá½ĢÎ½ Î¿Î¼
Ġá¼ĶÎ½ Î½
Ġá¼ĶÎ½ Î¹
Ġá¼ĶÎ½ Î±Î¹Î¼Î¿Î½
ÎµÎ² Î¿á½»Î»ÎµÏħ
Ïģá½³ ÏīÎ½
Ġá½ķ ÏĥÏĦÎµÏģÎ±
ĠÎ²Î± ÏĢ
ĠÎ²Î± Î»Î»
ĠÎºÎ¿Î¹Î½ á½µ
ĠÎºÎ¿Î¹Î½ á¿¶ÏĤ
ĠÎ´Îµ Î¾Î±
ĠÏĨÎ± á½»
ĠÏĨÎ± á¿¦Î»Î¿Î½
Î¿Î»Î¿Î³ Îµá¿ĸ
Î´Î¿ ÏĥÎ¹Î½
á¿ĸÎ½ Î¹
ĠÏĥÏĨ á¿¶Î½
ĠÏĥÏĨ Î±Îº
ĠÎ¼á½³ ÏĦÏī
á½µÎ¼ Î·
á½µÎ¼ ÎµÏģÎ¿Î½
á½µÎ¼ ÎµÏģÎ¿ÏĤ
ÏħÎº Îµ
Ġá¼ł Î¾á½·
Î¾Î¹ Î¿Î½
Î¾Î¹ Î¿ÏĤ
ÏīÏģ Î¿ÏĤ
ĠÎ»Î± ÏĦÏģ
Î·Ïģ á½¸Î½
ÎµÏĩ ÎµÎ¹
á½·Î¶ Î¿Î½ÏĦÎ±
á½·Î¶ Î¿Î½ÏĦÎ±Î¹
á½·Î¶ Î¿Î½ÏĦÎ¿ÏĤ
ĠÏĢÏģá½±Î³ Î¼Î±ÏĦá½±
Ġá¼ĦÏģ Î½Î·
ÎºÎµÎ¹ ÏĦÎ¿
Î²Î± ÏĥÎ¹ÏĤ
á½µÎ» Ïħ
ĠÏĦÏģá½· ÏĦÎ·
ĠÏĦÏģá½· Î¼ÎµÏĦÏģÎ¿Î½
Ġá¼¥ Î½ÏĦÎ¹Î½Î±
ĠÎ´á½· ÎºÎ±ÏĤ
ÎºÎµ ÏĦá¿¶Î½
ĠÎºÎ±Îº á½·Î±ÏĤ
Î»ÎµÏħ ÏĦá½µ
á½¹ÏĢ Î¿Î¹
Ġá½ħÏģ Î¿Î¹ÏĤ
ĠÎ§ ÎµÏģ
ĠÎ§ Î±Î¹Ïģ
Î¹Ïĥ Î¼Î±
á¾· ÏĤ
ĠÎ¶Î·ÏĦ á½µÏĥÎµÎ¹ÏĤ
Ġá½ĳÏĢÎ¿Îº Îµá¿ĸÏĥÎ¸Î±Î¹
ĠÎ³Î½ á¿¶Î¼ÎµÎ½
ĠÏĦá½³ Î»Î·
ĠÏĦá½³ ÎºÏĦÎ¿Î½
Î´á½³ ÏĥÎ¸Î±Î¹
Ġá¼°ÏĥÏĩ Î½
Ġá¼°ÏĥÏĩ á½·ÏīÎ½
Ġá¼¸ Î¿á½»Î´Î±
ÎºÎ»Î· ÏģÎ¿Î½
ĠÏĢá½±Ïĥ ÏĩÎµÎ¹
Ġá¼ĢÎ½Î±Î³ ÏīÎ³
Ġá½ł Î»Î¹ÏĥÎ¸
Î´Î¹Îº Î¿Î½
á½ħ ÏĦÎµ
á½ħ ÏĥÎ¿Î¹
ĠÏĨÏħ Î¼á½±ÏĦÏīÎ½
Î½á½· ÏĦÏĦÎµÏĦÎ±Î¹
Ġá¼ĲÎ¼ÏĢ Î¿Î´á½·
ĠÎ¿á¼°Îº Îµá½·ÏīÏĤ
ĠÎ¿á¼°Îº Î¿ÏħÎ¼á½³Î½Î·Î½
Î¿á½Ĳ Î´Îµ
ĠÏĨÏīÎ½ Î±á½·
ĠÎ´Î¿Îº Î¿á¿¦ÏĥÎ¹Î½
ĠÎ´Î¿Îº Î¹Î¼á½±
ĠÏĢÏģÎ¿ÏĨ Î¿Ïģ
ĠÏĦÏģÎ¹ Î³
ÏĦÏĦÎ¿Î½ ÏĦÎ±
ÏīÏģá½· Î±ÏĤ
ÏīÏģá½· Î·Î½
ĠÎ½Î¿ Îµá¿ĸÏĦÎ±Î¹
Ġá¼ĢÏģ ÏĦÎ¹
Ġá¼ĢÏģ ÏĦá½»
á½±Î¼ á¿³
ĠÏĢÏģÎ¿Ïĥá½½ÏĢ á¿³
ĠÎºÎ±ÏĦÎ±ÏĥÎºÎµÏħ á½±ÏĥÎ±Î¹
ĠÏĪÏħÏĩ Ïģá½¸Î½
ĠÏĪÏħÏĩ Ïģá½¸ÏĤ
Ġá¼ĢÎ½ÏĦá½· ÎºÎµÎ¹Î½ÏĦÎ±Î¹
Ġá¼¤Î³ Î±Î³
Ġá¼ĲÎ¼ á½³
ĠÎ§ÏģÎ¹ÏĥÏĦ á½¹Î½
á½³ÏĥÏĦ ÎµÏģÎ±
ÏĨÎ± á½·Î½ÎµÏĦÎ±Î¹
ÏĦá½µ ÏĤ
ÏĦá½µ Î³
á½±ÏģÏĩ ÎµÎ¹
ĠÏĥÏħÎ¼Î²ÎµÎ²Î·Îº á½¹ÏĥÎ¹
ĠÎ²ÏģÎ±Ïĩ Îµá½·Î±ÏĤ
ĠÎ²ÏģÎ±Ïĩ Îµá¿ĸÎ±
ĠÏĥÏĦÎ¿ÏĩÎ±ÏĥÎ¼ Î¿á½¶
ĠÏĩÏģÎ· Ïĥá½·
ĠÏĩÏģÎ· Î¼Î±ÏĦÎ¹
ĠÏĩÏģÎ· ÏĥÎ¹Î¼
ĠÎ¼á½±Î» Î¹ÏĥÏĦ
ĠÎ¼á½±Î» Î¹ÏĥÎ¸
ĠÏĢá½± Î¸ÎµÏĥÎ¹Î½
ĠÎ¼Ïħ Ïĥá½¶Î½
ĠÎ¸ÎµÏģ á½±
Ġá¼ģÎ³ á½·Î±ÏĤ
ĠÏĢá½¹Î»Îµ Î¼Î¿ÏĤ
Ġá½ĳÏĢÎµÏģ ÎµÏĢ
Ġá¼ĢÎ½á½±Î³ ÎµÎ¹Î½
ĠÏĥÏĦÏģÎ± ÏĦÎµÏħ
ÏģÏī ÏĥÎ¹
ĠÎµá¼°ÏģÎ· Î¼á½³Î½Î±ÏĤ
ĠÎ´á¿Ĩ Î»á½¹Î½
Ġá½ĳÎ³ Ïģá½¸Î½
ĠÎĽ Ïħ
ĠÏĢÎ½ ÏħÎº
Ġá¼ĲÏĢá½· ÏĥÎ·ÏĤ
Ġá¼ĲÏĢá½· ÏĢÎ±Î½
Ġá¼ĳÎºá½± ÏĦÎµÏģÎ±
Ġá¼ĳÎºá½± ÏĦÎµÏģÎ¿ÏĤ
ÎºÎ±Î» Î¿á¿¦ÏĥÎ¹
ĠÎ´Îµá½· Î¾ÎµÎ¹
á½µÏĥÏī ÏĥÎ¹Î½
ÏĨÎ¿Ïģ Î¿ÏĤ
Ġá½ĢÎ»á½·Î³ Î¿Ïħ
Ġá½ĢÎ»á½·Î³ ÏīÎ½
Ġá½ĢÎ»á½·Î³ Î¿Î¹ÏĥÎ¹
ĠÎ»ÎµÏħÎº Î¿á¿ĸÏĤ
Ġá¼ĢÎ»Î·Î¸ Îµá½·Î±ÏĤ
Ġá¼ĢÎ»Î·Î¸ Îµá½»ÎµÎ¹
ÏĥÏĦÎµ Î»Î»
ĠÎ»ÎµÎ³ Î¿Î¼á½³Î½Î·
ĠÎ»Î¿Î¹ÏĢ á½±
ĠÎ´Î·Î» Î¿á¿¦ÏĥÎ¹
ĠÎ½Î± á½·
ĠÎ½Î± á½¸ÏĤ
ĠÎ»á½³ Î¾ÎµÏīÎ½
ĠÏĩá½½ Ïģá¾³
ĠÎºÎ¹Î½ Î´á½»Î½
ĠÎºÎ¹Î½ á½µÏĥÎµÏīÎ½
ĠÏĥÏħÎ³ ÎºÎ±ÏĦÎ±
Ġá½ĳÏĢá½±ÏģÏĩ Î¿Î½ÏĦÎ±
Ġá¼ĢÎ³Î±Î¸ á½¸ÏĤ
ĠÎºÎ±ÏĦÎ·Î³Î¿Ïģ á¿¶Î½
Ġá¼ĢÏĢÎ¿Îº ÎµÎº
Ġá¼ĢÏĢÎ¿Îº á½µÏģÏħÎº
Î·Ïĥ á½±Î½ÏĦÏīÎ½
ĠÎºá½±ÏĦÏī Î¸ÎµÎ½
Ġá½ħÎ» Î¿ÏĤ
ÏĦá½¹ ÏĦÎ¿
ĠÎķ á¼°
Ġá¼ĶÎ¼ÏĢ Î¿ÏģÎ¿Î¹
Ġá¼ĲÏģ Îµá¿ĸÎ½
Ġá¼ĢÎ¼ á½³Î»Î³
Ġá¼ĢÎ¼ ÏħÎ´Ïģ
ĠÎµá¼°ÏĥÎ¹ á½¹Î½ÏĦÏīÎ½
ĠÏĥá½» ÏĥÏĦÎ·Î¼Î±
á½¹Î´ Î¿ÏħÏĤ
ĠÏĦÎ¿Î¹Î¿á½» ÏĦÎ¿ÏħÏĤ
ĠÏĢÎ±Î¹ Î´Îµá½·
ĠÏĥÏħÎ½ÎµÏĩ á¿Ĩ
ĠÏĥÏħÎ½ÎµÏĩ á½µÏĤ
ÏĨÎ¸ Î±Î¹
ÏĨÎ¸ á¿ĩ
Ġá¼ĳÎºá½±ÏĥÏĦ Î¿Î¹ÏĤ
á½µÏģ ÏĦÎ·Î½
Ġá¼ĳÎ±ÏħÏĦ á¿ĩ
ĠÎºÎ±Î¹ ÏģÎ¿á½ºÏĤ
Ġá¼ĲÎ³Îº ÎµÎºÎ»Î¹
ĠÏĥÏĦÏģÎ±ÏĦÎ·Î³ Îµá¿ĸÎ½
ĠÏĥÏĦÏģÎ±ÏĦÎ·Î³ Î¿á½·
Ġá¼ĲÎºÎºÎ»Î· Ïĥá½·Î±
ĠÏĦÎ¿Î¹Î±á½» ÏĦÎ±Î¹ÏĤ
ĠÏĢÎ¹ ÏĢÏģ
ĠÏĦá½» ÏĢÏĦÏīÎ½
ÏĩÎµÎ¹ Ïģá½·
ĠÎķá½Ĳ Îº
Ġá¼ĲÎ¾Î¿Ïħ Ïĥá½·Î±ÏĤ
ĠÎ²Î¿ÏħÎ» á¿ĨÏĤ
Ġá¼ĢÏģÎ¹Î¸Î¼ á½¹Î½
ĠÎ¼Î¿Î½ á½°ÏĤ
ĠÎ´Î¹Î±Î¹Ïģ Î¿á½»Î¼ÎµÎ½Î¿Î½
ĠÏĦÎ¹Î¼ á½·á¿³
ĠÎ´Î±Îº ÏĦá½»
ĠÎ´ÏħÎ½Î± Î¼á½³Î½Î¿Ïħ
Ġá¼ĲÎºÎµá¿ĸ ÏĥÎµ
Ġá½ĢÏĥÏĦ ÏģÎ±Îº
ĠÏĢÎ±Ïģá½± Î´Î¿Î¾
ĠÏĦÎµÏĦ ÏģÎ±ÏĢ
Ġá¼ĢÎ½ÏĦÎ¹ÏĥÏĦ á½±ÏĥÎµÎ¹
ĠÎ±á¼´ ÏĦÎ¹Î±
Ġá¼ĲÎºÎµá¿ĸÎ½ Î¿Î¹
Ġá¼ĢÏģÎ¹ÏĥÏĦ Îµá½ºÏĤ
Ġá¼ĢÏĢÎ¿Î»Î¿Î³ Î¿á½»Î¼ÎµÎ½Î¿ÏĤ
Ġá¼ĶÎº ÏĢ
ĠÎ´ÏħÎ½á½±Î¼ ÎµÎ¹ÏĤ
ĠÎ¦ Î¹Î»
ĠÎ¦ Î¿ÏģÎ¼á½·ÏīÎ½
ĠÏĥÎ·Î¼Î± á½·Î½Î¿ÏħÏĥÎ¹
ĠÎ´Î¹ÏĢÎ» á¿ĨÏĤ
Î¿ÏģÎ± á¿ĸÏĤ
ĠÎ³ÏģÎ±ÏĨ á½µ
Î±ÏĢ Î»Î±
á½·Î³Î½ ÎµÏĦÎ±Î¹
ĠÎºÎ¿Î¹Î½ÏīÎ½ Î¿á¿¦ÏĥÎ¹
Ġá¼© Ïģá½½
ĠÎ¼Î±Îº Ïģá½°Î½
ĠÎºÎ±Î¸Î± Ïģá½¹Î½
ĠÎºÎ±Î¸Î± Ïģá½°
ĠÏĢÎ±Î»Î±Î¹ ÏĥÏĦ
ĠÏĢÎ±Î»Î±Î¹ á¿¶Î½
ĠÎ¸Ïģá½¹Î½ á¿³
ĠÎºÎµÏĨÎ±Î»Î± á½¶
Ġá¼ĲÏģÎ³ á½±ÏĥÎ±ÏĥÎ¸Î±Î¹
ĠÎ´ÎµÎ¹ Î»
ĠÎ³Î¹Î½ Î¿Î¼á½³Î½ÏīÎ½
Ġá½ĳÏĨ á½³ÏĥÏĦÎ·ÎºÎµ
Îł Î¿Î¹
Îł ÏģÎ¿Ïĥ
Ïģá½¹ Î´Î¿
á½³Î² Î±Î»
Ġá¼ĦÎ³ Î±Î»Î¼Î±
Ġá¼±ÏĥÏĦ Î¿ÏģÎµá¿ĸ
Ġá¼ĢÎ´Î¹Îº á¿ĨÏĥÎ±Î¹
Î¼á½³Î½Î¿Î¹ ÏĥÎ¹Î½
Ġá¼µÏĢÏĢ Î¿ÏħÏĤ
Ġá¼ĢÎºÎ± Î¸á½±Ïģ
ĠÎ»Î±Î¼Î²á½±Î½ ÎµÏĦÎ±Î¹
ĠÎ»Î±Î¼Î²á½±Î½ Î¿ÏħÏĥÎ¹
á½½ÏĦÎ± ÏĦÎµ
ĠÎ¤ Î¹
Ġá½ĳÎ³Î¹ á½³Î±
ĠÎ´Ïħ Î¿á¿ĸÎ½
ĠÎ´Ïħ ÏĥÎµÎ½ÏĦÎµÏģ
Ġá¼ĢÏĢÎ± ÏĦÎ·
ĠÏĢÎ±ÏĦ ÏģÎ¹
ĠÎ´ÎµÎ¾Î¹ á½°Î½
ĠÎ´Î¹ÎºÎ±ÏĥÏĦ á¿¶Î½
ĠÏĩÏģÎ·ÏĥÎ¼ á½¸Î½
ĠÏĩÏģÎ·ÏĥÎ¼ Î¿á½ºÏĤ
ĠÏĢÎ¿Ïģ ÏĨá½»
ĠÏĢÎ¿Ïģ ÏĨÏħÏģ
ĠÏĦá½¹ÏĢ ÏīÎ½
ĠÏĦá½¹ÏĢ Î¿ÏħÏĤ
ĠÏĢÎµÏĢÎ¿Î¹ ÏīÎ¼á½³Î½Î¿Î½
Ġá½ĳÏĢÎ¿Î³ÏģÎ±ÏĨ á¿ĨÏĤ
Ġá¼ģÏģÎ¼á½¹ Î¶
ĠÏĥÎ¿ÏĨ á½½ÏĦÎ±ÏĦÎ¿ÏĤ
ĠÎ¼ÎµÎ¸ á½¹Î´Î¿Ïħ
ĠÎ¼ÎµÎ¸ á½¹Î´á¿³
ĠÏĦÎµÏĩÎ½Î¹Îº Î¿á¿¦
á¼Ī ÏĢ
Ġá¼ĲÏĢÎ¿á½·Î· ÏĥÎ±Î½
ĠÎ½Î¹Îº á½µÏĥÏī
ĠÎ½Î¹Îº á½µÏĥÎ±ÏĤ
ĠÎ¼Î¿Î¹Ïĩ á½¸ÏĤ
Ġá¼ĺ Îº
ĠÎºÎ±ÏĦá½³ ÏĨ
ĠÎºÎ±ÏĦá½³ ÏĥÏĦ
Î´Îµá¿ĸ Î¾Î±Î¹
ĠÎºÎ¿ ÏĥÎº
ĠÏĢÎ»Î± ÏĦá½³
Ġá¼ĲÏĢÎ±Î½ Î±
Ġá¼ĲÏĢÎ±Î½ Î±ÏĢÎ±
Î¿á½Ĺ ÏĦÎ¿á½·
Ġá¼ĢÎ½Î¸ Î¿Ïģá½·
ĠÏĥÏħÎ½Î± Îº
ĠÏĥÏħÎ½Î± Î¼ÏĨ
ĠÏĢÎ±Ïģá½³Ïĩ Î¿Î½ÏĦÎ±
á½±ÏĥÎ± ÏĦÎ¿
Ġá½¤ Î¼Î¿Ïħ
Ġá¼ĢÏģÎµ ÏĦá¿ĩ
Ġá½ģÏĢ Î¿á¿ĸÎ¿Î½
ÎºÎ¹ Î¼Î¿Î½
ÏīÏģÎ¹Ïĥ Î¼á½³Î½Î¿Î½
ĠÏĢÎµá½· Ïģá¾³
Ġá¼ĢÎ½Î´Ïģ á½¶
ĠÏĪÎµÏħÎ´ Î¿ÏĢÏģÎ¿ÏĨ
ĠÎ³ÏħÎ½Î±á¿ĸ ÎºÎ±ÏĤ
ĠÎĵ ÏģÎ·Î³á½¹
Ġá¼ĢÏĢÎ¿Î» Îµá½·
ĠÏĢÎµÏĢÏģÎ±Î³ Î¼á½³Î½á¿³
Î¼Î· ÏģÎ¹Îº
ĠÎ»á½±Î² ÏģÏīÏĤ
Ġá¼ĲÏĩÎ¸Ïģ Î¿á½ºÏĤ
Ġá¼ĲÏĩÎ¸Ïģ Î¿á½¶
ĠÎĳá¼° Î³
ĠÏĥÏħÎ¼Î²Î± ÏĥÎ¹
ĠÎºÎ» Îµá¿ĸÎ½
ĠÎºÎ» Îµá¿ĸÏĥÎ±Î¹
ĠÏĨá½· Î»Î¿Î½
ĠÏĨá½· Î»Î¿ÏħÏĤ
Ġá¼ĢÎ½Î±Î¹ ÏĥÏĩÏħÎ½
ĠÏĩÎ¹ Î»á½·Î±ÏĤ
Î¿Î»Î¿Ïħ Î¸
ĠÎ²Î¿ á½µ
Ġá¼±ÎºÎ±Î½ á½¸Î½
ĠÎºÎ±ÏĦÎ¿ÏģÎ¸ ÏīÎ¼á½±ÏĦÏīÎ½
Ġá½ĳÏĢá½¹ ÏĥÏĦÎ±ÏĥÎ¹Î½
ĠÏĢÎ¿ÏĦÎ±Î¼ Î¿á½¶
ÎµÎ»Î¸ á½¹Î½ÏĦÎ¿ÏĤ
ĠÎ³ÎµÎ½Î¹Îº á¿ĨÏĤ
Î¼Î±ÏĦá½· Î¿Î¹ÏĤ
ĠÎ½á½³ Î¿ÏĤ
Ġá¼ĢÏĢÎ¿Î´Îµá½· Î¾ÎµÏīÎ½
ĠÎ´ÏħÎ½á½± Î¼ÎµÎ¸Î±
ĠÎ³ÏģÎ±Î¼Î¼Î±ÏĦÎ¹Îº á½µ
ĠÎºÎ¿Ïģ ÏħÏĨ
ĠÎ»ÎµÏĢ ÏĦ
ĠÎ±á½Ķ Î¾ÎµÎ¹
ĠÎ¼ÎµÏĦÎ±ÏĨÎ¿Ïģ á¾·
ĠÏĦÎµÎ»ÎµÏħÏĦÎ± á½·Î±Î½
Ġá¼ĢÎ´ á½µÎ»Î¿Ïħ
ĠÏĩÏģá½µÏĥÎ¹ Î¼Î¿ÏĤ
ĠÎ´ÎµÏĥÎ¼ Î¿á¿ĸÏĤ
Ġá¼ħÏĢÎ± ÏĥÎ¹Î½
Ġá¼ħÏĢÎ± ÏĥÎ±Î½
Ġá¼ĲÎ»Î± á½·Î¿Ïħ
Ġá¼ĲÎ»Î± Ïĩá½·ÏĥÏĦ
ĠÎ¼ÎµÏĦÎµ Ïī
ĠÏĢÎµÏģÎ¹á½³Ïĩ Î¿Î½ÏĦÎ¿ÏĤ
Î´á½¹Î½ Î±Î¹
ĠÏĨÏħÎ³ á½±Î´Î±ÏĤ
ĠÎ²á½· Î¿ÏĤ
Ġá¼ĲÎ¼Î²Î¿Î» á½´Î½
ĠÏĥÏħÎ³Îº ÎµÎº
ĠÏĢÎ¿ÏģÎ½ Îµá½»
ÏĢÏģ á½¸
ĠÏĥÎ·Î¼Î±Î¹Î½ Î¿ÏħÏĥá¿¶Î½
Ġá½ĢÏĢÏĦÎ± Ïĥá½·Î±ÏĤ
Ġá¼ĲÎ² Î¿á½µÎ¸Î·
Ġá¼ĢÎ½ÏĦÎ¹Î¸Îµ ÏĦÎ¹ÎºÎ±á½¶
Ġá¼ĢÎ½ÏĦÎ¹Î¸Îµ ÏĦÎ¹Îºá½°ÏĤ
ĠÏĢÎ±Î½ÏĦÎ± Ïĩá½¹Î¸ÎµÎ½
ĠÏĩÎµÎ¹ Î¼á¿¶Î½
Ġá¼°Î´Î¹ á½¹ÏĦÎ·ÏĦÎ¿ÏĤ
ĠÎ¸ÎµÏīÏģá½· Î±Î½
ĠÎ¸ÎµÏīÏģá½· Î±ÏĤ
ĠÎ¼á½³Î»Î±Î½ Î¿ÏĤ
ĠÎ´Î¹Î´Î±ÏĥÎºÎ± Î»á½·Î±
Ġá½ĢÏĨÎ¸Î±Î»Î¼ Î¿á½ºÏĤ
Ġá½ĢÏĨÎ¸Î±Î»Î¼ Î¿á½¶
Î¿Î´ Î¿Î¼
ÏĥÏĨÎ±Î» ÏĥÎ¹Î½
ĠÏĢÎ»Îµá½·ÏĥÏĦ Î¿Ïħ
Ġá¼ĢÏĥá½»ÏĥÏĦÎ± ÏĦá½¹Î½
ĠÎ´Î¿á½»Î» Î¿Ïħ
ĠÎ´Î¿á½»Î» Î¿Î¹ÏĤ
ĠÏĢÎ±Ïĩ á½»
Ġá¼ĳÏģÎ¼Î·Î½ Îµá½»ÎµÏĦÎ±Î¹
ĠÎ¸ÎµÏīÏģ Î¿á¿¦Î½ÏĦÎ±Î¹
ĠÏĥÏĩá½³ ÏĥÎµÏīÏĤ
ĠÎ´Î¹ÎºÎ±Î¹Î¿Ïĥá½»Î½ á¿ĥ
ĠÎ£Î±ÏĦÎ±Î½ á¾¶ÏĤ
Ġá¼¡Î³ ÎµÎ¼Î¿Î½
ĠÏĥÏīÏĦÎ·Ïģá½· Î±ÏĤ
ĠÏĦá½»Ïĩ á¿ĥ
ĠÏĢÏĦá½³Ïģ ÏħÎ³
ĠÎºÎ±Î¸Î· Î¼á½³Î½Î¿ÏħÏĤ
Ġá¼ĶÏĢÎµ ÏĥÎµÎ½
Ġá½ĢÎ¾ Îµá¿ĸÎ±
Ġá¼ĲÎ¾Î±ÏģÎ¸Ïģ á½µÏĥÎ±Î½ÏĦÎ±
ĠÎ³ÎµÎ³ÎµÎ½ á¿ĨÏĥÎ¸Î±Î¹
Îķ á¼´
ĠÎºá½»ÏģÎ¹ Î¿ÏĤ
ĠÏĢÎµÎ½ ÏĦÎ±
ĠÏĢÏĦÎµÏģ á½¸Î½
ĠÏĢÏģÎ¿Î²Î¿Î» á¿ĩ
Ġá¼ĢÎºÎ¿Î»Î¿Ïħ Î¸Îµá¿ĸ
ĠÎ²ÏħÏģÏĥ Î¿ÏĢá½½Î»Î·ÏĤ
ĠÎ¼Î±Î½ á½¸Î½
Ġá¼¦Î» Î¸Îµ
Ġá¼¸Î¿Ïħ Î´Î±
Ġá¼¸Î·Ïĥ Î¿á¿¦ÏĤ
ĠÎµá½ĲÎ±Î³Î³ÎµÎ»Î¹ÏĥÏĦ á½´ÏĤ
ĠÎºÎ»á½³ÏĢ ÏĦÏīÎ½
ĠÎ· Í´
ĠÎºÎµÏģ Î´Î±
ĠÎ³Î¹Î³Î½ á½¹Î¼ÎµÎ½Î¿Î½
Ġá¼ĢÎ½Î±Îº ÎµÎºÎ»Î¹
Ġá¼ĲÎºÎº Ïģá½·Î½
ĠÎµá½ĳÏģ á½¼Î½
Ġá¼ĢÎ´ÏħÎ½Î± Î¼á½·Î±ÏĤ
ÏĢÏĦÎ¿Î½ ÏĦÎ±
ĠÏĢÎµ Î¶
ĠÏĢÎµ ÏĢÎµÏģÎ±Ïĥ
Ġá¼ĳÏĦÎµÏģ ÏīÎ½á½»Î¼ÏīÏĤ
Î±Î¼ Î¿
ĠÎºÏģÎµ Î¼Î±
Ġá¼ĢÏĥÏĢ á½·Î´ÏīÎ½
ÏĨÏħ ÏĥÎ¹Î½
ĠÎºÎ¿Î¼ á¾¶Î½
ÏħÏĥÏĦ ÏģÎ¿Î½
Ġá½Ī Î»ÏħÎ½
Ġá¼ĢÏģÎ³ á¿¶ÏĤ
Ġá¼ĢÏģÎ³ á½»ÏģÎ¹Î¿Î½
Ġá¼ĢÏĢÎµÎº ÏĦá½±Î½
ĠÏĢÏģÎ¿ÏĥÎ± Î³
ĠÏĥÏħÎºÎ¿ÏĨ Î±Î½ÏĦá½·
ĠÎ»Ïħ Î¸á¿ĨÎ½Î±Î¹
ĠÏĢÎ±ÏģÎ¿Ïħ Ïĥá½·Î±Î½
ĠÏĢÎ±ÏģÎ±ÏĢ ÏģÎµÏĥÎ²
ĠÎ´Î¹Î±Î¹ÏģÎµ Î¸á¿ĨÎ½Î±Î¹
ĠÎĿÎ¹Îº á½·Î±Î½
Ġá¼¸Ïīá½±Î½Î½ á¿ĥ
Ġá¼ĢÎºÎ¿Ïħ ÏĥÏĦá½³Î¿Î½
Ġá¼ĶÏĢ ÏģÎ±
Ġá¼ĶÏĢ Î±Î¹Î½Î¿Î½
ĠÏĢÏģÎ¿Î·Î³ Îµá¿ĸÏĥÎ¸Î±Î¹
ĠÏĥÏħÎ¼Î²Î¿ÏħÎ»Îµá½» ÏīÎ½
Ġá¼ĪÏĦÏĦÎ¹Îº Î¿á½¶
ĠÎ²Î»á½±Î² Î·Î½
Ġá¼ĲÏĢÎ¿Î¹ á½µÏĥÎ±ÏĦÎ¿
ĠÎłÎµÏģÎ¹Îº Î»á½³Î¿ÏħÏĤ
ĠÏĦÏģÎ¿ÏĩÎ± ÏĬ
ĠÏĢÎ·Î´ Î±Î»
Ġá¼ĢÏĥÏĨÎ±Î» á¿¶ÏĤ
ĠÏĢÎ¿Î¹Îºá½· Î»ÏīÏĤ
ĠÎłÎ»Î± ÏĦÎ±Î¹
ĠÎ±á¼°Î´ Î¿á¿¦ÏĤ
ĠÎµá½ĲÎµÏģÎ³Îµ ÏĦ
ĠÎºÎ±ÏĦÎ¿Î¹Îº Î¿á¿¦Î½ÏĦÎ±ÏĤ
Î´á½± ÏģÎ¹Î¿Î½
ĠÏĨÎ»Îµ Î³Î¼Î±
ÏĥÎ¸Ïī ÏĥÎ±Î½
ĠÏĩÎ±Î»Î± Ïģá½¸Î½
ĠÎ³á½³Î½ÎµÎ¹ Î¿Î½
ĠÏĦÎ¹Î¼ÏīÏģá½· Î±
ĠÏĦÏģá½± Ïĩ
Î¼Î¹Îº á½»Î¸
ĠÎ´Î¿Î¾ Î¿Î»Î¿Î³
Ġá½ĢÏĨÎµá½· Î»
ĠÏĢÏģÏħÏĦÎ±Î½ Îµá¿ĸÎ¿Î½
ĠÏĥá½· ÏĦÎ¿Ïħ
ĠÏĨá½±Ïģ ÏħÎ³
ĠÎ¼Î¹ÎºÏģ á½°Î½
ĠÎµá½ĳÏģÎµ Î¸Îµá½·Î·
ĠÎ´Î¹ÎºÎ±ÏĥÏĦÎ·Ïģá½· Î¿Ïħ
ĠÏĥÏħÎ¼Î²Î¿ÏħÎ»ÎµÏħ ÏĦÎ¹ÎºÎ¿á¿¦
ĠÏĦÎµá½· ÏĩÎ¿ÏħÏĤ
Ġá¼ĲÎ½Î¸ÏħÎ¼ á½µÎ¼Î±ÏĦÎ±
Ġá½ĳÎ³Ïģ á½¹ÏĦÎ·ÏĦÎ±
ĠÎłÎ½Îµá½» Î¼Î±ÏĦÎ¹
Ġá¼ĢÏĦÎµ Î»ÎµÏħÏĦá½µ
Ġá¿¥Ïħ ÏĢÎ±Ïģ
Ġá¿¥á½·Î¶ Î±Î½
ĠÎºÎ±Î»Î¿ÏħÎ¼á½³Î½ Î·
ĠÎ³Î¹Î½á½½ÏĥÎº ÎµÎ¹Î½
ÎĶÎ¹ á½°
ĠÎ´Î¹ÎµÎ» á½³Î³
Ġá¼ĢÎ½Î±á½· Î´ÎµÎ¹Î±Î½
Ġá¼ĢÎ½á½³Î¼ Î¿Ïħ
Ġá¼ĲÎºá½±Î»Îµ ÏĥÎµ
ĠÎ¼ÎµÏĦÎ±Î½ á½¹Î·ÏĥÎ¿Î½
ĠÏĩÏģÏī Î¼á½±ÏĦÏīÎ½
ĠÏĩÏģÏī Î¼á½³Î½Î¿Ïħ
ĠÎµá½ĲÎ½ Î¿á¿¦
ĠÎ¾ÏħÎ¼ÏĨ á½³ÏģÎµÎ¹
Ġá¼ĢÎ½Î±Î¹ÏģÎµ Î¸á½³Î½ÏĦÎ¿ÏĤ
Ġá¼ģÏģÏĢ á½±Î¶ÎµÎ¹Î½
ĠÏĦÏģÎ¿ÏĩÎ±ÏĬÎº á½¸Î½
Î¿ÏĦá½± ÏĦÎ¿Ïħ
ĠÏĦá½³Î½ Î¿Î½ÏĦÎ±
Ġá½ĢÎ¸Î¿Î½ á½·ÏīÎ½
Î¼ÎµÎ»Î» Îµ
Ġá¼ĲÎ¼ÏĢÎµÎ¹ Ïģá½·Î±
ĠÏĥÏħÎ¼ÏĢÎµÏĢÎ»ÎµÎ³ Î¼á½³Î½Î±
ĠÎºÎ±ÏĦÎ±Î»Î·ÎºÏĦÎ¹Îº Î¿á½·
ĠÏĦÎµá½·Î½ ÎµÏĥÎ¸Î±Î¹
Ġá¼ĲÎ´Îµá½· Î¾Î±Î¼ÎµÎ½
ĠÏĢÏģÎ¿Ïĭ ÏĨ
Ġá¼ĲÏĢÎ¹Î´ Î·Î¼
Ġá¾Ħ Î´
ĠÎºÏģÎµá½· ÏĦÏĦÎ¿Î½Î±
Ġá¼°Ïĥá½±Î¶ Î¿Î½
Ġá¼°Ïĥá½±Î¶ Î¿Î½ÏĦÎ±
ĠÏĩÎ¹Î»Î¹ á½±Î´Î±ÏĤ
Ġá¼ĲÎ¼Î½Î·Î¼á½¹Î½ÎµÏħ ÏĥÎµ
Ġá¼ĲÎ´á½·Î´Î± Î¾ÎµÎ½
Ġá¼ĶÎ¾Îµ ÏĥÏĦÎ¹
Ġá¼ĶÎ¾Îµ ÏĥÏĦá½·
ĠÏĦÎµÎ¸Î½ á½µ
ĠÎłÎµÎ¹ÏģÎ±Î¹ á¾¶
ĠÏĦÏģÎ¹ÏĥÎ±ÏģÎ¹ÏĥÏĦ á½³Î±
Ġá¼ĲÏĢÎ¹ÏĦÎ·Î´Îµá½· Î¿ÏħÏĤ
Ġá¼ĿÎ»Î» Î·Î½
ĠÏĦÎµÎ»Îµ ÏĥÎ¸á¿ĩ
Ġá¼ĪÎ½ ÏĦÎ¹
ĠÎ¼Î·Î´á½³ ÏĢÎ¿ÏĦÎµ
Ġá¼ĢÎ»Î·Î¸Î¹Î½ á½¹ÏĤ
ĠÏĩá½» ÏĦÏģÎ±Î½
Ġá½ĳÏĢá¿Ĩ Ïģ
Ġá½ĳÏĢá¿Ĩ ÏģÏĩ
Ġá¿¥Î¿Î¼ÏĨ Î±á½·Î±
Ġá½ĦÏģÎ½ Î¹Î¸Î¿ÏĤ
ĠÎłÎ±Î½ Î±á½·
ĠÏĪá½» ÏĩÎµÎ¹Î½
ĠÎ³ÎµÎ»Î±ÏĥÏĦ Î¹Îºá½¸Î½
ĠÎ³ÎµÎ»Î±ÏĥÏĦ Î¹Îºá½¹Î½
Ġá¼ĲÎ³Ïĩ ÎµÎ¹Ïģ
ĠÏĥÏĦÏģÎ±ÏĦÎ¹ á½½
ĠÎºá½»ÏĨ ÏīÏĥÎ¹ÏĤ
Ġá¼¤Î½Î¿Î¹ Î¾ÎµÎ½
Ġá¼ĶÏĥÏĩÎ± ÏĦÎ¿ÏĤ
Ġá¼ĶÏĥÏĩÎ± ÏĦÎ¿Î½
ĠÏĥÏĦÎ±ÏħÏģ Î¿á¿¦
ĠÎŀ ÎµÎ½
ĠÎŀ á½³ÏģÎ¾
á¼¤ Î³Î¿ÏħÎ½
ĠÎºÎ±Î»á½³ ÏĥÎ±ÏĤ
ĠÏĢÎ¿Î¹Î·Ïĥ á½±Î¼ÎµÎ½Î¿ÏĤ
Ġá¼ĲÏĢÎ¹Î¼ÎµÎ» á¿¶ÏĤ
ĠÎºÎ±ÏĦÎ±Î³Î½ Î¿á½ºÏĤ
Ġá¼ķÎ´ ÏģÎ±ÏĤ
ĠÎ£Î±Î»Î±Î¼ á¿ĸÎ½Î¹
Ġá¼ĲÏĢá½·Î´Îµ ÏĥÎ¹Î½
ĠÏĦÎ¿Î¹Î¿á½»ÏĦÎ¿Î¹ ÏĥÎ¹
ĠÏĦÏħÏģá½±Î½Î½ Î¿Ïħ
ĠÎºÏħÏģÎ¹ á½½ÏĦÎ±ÏĦÎ±
ĠÏĥÏħÎ½Î±Î½Î±Î¹Ïģ Îµá¿ĸ
Î½ÏĦÎ¹Î½Î± Î¿á¿¦Î½
Ġá¼ĲÏģÎ· Î¼á½·Î±ÏĤ
Ġá¼ĢÎ½á½¹ Î·ÏĦÎ¿Î½
á¿³Î´ á½¸ÏĤ
ĠÎºÎ±ÏĦÎ±Î½Î±Î³ Îºá½±Î¶ÎµÎ¹Î½
ĠÏĥÏħÎ½Î¸á½³ ÏĦÏīÎ½
Ġá¼ĢÏĢÎ¿Î² Î»á½³
Ġá¼ĢÎºá½·Î½ Î·ÏĦÎ±
ĠÎ²Î±ÏĥÎ¹Î»Îµ á½ºÏĤ
ĠÏĥÏĢÎ¿ÏħÎ´Î± á¿ĸÎ¿ÏĤ
Î±á¼° Î½á½·ÏĦÏĦÎµÏĦÎ±Î¹
ĠÏĥÏħÎ½ÏĦ á½¹Î¼
Ġá½ĢÏĨÏģ á½ºÎ½
Ġá¼ĢÎ½ÏĦÎµÎ³ÎºÎ»á½µ Î¼Î±ÏĦÎ¹
ĠÎ³Î»ÏħÎºá½» ÏĦÎ·ÏĤ
Ġá¼ĲÎºÎ²Î·Ïĥ á½¹Î¼ÎµÎ½Î¿Î½
ĠÎ²Î¹Î±á½· ÏīÏĤ
ÎµÏħÎ¸á½»Î½ Î¿Ïħ
ĠÏĢÏĦ á¿¶ÏĥÎ¹Î½
Ġá¼ĢÎ¸á½± Î½Î±ÏĦÎ¿ÏĤ
ĠÎ¼ÎµÎ¼Î½Î· Î¼á½³Î½Î¿Î¹ÏĤ
ĠÎ´Î¹Î±Î»Î¿Î³ Î¹ÎºÎ¿á¿ĸÏĤ
Ġá¼ĲÏĢÎ¹Î³Î½ á¿¶Î½Î±Î¹
ÏħÏģÏĥá½·Î½ Î·Î½
Ġá¼ĢÏĢÎ¿Ïĥ Î¿Î²
ĠÎºÎ¿Î¹Î»á½· Î·Î½
ĠÎ³ÎµÎ½Îµ á¿ĨÏĤ
Ġá¼ĢÏĢÎ¿ÎºÏĦÎµá½·Î½ Î±ÏĤ
ĠÏĨÎ±Î½ÏĦÎ± Ïĥá½·Î±Î½
Ġá¼©ÏģÎ±Îº Î»á½³Î¿ÏħÏĤ
ĠÏĥÏĢá½³Ïģ Î¼Î±
ĠÎ´ÏħÎ½á½±Î¼Îµ ÏīÎ½
Ġá¼°Î´Î¹á½½ ÏĦÎ·Î½
ĠÎ´á½±ÎºÏģÏħ Î¿Î½
Ġá¼ĢÎ¼Îµá½·Î² ÎµÏĥÎ¸Î±Î¹
Ġá¼ĪÎ³Î¿Ïģá½±ÎºÏģÎ¹ ÏĦÎ¿ÏĤ
ĠÎºá½½ Î»Î¿Ïħ
ĠÎ´ÎµÏģ Î¼á½±ÏĦÏīÎ½
ĠÎ´á½³Î½ Î´ÏģÎ¿Î½
Ġá¼ĢÎ¼Î¿Î¹ Î²Î±
Ġá¼ĳÏĦÎ¿Î¹ Î¼
ĠÏĦÎµÏĩ Î½á½·ÏĦÎ·ÏĤ
Ġá¼ĢÎ³á½±ÏĢ Î·Î½
ĠÎµá½ĲÎº á½¹Î»ÏīÏĤ
ÏħÎ³Î³ Î¹
ĠÏĢÎ±Î½Î¿á¿¦ ÏģÎ³Î¿Î½
ĠÏĥÎ¿ÏĨÏīÏĦá½± ÏĦá¿³
ĠÎ´Î¹Î±ÏĢÏģÎ± Î¾á½±Î¼ÎµÎ½Î¿ÏĤ
ĠÏĦÏħÏģÎ±Î½Î½Î¿Îº ÏĦÎ¿Î½
Ġá¼ĲÏĥÏĨÎ±Î³ Î¼á½³Î½Î¿Î½
ĠÏĢá½µÏĩÎµ Î¿ÏĤ
ĠÎ¸Î½Î·ÏĦ á½¸Î½
á¼ĵ Î¾
Î¼á½±Î» Î¹ÏĥÏĦÎ±
ĠÎ³á½± Î¼Î¿Î½
Î²Î¿á½»Î» ÎµÏĦÎ±Î¹
Ġá½ĢÏģÎ½ á½³ÏīÎ½
ĠÎºÎ±ÏĦÎ±ÏĨÎ± ÏĦÎ¹Îºá¿¶ÏĤ
Ġá½ĦÏģÎ¸ Î¹Î¿Î½
ĠÎ³Î»á½½ Ïĥ
ĠÏĢÏģÎ¿ÏĥÎµÎº á½»Î½Î·ÏĥÎ±Î½
ĠÎ½ÏīÏĦÎ¹ Î±á½·Î¿Ïħ
ĠÏĦÎµÏĥÏĥÎ±ÏģÎ±Îº Î¿Î½ÏĦÎ±
ÏĢá½³Î½ ÏĦÎµ
ĠÎ¼Î¹Î½ á½»Î¸
Ġá¼ĲÎºÎ´á½³ Î¾Î±ÏĥÎ¸Î±Î¹
Ġá½ĢÏĥÏĨ á¿¦Î½
Ġá¼ĲÏĢÎ¹ÏĩÎµÎ¹ ÏģÎ·Î¼á½±ÏĦÏīÎ½
ĠÎºÎ±ÏĦÎ±ÏĦÎµÎ¹Î½ Î¿Î¼á½³Î½Î¿Ïħ
Ġá¼ĪÏģÎ¹ ÏĨÏģá½±
ĠÎ¾á½· ÏĨÎ¿ÏĤ
ĠÎ´Îµá¿¦ ÏģÎ¿
ĠÏĥÏĨá½· Î³Î³
ĠÎ¼á½³Î¼ÏĨ ÎµÏĥÎ¸Î±Î¹
Ġá¼łÏĢ Îµá½·
ĠÎ²Î¹Î²Î»Î¹ Î´á½±ÏģÎ¹Î¿Î½
ĠÎķá½Ķ Î²Î¿Ïħ
ĠÎ³Î»á¿¶ ÏĥÏĥÎ±Î½
ĠÎºÎ»Î¿ÏĢ á¿ĨÏĤ
ĠÏĩÎ¹Î»á½· ÏīÎ½
Î·ÏģÎ± ÏģÏĩ
ĠÏĢÏĦÎ±á¿ĸ ÏĥÎ¼Î±
ĠÎ³á½±Î¼ Î¿ÏĤ
ĠÏĥÏĢÎ» á½µÎ½
Ġá¼ĲÎ½Î¹ Î±Ïħ
Ġá¼ĶÎ´Î¿ Î¾ÎµÎ½
Ġá½ĳÏĢÎ±ÏģÏĩ á½¹Î½ÏĦÏīÎ½
ÏĦÎ¿Î½Î¿Î¼á½± ÏĥÏĦÏīÏĤ
ĠÏĢÎ±Î½Î¿á½»ÏģÎ³ ÏīÏĤ
ĠÏĨÎ¹Î»Î±Î½ Î¸ÏģÏīÏĢ
ĠÎĽÏħÏĥÎ¹Îº Î»á½³Î±
ĠÎ¼Î±Îºá½± ÏģÎ¹Î¿Î¹
ĠÎ¼á½±ÏĩÎ±Î¹ ÏģÎ±
Ġá¼ĲÎ³Î³Ïħ ÏĦá½±ÏĦÏī
Ġá¼ĢÏĥÏĦÏģÎ± ÏĢÎ±á½¶
Ġá¼ĢÏĥÏĦÏģá½±Î³ Î±Î»Î¿Î½
ĠÎĳá¼´Î³ÏħÏĢ ÏĦÎ¿Î½
Ġá¼ĺÏĨá½³Ïĥ á¿³
Ġá¼ĲÎºÏĦÎ±Î½Î½ á½»ÎµÎ¹Î½
ĠÎºÏģÎ¿ÏĦÎ± ÏĨá½·
ĠÏĢÎ±ÏģÎµÏĢÎ¹Î³ÏģÎ±ÏĨ á½µ
Î¸Î»á½· Î²
Ġá¼ĢÎ»Î± Î¶Î¿Î½
Ġá¼ĶÏĨÎ± ÏĥÎº
Ġá¼ĶÎ¼ÎµÎ¹Î½ ÎµÎ½
ĠÏĨÏģá½³ Î±
Îµá¼°á½½Î¸Î± ÏĥÎ¹
Ġá¼ĲÎ¼Î²Î»Î· Î¸á½³Î½ÏĦÎ±
ĠÏĢá½·ÏĥÏĦÎµ ÏīÎ½
ĠÎºá½¹Îº ÎºÎ¹Î½Î¿Î½
Ġá¼ĲÏĥá½±Î»ÏĢÎ¹ ÏĥÎµ
ĠÎľÎ¹ÏĦÏħÎ»Î·Î½Î± á½·ÏīÎ½
Ġá¼ĢÎ½ÏĦÎ¹Î´Î¹Î±ÏĥÏĦ Î¿Î»á½´Î½
Ġá¼ĲÎ¾á½³ÏĩÎµ Îµ
ĠÎ¦Î¹Î»á½· ÏĢÏĢÎ¿Ïħ
ĠÎºÎµÎºÎ»Î¿ÏĨ á½³Î½Î±Î¹
ĠÎ£ÏħÏģÎ¹ Î±Î½á½¸ÏĤ
ĠÎ£Î¹ÎºÎµÎ» á½·Î±Î½
ÏĢÏģÎ± ÏĥÎº
Î²Î´Î¿ Î¼Î¿Î½
Ġá¼ĢÎ½ÏĦÎ±Î³ ÏīÎ½
ĠÎµá¼´ÎºÎ¿ ÏĥÎ¹Î½
Ġá¼ĪÎ»ÎµÎ¾ á½±Î½Î´Ïģ
ĠÏĥÎºÎµá¿¦ Î¿ÏĤ
ĠÏĢÎ¹ÏĢÏģ á½±Ïĥ
ĠÏĪÎµÏħÎ´Î¿ÏĢÏģÎ¿ÏĨ á½µ
ĠÏĢÎ±ÏģÎ±ÏĢÏģÎµÏĥÎ² Îµá½·Î±ÏĤ
Į Î»ÏħÎ¼ÏĢ
á½ ¤
ÏĦ ÏĦÎ¹
ÏĦ á¿¶
ÏĦ á½·Î½
ÏĦ ÏģÎ±Ïĩ
ÏĦ Î¿á¿¦Î½ÏĦÎ±
ÏĦ Î¿á¿ĸÏĥÎ¹
Î½ ÏĢÎµÏģ
Î± á½·Î±Î½
á¼ ĤÎ½
Î¹ á½¹Î½
Î¹ ÎºÎ±á½¶
Î¹ Î»á½±
Î¹ á¾·
Îµ ÏĦÎ¿Î½
Ïģ Ïĥ
Ïģ ÏĥÎ¹
Ïģ Î¿Î½ÏĦÎ±
Ïģ Î±Î¹ÏĤ
Ïģ Î¿ÏħÎ½
Ïģ Î¿Î½ÏĦÎ±ÏĤ
Ïģ Î¿á½»ÏĤ
Ïģ ÏģÎ·Î¼Î±
Ïģ á½»Î½Î·
ĠÏĦ ÎµÏģ
ĠÏĦ á¼ĦÎ»Î»
ĠÏĦ ÎµÎ¹Ïĩ
Ïĥ á½»Î½
Ïĥ Î¼Î±ÏĦÎ¹
Ïĥ Î¼á½³Î½Î¿Î¹
ÏĢ á½±
ÏĢ ÏĦÎµ
ÏĢ á½¹Î½
ÏĢ Î¹Îº
ÏĢ Î¿á½·
ÏĢ ÎµÏĤ
Î» Î³
Î» á½µÎ½
Î¼ á½»
Î¼ Îµá½·
Î¼ Î¿Î¹ÏĤ
Î¼ á¾¶
Î¼ Î¿á½¶
Î¼ Î¼á½³Î½Î¿Ïħ
Î¼ á½·Î¿Ïħ
ĠÎº Î¿Ïħ
ĠÎº Î¿á½»
ĠÎº ÏģÏħ
ĠÎº á¿´
ĠÎº á½³ÏģÎ±ÏĤ
Îº á¼Ģ
Îº á½±ÏĥÎ±Î¹
Ïħ Î¿Î½
Ïħ Î¼Î±
Ïħ ÏĢÏĢ
Ïħ Î»Î»Î±
Î· Î¾
Î· Î¼á½³Î½Î·Î½
Î· Ïĥá½·ÏĤ
ĠÏĢ á½´
ĠÏĢ ÎµÎ¹Î½
ĠÏĢ á¿ĩ
ĠÏĢ ÏĦÏī
ĠÏĢ á½·Î½ÎµÎ¹Î½
ĠÏĢ ÏĦá½»
ĠÏĢ á½½ÏĤ
ĠÏĢ ÏīÎ»
á½· Î¼Î±
á½· Î·ÏĤ
á½· ÏĦÎ±ÏĤ
á½· Î´Î¿ÏĤ
á½· Î¼ÏīÎ½
á½· ÏĥÎ±Î½ÏĦÎ¿ÏĤ
á½³ Î¿Î½ÏĦÎ±
á½³ ÎµÏĤ
á½³ ÏīÏģÎ¿ÏĤ
ĠÎºÎ± Î¼
ĠÎºÎ± Î»Îµ
ĠÎºÎ± ÏģÏĩ
ĠÎºÎ± ÏĥÎ±Î»
Ġá¼Ĳ Î¼á½±
Ġá¼Ĳ ÏĦá¿¶Î½
Ġá¼Ĳ Î¿á¿¦ÏĥÎ¹Î½
Ġá¼Ĳ ÏģÏħÎ¸
Ïī ÏĥÎµ
Ïī Î¼á½³Î½á¿³
Ïī ÏĦá½³ÏģÏīÎ½
Ïī Î¼á½³Î½Î¿Î¹ÏĤ
Ïī Î¸Îµá½¶ÏĤ
Ïī Î¼á½³Î½Î¿ÏħÏĤ
Ïī Î¸á½³Î½ÏĦÎ±
Ïī ÏĦá¿ĩ
ĠÎ´ ÏīÏģ
Î³ Î¼á½³Î½Î¿Î½
Î³ Î¼á½³Î½Î¿Ïħ
Î³ Í´
Î¿Î½ Îµá½¶
Î¿Î½ ÏĦá½¹ÏĤ
á½± ÏĦÎ·
á½± ÏĦÎ¿Ïħ
á½± ÏĦÏģ
á½± ÏĦá¿³
á½± Î¼Î²Î±Î½
Î¸ Î¿Ïģ
Î¸ Î±Î»
Î¸ á½·ÏīÎ½
á½¹ ÏģÎ±
á½¹ ÏĨÏīÎ½
Ġá¼Ģ Î¸
Ġá¼Ģ Î»Îµá½·
ĠÎ¼ á½»Î»
ĠÎ¼ Î¿ÏģÎ¼
Ïĩ á½½
Ïĩ ÏīÏĤ
Ïĩ Î»ÎµÏħ
Î´ Îµá¿ĸÎ½
Î´ á½¹ÏĤ
Î´ ÏģÎ¿
Î´ Í´
Î´ ÏħÏĥ
Î¿á¿¦ ÏĦÎ¿Î½
á½° Îº
ÎµÎ¹ ÏĥÎ¹Î½
Î¿Ïħ Ïĥá½·
á½» Î¼Î±
á½» Î¾
á½» Î»Î±
á½» ÏĦÎ±ÏĤ
á½» Î»ÎµÏħ
ÏĥÏĦ Î·ÏĤ
ÏĥÏĦ Î·Ïģ
ÏĥÏĦ ÏģÎ±Îº
ÏĥÏĦ á½±ÎºÎ¹ÏĤ
ÏĥÏĦ Î¹Îºá¿¶ÏĤ
ĠÎ³ á½±Î¼Î¿Ïħ
ĠÎ³ Î±Î»Î¹
Î±Î¹ á½¹ÏĦÎµÏģÎ¿Î½
Î±Î¹ Ïģá½³ÏĥÎµÏīÏĤ
á¿ĸ Î¼Î±
Î±Î½ Î¿á¿¦
á½µ ÏģÎ·
á½µ ÏĦÏīÏĤ
á½µ Î´ÏīÎ½
á½µ Î¼Î±ÏĦá½¹ÏĤ
ĠÏĢÏģ Î¿á¿
ĠÏĥ á½³
ĠÏĥ Î¼Î±
ĠÏĥ ÎµÏĥ
ÎµÏģ á¿¶
ÏĦÎ¹ á½±
Îµá¿ĸ á½¹Î½
Î»Î» Î±Î²
Ġá¼ĲÎ½ Î´
Ġá¼ĲÎ½ Î±Î³
Ġá¼ĲÎ½ á½·Î¿Î¹ÏĤ
Ġá¼ĲÎ½ Î½Î¿
Ġá¼ĲÎ½ Î´Î¹Î±
Ġá¼ĲÎ½ ÏĦÎ¿Î¼
Ġá¼ĲÎ½ Î´Î¹á½±
Î¼Î± ÏĤ
Î¼Î± ÏĥÎµÎ½
ĠÎ´Î¹ á½³
ĠÎ´Î¹ ÎµÏģ
ĠÎ´Î¹ á½±Î³
ĠÎ´Î¹ á½¹Î»Î¿Ïħ
ĠÎ´Î¹ ÎµÏĥ
ĠÎ´Î¹ Îºá¿¶Î½
ĠÎ´Î¹ á½±ÏĥÏĦÎ±ÏĥÎ¹Î½
ĠÎ´Î¹ Îµá¿ĸÎ»ÎµÎ½
Ġá¼Ķ Î¼ÏĨ
Ġá¼Ķ Î¼Îµ
Ġá¼Ķ Î¾ÎµÎ¹
Ġá¼Ķ Î¼ÎµÎ»Î»Îµ
Î² Î·ÏĤ
Î² ÏħÎ»Î»
Î² ÏħÎ»Î»Î±
Ġá¼ĲÏĢ Î±Î¹
Ġá¼ĲÏĢ ÎµÏģ
Ġá¼ĲÏĢ á½±Î³
Ġá¼ĲÏĢ á½¹Ïģ
Ġá¼ĲÏĢ ÏīÎ¼
Ġá¼ĲÏĢ Î±á½»
Ġá¼ĲÏĢ á½±Î³ÎµÏĦÎ±Î¹
Ġá¼ĲÏĢ á½µÎ³Î±Î³ÎµÎ½
Ġá¼ĲÏĢ ÏīÎ½ÏħÎ¼
Ġá¼ĲÏĢ á½³Î³ÏģÎ±ÏĪ
Ġá¼ĲÏĢ Î·ÏģÎµ
Ġá¼ĲÏĢ Î¿ÏħÏģá½±Î½
ĠÎ±á½ĲÏĦ á½µ
ĠÎ±á½ĲÏĦ ÎµÎ¾
ĠÎ» Î±Ïģ
ĠÎ» á½±Ïģ
Ġá½ģ ÏģÏī
Ġá½ģ Î»Î¿Îº
Ġá½ģ Î»á½¹
ĠÎ¿á½Ĳ Î±á½·
ĠÎµá¼° ÎºÎ¿ÏĥÎ¹
Ġá½ħ ÏĥÎ±Î¹
ĠÏĨ Î¸Î±
ĠÏĨ Î¸Î¿Î½
Ġá¼¡ Î»Î¹
Ġá¼¡ Î¼Î±Ïģ
Ġá¼¡ Ïĥá½»
á½½ Î¼ÎµÎ½Î¿Î½
ÏĦÎ· ÏģÎ·
ÏĦÎ· Î´Îµá½·
ÏĦÎ· Î´ÎµÏĤ
Ġá¼ĢÎ½ á½±Î»
Ġá¼ĢÎ½ ÎµÎº
Ġá¼ĢÎ½ á½³ÏĥÏĦ
Ġá¼ĢÎ½ Îµá¿ĸÎ»Îµ
Ġá¼ĢÎ½ ÏĦÎµÏģÎµá½·
á½¹Î½ Î¹Î±
ÏĥÎ¸ Î±
ÏĥÎ¸ á½²Î½
ÏĥÎ¸ Îµá½·ÏĥÎ·ÏĤ
Î¼á½³Î½ ÎµÎ¹
Î¼á½³Î½ Î¿Î¹ÏĥÎ¹
ÏĦÎ¿ ÏĦÎµ
ÏĦÎ¿ ÏĩÎ¿Î¹
Î¹Î½ Î´
ÎºÎ± ÏĦÎ¿
ÎºÎ± ÏĦá½±
Ġá¼Ħ ÏĦÎ±
Ġá¼Ħ Î»Î·
Ġá¼Ħ ÏĢÎµÎ¹
Ġá¼Ħ ÎºÎ±Î½
Ġá¼ĢÏĢ Î±Î³Î³ÎµÎ»
Ġá¼ĢÏĢ á¿Ħ
ĠÏĢÎ± ÏĦá½³ÏģÏīÎ½
Îµá½· Ïģ
Îµá½· á¿ĥ
ĠÏĩ á¿¶
Î¿á¿ĸ Î´Ïħ
Ġá½ĳ Î¼Î½
á½³Î³ Î³
ĠÏĥÏħ ÏĥÏĦÏģÎ¿ÏĨ
Ġá¼ĲÎº ÏĦá½·
Ġá¼ĲÎº ÏĢÎ¿
Ġá¼ĲÎº Î´Î¹Îº
Ġá¼ĲÎº ÏĢÎ¹
Ġá¼ĲÎº Î»Î¿Î³
Ġá¼ĲÎº Î»ÎµÎº
Ġá¼ĲÎº ÏĦÎµÏĦÎ±Î¼á½³Î½Î¿Î½
Ġá¼ĲÎº Ïĩá½³
ĠÏĢÏģÎ¿ Î¼
ĠÏĢÏģÎ¿ Î±Î³
ĠÏĢÏģÎ¿ Î´Î¹
ĠÏĢÏģÎ¿ Î»Î±Î²
ĠÏĢÏģÎ¿ ÏĦá½³ÏģÏīÎ½
ĠÏĢÏģÎ¿ Î²Î±Î»Î»
á¿³ Î´á½·Î±ÏĤ
Î»Î· ÏĥÎ±Î½
Î»Î· Î»á½»
á½³Ïģ ÎµÏĤ
á½³Ïģ ÏĩÎµÏĥÎ¸Î±Î¹
Î½Î± Ïģá½·Î¿Ïħ
ĠÎ¸ ÏħÎ½
ĠÎ¸ ÏħÏģ
ĠÎ¸ á½³ÏģÎµÎ¹
ĠÎ¸ ÏīÏĢ
Î¹Îº ÎµÏĤ
Î¶ á½¹Î¼ÎµÎ½Î±
Î¶ ÎµÏĦÎ¿
Î¶ Î¿Î¼á½³Î½Î¿Ïħ
ĠÎ² ÏģÎ¿
ĠÎ² ÎµÎ»
ĠÎ² ÏīÎ¼
á½±Î½ Î·
á½±Î½ ÎµÎ¹
á½±Î½ ÏĦÎ¹
á½±Î½ á¿³
Ġá½ĳÏĢ Îµ
Ġá½ĳÏĢ Î¿Î½
Ġá½ĳÏĢ Îµá½·
Ġá½ĳÏĢ á½±Î³ÎµÎ¹
Ġá½ĳÏĢ ÎµÎ¾
Ġá½ĳÏĢ Îµá½»Î¸ÏħÎ½Î¿Î½
á½·Î½ Î¿ÏħÏĥÎ±
á½·Î½ Î¿Î¹Î±Î½
Îĵ Îĵ
ĠÎ¼Îµ Î»á½³
ĠÏĢÎµÏģ á½·Î½Î±Î¹Î¿Î½
Ġá¼ĢÎ»Î» á½±
Ġá½Ģ Ïĩá½±Î½
Ġá½Ģ Ïģá¿¶Î½
ĠÏĢÎ±Ïģ ÎµÎ»Î¸á½¼Î½
á½±Ïĥ ÎµÏĦÎ±Î¹
á½±Ïĥ ÏīÎ¼ÎµÎ½
á½±Ïĥ á¿ĥÏĤ
Ġá¼ĶÏĩ Î¿Î¹ÎµÎ½
ĠÏĦÎ± ÏģÎ±Ïĩ
Î»Î± Î´
Î¿á½» ÏĥÎ¹Î¿Î½
á¾¶ ÏĥÎ¹
ĠÎ´Î¹Î± Î¸
ĠÎ´Î¹Î± ÏĥÎµÎ¹
ĠÎ´Î¹Î± ÎºÎ¿Î½
ĠÎ´Î¹Î± Î´á½µÎ¼Î±ÏĦÎ±
ĠÏĢÎ¿Î¹ á¿·
ĠÏĢÎ¿Î¹ Î¿á¿¦Î½ÏĦÎ±Î¹
ĠÎ¿á½ĸ ÏĥÎ¹
ĠÎ¿á½ĸ ÏģÎ¿Î½
ÏģÎ· Ïĥ
Ġá¼ĲÏĢÎ¹ Î¸á½³
Ġá¼ĲÏĢÎ¹ Î´Îµá½·
Ġá¼ĲÏĢÎ¹ Î»á½»
Ġá¼ĲÏĢÎ¹ Î¸á½³ÏĥÎµÏīÏĤ
Ġá¼ĲÏĢÎ¹ ÏĦÏģÎ¿ÏĢ
Ġá¼ĲÏĢÎ¹ Î»á½¹Î³ÏīÎ½
Ġá¼ĲÎ¾ Î±
Ġá¼ĲÎ¾ Ïī
Ġá¼ĲÎ¾ ÎµÎ»
Ġá¼ĲÎ¾ ÎµÏĩ
Ġá¼ĲÎ¾ Î·ÏĢ
ÏĦá½³ Î¼Î½
ÏĦÎ¹Îº Î¿á½¶
ÏĦÎ¹Îº á½±ÏĤ
ÏĦÎ¹Îº á½½ÏĦÎµÏģÎ¿Î½
ĠÎ¿á¼± Î¿Î½Îµá½¶
ÎµÏħ ÏĥÎµ
ĠÎµá¼´ Î³Îµ
Î±Î³ Îºá½±Î¶ÎµÎ¹Î½
Î¸Î· Îº
ĠÏĢÎ¿ Ïģá½·
ĠÏĢÎ¿ á½·Î±Î½
ĠÏĢÎ¿ Î´Î¿Îº
ĠÏĢÎ¿ ÏĥÎ±Ïĩá¿¶ÏĤ
Î´Îµ ÏĥÎ¹Î½
Ġá¿¥ á½µÏĥÎµÎ¹
Ġá¿¥ á½³ÏĢ
Î¿Îº Ïģá½±ÏĦÎ·ÏĤ
Î¿Îº Ïģá½±ÏĦÎ¿ÏħÏĤ
ÏĥÎµ Î¼Î½
ĠÎ¶ Îµá¿¦
ĠÏĩÏģ á½µÏĥÎµÏĦÎ±Î¹
ĠÎºÎ±ÏĦÎ± Î¼
ĠÎºÎ±ÏĦÎ± ÏĦÎµ
ĠÎºÎ±ÏĦÎ± ÏĢÎ¿Î½
ĠÎºÎ±ÏĦÎ± ÏĢÏĦ
á½±Î» á¿ĥ
Ġá¼° á½±Ïĥ
Ġá¼° ÏĥÏĦá½³Î¿Î½
Ġá¼° á½±Î¼Î²
Îµá½» ÎµÏĥÎ¸Î±Î¹
Îµá½» Î¿Î½ÏĦÎµÏĤ
ĠÏĥÏħÎ½ Î¿Î¹Îº
ĠÏĥÏħÎ½ Î¹á½³Î½Î±Î¹
ĠÏĥÏħÎ½ Î·Î³Î¿Ïģ
Ġá¼ĦÎ»Î» Î±ÏĤ
Î·ÏĦ Î¿Î¹
Î·ÏĦ á½¹Î½
Îĺ Îµ
Ġá¼Ī ÏģÎ³
ÏĥÎ¼ Î¿á½¶
á¿ĩ ÏĥÎ¹
Ġá¼ķ ÏĪ
Ġá¼ķ Î²Î´
Î´Î¹ ÎºÎ±
ÏģÏĩ Î¿Î¹
á½±Î³ Î·
á½±Î³ Î¹Î±
ÏĥÎ±Î½ ÏĦÎ¹
ÎµÏĨ Î±Î»Î±
ÎµÏĨ á½±Î»Î±Î¹Î¿Î½
Î¿Î¼á½³Î½ Î¿Î¹ÏĥÎ¹Î½
ĠÎ´á½» Ïĥ
ĠÎ´á½» ÏĥÏĢ
ÏĦá½³Ïģ Î·
ĠÎ¿á½ĲÎ´ Îµá½·ÏĤ
Î¿á½· ÏīÎ½
á½¹ÏĦÎ· ÏĦá½¹ÏĤ
Ġá½Ħ Î¼Î½
Ġá½Ħ Î³Îº
ÏĦá½± ÏģÎ±
Î»á½³ ÎºÎµÏĦÎ±Î¹
Î»á½³ Î»ÎµÎºÏĦÎ±Î¹
Î¼ÏĨ Î¹
ÏģÎµ Î¼Î±
ÏĥÎ±Î¹ ÏĦÎ¿
á¼Ģ Î¼ÏĨ
ĠÎºÎ±Î¸ Î±Î¹Ïģ
ĠÎºÎ±Î¸ á½¹ÏĦÎ¹
ĠÎºÎ±Î¸ ÎµÎ»Îµá¿ĸÎ½
Ġá¼ģ ÏĢÎ±
Ġá¼ģ Î¼Î¹Î»Î»
ĠÎł á½±
ĠÎł Î¿Î»Î¹
ĠÎł ÏģÎ±Î¼Î½
ĠÎł Î¹Î»á½±
á¼Ĳ ÏĢá½·
ĠÎ»á½¹Î³ Î¹Î±
ĠÎ±á¼° ÏīÎ½
ÏĦÎ¿Ïħ Î½
ĠÏĢÏģÎ¿Ïĥ Î¿Î¼
Ġá¼ĢÎ³ á½±Î»
Ġá¼ĢÎ³ á¿¶Î½Î±ÏĤ
Ġá¼ĢÎ³ ÏģÏħÏĢÎ½
ĠÏĢÎ±ÏģÎ± ÏĩÏīÏģ
ĠÏĢÎ±ÏģÎ± ÏĦá½·Î¸ÎµÏĦÎ±Î¹
ĠÏĦÎ¹Î½ á½·
Ġá¼ĢÏĢÎ¿ Î¸á½³
Ġá¼ĢÏĢÎ¿ ÏĩÏīÏģ
Ġá¼ĢÏĢÎ¿ Î´Îµá¿ĸÎ¾Î±Î¹
á½½ÏĢ ÏĦÏīÎ½
ĠÏĢÎ» á½»Î½
ĠÏĢÎ» Î¿á¿ĸÎ¿Î½
ĠÏĢÎ» Î¿á¿ĸÎ±
ĠÎµá½Ĳ Ïģ
ĠÎµá½Ĳ ÏģÏħ
ĠÎµá½Ĳ Î»Î±Î²
ĠÎµá½Ĳ Î»Î¿Î³
ĠÎµá½Ĳ ÏĢÎ¿Ïģ
ĠÎµá½Ĳ Î³ÎµÎ½
Ġá¼ĦÎ½ Î¹ÏĥÎ±
á½¹Î» Î¹
ĠÏĥÎº á½¹ÏĢ
ĠÏĥÎº Î¿ÏĦÎ¹
ĠÏĦá½· Î¼Î¹Î¿Î½
ĠÎ±á¼± Ïģá½³
ĠÎ±á¼± ÏģÎµÏĥÎ¹
ĠÎ¼á½¹Î½ ÏīÏĤ
ĠÎ¼á½¹Î½ Î±ÏĤ
Î±Ïħ Î»
Ġá¼ĢÎ½ÏĦÎ¹ ÏĨ
Ġá¼ĢÎ½ÏĦÎ¹ á¿¤á¿¥
Î±á½· Î¼Î¿Î½
ĠÏĢÏģá½¹ ÏĦÎµÏģÎ±
ĠÏĢÏģá½¹ ÏĦÎ±ÏĥÎ¹ÏĤ
Î¸Îµ ÏĦÎµ
Ġá¼µ Î´Ïģ
ĠÏĢÎµÏģÎ¹ ÎµÎ¹
ĠÏĢÎµÏģÎ¹ ÎµÎ»
ĠÏĢÎµÏģÎ¹ ÏĥÏĥ
ĠÏĢÎµÏģÎ¹ Î»Î±Î¼Î²á½±Î½
ĠÏĢÎµÏģÎ¹ Î³ÎµÎ½
Î±Îº Ïĩ
á½µÎ½ Î¿Ïĩ
á½µÎ½ Î¹ÏĥÎµÎ½
Î·Îº á½¼ÏĤ
ĠÏĪ Î±Ïħ
Ġá¼¦ ÏĩÎ¿Î½
Î´á½· Î¿Î¹ÏĤ
ĠÏĨá½» Î¼Î±ÏĦÎ±
Ġá¼ħ Ïģ
Ġá¼ĢÎº Î¿
Ġá¼ĢÎº Ïģá½±
Ġá¼ĢÎº ÏģÎ¿ÏĢ
Ġá¼ĢÎº Ïģá½½
Ġá¼ĢÎº Î¿á¿¦ÏĥÎ±Î¹
ĠÎ¼Î· Ïģá½¹Î½
ĠÏĢÎ¿Î» á½³
ÏĢÎ± ÏĦÎ¿ÏĤ
ÏĢÎ± Î»Î±á½·
ĠÏĦá½¹ Î½Î¿Î½
á½½Î½ Î±ÏĤ
á½½Î½ Î·ÏĤ
Ġá½ģÎ¼ á½½Î½ÏħÎ¼
Ġá½ģÎ¼ ÏīÎ½á½»Î¼Î¿Ïħ
ĠÎ¿á½Ķ ÏĥÎ±ÏĤ
á½»Î½ ÎµÏĥÎ¸Î±Î¹
á½±Î¶ ÎµÏĦÎ¿
ĠÎ¸Îµ Î¿Ïĥ
ĠÎ¸Îµ ÏĦÎ¹Îºá¿¶ÏĤ
Î»Î¹ Î¸Î¹
Î´ÎµÎ¹ Î¿Î½
ĠÏĢÎ¿Î»Î» Î±ÏĢÎ»Î±
ĠÎºÎ¿Î¹ Î»á½·Î±
Ġá¼´ Î´Ïī
Î¼Îµ Î¼Î¹Î³
Ġá¼ĢÎ¼ÏĨ Î¿ÏĦá½³ÏģÎ±ÏĤ
ĠÎ³ÎµÎ½ Î½Î·
Î¿ÏĢ ÎµÏĢ
Ġá¼ĳÎ±Ïħ ÏĦá½°ÏĤ
Î¿Ïģá½· Î±Î¹ÏĤ
Ġá¼ĢÏĨ á½·
Ġá¼ĢÏĨ á¿Ĩ
Ġá¼ĢÏĨ ÎµÏĥÏĦ
Ġá¼ĲÎ½Î±Î½ÏĦá½· Î±ÏĤ
Ġá¼ĲÎ½Î±Î½ÏĦá½· Î¿Î¹ÏĤ
Ġá¼ĲÎ½Î±Î½ÏĦá½· ÏīÏĥÎ¹Î½
ĠÎ¾ Î±Î½
ĠÎ¾ á½ºÎ½
Ġá¼± Îºá½³
ĠÎ¼ÎµÏĦÎ± Î²
ĠÎ¼ÎµÏĦÎ± ÏĨá½³ÏģÎµÎ¹Î½
ĠÎ¼ÎµÏĦÎ± ÏĨÎ¿ÏģÎ¹Îºá¿¶ÏĤ
ĠÎĶ Î±Ïģ
ĠÎĶ á½·Î±
á½»Î» Î¿Î¹ÏĤ
Ġá¼ĢÏģÏĩ á½³ÎºÎ±
ÏĢÎµ ÏĥÎµÎ½
ÏĢÎµ Î´Î¿Î½
Î»á½µ ÏģÎ¿Ïħ
Î»á½µ ÏĨÎ±Î¼ÎµÎ½
Ġá¼ĶÎ½ Îµ
ĠÏĦá½± ÏĥÎ¹Î½
ÏĦÎ±á¿¦ Î¸á½±
ĠÏĢÎµÏĢ ÏħÏģ
ĠÏĢÎµÏĢ Ïģá¾¶
Î¿ÏĨ Î¿Ïģ
Ġá½ķ ÏĢÎµÏģ
ĠÎ²Î± ÏĥÏĦ
ĠÎºÎ¿Î¹Î½ á¿·
á½±Î»Î» ÏīÎ½
ĠÎ´Îµ Î»Îµ
ĠÎ´Îµ Î´Î¹
ĠÏĨÎ± Î¼á½³Î½
ĠÏĨÎ± Î»Î±Îº
Î¸á½³ ÎµÎ¹Î½
Î´Î¿ Î¸ÎµÎ½
ĠÏĥÏĨ Î±Î³
ĠÏĥÏĨ Î±á½·
ĠÏĥÏĨ ÎµÏĦÎµÏģ
ĠÎ¼á½³ ÏĦ
ĠÎ¼á½³ Î¸á¿ĥ
á½µÎ¼ Î·ÏĥÎ±Î½
ĠÎ£ á½±Ïģ
ĠÎ£ Î¼Î¹Îºá½»Î¸
ÏħÎº á½±Î¶ÎµÎ¹ÏĤ
Ġá¼ł ÏģÎ½
Ġá¼ł Ïģá½·ÏĥÏĦ
Ġá¼ł Î»Î¹Î¸Î¹
ĠÎºÎµÏĨÎ±Î» ÏīÏĦá½¸Î½
ĠÎ»Î± Î¿á¿¦
ĠÎºÏģá½· ÏĥÎµÎ¹
ÎµÎ¹Ïģ Î¿ÏĤ
á½·Î¶ ÎµÎ¹ÏĤ
Î²Î± á½·Î½ÎµÎ¹
ĠÏĦÏģá½· Î²
ÏģÎ±Î¼ á½³
ÏģÎ±Î¼ Î¼Î±
ÏģÎ±Î¼ Î¿á¿¦ÏĤ
Î¹Î» ÏĦÎ¹á½±
Î²Î¿Î» á½´Î½
Ġá½ħÏģ Î¿ÏħÏĤ
ĠÎ¿á¼° ÎºÎµÏĦá¿¶Î½
ĠÎ¶Î·ÏĦ á½µÎ¼Î±ÏĥÎ¹
á¼Ķ Î¸Î¿ÏĤ
á¼Ķ Î¾Ïī
ÏģÎ¿á¿¦ ÏĥÎ±Î¹
ĠÎ³Î½ Î·
ĠÎ³Î½ á½½ÏĥÎµÏīÏĤ
ĠÎ³Î½ ÏīÏĥÏĦ
Î»Î·Î¸ Îµá½·Î·
ĠÏĦá½³ Î»ÎµÎ¿Î½
ĠÎľ Î¹Î»ÏĦÎ¹á½±
ĠÏĢá½³ ÏĢÎ»
ĠÏĢá½³ ÏĦÏģÎ±
ĠÏĢá½³ ÏĦÏģÎ±ÏĤ
Ġá¼¸ ÏīÎ½
ÏģÎ¼ á½¹
ÏĢÏĦ á½¹Î½ÏĦÏīÎ½
ÏĢÎ¿ Î´Î±
Îµá¼° Ïĥ
Î´Î¹Îº á½¹Î½
Ġá½ĳÏĢÎ¿ ÏĦá½±
Ġá½ĳÏĢÎ¿ ÏĥÏĩ
á½ħ ÏĥÎ±
á½ħ ÏĥÎ¿Î½
ÏĢá½· ÏĢÏĦÎµÎ¹
ĠÏĨÏħ ÏĦá¿¶Î½
Î½á½· Î¿Î½
ĠÎ¿á¼°Îº Îµá½·Î¿Î¹ÏĤ
ĠÎ¼á½µ ÏĢÎ¿ÏĦÎµ
ĠĠ ĠĠ
ĠÏĨÏīÎ½ á½±ÏĤ
ĠÏĢÏģÎ¿ÏĨ á¿Ĩ
ĠÏĦÏģÎ¹ Ïĩ
ĠÏĦÏģÎ¹ Î²
ĠÏĦÏģÎ¹ Ïĥá½¶Î½
ĠÏĦÏģÎ¹ Î·ÏģÎ±ÏģÏĩ
ĠÎ³ÎµÎ³ á½³Î½
ĠÏĩÏģá½¹Î½ Î¿ÏħÏĤ
Ġá¼ĢÏĢá½¹ ÏĨÎ±ÏĥÎ¹Î½
Î±Î¹Î½ Î¿Î¼á½³Î½Î¿Ïħ
ĠÏĪÏħÏĩ á¿ĩ
á½µÏĥÎ± ÏĥÎ±
Îµá½·Î½ ÏīÎ½
ÏĥÎ¸á½³Î½ ÏĦÎ±ÏĤ
Ġá¼ĲÎ¼ á½³ÏĦ
Ġá¼ĲÎ¼ ÏĪá½»ÏĩÏīÎ½
ÏĨÎ± Ïĥá½¶
Îµá¿¦ ÏĥÎ¹
ĠÏĦÎ¿Ïħ ÏĦá½¶
ĠÎ¼ÎµÏĦ ÎµÎ½á½¹
ĠÏĥÏħÎ¼ÏĢ ÏĦá½½
ĠÏĥÏħÎ¼ÏĢ Î»Î·Ïģ
á½±Ïĩ ÏħÏĤ
Ġá¼ĶÎ¾Ïī Î¸á½³Î½
ĠÏĥÏħÎ¼Î²ÎµÎ²Î·Îº á½¹ÏĥÎ¹Î½
ĠÏĢÎ»Îµá½· ÏīÎ½
ĠÏĨÎ¹Î» Î¿ÏĦÎ¹
ĠÏĢá½± ÏĦ
ĠÎ¼á½³Î³ Î¹ÏĥÏĦ
Ġá½ĳÏĢÎµÏģ Î²
Ġá½ĳÏĢÎµÏģ á½³Ïĩ
Ġá½ĳÏĢÎµÏģ Î²á½±Î»Î»
ÏģÏī Î´á¿¶Î½
Ġá¼ĲÎ¼Î² Î»Î·Î¸á¿ĩ
ĠÎ±á½Ĳ ÏĦÎ±á¿ĸÏĥÎ¹
ĠÎ¼Î¹Îº ÏģÎ¿á½¶
á½¹ÏĦÎ± ÏĦÎ¿ÏĤ
ÏģÎ±Îº ÏĦÎ¿Î½
ĠÎ½Î¿Î¼ Î¹Îºá½°ÏĤ
ĠÏĢÏģá¾¶ Î¾Î¹Î½
Ġá¼´Î´Î¹ Î¿ÏĤ
ĠÎĽ Î±
ĠÎĽ á½»
ĠÎĽ Î¿Îº
ĠÎĽ ÏħÎº
ĠÏĢÎ½ Îµá¿¦
ĠÎµá¼°Î´ Î¿ÏĢÎµÏĢ
ÏĥÏĥ á½¹Î½ÏĦÏīÎ½
ÏĥÏĥ á½¹Î¼ÎµÎ½Î±
ĠÎ´Îµá½· Î¾Î±ÏĤ
Ġá½ĢÎ»á½·Î³ Î¿Î¹ÏĤ
Ġá¼ĢÏĥ á½µÎ¼
ĠÎ»ÎµÏħÎº á½¸ÏĤ
ĠÎ»ÎµÏħÎº á½¹ÏĦÎ·ÏĦÎ±
Ġá¼ĲÎºÎµá½·Î½ á¿ĥ
Î¤ á½·
Î¤ Î¿á½»
Ġá¼ĢÎ»Î·Î¸ á¿¶Î½
Ġá¼ĦÏĩ Î¸Î¿ÏĤ
Î»Î±Î² á½¹Î½ÏĦÎ±
ĠÎ»ÎµÎ³ á½¹Î¼ÎµÎ¸Î±
ĠÎ»ÎµÎ³ Î¿Î¼á½³Î½Î·ÏĤ
ĠÎ»Î¿Î¹ÏĢ Î¿á¿ĸÏĤ
ĠÎ´Î·Î» á¿¶ÏĥÎ±Î¹
ĠÎ½Î± á¿¦ÏĦÎ±Î¹
Ġá¼ĢÎ»Î»á½µÎ» Î±Î¹ÏĤ
ĠÏĢÎ¿Î»Î¹ ÏĦá¿¶Î½
ĠÏĢÎ¿Î»Î¹ ÏĦÎ¹Îºá½°
ĠÏĢÎ¿Î»Î¹ ÏĦÎ¹Îºá¿·
ĠÎ´Îµá½» ÏĦÎµÏģÎ±
Ġá½ĳÏĢá½±ÏģÏĩ Î¿ÏħÏĥÎ¹
Ġá¼ĢÎ³Î±Î¸ á½±
ĠÎºÎ±ÏĦÎ·Î³Î¿Ïģ Îµá¿ĸ
ĠÎºÎ±ÏĦÎ·Î³Î¿Ïģ Î¿á½»Î¼ÎµÎ½Î¿Î½
ĠÎºÎ±ÏĦÎ·Î³Î¿Ïģ á¿ĨÏĦÎ±Î¹
ĠÎºÎ±ÏĦÎ·Î³Î¿Ïģ Î·Î¸á½µÏĥÎµÏĦÎ±Î¹
ĠÎ¼á½³Ïĥ Î¿ÏĤ
á½½Î½Ïħ Î¼á½±
Î·Ïĥ á½±Î¼ÎµÎ½Î¿ÏĤ
Ġá½¦ ÏĥÎ¹
ĠÎ´Î¹Î´ á¿·
á½µÏĥÎ±Î½ ÏĦÎ¹
ĠÎ´á½»Î½Î±Î¼ Î±Î¹
ĠÎ²Î¹Î²Î»á½· ÏīÎ½
Ġá¼ĶÎ»ÎµÎ³ ÏĩÎ¿Î½
ĠÎµá½ĳ Ïģá½³ÏĥÎµÏīÏĤ
ĠÎ¿á¼¶ Î´
ĠÎ¿á¼¶ Î´á½±
Ġá¼ĲÏģ á¿¶
Ġá¼ĲÏģ á¾·
Î±ÏĥÏĦ á½´ÏĤ
Ġá¼ĢÎ¼ á½³
Ġá¼ĢÎ¼ á½»Î¸Î·
ĠÏĥÏĦá½±Ïĥ ÎµÏĥÎ¹
ĠÎ»á½» ÏĢ
ĠÎ»á½» ÎµÏĥÎ¸Î±Î¹
ĠÏĥÏħÎ½ÎµÏĩ á¿¶Î½
ĠÏĥÏħÎ½ÎµÏĩ á½´ÏĤ
á½µÎº Î¿Î¹
á½µÎº á¿ĥ
Ġá¼ĳÎºá½±ÏĥÏĦ Î·
ĠÏĥÎ±ÏĨ á½²ÏĤ
ĠÎ¿á½ĲÎ´Îµ Î¼á½·
ÏģÎ¹Ïĥ Î¼Î±
Ġá¿¥á½µ Î¼Î±ÏĦÎ¿ÏĤ
ĠÎºÎ±Î¹ Ïģá½¹ÏĤ
ĠÏĥÏħÎ¼ÏĨ á½»
ĠÏĥÏħÎ¼ÏĨ Î¿ÏģÎ±á¿ĸÏĤ
ĠÏĥÏĦÏģÎ±ÏĦÎ·Î³ á½¹ÏĤ
Ġá¼ĲÎ¸ ÎµÏģ
ĠÎ³ÏģÎ±Î¼ Î¼á½±ÏĦÏīÎ½
Ġá¼ĲÎ³á½³Î½ ÎµÏĦá½¹
ĠÎ¼á½³Î» Î¿ÏĤ
Î´á½³Ïĩ ÎµÏĥÎ¸Î±Î¹
ĠÏĢÎ¹ ÏĢÏģÎ±ÏĥÎº
Î´Î¿Îº Îµá¿ĸ
ĠÎķá½Ĳ ÏĨÏģá½±
Ġá¼ĢÎºÏģÎ¹Î² á½´ÏĤ
ĠÎ²Î¿ÏħÎ» á½´Î½
ĠÎ²Î¿ÏħÎ» á½¹Î¼ÎµÎ½Î¿Î½
ĠÎ²Î¿ÏħÎ» Î¿Î¼á½³Î½Î¿Î¹ÏĤ
ĠÎºÎ¿Î» Î±
ĠÎºÎ¿Î» á½±ÏĥÎµÎ¹
ĠÎºÎ¿Î» á½±Î¶ÎµÏĥÎ¸Î±Î¹
ĠÎ¼Î¿Î½ Î¿
ĠÎ´Î¹Î±Î¹Ïģ á½³ÏĥÎµÎ¹ÏĤ
ĠÎ´Î¹Î±Î¹Ïģ Î¿ÏħÎ¼á½³Î½Î¿Î¹ÏĤ
ĠÏĦÎ¹Î¼ ÏīÏģ
ĠÎºÎ±á½· ÏĢÎµÏģ
ĠÎºÎ±ÏĦá½± ÏĦÎ±ÏĥÎ¹Î½
ĠÎºÎ±ÏĦá½± ÏĦÎ±ÏĥÎ¹ÏĤ
ĠÎ´ÏħÎ½Î± ÏĦá¿·
Ġá¼ĲÎºÎµá¿ĸ Î¸ÎµÎ½
Ġá½ĢÏĥÏĦ á¿·
ĠÏĩÎ± Î¼Î±á½¶
ĠÏĦÎµÏĦ ÏģÎ±Î³
ĠÏĦÎµÏĦ ÏģÎ±Î¼á½³
Î»á½» ÏĥÎ¸Î±Î¹
ĠÏĢá½³Î½ Î·ÏĦÎ±
ĠÏĥÎºÎ¿ÏĢ á¿·
Ġá¼Ļ Ïģ
ĠÎ±á¼´ ÏĦÎ¹
ĠÎ±á¼´ ÏĦÎ¹Î¿ÏĤ
ĠÎ¼á½³Î»Î» Î¿Î½ÏĦÎ±ÏĤ
á¼Ħ Î½
á¼Ħ Î¼ÎµÎ¹Î½Î¿Î½
Ġá¼¹ÏĢÏĢ Î¿Î´
ĠÎºÎµÎº Î»Î·
Ġá¼ĶÎº ÏĦÎ¹
Ġá¼ĶÎº Î¸ÎµÏĥÎ¹ÏĤ
ĠÎ¦ Î±á½·
ĠÎ´Î¹ÏĢÎ» á¿ĨÎ½
ĠÎ¶Ïī Î³ÏģÎ±ÏĨ
ĠÏĥá½»Î½ Î´Î¿Ïħ
Ġá¼© Î»Î¹
ĠÎ¼Î±Îº Ïģá¾·
Ġá¼°Î´á½· Î±ÏĤ
Ġá¼°Î´á½· Î¿Î¹ÏĤ
ĠÎºÎ±Î¸Î± ÏģÎ¿á½¶
ĠÏĢÎ±Î»Î±Î¹ á½¹Î½ÏĦÏīÎ½
ĠÎ±á¼°ÏĥÎ¸ Î±Î½
Ïģá½³ÏĨ ÎµÏĦÎ±Î¹
Ġá¼°ÏĥÏĩÏħÏģ á½¹ÏĦÎ±ÏĦÎ¿Î½
ĠÎºÎ±ÏĦÎ±ÏĥÎºÎµÏħá½±Î¶ ÏīÎ½
ĠÎºÎ±ÏĦÎ±ÏĥÎºÎµÏħá½±Î¶ ÎµÎ¹Î½
ĠÎ¼Î±Ïģ ÏĦá½»
ĠÎ¸Ïģá½¹Î½ Î¿ÏħÏĤ
ĠÏĢÏģÎ¿ÏĨá½µ ÏĦÎ¿Ïħ
ĠÏĢÏģÎ¿ÏĨá½µ ÏĦÎ±ÏĤ
ÏĦá½½ Î¼ÎµÎ½Î¿ÏĤ
ÏĦá½½ Î´Î·ÏĤ
Ġá¼ĲÏģÎ³ á½±Î¶Î¿Î½ÏĦÎ±Î¹
ÏĦÎ¿á½» Î¼ÎµÎ½Î¿ÏĤ
Ġá½ĳÏĨ Î±ÏģÏĢ
ĠÎ´Î¹Î±Ïģ ÏģÎ±Î³
Îł ÏģÎ¿
Îł Î±ÏĨÎ»Î±Î³
Îł Î¿Î»Î»
Îł á½³Î¼ÏĢ
á½³Î² Î±Î»Î¿Î½
ĠÎ¼á½¹ ÏĩÎ»ÎµÏħ
Ġá¼ĦÎ³ ÎµÎ¹
Ġá¼ĦÎ³ ÏīÎ½
ĠÎ±á½ĳ ÏĦá½¸Î½
ĠÎ±á½ĳ ÏĦá½¹
ĠÎ±á½ĳ ÏĦá½´Î½
ĠÎ±á½ĳ ÏĦá¿·
Ġá½ĢÎ½Î¿Î¼á½± Î¶Î¿ÏħÏĥÎ¹Î½
Ġá¼ĢÏĦ ÎµÎ½
ĠÎ¼á½±Ïĩ á¿ĥ
ĠÏĦÎ±á½ĲÏĦ á½°
Ġá¼µÏĢÏĢ Î¿Ïħ
ĠÎºÏħ á½±Î¼Î¿Î¹ÏĤ
Ġá¼ĢÎºÎ± ÏĦÎ¿Î½Î¿Î¼á½±ÏĥÏĦÏīÏĤ
ĠÎĴ Î±
Ġá½ģÎ´ á½¸ÏĤ
Ïģá½±ÏĪ Î±ÏĤ
ĠÎ¼Î¹ Î±Ïģ
ĠÎ³á½·Î³Î½ Î¿Î½ÏĦÎ±Î¹
ĠÎµá¼°Ïģ á½µÏĥÎµÏĦÎ±Î¹
ĠÎµá¼°Ïģ á½µÎ½Î·Î½
ĠÏĦÎµÎ»ÎµÏħ ÏĦá¿¶Î½
ĠÏĦÎµÎ»ÎµÏħ ÏĦá½´Î½
ĠÎ¼ÎµÎ³á½±Î» á¿³
ĠÎ¼ÎµÎ³á½±Î» Î¿Î¹ÏĤ
ĠÎ³ÎµÎ³ÏģÎ±Î¼ Î¼á½³Î½Î¿Î¹
ĠÎ´Î· Î½Î±Ïģá½·Î¿Ïħ
Ġá¼±ÎµÏģ á¾¶ÏĥÎ¸Î±Î¹
ĠÎ´ÎµÎ¾Î¹ á¾¶ÏĤ
ĠÎ´Î¹ÎºÎ±ÏĥÏĦ Î¹Îºá½¸Î½
ĠÏĩÏģÎ·ÏĥÎ¼ á½¹Î½
ĠÏĩÏģÎ·ÏĥÎ¼ á½¹ÏĤ
ĠÎ´Î¹Î´á½±Ïĥ Îº
ÎºÎ¿ ÏĥÎ¼
ĠÏĢÎµÏĢÎ¿Î¹ Î·Îºá½¹ÏĦÎ¿ÏĤ
ĠÎ´á½·ÎºÎ±Î¹ Î¿Î¹
ĠÎ¾á½»Î» ÏīÎ½
ĠÎ¾á½»Î» Î¹Î½Î¿Î½
ĠÏĥÎ¿ÏĨ á½·Î±Î½
ĠÎ½Îµ Î¿
ĠÎ´á½½ ÏĥÎµÎ¹
ĠÎ¸á½³ Î»Î·
Ġá½ĢÏģÎ³ á½µÎ½
Ġá¼ĺ Î½
Ġá¼ĺ Î»ÎµÏħ
ĠÎºÎ±ÏĦá½³ Î»Î¹
ĠÏĩÎ¿Ïģ á½¹ÏĤ
Ġá¼ĲÎ³Î³ Ïģá½±ÏĨÎ¿Ïħ
Î±Î¶ á½¹Î¼ÎµÎ½Î¿ÏĤ
Ġá½łÎ½ Î¿Î¼Î±
ĠÎ´Î¹Î±ÏģÎ¸Ïģ á½½
ĠÎ¼Îµá½· ÏīÏĥÎ¹ÏĤ
Ġá¼ĲÏĢÎ±Î½ Î¿ÏģÎ¸
Ġá¼ĢÏĢÎ¿Ïģ Îµá¿ĸÎ½
ĠÏĥÏħÎ³Î³ ÏħÎ¼Î½Î±
Ġá¼ĲÎ¼ÏĢá½· ÏĢÏĦÎµÎ¹Î½
ĠÏĢÎ±Ïģá½³Ïĩ ÎµÏĦÎ±Î¹
ĠÎºÏģ á½±ÏĥÎµÏīÏĤ
Î²Î¿Ïħ Î»Îµá½»
Î¿Î»á½¹Î³ Î¿ÏĤ
Ġá¼°Ïĥ Î¿á¿¤á¿¥
ĠÏĨÏħÏĥÎ¹Îº á½´
ĠÏĢÎµá½· ÏĥÎ±ÏĤ
ĠÎĽÎ±Îº ÏīÎ½
ĠÎ´Î±ÎºÏĦá½»Î» á¿³
ĠÎ´Î±ÎºÏĦá½»Î» Î¿Î¹ÏĥÎ¹
Î½Î¿ ÏĥÎº
ĠÎ±á¼°ÏĥÎ¸Î·ÏĦ á½´Î½
ĠÏĢÎµÏĢÎ¿Î½Î¸ á½¹ÏĦÏīÎ½
Ġá¼ĢÏĥÏĦ á½³ÏģÏīÎ½
Ġá¼ĢÏĥÏĦ á½³ÏģÎµÏĤ
ĠÏĨá½¹Î½ Î¿ÏĤ
á¼ĲÎº Îµá¿ĸ
ĠÎĵ Îµ
ĠÎĵ Îĺ
ĠÎĵ Ïģá½»
Ġá¼ĪÏĦ ÏĦÎ¹Îºá½¸Î½
ĠÎĿ Î±Ïħ
ĠÎ»á½±Î² ÏģÎ±
ĠÎ»á½±Î² ÏīÎ¼ÎµÎ½
Ġá¼ĲÏĩÎ¸Ïģ Î¿á¿¦
ĠÎ´Î·Î¼ Î·Î³Î¿Ïģ
ĠÎ´Î·Î¼ á½¹ÏĥÎ¹Î¿Î½
ÏĦÎµá½» ÏĥÎ±ÏĦÎ¿
ĠÎ¸ÏħÎ¼ á½³
ĠÎºÎ» Îµá¿ĸÏĤ
Ġá¼ĢÎ½Î±Î¹ Î´á¿¶ÏĤ
ĠÏĩÎ¹ ÏĦá¿¶Î½
ĠÎ²Î¿ ÏĦá½±Î½
ĠÎ³Ïģá½±ÏĪ Î±Î½ÏĦÎ¿ÏĤ
ĠÏĢÏģá½± Î¾ÎµÎ¹
ĠÏĨÏī ÏĥÏĦ
Ġá¼¤Î½ ÎµÎ³
ĠÎ¾ÏħÎ½ ÏīÎ¼Î¿
ĠÏĢÎ»Î·Î³ á¿¶Î½
ĠÏĢÎ»Î·Î³ á½´
ĠÏĢÎ»Î·Î³ á¿ĩ
ĠÎ¸Ïħ Ïĥá½·Î±Î½
Ġá½ĢÏĨ Ïģá½»
Ġá¼ĲÎ¾Î·Î³ á½µÏĥÎµÏīÏĤ
ĠÏĢÎ¿ÏĦÎ±Î¼ á¿·
ĠÎºÎ±Î¹Î½ á½´Î½
ĠÏĨÎ¿Î² Îµá¿ĸÏĥÎ¸Î±Î¹
ĠÎ½ÎµÎº ÏģÎ¿á½»ÏĤ
ĠÎ³ÎµÎ½Î¹Îº á½´
ĠÎ³ÎµÎ½Î¹Îº á½´Î½
ĠÎ½Î¿Î·ÏĦ á¿ĨÏĤ
á½µÎ³Î±Î³ Î¿Î½
ÏĦá¿Ĩ ÏģÎ±ÏĤ
ĠÏĦÏģÎ¿ÏĨ á½µÎ½
Î´ÏģÎ± ÏĢÎ¿
ĠÎ½á½³ Î¿Î½
ĠÎ½á½³ Î¿Î¹
ĠÎ½á½³ Î±ÏĤ
ĠÎ½á½³ á¾³
Ġá¼ĢÏĢÎ¿Î´Îµá½· ÎºÎ½Ïħ
Ġá¼ĢÏĥÎ¸ÎµÎ½ á½´ÏĤ
Ġá¼ĶÏģÏĩ Î¿Î½ÏĦÎ±Î¹
Ġá¼ĶÏģÏĩ Î¿Î¼Î±Î¹
Ġá¼ĶÏģÏĩ Î¿Î¼Î±á½·
ĠÎ±á¼°á¿¶Î½ Î¹
ĠÎ´ÎµÏĥÎ¼ á¿·
Ġá¼ĢÏĥá½» Î¼ÏĨ
ĠÎ½Î±Ïħ ÏĦÎ¹Îºá¿¶Î½
ĠÎ½Î±Ïħ á½±Î³Î¹Î±
ĠÏĩÏģÏħÏĥ Î¿á¿¦
ĠÏĢÎµÏģÎ¹ÏĦÏĦ á½¹Î½
ĠÎ¼ÎµÏĦÎµ ÏīÏģá½·
Ġá¼ĢÏĢá½¹ÏĥÏĦÎ¿Î» Î¿Î¹
ĠÎµá½ĲÏĨ ÏģÎ±
Ġá¼ĶÏĥÏĦ Î·ÏĥÎ±Î½
Ġá¼°Î·ÏĦ ÏģÎ¿á½¶
Ġá¼ĢÎ½ÏĦÎ¹Î¸Îµ ÏĦÎ¹Îºá½´
ĠÎºá½¹ÏĥÎ¼ á¿³
Ġá¼ĲÏĢÎ¹ÏĩÎµÎ¹Ïģ Îµá¿ĸÎ½
Ġá¼ĲÏĢÎ¹ÏĩÎµÎ¹Ïģ Î¿á¿¦ÏĥÎ¹
Ġá¼ĲÏĢÎ¹ÏĩÎµÎ¹Ïģ á½µÎ¼Î±ÏĦÎ±
Î¸Îµá¿ĸ ÏĥÎ±
Î¸Îµá¿ĸ ÏĥÎ±Î½
Ġá¼ĲÏĢÎ¹Î½ Î¿á½·Î±ÏĤ
ĠÎµá¼°Îº á¿Ĩ
ĠÏĨÎ¹ á½±Î»Î±ÏĤ
ĠÏĩÎµÎ¹ Î¼á½±Ïģ
ĠÏĩÎµÎ¹ ÏģÎ¿ÏĦÎ¿Î½
ĠÏĩÎ±Î» Î¹Î½
ĠÏĢÎ¿Î»á½³Î¼ Î¿Î¹ÏĤ
ĠÏĢÎ¹Î¸Î±Î½ á½´
ĠÏĢÏģÎ¿ÏĥÎºÏħÎ½ Îµá¿ĸÎ½
ĠÏĢÏģÎ¿ÏĥÎºÏħÎ½ Î¿á¿¦Î½ÏĦÎ±ÏĤ
ĠÎ´Î¹Î´Î±ÏĥÎºÎ± Î»á½·á¾³
Ġá¼ĢÎ½Î¸Î¿ÏģÎ¹ÏĥÎ¼ á¿·
Ġá½ĢÏĨÎ¸Î±Î»Î¼ Î¿á½»ÏĤ
Ġá¼ĲÎ¼Î²á½±Î»Î» Î¿Î½ÏĦÎ±
ĠÎ¼Î¿Ïģá½· á¿³
ÎºÎ±á½· ÏĦÎ¿Î¹
ĠÎ²ÎµÎ² Î±Î¹
ĠÎ¶á¿¶Î½ ÏĦÎ±
Ġá¼ĻÎ»Î» á½±Î´Î±
Ġá¼ĢÏĦá½¹Î¼ á¿³
ĠÎ¸ÎµÏĥÏĢá½³ ÏĥÎ¹Î¿Î½
Ġá¼ĶÏĢÎµ ÏĥÎµ
ĠÎºÎ±ÏĦÎ±Îº Î»
ĠÎºÎ±Î¸Î¿Î» Î¹Îºá½¸Î½
ĠÏĢá½³ÏĢ ÏīÎ½
ÏĬÎº Î¿á½¶
á½¥ ÏĥÏĦÎµ
ĠÏĢÏģÏī á¿Ĵ
ĠÏĢÏģÏī ÏĦá½¹ÏĦÎ¿
Ġá½ĳÏĢÎ¿Î¼ Î½Î·
Ġá½ĳÏĪÎ·Î» á½¹ÏĦÎµÏģÎ¿Î½
ĠÏĢÏģÎ± ÏĩÎ¸á½²Î½
Ġá¼ĲÏĢÎ±Î¹Î½ á½³ÏĥÎ±Î¹
ĠÏĢÏģÎ¿ÎºÎµÎ¹ Î¼á½³Î½Î·Î½
ĠÏĢÏģÎ¿ÎºÎµÎ¹ Î¼á½³Î½Î·ÏĤ
ĠÏĢÎµÏģá½· ÏĥÏĨÎ±Î»ÏĥÎ¹Î½
ĠÎ´Î¹Î±Î²Î¿Î» á¿ĨÏĤ
ĠÏĢÏģÎ¿ÏĥÎ·Î³ á½¹ÏģÎµÏħ
ĠÎºá½»Îº Î»Î¿Î½
ĠÎºá½»Îº Î»Î¿ÏĤ
ĠÎºÎ»á½³ÏĢ ÏĦÎ·ÏĤ
Ġá¼°Î±ÏĦÏģÎ¹Îº á½´
ĠÎ· á½ĳ
Ġá¼ĢÎ½Î±Î¹Ïģ Îµá¿ĸÎ½
Ġá¼ĢÎ´ÏħÎ½Î± Î¼á½·Î±Î½
ĠÎºÎ¹ Î¸á½±
ĠÎºÎ¹ ÏģÏĥ
ĠÏĢÎµ Î´á½·
á½³ÏĦÎ± Î¾Îµ
ĠÎ»Î¿Î¹ ÏĢÎ±á½¶
ĠÎºÎ±ÏĦÎ±ÏĢ ÎµÏĢ
ĠÎ½Î¿Î¼Î¿ Î¸Îµ
ĠÎ»ÏħÏĩ Î½Î¹
ĠÎ²Ïģ á¿¶ÏĥÎ¹Î½
ĠÏĦá½³Î¼Î½ ÎµÎ¹Î½
ĠÎ²Î±ÏĥÎ¹Î»Îµá½» ÏĤ
ĠÏĢÎ±Î¹Î´á½· ÏīÎ½
Ġá¼ĢÏģÎ¹ÏĥÏĦÎµÏģ á½¹Î½
ĠÎ¼Î±ÏģÏĦÏħÏģá½· Î±ÏĤ
ĠÎĶÎ¹Î±Î² á½¹Î»á¿³
Ġá¼ī Î²ÏģÎ±
ĠÎºÎ¿Î¼ Î¼á½±ÏĦÎ¹Î¿Î½
ĠÎ´ÎµÎº ÏĦÎ¹Îºá½¹Î½
Ġá¼ĢÏĢÎµÎº á½µÏģÏħ
Ġá¼ĢÏĢÎµÎº Ïģá½·Î½Î±ÏĦÎ¿
ĠÏĢÎ±Î¸Î· ÏĦÎ¹Îºá½´Î½
Ġá¼ĲÏĢÎ¹ÏĢ Î¿Î»á¿ĨÏĤ
Ġá¿¥á½³ ÏĢÎ¿Î½
ĠÏĥÎ±ÏģÎº á¿¶Î´ÎµÏĤ
ĠÎ³Î»ÏħÎº á½º
ĠÎ´Î¹Î·Î³ Îµá¿ĸÏĦÎ±Î¹
Ġá½ĢÎ´ á½»Î½Î·Î½
ĠÏĢÎ±ÏģÎ¿Ïħ Ïĥá½·Î±
Ġá¼ĲÏĢÎ¹Î´á½³ ÎµÎ¹Î½
Ġá¼ĲÏĢÎ¹Î´á½³ ÏĥÎ¼
Ġá¼ĢÏĢÎ¿Î´ Î·Î¼
Ġá¼ĢÏģÏĩÎ±á½· Î±ÏĤ
ĠÎľÎ¹ ÏĩÎ±
Ġá¼ĲÎ¾ÎµÏĦÎ± ÏĥÎ¸á¿ĨÎ½Î±Î¹
Ġá¼ĲÎ½Î±Î½ÏĦÎ¹ Î¿á½»Î¼ÎµÎ½Î¿ÏĤ
Ġá¼ĢÎ½ÏĦÎµÎ³ÎºÎ»Î·Î¼Î±ÏĦÎ¹Îº Î¿á½¶
Ġá¼¡Î»á½· á¿³
ĠÏĢÏģÎ¿ÏĦ á½±Ïĥ
ĠÎ½ÎµÎ½ Î¹Îº
ĠÎºÎ¿Î¹Î» á½¹ÏĦÎ·ÏĦÎ¿ÏĤ
Ġá¼±Î¼ á½°ÏĤ
ĠÎ¼Î¹ÏĥÎ¸ á¿·
Ġá¼ĶÎ¸Î½ ÎµÏĥÎ¹Î½
ĠÎµá½ĲÏĦÎµÎ» Î¿á¿¦ÏĤ
á½Ģ Î½
á½Ģ Î»á½·Î³
ĠÏĦÎ¼ á½µÎ¼Î±ÏĦÎ±
ĠÎ¼Î±Î³ ÎµÎ¹Ïģ
ĠÎ¼Î½Î· ÏĥÎ¸Îµá½¶ÏĤ
ĠÏĦÎµÏĦÎ±Î³ Î¼á½³Î½Î±
Ġá¼ĢÎ³Î½Î¿ Îµá¿ĸ
Î´Î·Î» á½¹Î½
Ġá¼ĪÏĦÏĦÎ¹Îº á¿ĩ
ĠÎĳá¼°ÏĥÏĩ á½·Î½Î¿Ïħ
Î¼á½³ Î¼Î½Î·ÏĦÎ±Î¹
ĠÎ»á½·Î¸ ÏīÎ½
ĠÏĦÏħÏģÎ±Î½Î½á½· Î´Î¹
Ġá½ĢÎ»Î¹ÏĥÎ¸ á½µÎ¼Î±ÏĦÎ¿ÏĤ
Ġá½ĢÎ»Î¹ÏĥÎ¸ Î±á½·Î½ÎµÎ¹Î½
ĠÎºÎ±ÏĦÎ¿ÏģÎ¸á½½ Î¼Î±ÏĦÎ±
ĠÎľÎ¹Î½Î¿ÏħÎºÎ¹Î±Î½ Î¿á¿¦
ĠÎºÏħÎ½ á½¸ÏĤ
Ġá¼ĢÏĥÎº á½¸Î½
Ġá¼ĢÏĥÎº á½»Î»ÎµÏħ
ĠÏĨá½¹ Î²
ĠÎ¿á¼´Î½ á¿³
Ġá¼ĲÎºÏĢá½· ÏĢÏĦÎµÎ¹Î½
ĠÎ¼ÎµÏĥ Î¿ÏħÏģÎ±Î½
ĠÏĢÎ±Ïģá½³ Î»Î±Î²
ĠÏĢÎ±ÏģÎ¸á½³Î½ Î¿Î½
ĠÎ´Î¹Î±Ïĥ Î·Î¼Î±
Ġá¼ĢÎ½Î±ÏĢ Îµá½·
ĠÏĢÎ±Î¹Î´ Î±Î³ÏīÎ³
ĠÎºÎ±ÏģÏĢ Î¿á½ºÏĤ
ĠÏĨÎ¹Î»á½¹ÏĥÎ¿ÏĨ Î¿Î½
ĠÎºÎ±ÏĦÏī Î¼
Ġá¼ĶÎ³Î³ ÏģÎ±ÏĨÎ¿Î½
ĠÏĩÎ±á½· ÏģÏīÎ½
ĠÏĦÎ¹Î¼ÏīÏģá½· Î±Î½
ĠÏĢÎ»ÎµÎ¿Î½ Î±
ĠÎ²á½·Î² Î»Î¿Î½
ĠÎ²á½·Î² Î»á¿³
ĠÎ´Î±á½·Î¼Î¿Î½ Î¿ÏĤ
Ġá¼ĢÎ¸Ïģ Î¿Î¹
ĠÎµá¼°ÏĥÎ± Î³
ĠÎµá¼°ÏĥÎ± Î³ÏīÎ³á½´Î½
ĠÏĦÏģá½³ÏĨ ÎµÏĥÎ¸Î±Î¹
ĠÎ´Î¿Î¾ á½±Î¶ÎµÎ¹
ĠÎ¼Î¿ÏħÏĥÎ¹Îº á½´
ĠÎ´á½±Îº ÏĦÏħÎ»Î¿Î½
ĠÏĨÎ»ÎµÎ³ Î¼
ĠÏĢÏģÎ¿ÏĬ á½¼Î½
ĠÎ½ÏħÎº ÏĦá½¹ÏĤ
Ġá¼ĳÎº á½¼Î½
ĠÎ´Î¹Î±ÏĥÏĦ á½±ÏĥÎµÎ¹ÏĤ
ĠÎºá½±Î¼Î½ Î¿Î½ÏĦÎ¿ÏĤ
ĠÎµá½ĳÏģÎµ Î¸á½µÏĥÎ¿Î½ÏĦÎ±Î¹
ĠÎºÎ¿Î»Î±Îº Îµá½»ÏīÎ½
ĠÎ´Î¹ÎºÎ±ÏĥÏĦÎ·Ïģá½· á¿³
ĠÎºÏģÎ¹ Î¸á¿¶Î½
ĠÎ¼Î·ÏĦ Ïģá½¸ÏĤ
ĠÎ½Ïī ÏĦÎ¹Î±
Ġá¼ķÎº ÏĦÎ·
Ġá¼ķÎº ÏĦÎ¿ÏĤ
ĠÎ¾á½³Î½ Î¿ÏħÏĤ
Ġá½ĳÏĢÎ¿ÏĥÏĦ á¿ĨÎ½Î±Î¹
ĠÏĢÏģÎ±Î³Î¼Î±ÏĦÎµ á½·Î±
Ġá½ĳÎ³Ïģ á½¹ÏĦÎ·ÏĦÎ¿ÏĤ
Ġá¼ĲÏģÎµá½· Î´
ĠÎ³ÏħÎ½Î±Î¹Îº á½¹ÏĤ
Ġá½ĳÏĢÎ¿Î¼Î½ Î·Î¼Î±
Ġá½ĳÏĢÎ¿Î¼Î½ á½µÎ¼Î±ÏĦÎ±
ĠÎ´Î±Î¹Î¼ á½¹Î½Î¹Î±
Ġá½ģÏģÎ¼ á½½Î¼ÎµÎ½Î¿ÏĤ
ĠÏĨÏģ á½±ÏĥÎµÏīÏĤ
Ġá¼ĢÎ½Î¿á½· Î³ÎµÎ¹Î½
ĠÏĩÎµá½· ÏģÎ¿Î½
Î»Î±ÏĥÏĨ á½µÎ¼Î·ÏĥÎ±Î½
Ġá¿¥á½·Î¶ Î±
Ġá¼ĪÏģ ÎºÎ±
ĠÎºá½¹Î»Î± ÏĥÎ¹ÏĤ
ĠÎ´Î¹ÎµÎ» á½¼Î½
ĠÎ´Î¹ÎºÎ±Î½ Î¹Îºá½¸Î½
ĠÎ´Î¹ÎºÎ±Î½ Î¹ÎºÎ¿á¿¦
Ġá¼ĢÎ½Î±á½· ÏĥÎ¸Î·
Ġá¼ĲÎºÏĢÎµÏĥ Îµá¿ĸÎ½
Ġá¼ĳÎ¾ á½µÎºÎ¿Î½ÏĦÎ±
ĠÏĥÎºÎµÏħ á½´Î½
ĠÎ¼á½³Î¸ Î¿Î´Î¿Î½
ĠÎ´Î¹ÎºÎ±ÏĥÏĦÎ± á¿ĸÏĤ
ĠÎĴÎ±Î²ÏħÎ» á¿¶Î½Î¿ÏĤ
ĠÎ´Î¹ÎºÎ±Î¹Î¿Î»Î¿Î³ á½·Î±Î½
ĠÏĥÏħÎ½ÎµÏĥÏĦÎ·Îº á½¹ÏĦÎ±
ĠÏĥÏħÎ½ÎµÏĥÏĦÎ·Îº á½¹ÏĦÏīÎ½
Î¿á¼· ÏĥÎ¹
ÏĦÎ¹Î¸á½³ Î¼ÎµÎ½Î¿ÏĤ
ĠÎµá¼°Î´Î¹Îº á½´
ĠÎ²Î»á½³ ÏĢ
Ġá¼ĲÎ¾á½µÎ³ Î·ÏĥÎ¹Î½
ĠÎłÎ±ÏĨÎ»Î±Î³ á½½Î½
ĠÎłÎ±ÏĨÎ»Î±Î³ á½¹Î½Î±
ĠÏĢÎ»ÎµÎ¹ ÏĥÏĦá½±ÎºÎ¹ÏĤ
Ġá¼µÏĥÏĦÎ± ÏĦÎ±Î¹
ĠÎĶÎ¹ á½¹ÏĤ
ĠÎĶÎ¹ Î¿Îº
ĠÎľÏī ÏħÏĥ
ĠÏĥÏħÎ¼ÏĢÎµÏĢÎ»ÎµÎ³ Î¼á½³Î½Î¿Î½
ĠÎ½Î¿Î¼Î¹ ÎºÎ±á½¶
ĠÎ½Î¿Î¼Î¹ ÏĥÎ¸á½³Î½ÏĦÎ¿ÏĤ
Î¸ÏīÎ½ Î±ÏĤ
ĠÎ´Î¹ÎµÏĥÏĦ á¿¶ÏĦÎ±
Ġá¼ĶÏĦÏħÏĩ ÎµÎ½
ĠÏĢÎµÏģÎ¹ÏĢÎ± ÏĦÎµá¿ĸ
ĠÎ¸ÎµÏīÏģÎ· ÏĦÎ¹Îºá½´
Ġá¼łÎ½ Îµ
Ġá¼ĢÎ½ÏĦá½·Ïĩ ÏģÎ¹ÏĥÏĦÎ¿ÏĤ
ĠÎ´Î¹Î´á½± Î¾ÎµÎ¹
ĠÎºÏģÎµá½· ÏĦÏĦÏīÎ½
ĠÎºá¼ĢÎºÎµá¿ĸÎ½ Î¿
ĠÎºÎ»á½·Î¼Î± ÎºÎ¿ÏĤ
Î¿ÏĦÎ¹ Î´Î±á½·
Ġá¼ĲÎ½Î±Î»Î»Î±Î³ á½´Î½
ĠÎłÎµÎ¹ÏģÎ±Î¹ Îµá¿ĸ
ĠÎ¸ÎµÏĥÏĢÎµ Ïĥá½·Î¿Ïħ
ĠÎĶá½µÎ¼ Î·ÏĦ
Ġá½ģÏĢÎ¿á¿ĸ á½¹Î½
Ġá¿¬ÏīÎ¼Î± á½·ÏīÎ½
Ġá¼ĲÎ¾ÎµÏĦÎ±Î¶ á½¹Î¼ÎµÎ½Î±
ĠÎ¼Î±Î»Î¸Î±Îº á¿·
Ġá¼ĲÎ»ÎµÏħÎ¸ á½³ÏģÎ¿ÏħÏĤ
ĠÎ´Î± ÏĢÎ±Î½
ĠÎ´Î± ÏĪÎ¹Î»
ĠÎ²á½³Î» ÏĦÎ¹
Ġá¼ĢÎ³Î½ Î¿á½·á¾³
ĠÏĢÎ±Î½Î¿ÏħÏģÎ³ á½·á¾³
ĠÏĢÎ±ÏģÎµÎ»Î·Î»ÏħÎ¸ á½¹ÏĦÎ±
á½³Î»Î±Î² ÎµÎ½
ĠÎ´Î¹á½±ÎºÏģÎ¹ ÏĥÎ¹ÏĤ
ĠÏĨÎ±Î¹Î½ á½¹Î¼ÎµÎ½Î¿Î½
Ġá¿¥Î¿Î¼ÏĨ Î±á½·á¾³
ĠÏĥÏħÎ½á½µ Î¸ÎµÎ¹Î±Î½
ĠÎºÎ±Î¸á½³ Î´
ĠÏĢÎ±ÏģÎ±Î»Î¿Î³ Î¹ÏĥÎ¼
ĠÏĥÎºá½¹ ÏģÎ¿
ĠÏĢÎµÏģÎ¹ÏĦ ÏĦá½°
Ġá½ĳÏĢÎ¿Î´ Î¿Ïĩ
Ġá¼ĢÎ´á½»Î½Î± ÏĦÎ±
Ġá¼¤Î½Î¿Î¹ Î¾Îµ
Ġá¼ģÏģÎ¼Î¿Î½ á½·Î±Î½
ĠÎ»ÎµÎ¹ÏĦÎ¿ÏħÏģÎ³ Î¹Îºá½°
ĠÏĢÎ±Î½ÏĦÎ¿ÎºÏģá½± ÏĦÎ¿ÏģÎ¿ÏĤ
ĠÎ¼Î¿Î» Î³á½¸Î½
ĠÎ»Î¹Î¼ Î¿á¿¦
Ġá¼ĢÎ½Î±Î²Î± á½·Î½ÎµÎ¹
Ġá¼ĢÏģÏĩÎ± á½·Î±Î½
ĠÎ²Î±ÏģÎ² á½±ÏģÏīÎ½
Ġá½ģÎ´Î¿Î¹ÏĢÎ¿Ïģá½· á¿ĥ
Ġá¼ĲÏĦÎµ á½·Ïĩ
ĠÏĥÏĢÎ±Î½ á½·ÏīÏĤ
Ġá¼¡Î»Î¹Îº á½·Î±Î½
Ġá¼¡Î»Î¹Îº á½·Î±ÏĤ
ĠÏĩÏī ÏģÎ¹
ĠÎµá¼´Î»Î·ÏĨ Îµ
Ġá¼°Î´á½³ Î±Î½
ĠÎļá½¹ ÏģÎ±ÎºÎ¿ÏĤ
Ġá¼ĢÏĢÎ¿ÏĥÏĦÎ± Ïĥá½·Î±Î½
ÏĦÏģá½³ÏĢ ÎµÏĦÎ±Î¹
Ġá¼ĢÎºá½·Î½ Î·ÏĦÎ¿Î½
ĠÎ¼Î·Î´Î±Î¼ á¿ĩ
ĠÎºÎ±ÏĦÎ±ÏĥÎºÎµÏħÎ±Î¶ á½¹Î¼ÎµÎ½Î¿Î½
Ġá¼ĲÎ¾á½³ÏĢÎµ ÏĥÎµÎ½
ĠÏĦÏħÏĢÏĦ á¿ĨÏĥÎ±Î¹
ĠÎºÎ¿á¿¦ ÏĨÎ¿Î½
ĠÎºá½¹ÏĢ ÏģÎ¿Ïħ
ĠÏĢÎ·Î³ á½°ÏĤ
ĠÎ¼á½· Î¼
ĠÎ±á½ĲÏĦÎ¿Î¼Î¿Î» á¿ĨÏĥÎ±Î¹
Ġá¼ķÎ» ÎºÎµ
ĠÎ±á¼°Îµ ÏĦá½¸ÏĤ
ĠÏĥÏĨÏħÏģ á½¸Î½
ĠÎ´Î±ÎºÏĦÏħÎ» Î¹ÎºÎ¿á½¶
Ġá¼ĢÎ½ÏĦÎµÎ³ÎºÎ»á½µ Î¼Î±ÏĦÎ¿ÏĤ
ĠÎ±á¼±Î¼Î¿á¿¤á¿¥Î±Î³ á½·Î±ÏĤ
ĠÏĥá½±Î»ÏĢÎ¹Î³Î³ Î¿ÏĤ
ĠÏĦá¼Ģ Î»Î·Î¸
ÏĥÎ·Î¼Î± á½·Î½ÎµÎ¹
Ġá¼ĢÎ¸á½± Î½Î±ÏĦÎ¿Î½
Ġá¼ĲÎ½ÏĦ ÏħÎ³Ïĩá½±Î½
ĠÎ»Î·Î½ á½¸Î½
ĠÎµá¼°Î»Î·ÏĨ á½³Î½Î±Î¹
ĠÏĢÏģÎ¿Îµá½· ÏģÎ·ÏĦÎ±Î¹
Î´ÎµÎ´Îµ Î¼á½³Î½Î¿ÏĤ
ĠÎºÎ±ÏĦÎ±Î´ ÏģÎ¿Î¼
ĠÏĢÎµÏģÎ¹ÎµÏĩ á½¹Î¼ÎµÎ½Î¿Î½
Ġá¼ĢÎ½Î±ÏĨÎ¿Ïģ á½±Î½
Ġá¼ĢÎ½Î±ÏĨÎ¿Ïģ á½°Î½
ĠÏĦá½±Ïĩ Î¹ÏĥÏĦÎ±
Ġá¼łÎ³Î½á½¹ Î·ÏĥÎµÎ½
ĠÎ§Î±Î»ÎºÎ¹ Î´Îµá¿ĸÏĤ
ĠÎ²ÏģÎ±ÏĩÏħ ÎºÎ±ÏĦá½±Î»Î·Îº
Ġá¼ĲÎ¼Î²Î±Î»Î» á½¹Î¼ÎµÎ½Î±
ÎļÎ± ÏĦÎ±
ÎļÎ± ÏĦá½°
ĠÎ¼Îµá½·Î¶ Î¿ÏħÏĤ
ĠÎ½ÎµÏĨá½³ Î»Î·Î½
ĠÏĢÏģÎ¿ÏĥÎ±Î³Î¿Ïģ Îµá½»Î¿ÏħÏĥÎ¹Î½
Ġá¼ĪÎ³Î¿Ïģá½±ÎºÏģÎ¹ ÏĦÎ¿Î½
ĠÎºá½³Î½ ÏĦÏģÎ¿Ïħ
ĠÏĥÎ±Î» ÏĢá½·
Ġá¼ĲÎ½ÎµÏĥÏĦ á¿¶ÏĦÎ±
ĠÎ´Î¹ÎµÎ² á½±Î»Î»ÎµÏĦÎ¿
ĠÎ´Î¹Î´á½¹ Î±ÏĥÎ¹Î½
ĠÏĦÎµÎº Îµá¿ĸÎ½
ĠÏĢÎ±Ïģá¿Ĩ ÎºÎµÎ½
Ġá¼ĲÏĢÎ¹Ïģ Ïģ
Ġá¼ķÏĢ ÎµÏĥÎ¸Î±Î¹
Ġá¼ķÏĢ Î¿Î½ÏĦÎ±Î¹
ĠÎ£Î¹ á½¼Î½
ĠÎ£á½· Î²ÏħÎ»Î»Î±
Ġá½łÏĩ ÏģÎ¹
Ġá¼ĲÎ¼Î¼ á½³ÏĥÏīÎ½
ĠÏĨÎ¹Î»Î¿ ÏĦÎ¹Î¼
ĠÎ¼ÎµÏĦÎµÏĩ á½¹Î¼ÎµÎ½Î¿Î½
ĠÎµá½ĲÏĨÏģÎ¿Ïĥ á½»Î½Î·Î½
ĠÎµá½ĲÏĨÏģÎ¿Ïĥ á½»Î½Î·ÏĤ
ĠÎºÏīÎ¼á¿³Î´ Îµá¿ĸÏĦÎ±Î¹
ĠÎ»ÎµÎ¹ÏĢÎ¿ Î¸ÏħÎ¼
ĠÎ½ÎµÏĨá½³Î» Î±Î¹ÏĤ
ĠÎ±á¼°ÏĩÎ¼Î±Î»á½½ ÏĦÎ¿ÏħÏĤ
Î½Îµ á½½Î½Î·ÏĦÎ¿Î½
Î¿á¼¶ Î´á½±
ĠÎºá½½ÏĢ Î±Î¹ÏĤ
á½³ÏĥÏĩ ÎµÏĦÎ¿
Ġá¼ĢÏĥÎ¹Î½ á½³Î±
Ġá¼ĶÎ² Î»ÎµÏĢÎ¿Î½
ĠÏĢÎ±ÏĦÏģá½· Î´Î¿ÏĤ
Îµá½·ÏģÎ±Î½ ÏĦÎ±
ĠÏĩá½¹Ïģ ÏĦÎ¿Î½
Ġá¼ĲÎ¾Î±ÏĢ á½±ÏĦÎ·ÏĤ
ĠÏĥÏħÎ½ÎµÎ¹ ÏĥÏĨ
ĠÎ¿á½ĲÎ´Î±Î¼ Î¿á¿¦
ĠÏĢÎ±ÏģÎ±ÏĥÏĩ Îµá¿ĸÎ½
ĠÏĥÎºÎµá½» Î·
ĠÎ¸ÎµÎ¿ ÏĥÎµÎ²
Ġá½ķÏĢ ÏĦÎ¹Î¿Î½
ĠÎľÎ±Î³ Î½Î·
ĠÏĢá½³ÏĨ ÏħÎºÎµÎ½
ĠÎ¼Î·Î´ÎµÎ½ á½¶
Ġá¼ĲÏĢÎ¹ÏĥÏĦá½µÎ¼Î¿Î½ ÎµÏĤ
Î±Î³Î³á½³Î» Î¹Î¿Î½
ĠÎ¼Î±Ïĥ Î·ÏĦá¿Ĩ
ĠÏĥá½»Î½ÏĦÎ¿ Î¼Î¿Î½
á½³Î²Î»Î· ÏĦÎ±Î¹
ĠÏĢÎ»Î±Îº Î¿á¿¦Î½ÏĦÎ¿ÏĤ
ĠÏĢÏģÎ±Ïĩ Î¸á½³Î½ÏĦÎ¿ÏĤ
Ġá½ĻÏĢá½³Ïģ Î²Î¿Î»Î¿Î½
Ġá¼¶ ÏĥÎ±
Ġá¼ĲÎ¼Î± Ïħ
Ġá¼ĲÏģÎ± ÏĥÏĦ
Ġá½ī Î¼Î·ÏģÎ¹Îº
Ġá¼ĢÏĩÏģ á½µ
Ġá¼ĲÎ½Î±á½· Î¼ÏīÎ½
ĠÎ´Î¹ÏĢÎ»Î± á¿ĸ
Ġá¼ĦÏĦÎµÏĩÎ½ Î¿Î¹
ĠÏĢÎ¿Î¹Î¼Î±Î½ Îµá¿ĸ
Ġá¼ĢÎ½ÏĦÎ¹Î»Î·ÏĢ ÏĦÎ¹Îºá½¸Î½
ĠÏĨÎ±á½»Î» ÏīÏĤ
ĠÎľÎ±Ïģ ÏīÎ½
ĠÏĥÏħÎ»Î»Î± Î²Î±
ĠÏĥá½»Î³ ÎºÎµÎ¹ÏĦÎ±Î¹
ĠÎ¿á½ĲÎ´ÎµÎ¼Î¹ á¾·
ĠÎ¦ÏħÏĥÎ¹Îº á¿ĩ
ĠÏĦÎ¿ÏĥÎ¿á½» ÏĦá¿³
Ġá¼ĲÏĢÎ¹Î½ÎµÎ½á½¹ Î·ÏĦÎ±Î¹
Ġá¼ĢÎºÏģÎ¿Î±Î¼Î±ÏĦÎ¹Îº Î¿á¿ĸÏĤ
Ġá½ĳÏĢÎ¿ÏĢá½· ÏĢÏĦÎµÎ¹
Ġá¼ĢÎ½Î´Ïģá½± ÏĢÎ¿Î´Î±
Ġá¼ĲÎ½ÏĦÎ¿ Î»á½°ÏĤ
ĠÎ¼ÎµÎ»Î¹ ÏĥÏĥá¿¶Î½
ĠÎļÎ¿ ÏģÎ¹Î½
Ġá¼ĪÏģÎ¹ÏĥÏĦÎµá½· Î´Î·ÏĤ
ÏĥÏĢá½± ÏģÎ±ÎºÏĦÎ¿Î½
ĠÎ¸Î±Î»á½± ÏĦÏĦÎ·ÏĤ
ÎŁá¼· ÏĥÎ¹
ĠÏĦÏģá½±ÏĢÎµÎ¶ Î±Î½
Ïļ Í´
Î¿Î¼ÏĢ á½·Î±Î¹ÏĤ
Î»Î¿á½» ÏĦÎ·
ĠÏĢÏģá½³ ÏĢÎµÎ¹
ĠÎ´Î¹á¿Ĩ ÎºÎ¿Î½
Ġá¼ĶÎ»Ïħ ÏĥÎµ
Ġá¼ĶÎ»Î¸ ÏīÎ¼ÎµÎ½
Ġá¼ĲÏĢÎ¿ÏħÏģÎ±Î½ á½·Î¿Ïħ
ĠÎµá¼°Î¸ Î¹Ïĥ
Ġá¼ĦÎ¼Îµ ÏĥÎ±
ĠÎ¼ÎµÎ¼Î±Î¸ á½µÎºÎ±Î¼ÎµÎ½
ĠÏĥÏħÎ½ÏħÏĢ á½±ÏģÏĩ
Ġá¼ĢÎ½ÏĦÎ¹ÏĢÎ±Ïģ á½±ÏĥÏĦÎ±ÏĥÎ¹Î½
Ġá¼ĢÎ½ÏĦÎ¹ÏĢÎ±ÏģÎ± ÏĥÏĦá½±ÏĥÎµÏīÏĤ
Ġá¼ĢÎºÏģá½¹ÏĢÎ¿Î» Î¹Î½
Ġá¼ĢÎ½Î±Î¾ á½·ÏīÏĤ
ĠÏĢÎµÏĢÎ¹ÏĥÏĦ ÎµÏħ
ĠÏĥÏĩÎ¿Î¹Î½ á½·Î±
ĠÏĥÏħÎ¼ÏĢá½± Î¸ÎµÎ¹Î±Î½
Î¤Ïģá½· ÏĦÎ¿Î½
Ġá¿¥Î·á¿ĵ Î´Î¹Î¿Î½
ĠÏĥÏīÏĨ ÏģÎ¿Ïĥ
á¼´Ïĥ ÏīÏĤ
ĠÎµá½ĶÏĩÏģÎ· ÏĥÏĦÎ¿Î½
ĠÏĦá½³ÏĦÎ±Ïģ ÏĦÎ¿ÏĤ
ĠÎºÎ¿ÏĦ á½»Î»á¿ĥ
ĠÎ´Î¹Î´Î±Ïĩ á½´Î½
ĠÏĢÏģÎ¿ÎµÎ¹Î»Î·Î¼ Î¼á½³Î½Î¿Î½
Ġá¼ĲÎ»Î»ÎµÎ» ÎµÎ¹
Ġá¼ĪÏģÏĩÎ¹Î´ á½±Î¼Î¿Ïħ
ĠÎľÎ±ÏĦÎ¸Î± á½·á¿³
ĠÏĢÎ·Î´Î±Î»Î¹ ÏīÏĦá½¸Î½
ĠÏĢÏģÎ¿ÏĥÎ´Î¹Î¿ÏģÎ¹ÏĥÎ¼ Î¿á¿¦
ĠÎ£Î¿ÏĨÎ¿Îº Î»á½³Î¿ÏħÏĤ
ĠÏĨÎ»á½³Î² Î±ÏĤ
Î¼Î·Î´ á½²Î½
Ġá¼ĲÏģÏħ Î¸Ïģ
Ġá¼ĢÏĥÏĩÎ· Î¼Î¿Î½
Ġá¼ĲÎ½Î´ÎµÎ¹ÎºÎ½á½» Î¼ÎµÎ½Î¿ÏĤ
Ġá¼Ķá¿¤á¿¥ ÏīÏĦÎ±Î¹
Ġá¼ĲÎºÎ»Îµ Î»Î¿Î¹ÏĢ
ĠÏĦÎµÏĦÎµÎ» ÎµÎ¹Ïī
Ġá¼ĲÎ¾Î±Î³Î³ á½³Î»Î»
ĠÎ¶á½»Î³ ÏīÎ¼Î±
ĠÏĥÏħÎ½ÎµÎ¶ ÎµÏħÎ³
ĠÎłá½»Î¸ Î¹Î¿ÏĤ
Ġá¼ĢÎ½ÏĦÎ¹ÏĦ á½±ÏĥÎµÏīÏĤ
Ġá¼ĢÎºá½± Î¸Î±Ïģ
ĠÎ¼á½³ÏĦÏī ÏĢÎ¿Î½
ĠÏĢÎ±Ïģá½±Î´Î¿Î¾ Î¿ÏĤ
ĠÏĩÎµÎ¹Î¼á¿¶Î½ Î¹
Ġá¼ĢÏĢÎµÎºÏĦá½±Î½ Î¸Î·ÏĥÎ±Î½
ĠÏĦÏģá½±Ïĩ Î·Î»Î¿ÏĤ
ĠÏĦÎµÏĥÏĥÎ±ÏģÎ±ÎºÎ¿Î½ÏĦÎ± Î´á½»Î¿
ĮÎ»ÏħÎ¼ÏĢ Î¿ÏĤ
ĠÏĦá¼ĦÎ»Î» Î±
Ġá¼ĲÎ½Î´Î¹á½± Î¸ÎµÏĦÎ¿ÏĤ
Î²ÏħÎ»Î» Î¹á¾·
Ġá¼ĲÏĢá½¹Ïģ Î½ÎµÏħ
Ġá½ģÎ»á½¹ ÎºÎ»Î·ÏģÎ¿Î½
Î¿á¿ĸÎ´Ïħ Î¾
ĠÎ¸ÏħÎ½ Î½Î¿ÏĥÎº
ĠÎ¸ÏħÏģ á¿¶Î½
ĠÏĢÎ¿Î´Î¿Îº á½±Îº
ĠÏĢÎµÏĢÏģá¾¶ ÏĩÎ¸Î±Î¹
Ġá¼¹ÏĢÏĢÎ¿Î´ á½±Î¼Î¿Ïħ
ĠÏĥÏħÎ³Î³ÏħÎ¼Î½Î± ÏĥÎ¸á½³Î½ÏĦÎ±
ĠÏĩÎµÎ¹Î¼á½±Ïģ ÏģÎ¿ÏħÏĤ
ĠÏĢÏģÏīÏĦá½¹ÏĦÎ¿ ÎºÎ¿ÏĤ
Ġá¼ĢÏĥÎºá½»Î»ÎµÏħ ÏĦÎ¿ÏĤ
ĠÎ¼ÎµÏĥÎ¿ÏħÏģÎ±Î½ á½µÎ¼Î±ÏĦÎ¹
£ Î½
á½ Ī
ÏĦ á½µÏĥÎ±ÏĤ
ÏĦ á¿¶Î´ÎµÏĤ
Î½ Ïħ
Î½ Î¿Ïħ
Î½ ÏĦÎ¿
Î½ Î¹Îº
Î½ Îµá½·Î±Î½
Î½ ÏīÏĥÎ¹Î½
Î± Î»Î·
Î± Î»Îµ
Î± Î¼Î²á½±Î½
Î± á¿ĸÎ¿Î½
Î¿ ÏĦÎ¿
Î¿ ÏģÎ¹ÏĥÏĦ
Î¿ Î²Î±
Î¿ ÏģÎ±Îº
Î¿ ÏĦá½³ÏģÎ¿Ïħ
Î¿ á½µÏĥÎ±Î¼ÎµÎ½
á¼ ĥ
á¼ Ĩ
á¼ Ļ
Î¹ ÏĥÎµ
Î¹ Î³Î½Ïī
Î¹ ÏĢá¿¶ÏĤ
Îµ ÏĦÎ¿ÏĤ
Îµ Î»Î±
Îµ ÏĥÏĩ
Ïģ ÏģÎ·
Ïģ ÏĢÎ±
ĠÏĦ ÏħÏĢ
Ïĥ á½º
Ïĥ Î¿ÏħÏĤ
Ïĥ ÏĥÎµ
Ïĥ Î¿Î¼á½³Î½ÏīÎ½
Ïĥ Î¼Î±ÏĥÎ¹Î½
ÏĢ á½»
ÏĢ á½±Î½
ÏĢ Î¿ÏħÏĤ
ÏĢ Î±Î»
ÏĢ ÎµÏĥÎ¸Î±Î¹
ÏĢ Î¿ÏħÏĥÎ¹
ÏĢ á½¹Î½ÏĦÏīÎ½
ÏĢ Î¿Î¼ÎµÎ½
ÏĢ ÏģÏī
ÏĢ á½±Î½ÏĦÏīÎ½
ÏĢ Î¿á¿ĸÎ¿Î½
Î» Îµá¿ĸ
Î» ÎµÎ¹Î´
Î» Î¸Îµ
Î» á½µÏĥÎµÎ¹
Î¼ á½°
Î¼ á½¸ÏĤ
Î¼ á½¸Î½
Î¼ Î¿Î»
Î¼ á¿·
Î¼ Î¼Î±ÏĦÎ¿ÏĤ
Î¼ Î¿Î»á½¹Î³Î·ÏĦÎ±Î¹
Î¼ ÎµÎ¹Îº
Î¼ á½³Î»ÎµÎ¹
Î¼ Î¼Î±Î½
ĠÎº ÏĦÎ¹
ĠÎº Î¿á¿ĸ
ĠÎº Î¿ÏĢ
ĠÎº ÏĦÎ·Î½
ĠÎº Î½á½·
ĠÎº á½·Î½ÎµÎ¹
ĠÎº ÏħÎ»
ĠÎº á½³Îº
ĠÎº Î»Î±á½·
ĠÎº Î»Î·Î¸á¿ĨÎ½Î±Î¹
Îº ÏģÎ±
Îº Î·Î½
Îº Î¿á½»
Îº ÏħÎ½
Îº ÏĦÎ¿Î¹
Îº Î¿ÏħÎ½
Îº á½±Îº
Îº ÏĦÎ¿ÏħÏĤ
Îº Î¿Î²Î±Î»Î¹Îº
Ïħ ÏģÎ±
Ïħ ÏĦÎ¿
Ïħ Î»Î±
Ïħ ÏģÎ·
Ïħ Î´á½±
Ïħ Î»á½·Î±
á½¶ Î¼
Î· Î¼á½±
Î· Î¸á½³Î½ÏĦÎ±
Î· Î¸á½³Î½ÏĦÎ¿ÏĤ
Î· Î»Î»Î±Î³
ĠÏĢ Î¹Î½
ĠÏĢ á½½ÏĢ
á½· Ïĥ
á½· Ïī
á½· ÏĦÏīÎ½
á½· ÏĥÎ¸Î±Î¹
á½· ÏĦÎ·Î½
á½· Ïĥá¿ĥ
á½· Î´Î·ÏĤ
á½· Î¼Î·
á½· ÏĥÎ¸Î·ÏĥÎ±Î½
á½· Ïĥá¿ĥÏĤ
á½³ Î¿Î½
á½³ ÏĥÎ¹Î½
á½³ Î´Î¹
á½³ Î¼ÏĨ
ĠÎºÎ± Ïĩ
ĠÎºÎ± ÏĦÎ±Î¹
ĠÎºÎ± Î¼ÏĨ
Ġá¼Ĳ Î¿á½·
Ġá¼Ĳ Î¼Îµ
Ġá¼Ĳ Î»á½µ
Ġá¼Ĳ Î´á½³
Ġá¼Ĳ Î´Ïī
Ġá¼Ĳ Î»ÎµÎ³
Ġá¼Ĳ Î´á½»Î½Î±ÏĦÎ¿
Ġá¼Ĳ Ïģá½·Î¿Î¹ÏĤ
Ġá¼Ĳ Î¼Î±ÏģÏĦá½»
Ïī Î¼á½³Î½Î±
Ïī Î¸á½³Î½ÏĦÏīÎ½
Ïī ÏĦá½³ÏģÎ±ÏĤ
Ïī ÏĦá½³ÏģÎ±Î½
Ïī Î¸á½µÏĥÎµÏĦÎ±Î¹
ĠÎ´ Î¿Î»
ĠÎ´ ÎµÏĨ
ĠÎ´ á½¹Î»
ĠÎ´ á¿¶Î¼ÎµÎ½
Î³ Î¼á½±
Î³ Î¹Î¿Î½
Î³ Ïģá½±ÏĨ
Î³ ÎºÎ¿Î½
Î³ ÏīÎ½Î¿Î½
Î³ á½³Î³ÏģÎ±ÏĢÏĦÎ±Î¹
Î¿Î½ Î¿Ïħ
Î¿Î½ ÏĦá½·
ÏĦÎ± ÏĦÎ±
ÏĦÎ± Î»Î»Î±
á½± ÏĦÎ±Î¹
á½± Î¸Î·
á½± ÏĥÎ¸Î·
Î¸ Í´
Î¸ Î¹Î¿ÏĤ
á½¹ Î±ÏĤ
á½¹ Î»Îµ
á½¹ Î·ÏĤ
á½¹ ÎºÏī
Ġá¼Ģ Î»Îµ
Ġá¼Ģ ÏĥÎµ
Ġá¼Ģ Î¸Îµ
Ġá¼Ģ á½µÏģ
Ġá¼Ģ Î»ÏĨ
Ġá¼Ģ Î»á½¹Î³
Ġá¼Ģ Î»ÎµÎº
Ġá¼Ģ ÏĥÎ±Ïģ
Ġá¼Ģ Î»á½¹Î³ÏīÎ½
Ġá¼Ģ Î¸Î±Î½Î±
ĠÎ¼ á½°
ĠÎ¼ Î¿á¿¦Î½
ĠÎ¼ á½µÎ½
ĠÎ¼ á¿¦Î½
Ïĩ á½¶
Ïĩ Î±Î¹
Ïĩ ÏģÎ¹
Ïĩ Î¿Ïģ
Ïĩ Î¹ÏĥÏĦÎ±
Ïĩ Î¿Î¼Î±Î¹
Ïĩ Î¹ÏĥÏĦÎ¿Î½
Î´ Î±Î¹
Î´ Î¿á½»
Î´ Î¿Î¼
Î´ Î¿Ïĩ
Î´ á½±Îº
Î´ Î±Î¹Î¼Î¿Î½
ÏĨ á½¹Î½
ÏĨ á½±Ïģ
ÏĨ Î±á½·
ÏĨ Ïģá½¹Î½
ÎµÎ¹ Îºá¿¶Î½
Î¿Ïħ Ïĥá½·Î±Î½
Î¿Ïħ Ïĥá½±
Î¿Ïħ Ïĥá½·á¿³
á½» Î²
á½» Ïĥá¿ĥ
á½» ÏĢÏĢÎ±
ÏĥÏĦ á½¶
ÏĥÏĦ Ïģá½±
ÏĥÏĦ ÎµÏīÏĤ
ÏĥÏĦ á½µÎºÎµÎ¹
ÏīÎ½ Î¿ÏĤ
ÏīÎ½ Îµá½·á¾³
ĠÎ³ ÎµÏģ
ĠÎ³ Í´
ĠÎ³ á½µÏģ
ĠÎ³ á½³Î»Ïī
ĠÎ³ á½µÏĬ
ĠÎ³ ÏģÎ·Î³Î¿Ïģ
ĠÎ³ á½±Î³Î³
Î±Î¹ ÏĥÏĦ
Î±Î¹ Ïģá½³
ĠÎµá¼ µÎ½
á¿ĸ Î´Î±ÏĤ
á¿ĸ ÏĪÎ±Î¹
Î±Î½ á½·Î±ÏĤ
á½µ Î²
á½µ ÏģÎ±
á½µ ÏĦÎµÎ¹
ÎµÎ½ Î½
ĠÏĦÎ¿á¿¦ Î¸
ĠÏĢÏģ Î¿á¿Ĩ
ĠÏĢÏģ á½¹Î½Î¿Î¹Î±Î½
ĠÏĥ á¿ĸ
ĠÏĥ á¿¶Î½
ĠÏĥ á¿´
ÎµÏģ Î±ÏĨ
ÏĦÎ¹ Î´ÎµÏĤ
Îµá¿ĸ á½±
Îµá¿ĸ ÏĥÎ¹
Îµá¿ĸ ÏĦÎµ
Î»Î» Î±Îº
Ġá¼ĲÎ½ á½¹
Ġá¼ĲÎ½ Î´ÎµÎ¹
Ġá¼ĲÎ½ Î´á½»
Ġá¼ĲÎ½ ÏĦÎµÏģá½¹Î½
Ġá¼ĲÎ½ Î±Î»Î»á½±
Ġá¼ĲÎ½ ÏĦá½³ÏĩÎ½ÏīÎ½
Ġá¼ĲÎ½ ÏĦÎ±á¿¦Î¸á½±
Î¼Î± ÏĦ
ĠÎ´Î¹ ÏĦ
ĠÎ´Î¹ ÏĬ
ĠÎ´Î¹ ÏīÎ³
ĠÎ´Î¹ ÏĥÏĥ
ĠÎ´Î¹ á¿Ħ
ĠÎ´Î¹ Ïĥá½»
Î¾ á½·Î½
Î¾ Î¿Î¼Î±Î¹
Î¾ á¿ĥÏĤ
Ġá¼Ķ Î³ÏģÎ±ÏĨ
Ġá¼Ķ Î½Î±ÏĦÎ¿Î½
Ġá¼Ķ Î¸ÎµÏĦÎ¿
Ġá¼Ķ Î¼ÎµÎ»Î»ÎµÎ½
Ġá¼Ķ Î²Î±Î»Î»Î¿Î½
Ġá¼Ķ Î»Î»ÎµÎ¹
Î² Î¹
Î² Î»á½µ
Ġá¼ĲÏĢ á½³Î³
Ġá¼ĲÏĢ ÎµÎº
Ġá¼ĲÏĢ ÎµÎ³
Ġá¼ĲÏĢ á½±Î³ÏīÎ½
Ġá¼ĲÏĢ Î¿ÏĪ
Ġá¼ĲÏĢ á½·Î½Î¿Î¹Î±Î½
ĠÎ±á½ĲÏĦ Î¿ÏĢ
ÏģÎ± Ïĥá½·
ĠÎ» Î·Îº
ĠÎ» Î·Ïģ
ĠÎ» á½¹Ïģ
ĠÎ» Î¹ÏĢ
Ġá½ģ Î´Î·
ĠÎµá¼° ÏĥÏĢ
ĠÎµá¼° ÏīÎ¸
ĠÎµá¼° Î¼á½¶
Ġá½ħ ÏĦá¿³
ĠÏĦá¿¶Î½ Î´Îµ
ĠÏĨ Î»Î±
ĠÏĨ Î»Î¿Î³
ĠÏĨ Î»á½¹Î³
ĠÏĨ á½µÎ¼Î·
á¿¶Î½ ÏĦÎ¹
á¿¶Î½ ÏĦÎ¿ÏĤ
Ġá¼¡ Î´Îµá¿ĸ
Ġá¼¡ ÏĦÎ¿á½·
Ġá¼¡ Î½ÏĦÎ¹Î½Î±Î¿á¿¦Î½
á½½ Î¸Î·ÏĥÎ±Î½
á½½ ÏĥÎ¹ÎµÏĤ
ÏĦÎ· Ïĥ
ÏĦÎ· ÏĨ
ÏĦÎ· ÏĥÎ±
ÏĦÎ· ÏģÎ¹á¿¶Î½
Ġá¼ĢÎ½ ÎµÎ¹
Ġá¼ĢÎ½ Îµá½·
Ġá¼ĢÎ½ Î±Ïģ
Ġá¼ĢÎ½ Î·Î»
Ġá¼ĢÎ½ á½µÎ³
Ġá¼ĢÎ½ á½±ÏĥÏĦÎ±ÏĥÎ¹Î½
Ġá¼ĢÎ½ Îµá¿ĸÎ»ÎµÎ½
Ġá¼ĢÎ½ á½¹Î¼Î¿Î¹
ÏĦÎµ ÏĦá½±Ïģ
ÏĦÎµ á¿¦Î¸ÎµÎ½
ÏģÎ¹ ÏĦÎ±Î¹
ÏģÎ¹ Î¾
ÏģÎ¹ ÏĥÎ±
á½¹Î½ ÎµÏĤ
ÏĥÎ¸ Î·Î½
ÏĥÎ¸ á¿¶ÏĥÎ¹Î½
ÏĥÎ¸ Îµá½·Î·
ÏĥÎ¸ Îµá½·ÏĤ
ÏĥÎ¸ Îµá½·Î·Î½
ÏĦÎ¿ Î»á½³
ÏĦÎ¿ Î³ÎµÎ½
Î¹Î½ Î±
ÎºÎ± Îº
ÎºÎ± ÏĦá½³
Ġá¼Ħ Î´Î¿Î¾Î¿Î½
Ġá¼Ħ ÏģÎ¹ÏĥÏĦÎ±
Ġá¼Ħ Î¸ÎµÏĦÎ¿Î½
Ġá¼Ħ Î´Î¹ÎºÎ¿ÏĤ
Ġá¼ĢÏĢ Ïī
Ġá¼ĢÏĢ Î±Î³
Ġá¼ĢÏĢ ÎµÎ»
Ġá¼ĢÏĢ á½¹Ïģ
Ġá¼ĢÏĢ ÏģÎ¿Ïĥ
Ġá¼ĢÏĢ ÎµÎ»Î¸Îµá¿ĸÎ½
Îµá½· ÏģÎ³
Îµá½· Î¼ÎµÎ½Î¿Î¹
Ïģá½· Î¿ÏħÏĤ
Ïģá½· Î¸Î·
Ïģá½· á¾³
ĠÏĩ Î¿Î»
ĠÏĩ Î¿á¿¦Î½
ĠÏĩ Î»ÎµÏħ
ĠÏĩ á½¤
Ġá½ĳ Îµ
Ġá½¡ Ïģá½·
á¿¶ ÏĦÎ±Î¹
á¿¶ ÏĥÎ±
á¿¶ ÏĥÎ±Î½
á½³Î³ Î¿Î½
á½³Î³ Î¼Î±
ĠÏĥÏħ á¿¤á¿¥
ĠÏĥÏħ ÏĥÏĦá½³Î»Î»
Ġá¼ĲÎº ÏĦÎ±
Ġá¼ĲÎº ÎºÎµÎ½
Ġá¼ĲÎº ÏĢá½½
Ġá¼ĲÎº Î»á½µÎ¸Î·
Ġá¼ĲÎº Î»á½µÎ¸Î·ÏĥÎ±Î½
Ġá¼ĲÎº Îµá½·Î½Î·
Ġá¼ĲÎº á½³Î»ÎµÏħ
ĠÏĦÎ¿ á½·
ĠÏĦÎ¿ á½·Ïĩ
ĠÏĢÏģÎ¿ ÎµÎ»
ĠÏĢÏģÎ¿ Î¸á½³
ĠÏĢÏģÎ¿ ÏĦá½³ÏģÎ±
ĠÏĢÏģÎ¿ Î¸ÏħÎ¼
ĠÏĢÏģÎ¿ Î±Î³ÏīÎ³
ĠÏĢÏģÎ¿ á½µÎ³Î±Î³Îµ
ĠÏĢÏģÎ¿ Î»Î±Î¼Î²á½±Î½ÎµÎ¹Î½
á¿³ Î´Îµá¿ĸ
Î»Î· Ïĥá½·Î¿ÏħÏĤ
á½³Ïģ á¿ĥ
á½³Ïģ Î·ÏĦÎ±Î¹
á¿Ĩ ÏĦÎµ
á¿Ĩ ÏĦÎ¿
á¿Ĩ ÏĥÎ±á½·
á¿¦ Î¿Î½
á¿¦ ÏĦá½±
ĠÎ¸ Î·Ïģ
ĠÎ¸ Î»á½±Ïĥ
Î¹Îº á½·Î±ÏĤ
ÎµÎ¹Î½ á½¸ÏĤ
Î¶ á½¹Î½
Î¶ Î¿Î½ÏĦÎ¿ÏĤ
Î¶ á½¹Î¼ÎµÎ½Î¿Î¹
Î¶ á½½Î¼Î±ÏĦÎ±
Î¿Î» ÏħÎ¼Î½
Î¿Î» ÎµÏĥÏĩ
ĠÎ² Î¿Ïģ
ĠÎ² Î»Î±Î²
ĠÎ² Î»Î±Î¹
ĠÎ² Ïģá½¹
ĠÎ² á½³Î²
ĠÎ² á½»Ïĥ
á½±Î½ Î¹Î¿Î½
Ġá¼ĲÏĥÏĦ Î·ÏģÎ¹
Ġá½ĳÏĢ ÎµÎº
Ġá½ĳÏĢ á½³ÏĥÏĦ
Ġá½ĳÏĢ Î±Î»Î»
Ġá½ĳÏĢ Î¿Î»Î±
Ġá½ĳÏĢ Î¿ÏĩÏīÏģ
Ġá½ĳÏĢ á½³ÏĥÏĩÎµÏĦÎ¿
á½·Î½ Ïī
ĠÎ¼Îµ Î»
ĠÎ¼Îµ Î»á½·
ĠÎ¼Îµ Î¼Î¹
ĠÎ¼Îµ Î¼Î¹Î³
ĠÎ½ á¿¶
ĠÎ½ á¿¶ÏĦÎ¿Î½
Ġá¼ĳ Î¾Î±
ÏĪ Îµá½»
ÏĪ á¿ĥÏĤ
ĠÎ»á½³Î³ Îµ
ĠÎ»á½³Î³ ÎµÏĦÎµ
á½µÏĥ Î¿Î¹
á½µÏĥ ÎµÏĦÎµ
Î»Îµ á½¹Î½
Î»Îµ á½ºÏĤ
Ġá½Ģ Î»
Ġá½Ģ ÎºÎ½
Ġá½Ģ Î»ÎµÎ¸
ĠÏĦÎµ Î»á½³
ĠÏĦÎµ ÏĦÏģ
ÏĦÎ¿Î½ ÏĦÎµÏĤ
ĠÏĢÎ±Ïģ Îµá½·
ĠÏĢÎ±Ïģ ÎµÎº
ĠÏĢÎ±Ïģ á½¼Î½
ĠÏĢÎ±Ïģ á½¹Î½ÏĦÏīÎ½
ĠÏĢÎ±Ïģ ÎµÎ³
ĠÏĢÎ±Ïģ á½µÏĥÏī
ĠÏĢÎ±Ïģ á½³Î¸Î·ÎºÎµÎ½
ÏĦá½· Î±
ÏĦá½· ÏīÏĤ
ÏĦá½· Î¼ÏīÎ½
á½±Ïĥ ÏĦÎ±
á½±Ïĥ Î¼Î±ÏĦÎ±
á½±Ïĥ ÎµÏĥÎ¹
á½±Ïĥ Î±Î½ÏĦÎ±
Ġá¼ĶÏĩ Îµ
Ġá¼ĶÏĩ ÏīÎ¼ÎµÎ½
Î¿Ïģ Îºá¿¶Î½
Î»Î± ÏĥÏĦÎ±Î¹
Î»Î± ÏĥÎ¼á½±ÏĦÏīÎ½
á¾¶ ÏĦÎ¿
á¾¶ ÏĥÎ±
á¾¶ ÏĥÎ±Î½
á¾¶ ÏĥÎ±Î¹
ĠÎ´Î¹Î± Î»Î»
ĠÎ´Î¹Î± ÎºÎµÎ¹
ĠÎ´Î¹Î± ÏĩÏīÏģ
ĠÎ´Î¹Î± Ïĥá½»
ĠÎ´Î¹Î± Î»Î±Î²á½¼Î½
ĠÎ´Î¹Î± Î¸á½³ÏĥÎµÎ¹ÏĤ
ÏĥÎ± ÏĥÎ±
ĠÏĢÎ¿Î¹ Î¿á¿¦Î½ÏĦÎµÏĤ
ĠÏĢÎ¿Î¹ Î¿á½»Î½ÏĦÏīÎ½
ĠÏĢÎ¿Î¹ Î¿ÏħÎ¼á½³Î½Î¿Ïħ
ĠÏĢÎ¿Î¹ á½µÏĥÎ±Î½ÏĦÎ±
ĠÏĢÎ¿Î¹ á½³ÎµÎ¹
ĠÏĢÎ¿Î¹ á½µÏĥÎ¿Î¼ÎµÎ½
á¿· Î±
ÏĦÎµÏģ Î±á½·
Ġá¼ĲÏĢÎ¹ ÏĦá½±
Ġá¼ĲÏĢÎ¹ ÏĦÏģá½³
Ġá¼ĲÏĢÎ¹ ÏĦÏģá½³ÏĪÎ±Î¹
Ġá¼ĲÏĢÎ¹ Î³Î½ÏīÏĥ
Ġá¼ĲÎ¾ á½±
Ġá¼ĲÎ¾ ÎµÎ¹
Ġá¼ĲÎ¾ á½µ
Ġá¼ĲÎ¾ ÎµÎº
Ġá¼ĲÎ¾ ÏīÏĥÏĦ
Ġá¼ĲÎ¾ Î¿ÏĥÏĦ
Ġá¼ĲÎ¾ á¿ĨÎ»Î¸Îµ
Ġá¼ĲÎ¾ Î±á½·ÏģÎµÏĦÎ¿Î½
Ġá¼ĲÎ¾ á½µÏģÏĦÎ·Î½
ÏĦá½³ Î»Îµ
ÏĦá½³ Î»ÎµÎ¹Î±Î½
ÏĦÎ¹Îº Î¿á½·
ĠÏĥÏĦ ÏģÎ¿ÏĨ
ĠÏĥÏĦ ÏģÎ¿ÏĨá¿ĨÏĤ
ĠÏĥÏĦ ÏħÏĢÏĢ
ĠÏĥÏĦ á½±ÏĩÏħÏĤ
ÎµÏħ á½¹Î½ÏĦÏīÎ½
ÎµÏħ Î¸á¿ĨÎ½Î±Î¹
ĠÎµá¼´ Î¸Îµ
ĠÎµá¼´ Î´ÏīÎ¼ÎµÎ½
ĠÎµá¼´ Î»Î·ÏĢÏĦÎ±Î¹
Î±Î³ Î±
Î±Î³ Îµá¿ĸ
Î±Î³ á½¹Î½ÏĦÎ¿ÏĤ
Î¸Î· Î»
ĠÏĢÎ¿ á½·Î±ÏĤ
ĠÏĢÎ¿ á½·ÏīÎ½
ĠÏĢÎ¿ ÏĦá½¶
ĠÏĨÎ· Î¼Î¹
Î¸Ïģ á¿ĸÎ¿Î½
Ġá¿¥ Îµá½»
Ġá¿¥ Î±Î¸
Ġá¿¥ Î±ÏĨ
Ġá¿¥ á¿ĸÏĪÎ±Î¹
Î¿Îº Î¿Î¼ÏĢá½·Î±Î¹ÏĤ
ÏĥÎµ ÏĥÎ¸Îµ
ÏĥÎµ á½»ÏĤ
á½¹Î¼ÎµÎ½ á½¹ÏĤ
ĠÎ¶ á½½Î½ÏĦÏīÎ½
ĠÏĩÏģ á¿Ħ
ĠÎºÎ±ÏĦÎ± Î»Î¹
ĠÎºÎ±ÏĦÎ± ÏĥÎµÎ¹
ĠÎºÎ±ÏĦÎ± Î´Î¹Îº
ĠÎºÎ±ÏĦÎ± ÏĢá½·
ĠÎºÎ±ÏĦÎ± ÏĥÎ¿ÏĨ
ĠÎºÎ±ÏĦÎ± Î²Î±á½·Î½
ĠÎºÎ±ÏĦÎ± Î»Î·ÏĨÎ¸á½³Î½ÏĦÎ±
Î±Î» á½µÎ½Î¹ÏĥÎµÎ½
Ġá¼° á½³Î½Î±Î¹
á½³Î» Î¿Î¹
á½³Î» Î±ÏĤ
Îµá½» Î¸Î·
ĠÏĥÏħÎ½ ÏĦÎµ
ĠÏĥÏħÎ½ Î´Îµ
ĠÏĥÏħÎ½ ÎµÎ¹Î´
ĠÏĥÏħÎ½ Î¹ÏĥÏĦÎ±
ĠÏĥÏħÎ½ ÏĦÏģá½·
ĠÏĥÏħÎ½ ÎµÎ»Î¸
ĠÏĥÏħÎ½ á½±Î³ÎµÏĦÎ±Î¹
ĠÏĥÏħÎ½ á½±Î³ÎµÎ¹Î½
ĠÏĥÏħÎ½ Î¸á½µÎºÎ·Î½
Î·ÏĦ Ïģ
Î·ÏĦ Î¿á¿¦Î¼ÎµÎ½
Ġá¼Ī Ïĥá½·Î±ÏĤ
ÏĥÎ¼ á½¹ÏĤ
á¿ĩ ÏĥÎ¹Î½
á½¹Î³ Î³
Ġá¼ķ Ïī
Ġá¼ķ ÏĦÎ¿Î¹
Ġá¼ķ Î²Î´Î¿Î¼Î¿Î½
Î´Î¹ ÏĦÏĦ
Î´Î¹ Î±Î¹Ïģ
Î´Î¹ ÏĢÎ»á¿Ĩ
ĠÎļ Î¿Î½
ÎµÎ» Î¸Îµ
Î¼á½± ÏĩÎ·
Î¸Î± ÏģÏĩ
ÏħÎ½ á¿¶Î½
ÏħÎ½ Î¿Î¼á½³Î½ÏīÎ½
ÎµÏĨ á½»
ÎµÏĨ Î¿á½·
Î¿Î¼á½³Î½ á¿ĥ
ĠÎ´á½³ Î´Ïī
Î¿á½· á¿³
á½¹ÏĦÎ· ÏĦá½±
Ġá½Ħ ÏģÎµÎ¹
Ġá½Ħ Î³ÎºÎ¿Î½
ÏĦÏī Î¼Î±
ÏĦá½± ÏĥÎ¸Î±Î¹
ÏĦá½± ÏĦÎ±ÏĤ
ÏĥÎº ÎµÎ¹Î½
ĠÎºÎ±Î¸ Î¹
ĠÎºÎ±Î¸ á½µÎº
ĠÎºÎ±Î¸ á¿ĨÏĥÎ¸Î±Î¹
ĠÎºÎ±Î¸ á½³ÏĥÏĦÎ·ÎºÎµ
ĠÎºÎ±Î¸ á½±ÏĢÏĦÎµÏĦÎ±Î¹
Ġá¼ģ ÏĢÏĦ
ĠÎł á½³Ïģ
ĠÎł Î±Î½ÏĦÎ±
ĠÏĢá½±Î½ ÏĦÎ¿ÏĦÎµ
á¼Ĳ Î¼Î²
á¼Ĳ Î³Î³
ĠÎ±á¼° á½½Î½Î¹Î¿Î½
ĠÎ±á¼° ÏĨÎ½á½·
ÏĦÎ¿Ïħ ÏĥÎ¹Î½
Î»á½· Î¿Ïħ
Î»á½· ÏĥÎ¸
ÏħÏģ Ïģá½·Î½
Î¿Î½ÏĦÎ± á½·
Ġá¼¤ Î¸Î·
ĠÏĢÏģÎ¿Ïĥ Î·Îº
ĠÏĢÏģÎ¿Ïĥ ÏĨá½³Ïģ
ĠÏĢÏģÎ¿Ïĥ ÏĨÏīÎ½
á½³Ïĩ Î¸Î±Î¹
Î±Ïģ á½¸Î½
Ġá¼ĢÎ³ ÏģÎ¹
Ġá¼ĢÎ³ á¿¶Î½Î¿ÏĤ
ĠÏĢÎ±ÏģÎ± Ïĥá½»
ĠÏĢÎ±ÏģÎ± Î´Î·Î»Î¿á¿ĸ
Ġá¼ĢÏĢÎ¿ ÏĪ
Ġá¼ĢÏĢÎ¿ Î»Î»Ïħ
ĠÏĢÎ» Îµá¿ĸÎ½
ĠÏĢÎ» Î¿Îº
ĠÎµá½Ĳ Î±
ĠÎµá½Ĳ Ïģá½»
ĠÎ¿á¼· Î¿á½·
Ġá¼ĦÎ½ Î±Î¹Î¼Î¿Î½
Ġá¼ĦÎ½ Î¹ÏĥÎ¿Î½
ÎµÏĢ ÏħÎ´á½±
Î·Î¼ ÎµÏģ
ĠÏĥÎº á½±Î½
ĠÏĥÎº á½³ÏĢ
ĠÏĥÎº Î·ÏĢ
ĠÏĥÎº ÎµÏĢÏĦ
ĠÏĥÎº á½½Î»Î·
ĠÏĦá½· Î¸Îµ
ĠÎĺÎµ ÏĥÏĥÎ±
á½±Ïģ Î¿Î¹ÏĤ
ĠÎ¼á½¹Î½ Î¿Î¹
ĠÎ¼á½¹Î½ Î±Î¹
ĠÎ¼á½¹Î½ Î¿ÏħÏĤ
ĠÎ¼á½¹Î½ Î¹Î¼Î¿Î½
ÏĦÏģ á¿³
ÏĦÏģ Îµá¿ĸÏĤ
Ġá¼ĢÎ½ÏĦÎ¹ ÎºÎ±ÏĦÎ±
Ġá¼ĢÎ½ÏĦÎ¹ Î´Î¹Î±
Ġá¼ĢÎ½ÏĦÎ¹ Î¸á½³ÏĥÎµÏīÎ½
Î±á½· ÏīÎ½
Î±á½· á¿³
ĠÏĢÏģá½¹ ÏĨÎ±ÏĥÎ¹Î½
ĠÏĢÎµÏģÎ¹ ÏĢ
ĠÏĢÎµÏģÎ¹ Î³
ĠÏĢÎµÏģÎ¹ á¿¤á¿¥
ĠÏĢÎµÏģÎ¹ ÏĥÏĦÎµÏģ
ĠÏĢÎµÏģÎ¹ Î³á½³Î½
á½¹Î¼ Î¿ÏĤ
á½¹Î¼ Î¿Î¹ÏĤ
ĠÏĪ á¿¦
ĠÏĪ á½¹ÏĨÎ¿Ïħ
ĠÏĪ á½¹Î³Î¿Î½
ĠÏĪ á½±Î»Î»ÏīÎ½
ĠÎ³Îµ Î¼
Ġá½¥ ÏģÎ±
Ġá½¥ Ïģá¾³
ĠÏĨá½» ÏĥÎº
Ġá¼ħ Î»
Ġá¼ħ ÏģÏĢ
Î´Î· Î¼á½±ÏĦÏīÎ½
Ġá¼ĢÎº Ïģá½¹
á½³Ïĥ Î±ÏĤ
ĠÏĢÎ¿Î» á½·ÏĦÎ·ÏĤ
ÏĢÎ± ÏĨ
ÏĢÎ± ÏĦÎ¿Î½
ÏĢÎ± Ïģá½±
ÏģÎ±ÏĨ Îµ
á½½Î½ Î¹Î±
ĠÎ¿á½Ķ Î¸
á½»Î½ ÏīÎ½
á½±Î¶ á¿ĥ
ĠÎ¸Îµ á½¹Î½
Î»Î¹ Î¿ÏĤ
Î»Î¹ ÏĢÏĢ
ĠÎºÎ±ÏĦÎ·Î³ á½¹Ïģá¿³
Ġá¼ĢÎ½Î± ÏĨ
Ġá¼ĢÎ½Î± ÏĦÎ¹
Ġá¼ĢÎ½Î± Î¼Î¹
Ġá¼ĢÎ½Î± ÏĥÏĦÏģÎ¿ÏĨ
Ġá¼ĢÎ½Î± ÏĦá½·Î¸Î·ÏĥÎ¹Î½
Ġá¼ĢÎ½Î± ÏĦÏģá½³ÏĪÎ±Î¹
Ġá¼ĢÎ½Î± Î²Î±á½·Î½Î¿Î½ÏĦÎ±
ĠÏĢÎ¿Î»Î» á½´
ĠÏĢÎ¿Î»Î» Î±á½·
á¼° ÏĥÏĩ
á¼° Î´Î¿á½»
ÎµÎº Î¹
ÎµÎº ÏħÎ½
ĠÎ´Î¹Î±ÏĨ á½¹ÏģÎ¿Î¹ÏĤ
Ġá¼´ ÏĩÎ½
Ġá¼´ Î·ÏĥÎ¹ÏĤ
Ġá¼´ Î¸Î¹
Ġá¼´ ÏģÎ¹ÏĤ
Î¼Îµ Î¼Î±Î³
ĠÎ³ÎµÎ½ Î¿Î¼á½³Î½ÏīÎ½
Î¿ÏĢ á½·Î¿Ïħ
Î¿ÏĢ Ïģá½±Î³
ĠÏĦÏģ ÏħÎ³
ĠÏĦÏģ á½³ÏĩÎµÎ¹
Î¿Ïģá½· Î±
Î¿Ïģá½· á¾³
Ġá¼ĢÏĨ Îµá½·
Ġá¼ĢÏĨ ÎµÎ»
Ġá¼ĢÏĨ ÎµÎ»Îµá¿ĸÎ½
Ġá¼ĲÎ½Î±Î½ÏĦá½· Î¿Î¹
Ġá¼ĲÎ½Î±Î½ÏĦá½· ÏīÏĤ
ĠÎ¾ ÏħÎ»
Ġá¼± Î´Ïģ
Î³Î½ Î¿
Î³Î½ á½»Î½Î±Î¹
ĠÎ´á½»Î½Î± ÏĥÎ±Î¹
ĠÎ¼ÎµÏĦÎ± Î»Î±Î¼Î²á½±Î½
ĠÎ¼ÎµÏĦÎ± Î¼ÎµÎ»
ĠÎ¼ÎµÏĦÎ± Î»Î±Î¼Î²á½±Î½ÎµÏĦÎ±Î¹
ĠÎ¼ÎµÏĦÎ± Î¸á½³ÏĥÎµÎ¹ÏĤ
Ġá¾ ¤
Ġá¾ ĳ
ĠÎĶ Ïī
ĠÎĶ Î¹Î¿Î½
ĠÎĶ Î¿Î¼Îµ
Î¼Î¹ á½±
Î¼Î¹ ÏĥÎ¸
Ġá¼ĢÏģÏĩ á½µÎ½
Ġá¼ĢÏģÏĩ á½¹Î¼ÎµÎ½Î¿Î¹
ÏħÎ³ Îµ
ÏħÎ³ Î¿Î½
ÏĢÎµ ÏĦÎ¿
Î»á½µ Î¼Î±ÏĦÎ±
Ġá¼ĶÎ½ ÏĥÏĦÎ±ÏĥÎ¹ÏĤ
Ġá¼ĶÎ½ Î´Î¿Î¸ÎµÎ½
ĠÏĦá½± ÏĦÏĦÎµÎ¹
ĠÏĦá½± ÏĦÏĦÎ¿ÏħÏĥÎ¹Î½
ÎµÎ² Î»Î·
ĠÎ´Îµá¿ĸ Î½Î±
Î·Î³ Îµá¿ĸÏĦÎ±Î¹
Ġá½ķ Î¼Î½Î¿Î½
ĠÎ²Î± ÏĦÏģÎ±Ïĩ
ĠÎ´Îµ Î¿Î¼á½³Î½ÏīÎ½
ĠÎ´Îµ Î¿Î¼á½³Î½Î¿Î¹ÏĤ
ĠÏĨÎ± Ïĥá½¶Î½
Î´Î¿ ÏĥÎ¸Î±Î¹
á¿ĸÎ½ Î±ÏĤ
ĠÏĥÏĨ Î¿Î´
ĠÎ¼á½³ Î»Îµ
ĠÎ¼á½³ ÏĦÏģÎ±
ĠÎ¼á½³ ÏĦÎ±Î»Î»Î±
á½µÎ¼ Î±Î½
ĠÎ£ ÎµÏģÎ±ÏĨ
Ġá¼ł Ïģ
Ġá¼ł Ïĩ
Ġá¼ł Î¸á½³
ĠÎºÎµÏĨÎ±Î» á¿¶Î½
Ġá¼ĲÏĨ Î¸
Ġá¼ĲÏĨ á½¹Î½ÎµÏħ
Ġá¼ĲÏĨ á½»Î»Î±
Ġá¼ĲÏĨ á½±Î½Î·
Î¾Î¹ ÏĨá½±Ïģ
ÎµÎ¹Ïģ Î¿Î¹
Î·Î» á¿¶Î½
á½·Î¶ á¿ĥ
á½·Î¶ Î¿ÏħÏĥÎ¹
Ġá¼ĦÏģ Î¾ÎµÎ¹ÏĤ
Ġá¼ĦÏģ Î¾Î±ÏĥÎ¸Î±Î¹
ÎºÎµÎ¹ Î±Î½
ĠÏĥÏĩ á½±ÏĥÎ±Î¹
ĠÏĥÏĩ á½³ÏĥÎµÎ¹ÏĤ
ĠÏĥÏĩ á½µÎ¼Î±ÏĥÎ¹Î½
Ġá¼ĪÏģÎ¹ÏĥÏĦ Î¿Î³
Î¹ÏĥÏĦ á½±Î¼ÎµÎ½Î¿Î½
Ġá¼ĲÏĩ Î¿ÏħÏĥá¿¶Î½
Î²Î± ÏģÎ±
ĠÎºá½± Î»Îµ
ĠÎºá½± Î»Î±
á½µÎ» ÏīÏĤ
ÏĦÏĦ á½¹Î¼ÎµÎ½Î¿Î½
ĠÏĦÏģá½· Î³ÏīÎ½Î¿Î½
Î³Î³ á½³Î»Î»
ÏĥÏĢ á½³Î½
Ġá¼¥ ÏĦÏĦÎ¿Î½Î±
Ġá¼¥ ÏĢÎ±ÏĦÎ¿ÏĤ
Ġá¼¥ ÏģÏĢÎ±
ĠÎ´á½· Î±Î¹
ĠÎ´á½· ÏĨÎ¸
ĠÎºÎ±Îº Î¿á½ºÏĤ
Î¹Î» Î¿ÏĩÏīÏģ
Î²Î¿Î» Î¿á¿¦
Î²Î¿Î» á¿ĨÏĤ
Î¿ÏĦá½³ ÏģÎ±
Î¹Ïĥ ÏĦÎ±Î¹
Î¹Ïĥ Î¼á½³Î½Î¿Î¹ÏĤ
ĠÎ¶Î·ÏĦ á¿¶Î½
ĠÎ¶Î·ÏĦ Î¿á¿¦ÏĥÎ¹Î½
ĠÎ¶Î·ÏĦ á½µÏĥÎµÎ¹Îµ
á¼Ķ ÏĥÏĦ
á¼Ķ ÏĢÎµÎ¹ÏĦÎ±
Ġá½ĳÏĢÎ¿Îº ÏģÎ¹Î½
Ġá½ĳÏĢÎ¿Îº Îµá½·Î¼ÎµÎ½Î±
Ġá½ĳÏĢÎ¿Îº Î¿ÏģÎ¹ÏĥÏĦ
ĠÎ¼ÎµÎ³ Î±Î»Î·
Î»Îµá½» ÏĥÎµÏĦÎ±Î¹
Î´Îµá½· Î¾Î±Î¼ÎµÎ½
Î»Î·Î¸ á½µÏĥÎµÏĦÎ±Î¹
ÏĥÏĦá½³ Î»Î»ÏīÎ½
ĠÎľ Î±Î»Î±
Ġá¼¸ á½¼Î²
á½±Îº ÏģÏħ
Îµá¼° Î´á½³Î½Î±Î¹
Ġá¿¥Î·ÏĦ á½¹ÏģÏīÎ½
Ġá¼ĢÎ½Î±Î³ ÎºÎ±Î¹
Ġá¼ĢÎ½Î±Î³ Î½Ïī
Ġá½ł Î¸Îµá¿ĸÎ½
Ġá¼ĳÏĦá½³Ïģ á¿ĥ
Ġá¼ĳÏĦá½³Ïģ á¾³
á½ģ Îºá½¹ÏĥÎ¿Î¹ÏĥÎ¹
Î´Î¹Îº á½´
Ġá½ĳÏĢÎ¿ Î¶á½½Î¼Î±ÏĦÎ±
Ġá½ĳÏĢÎ¿ Î´Î·Î¼á½±ÏĦÏīÎ½
ĠÎ±á¼°ÏĦá½· Î¿Ïħ
á½ħ ÏĢÎ¿Ïħ
á½ħ Î¼Î¿Î¹
á½ħ Î¼ÏīÏĤ
á¼ĢÎ»Î» á½¹ÏĦ
Î½á½· Î¾Î±ÏĦÎ¿
ĠÎ¿á¼°Îº á½·Î±ÏĤ
ĠÎ¿á¼°Îº Î¿Î´Î¿Î¼
Ġá¼§ ÏĦÏĦá½¹Î½
ĠÎ´Î¿Îº á¿¶
ĠÎ´Î¿Îº Î¹Î¼
ĠÎ´Î¿Îº Î¿á¿¦Î½ÏĦÎ¿ÏĤ
ĠÎ´Î¿Îº Î¿á½»Î½ÏĦÏīÎ½
ĠÎ²Î¿Ïħ Î»Î·Î¸
ĠÏĢÏģÎ¿ÏĨ Î±Î½
ĠÏĢÏģÎ¿ÏĨ á½±ÏĥÎµÎ¹
ĠÏĦÏģÎ¹ ÏĢ
ĠÏĦÏģÎ¹ Ïĩá¿¶ÏĤ
ĠÏĦÏģÎ¹ ÏĢÎ»á¿Ĩ
ÏīÏģá½· ÏĥÎ¸Î±Î¹
ĠÎ½Î¿ Î¸
ĠÎ½Î¿ á½µÏĥÎ±ÏĤ
ĠÎ½Î¿ Î·ÏĦá½³Î¿Î½
ĠÎ³ÎµÎ³ ÏģÎ±ÏĨ
ĠÎ³ÎµÎ³ á½³Î½Î·ÏĦÎ±Î¹
Ġá¼ĢÏģ ÏĦÎ·ÏģÎ¹á¿¶Î½
ĠÏĩÏģá½¹Î½ Î¿Î¹ÏĤ
ÏģÎ±Î³ ÏīÎ³
ĠÎºÎµÏĨá½±Î»Î±Î¹ á½¹Î½
Î±Î¹Î½ ÏĦÎ¿
ĠÎ¿á½ĲÏģÎ±Î½ á¿¶Î½
ĠÎ¿á½ĲÏģÎ±Î½ Î¿á½ºÏĤ
ĠÎ¿á½ĲÏģÎ±Î½ á½·ÏīÎ½
Ġá¼ĲÏĢÎ¹ÏĥÏĦ á½±Î¼ÎµÎ½Î¿ÏĤ
ĠÏĪÏħÏĩ á½µ
ĠÏĪÏħÏĩ Ïģá½¹Î½
á½µÏĥÎ± ÏĥÎ¹
Î±ÏĨ ÏīÎ½
Ġá¼ĲÎ¼ á¿¶Î½
Ġá¼ĲÎ¼ Î¿á½·
Ġá¼ĲÎ¼ á½µÎ½Ïħ
ĠÎ§ÏģÎ¹ÏĥÏĦ Î¹Î±Î½
Î¹ÏĥÎ¼ á½¸Î½
Îµá¿¦ ÏĥÎ¹Î½
Ġá¼ĳÏĢ á½¹Î¼ÎµÎ½Î±
ĠÎºÏģá½·Î½ ÏīÎ½
ĠÎ¼ÎµÏĦ ÏģÎ¹
ĠÏĥÏħÎ¼Î²ÎµÎ²Î·Îº á½¹ÏĦÎ¹
ĠÎ²ÏģÎ±Ïĩ Îµá½·á¾³
ĠÎ¸á½± ÏĪÎ±Î¹
ĠÏĥÏĦÎ¿ÏĩÎ±ÏĥÎ¼ á¿¶Î½
ĠÏĥÏĦÎ¿ÏĩÎ±ÏĥÎ¼ á½¹ÏĤ
ĠÏĥÎ·Î¼ Îµá½·ÏīÎ½
ĠÏĩÏģÎ· Ïĥá½±Î¼ÎµÎ½Î¿ÏĤ
ĠÎ»Î¿Î³ á½·Î¶ÎµÏĥÎ¸Î±Î¹
ÏĬ ÏĦá¿¶Î½
Î´á½¹ Îº
ĠÏĦÎ¿ÏħÏĦá½³ ÏīÎ½
ĠÎ¼Ïħ á½·Î±ÏĤ
ĠÎ¸ÎµÏģ Î¹ÏĥÎ¼á½¸ÏĤ
ĠÏĢá½¹Î»Îµ ÏĥÎ¹
ĠÎ¼á½³Î³ Î¹ÏĥÏĦÎ±
Ġá½ĳÏĢÎµÏģ Î¸Îµ
Ġá½ĳÏĢÎµÏģ Î²Î±Î»Î»
Ġá½ĳÏĢÎµÏģ á½³ÏĩÎµÎ¹
Ġá½ĳÏĢÎµÏģ Î±ÏĥÏĢ
ÏģÏī ÏĦÎ±Î¹
ÏģÏī ÏĥÎ¹ÏĤ
ÏģÏī Î´Î¹
Ġá¼ĲÎ¼Î² Î±Î»
ĠÎ±á½Ĳ Î¾Î±Î½
ĠÎ±á½Ĳ ÏĥÏĦÎ·Ïģ
ĠÎµá¼°ÏģÎ· Î¼á½³Î½á¿³
ĠÎµá¼°ÏģÎ· Î¼á½³Î½Î·Î½
ĠÎ¼Î¹Îº Ïģá½¸ÏĤ
ĠÎ¼Î¹Îº Ïģá¿·
ĠÎ¼Î¹Îº ÏģÎ±á½¶
ÏīÎ³ Îµ
ÏĦá½¹Î½ Î¿Ïħ
Ġá¼ĦÎ½Ïī Î¸á½³Î½
ĠÏĢÏģá¾¶ Î³Î¼á½±
Ġá½ĳÎ³ á½·
Ġá½ĳÎ³ Ïģá¿¶Î½
ĠÎĽ á½¹Î³Î¿ÏĤ
ĠÎĽ ÎµÏĢÏĦ
ÏĢÎ¹ Î¿Î¹
ÏĢÎ¹ Î³ÏģÎ±ÏĨ
Ġá¼ĲÏĢá½· Î¸ÎµÏĦÎ¿Î½
Ġá¼ĲÏĢá½· ÏĥÏĦÎµÏħ
Ġá¼ĲÏĢá½· ÏĢÎ±ÏĥÏĦÎ±
Ġá¼ĲÏĢá½· ÏģÏģÎ·Î¼Î±
ÎºÎ±Î» Î¿á¿¦Î½ÏĦÎ±Î¹
ĠÏĢÎ¿Ïĥ á½±
ĠÎ´Îµá½· Î³Î¼Î±ÏĦÎ±
Ġá½ĢÎ»á½·Î³ Î¿Î¹
Ġá½ĢÎ»á½·Î³ Î¿ÏħÏĤ
Ġá½ĳÏĢÎ¿ÎºÎµÎ¹ Î¼á½³Î½Î¿Î¹ÏĤ
ĠÎ»ÎµÏħÎº á½°
ĠÎ»ÎµÏħÎº á½¹ÏĤ
Î¤ á¿·
Ġá¼ĢÎ»Î·Î¸ á½µÏĤ
ĠÏĥÎµ ÏĥÎ±Ïģ
ĠÎ»Î¿Î¹ÏĢ á½¹Î½
ĠÎ»Î¿Î¹ÏĢ á¿ĨÏĤ
ĠÎ»Î¿Î¹ÏĢ á½°ÏĤ
ĠÎ´Î·Î» á½½Ïĥá¿ĥ
ĠÎ¼Î± ÏĥÏĩ
ĠÎ½Î± á½¶
ĠÎ½Î± á¿·
ÏīÎ¼ Î¿á½·
ĠÎ»á½³ Î¾ÎµÎ¹ÏĤ
ĠÏĢÎ¿Î»Î¹ ÏĦÎµá½»
Ġá¼¹ ÎµÎ¶
ĠÎºÎ¹Î½ Îµá¿ĸÏĦÎ±Î¹
ĠÎºÎ¹Î½ á¿ĨÏĥÎ±Î¹
ĠÎºÎ¹Î½ Î¿ÏħÎ¼á½³Î½Î¿Ïħ
ĠÏĥÏħÎ³ ÎºÎ±ÏĦá½±
Ġá½ĳÏĢá½±ÏģÏĩ ÏīÎ½
Ġá¼ĢÎ³Î±Î¸ Î¿á¿ĸÏĤ
Ġá¼ĢÎ³Î±Î¸ á¿·
ĠÎºÎ±ÏĦÎ·Î³Î¿Ïģ Î¿á¿¦Î½ÏĦÎ¿ÏĤ
ĠÏĢÎ»Î· Î¼
ĠÎ¼á½³Ïĥ Î¿Î¹ÏĤ
Ġá¼ĢÏĢÎ¿Îº Î»Îµá½·
Ġá¿¥Î· ÏĦá½³Î¿Î½
Î·Ïĥ á½±ÏĥÎ·ÏĤ
ĠÎ¿á¼¶ Î´Î±ÏĤ
ÏħÎ» Î¿ÏĩÎµá½·
ÏħÎ» Î¼Î±ÏĦá½·Î¿Î¹ÏĤ
á¿¤á¿¥ Ïī
Ġá¼ĶÎ¼ÏĢ Î±Î»Î¹Î½
ĠÏĥÏī ÏĦá¿ĨÏģÎ¿ÏĤ
ÏĢÎ±Î½ ÏĦÎ±
Ġá¼ĢÎ¼ Î¿Î»
Ġá¼ĢÎ¼ ÏħÎ½
á¼¡ Î¼
ĠÎµá¼°ÏĥÎ¹ á½¹Î½ÏĦÎµÏĤ
ĠÏĥá½» Î³Îº
ĠÏĢÎ±Î¹ Î´Î¿
ÏĨÎ¸ Î¿Ïģ
Ġá¼ĢÎ¼ÏĨÎ¹ÏĥÎ² Î·
Ġá¼ĲÏĩÏģ á¿ĨÏĦÎ¿
ĠÎºÎ±Î¹ Ïģá½¹Î½
Ġá¼ĲÎ³Îº ÏģÏħÏĨ
ĠÏĥÏĦÏģÎ±ÏĦÎ·Î³ Î¿á¿¦
ĠÏĥÏħÎ»Î»Î¿Î³Î¹ÏĥÎ¼ á¿¶Î½
ĠÏĥÏħÎ»Î»Î¿Î³Î¹ÏĥÎ¼ á½¹ÏĤ
ĠÏĦÎµÏĩÎ½ Î¹Îºá¿¶ÏĤ
ĠÎºá½» Î½Î±
ĠÎºá½» ÏĥÏĦÎ¹Î½
ĠÏĦÎ¿Î¹Î±á½» ÏĦá¿ĥ
ÏħÏĥ Î¿ÏĤ
ÏħÏĥ ÏĥÎ¿Î½
Ġá¼ģÎ¼Î±Ïģ ÏĦá½±Î½
Îļ Î¿Î¹Î½ÏīÎ½
ĠÎ¼á½³Î» ÎµÎ¹
ĠÎ´á½³ÎºÎ± ÏĦÎ¿Î½
ĠÏĢÎ¹ á½³Î¶
ĠÎºÎ¿Î» á½±ÏĥÎµÏīÎ½
ĠÎ¼Î¿Î½ Î¿ÎµÎ¹Î´á¿Ĩ
ĠÎ¼Î¿Î½ Î¿Î½Î¿Ïħ
Ġá¼ĢÎ¼ÏĨÎ¿ ÏĦá½³ÏģÎ±Î¹ÏĤ
Î·Î¸ á½²Î½
Î·Î¸ Îµá½·Î·Î½
ĠÎºÎ±á½· ÎµÎ¹Î½
ĠÎ´ÏħÎ½Î± ÏĥÏĦ
Ġá½ĢÏĥÏĦ Î¿á¿ĸÏĤ
ĠÏĩÎµÎ¹Ïģ á½¹Î½ÏīÎ½
ĠÏĩÎµÎ¹Ïģ Î¿ÏħÏģÎ³
ĠÏĦÎµÏĦ ÏħÏĩ
Î»á½» Î¼ÏĢ
ĠÏĢÎ¿Î½ á½µÏĥÎ±ÏĤ
ĠÎ¼á½³Î»Î» Ïī
ĠÎ¼á½³Î»Î» á¿ĥ
ĠÏĢÎ»Îµ á½¹Î½ÏĦÏīÎ½
ĠÏĥÎ¹ Î»ÏĨ
Î´ÏħÎ½ Î¿Î½
Ġá¼¹ÏĢÏĢ á½·Î¿Ïħ
Ġá¼ĢÏģÎ¹ÏĥÏĦ á½½Ïĥá¿ĥ
Ġá¼ĢÏģÎ¹ÏĥÏĦ Îµá½»ÏĥÎ±ÏĤ
Ġá½ģÎ¼Î¿Î»Î¿Î³ Î¿ÏħÎ¼á½³Î½ÏīÎ½
ĠÎºÎµÎº ÎµÏģÎ±
ĠÎºÎ±ÏĦÎµ ÏĩÏģ
ĠÎ´Î¹ÏĢÎ» Î¿á¿ĸ
ĠÎ´Î¹ÏĢÎ» á¾¶
ĠÎ´Î¹ÏĢÎ» Î¿á¿¦ÏĤ
ĠÎ³ÏģÎ±ÏĨ á½µÎ½
Ġá¼© Ïģá½¹Î´Î¿
Ġá¼© ÏģÏīÎ´Î¹
ĠÎ²Î¿á½»Î» Î¿Î¼Î±Î¹
ĠÎ²Î¿á½»Î» Î¿Î¹ÏĦÎ¿
ĠÏĦá½³Î»ÎµÎ¹ Î±
ĠÏĦá½³Î»ÎµÎ¹ á½¹Î½
ĠÎºÎ±Î¸Î± á½·ÏģÎµ
ĠÏĢÎ±Î»Î±Î¹ Î¿á¿¦
ĠÏĢÎ±Î»Î±Î¹ Î¿á¿ĸÏĤ
ĠÏĢÎ±Î»Î±Î¹ Î¿á½·
Ġá¼°ÏĥÏĩÏħÏģ á½¹
Ġá¼°ÏĥÏĩÏħÏģ á¿¶Î½
Ġá¼°ÏĥÏĩÏħÏģ á½°Î½
ĠÎºÎ±ÏĦÎ±ÏĥÎºÎµÏħá½±Î¶ ÎµÏĥÎ¸Î±Î¹
Ġá¼ĢÎ¾Î¹ Î¿Î»á½¹Î³
Ġá¼ĶÎ³ ÏīÎ³Îµ
ĠÎ¸Ïģá½¹Î½ Î¿ÏĤ
ĠÎµá½Ķ ÏīÎ½Î¿Î½
ĠÎµá½Ķ Î½Î¿ÏħÏĤ
ĠÏĢÏģÎ¿ÏĨá½µ ÏĦÎ·Î½
ĠÏĢÏģÎ¿ÏĨá½µ ÏĦÎ±Î¹ÏĤ
ÏĦá½½ Î²Î¿Î»Î¿Î½
Ġá¼ĲÏģÎ³ Î±ÏĥÏĦ
Ġá¼ĲÏģÎ³ Î±Ïĥ
Ġá¼ĲÏģÎ³ á½±ÏĥÎµÏĦÎ±Î¹
ĠÎ´ÎµÎ¹ ÏĩÎ¸á¿ĨÎ½Î±Î¹
ÏĦÎ¿á½» ÏĦÎ¿ÏħÏĤ
ÏĦÎ¿á½» ÏĦÎ¿Î¹ÏĤ
Ġá½ĳÏĨ ÎµÎ»
ĠÎ´Î¹Î±Ïģ ÏĢ
ÏĦÎµÎ¹ Ïĩ
Ġá¼ĦÎº Î¿Î½ÏĦÎµÏĤ
ĠÎ¶á¿· Î±
Ġá½ĢÎ½Î¿Î¼á½± Î¶Î¿Î½ÏĦÎ±Î¹
Î»ÎµÎ¹ ÏĨ
Î»ÎµÎ¹ Î¿ÏĤ
Î»ÎµÎ¹ ÏĥÎ¸á½³Î½
Ġá¼ĢÎ´Î¹Îº Îµá¿ĸÎ½
Ġá¼ĢÎ´Î¹Îº á½µÎ¼Î±ÏĦÎ±
ĠÏĨá½³Ïģ ÏīÎ½
ĠÏĨá½³Ïģ ÎµÏĥÎ¸Î±Î¹
ĠÏĦÎ±á½ĲÏĦ á½¸
ĠÎºÏħ Î±Î½
ĠÎºÏħ ÏģÎ·Î²
ĠÎºÏħ Î±Î¼Î¿
á½µÎºÎ± ÏĤ
ĠÎµá¼°Ïĥ á½±Î³ÎµÎ¹
ÏĦÎµá½·Î½ ÎµÏĥÎ¸Î±Î¹
ĠÎ»Î±Î¼Î²á½±Î½ Î¿Î½ÏĦÎ±
ĠÎ»Î±Î¼Î²á½±Î½ Î¿Î½ÏĦÎµÏĤ
ĠÎĴ á½±Îº
ĠÎĴ Î±ÏĥÎ¹
Ġá¼ĶÏĨÎ· Î¼ÎµÎ½
ĠÎ¤ Î±Ïģ
ĠÎ¤ Î¹Î¼
ĠÎ¼ÎµÏĦá½³ ÏĩÎ¿Î½
ĠÏĪÎµÏħ Î´Î¿
Ġá½ĳÎ³Î¹ Îµá¿ĸ
Ġá½ĳÎ³Î¹ Î¿á¿¦ÏĤ
ĠÏĢÏģÎ¿ÏĥÎº Î¿Î»Î»
ĠÏĢÏģÎ¿ÏĥÎº ÎµÎºÏħÎ½
Ġá¼ģÏĢ á½±ÏĥÎ±ÏĤ
ĠÏĢÎ¹ÏĥÏĦ á¿¶Î½
ĠÏĢÎ¹ÏĥÏĦ á½¹ÏĤ
ĠÏĢÎ¹ÏĥÏĦ Î¿á½·
ĠÏĢÎ¹ÏĥÏĦ Î¿á½¶
ĠÎ´Î¹Î±Î¹ Ïģá½³
ĠÎµá¼°Ïģ á½µÎ½Î·
Ġá½ĢÏģÎ¸ á½°
Ġá½ĢÏģÎ¸ á½´Î½
Ġá¼´Ïĥ á¿³
ĠÎ»Î±Î² á½½Î½
ĠÎ¸ÎµÏģÎ¼ á¿·
ĠÎ³ÎµÎ³ÏģÎ±Î¼ Î¼á½³Î½Î¿ÏĤ
Ġá¼±ÎµÏģ á½¸ÏĤ
Ġá¼±ÎµÏģ Î¿ÏħÏģÎ³
ĠÎ´Î¹Î´á½±Ïĥ ÎºÎµÏĦÎ±Î¹
Î»Î¿Ïħ Î¼á½³Î½ÏīÎ½
ÎºÎ¿ Î´Î¿Î¼
ĠÏĢÎµÏĢÎ¿Î¹ ÏīÎ¼á½³Î½Î¿Ïħ
ĠÏĢÏģÎµÏĥÎ² Îµá½·Î±Î½
Ġá¼ģÏģÎ¼á½¹ ÏĦÏĦÎµÎ¹
ĠÎºÎ±Ïģ Î´á½·
Î¸Îµá½· ÏĥÎ±ÏĤ
á¼Ī Î½
á¼Ī Î»Î»
Ġá¼ĲÏĢÎ¿á½·Î· ÏĥÎ±
Ġá¼ĲÏĢÎ¿á½·Î· ÏĥÎ±ÏĤ
Î·Î´ á½¹Î½Î±
ĠÎ½Î¹Îº á¿ĨÏĥÎ±Î¹
ĠÎ½Î¹Îº á½µÏĥÎµÎ¹
ĠÎ½Î¹Îº á½µÏĥá¿ĥ
ĠÎ½Î¹Îº á½µÏĥÎµÎ¹ÏĤ
ÎĶ á¿ĨÎ»Î¿Î½
Ġá¼ĺ ÏģÎµ
Ġá¼ĺ Î¼Î¼Î±Î½
á½·Îº Î¹Î¿Î½
Ġá¼ĢÏĢÎ¿ÏĥÏĦ á½¹Î»Î¿Ïħ
Ġá¼ĲÎ³Î³ á½»
Î±Î¶ Î¿Î¼á½³Î½Î¿ÏħÏĤ
ĠÎ¿á¼µ Î´Îµ
ĠÎ¿á¼µ ÏĢÎµÏģ
ĠÎºÎ¿ Î»Î»
á½³Îº ÏģÎ¹ÏĦÎ±Î¹
Ġá¼ĦÏĦÎ¿ Î¼Î¿Î¹
ĠÎµá½ĲÎ±Î³Î³ÎµÎ» Î¹Îºá½¸Î½
Ġá¾Ĺ ÏĥÎ¹Î½
ĠÏĥÏĨÎ¿Î½Î´á½»Î» Î¿Ïħ
ĠÎºÏģ á¿ĸÎ¼Î±
Ġá¼ĢÏģÎµ ÏĦá¿¶Î½
Ġá½ģÏĢ Î¿á½·
ĠÎ´Î¹Î±Îº ÏģÎ¹
ĠÎ´Î¹Î±Îº Îµá½·Î¼ÎµÎ½Î¿Î½
ĠÎ´Î¹Î±Îº Ïģá¿ĸÎ½Î±Î¹
ĠÏĨÏħÏĥÎ¹Îº á½¸Î½
ĠÏĢÎµá½· ÏģÎ±ÏĤ
ĠÏĩÏīÏģá½· Î±
ĠÏĢÎ¿Î»ÎµÎ¼ Îµá¿ĸÎ½
ĠÏĢÎ¿Î½Î·Ïģ á¿¶Î½
ĠÎ´Î±ÎºÏĦá½»Î» Î¿Î¹ÏĤ
Ġá½ģÏģÎ¹ÏĥÎ¼ á¿·
Ġá¿¥á½±Ïĩ ÎµÎ¹
Ġá¿¥á½±Ïĩ Î¹Î¿ÏĤ
ĠÎ¶Î· ÏĦÎµá½·
ĠÏĪÎµÏħÎ´ Îµá¿ĸÏĤ
ĠÏĢÎµÏĢÎ¿Î½Î¸ á½¹ÏĦÎ¹
ĠÏĢá¿¦ Î¿Î½
Ġá¼ĢÏĥÏĦ ÏģÎ±ÏĢ
Ġá¼ĢÏĥÏĦ Îµá½·ÏīÏĤ
Î²Î±Î» á½¼Î½
ĠÎłÎ± ÏĦá½´Ïģ
á¼ĲÎº Îµá¿ĸÎ½
Ġá¼ĢÏĢÎ¿Î» á½³ÏĥÎ±Î¹
Ġá¼ĢÏĢÎ¿Î» Î±Î¼Î²á½±Î½
ĠÏĢÎ»ÎµÏħÏģ á½´
Ġá¼ĲÎ»á½³Î³ Ïĩ
Ġá¼ĲÎ»á½³Î³ ÏĩÎµÎ¹
ĠÎ´Î·Î¼Î¿ Ïĥá½·Î¿Ïħ
Ġá¼ĲÏĩÎ¸Ïģ á½¹Î½
Ġá¼ĲÏĩÎ¸Ïģ á½¹ÏĤ
ĠÎ´Î·Î¼ á½¹ÏĥÎ¹Î±
Ġá¼ĦÎ¾Î¹ Î±
Ġá¼ĦÎ¾Î¹ á½¹Î½
ĠÎµá¼´ÏĥÏī Î¸ÎµÎ½
Ġá¼¡Î¼á½³Ïģ á¿ĥÏĥÎ¹
ĠÎĳá¼° ÏĦÏī
ĠÎ¿á½ĲÏĥÎ¹ á½½Î´Î·
ĠÎ¿á½ĲÏĥÎ¹ á½½Î´ÎµÎ¹ÏĤ
ĠÎĽÎ±ÎºÎµÎ´ Î±á½·Î¼Î¿Î½
Î¹Î¶ Î¿Î¼á½³Î½Î¿ÏħÏĤ
Ġá¼ĢÎ½Î±Î¹ Î´
Îµá¼¶ ÏĦá½±
Îµá¼¶ Î´á½¹Î½
ĠÏĢÎµÎ¹ Î¸Î±ÏģÏĩ
Î´ÎµÎ½ ÏĦÎ±Î¹
ĠÏĢÏģá½± Î¾ÎµÎ¹ÏĤ
ÎµÏģÎ± Î¼ÎµÎ¹Îº
Ġá½ģÏģ á½½Î½ÏĦÏīÎ½
ĠÏĨÏī ÏĦá½·
ĠÏĨÏī ÏĦá½¶
ĠÏĢÏģÎ¿ÏĥÎµ Î»Î¸
Ġá½ĳÏĢá½¹ Î¸ÎµÏĥÎ¹Î½
ĠÏĢÎ±ÏģÎµ Î¼ÏĢ
ĠÏĢÎ±ÏģÎµ ÏĥÎºÎµÏħÎ±Ïĥ
ĠÎ¿á½ĲÎ´á½³ ÏĦÎµÏģÎ¿Î½
ĠÎ¿á½ĲÎ´á½³ ÏĢÏī
Ġá½ĦÏĪ ÎµÎ¹ÏĤ
Ġá½ĦÏĪ Î¹ÏĤ
Ġá¼¤Î½ ÏħÏĥÏĦÏģÎ¿Î½
ĠÎ¾ÏħÎ½ Î¿Î¹Îº
ĠÎ¾ÏħÎ½ Î¹á½³Î½Î±Î¹
ĠÏĢÎ»Î·Î³ Î±á½¶
ĠÏĢÎ»Î·Î³ á½±ÏĤ
ĠÎ¸Ïħ Î¼Î¹Î±
Ġá¼ĲÎ¾Î·Î³ Îµá¿ĸÏĦÎ±Î¹
ĠÏĦÏģÎ¿ÏĢ Î¿Î»Î¿Î³
ĠÎºÎ±Î¹Î½ á½¹Î½
ĠÎºÎ±Î¹Î½ á½¸Î½
ĠÎºÎ±Î¹Î½ á¿ĨÏĤ
Ġá¼ĲÏĥ Î¼ÎµÎ½
Ġá¼ĲÏĥ á½µÎ¼Î±Î½
Ġá¼ĲÎ»á½± Î»Î·ÏĥÎ±Î½
ĠÏĨÎ¿Î² Î¿ÏħÎ¼á½³Î½ÏīÎ½
Ġá¼ĢÎ½ÏĦÎµÎ³ ÎºÎ±Î»
ĠÎºÏīÎ¼ Î¹ÎºÎ¿á¿ĸÏĤ
ĠÎ³ÎµÎ½Î¹Îº á½½ÏĦÎ±ÏĦÎ±
ĠÎ½Î¿Î·ÏĦ á½¸Î½
ĠÏĦÏģÎ¿ÏĨ á½´
ĠÏĦÏģÎ¿ÏĨ á½±ÏĤ
Î¼Î±ÏĦá½· ÏīÎ½
ĠÎ¸á½³Î» Ïī
ĠÎ¸á½³Î» ÎµÎ¹Î½
ĠÎ²Î»á½± ÏĢÏĦÎµÎ¹
ĠÎ½á½³ Î±Î½
ĠÎ½á½³ Î¿ÏħÏĤ
ĠÎ´ÏħÎ½á½± Î¼ÎµÎ½Î±
ĠÎºÎ¿Ïģ á½½Î½Î·Î½
Ġá¼ĢÏĥÎ¸ÎµÎ½ á½µÏĤ
Ġá¼ĢÏĥÎ¸ÎµÎ½ á½³ÏĥÏĦÎµÏģÎ¿Î½
ĠÎ»ÎµÏĢ ÏĦá½¹
ĠÏĩÏģá½½ Î¼ÎµÎ¸Î±
Ġá¼°Î±ÏĦÏģ á½¸ÏĤ
Ġá¼°Î±ÏĦÏģ Î¿á¿ĸÏĤ
ĠÏĦÎµÎ»ÎµÏħÏĦÎ± á½·Î±
ĠÎ´á½³Ïģ Î¼Î±ÏĦÎ¹
Ġá¼ĢÎ´ Î¿Î»ÎµÏĥÏĩ
ĠÎ±á¼°Î½á½· Î³Î¼Î±ÏĦÎ¿ÏĤ
ĠÎ´ÎµÏĥÎ¼ á¿¶Î½
ĠÎ³Î½á½± Î¸á¿³
ĠÎ´ÎµÎ¹ÎºÎ½ á½»ÎµÎ¹
Ġá¼ĲÎ´ á½µÎ»Î¿Ïħ
Ġá¼ĲÎ´ á½±ÎºÏģÏħ
ĠÏĦÎµÎ» Îµá½·Î±ÏĤ
ĠÏĦÎµÎ» Î¹Îºá½°
ĠÏĢÎ¿Î¹Î·ÏĦ á¿ĩ
ĠÎºÎ±ÏĦÎ±Î³ ÎµÎ»
ĠÎ´ÏīÏģÎµ á½°ÏĤ
Ġá¼ĲÎ»Î± á½»Î½
ĠÎºÎ±Î½ á½½Î½
ĠÎºÎ±Î½ á½¹Î½Î¹
Ġá¼ĲÏĢÎ¹Îº Î¿Ïħ
Ġá¼ĲÏĢÎ¹Îº Î¿á½¶
á½½ÏĥÎµÎ¹ Îµ
ĠÎ²á½· Î±Î¹Î¿Î½
ĠÎ²á½· Î±Î¹Î¿ÏĤ
Ġá¼ĲÏĢÎ¹Î³ Îµá½·Î¿Ïħ
ĠÎºÎ±ÏĦÎ±Î»Î·Îº ÏĦÎ¹Îºá¿¶Î½
Ġá¼ħÎ³ Î¹Î±
ĠÎ´á½·Îº Î·
Ġá½ķÎ´Î± ÏĦÎ±
ĠÏĢá½·ÏĥÏĦ Î¹ÏĤ
Î¹Î³Î½ á½½ÏĥÎº
Ġá¼ĲÎ² Î»á½µÎ¸Î·ÏĥÎ±Î½
ĠÎ´Î¹á½½ Îº
Ġá¼ĶÏĥÏĦ Î·
ĠÎ´Î¹Î±ÏĨá½³Ïģ ÎµÎ¹Î½
ĠÎ´ÎµÏĥÏĢ á½¹ÏĦÎ·Î½
Ġá¼©ÏĥÎ±á¿ĵ Î¿Ïħ
ÎºÏħ á½·Î±ÏĤ
Ġá¼ĲÏĢÎ¹Î½ Î¿Î·
ĠÎµá¼°Îº á½¹Î½Î¹
ĠÏĩÎµÎ¹ Î¼
ĠÏĩÎµÎ¹ ÏģÎ±Î³ÏīÎ³
ĠÏĩÎ±Î» ÎºÎ¿Î»
Î²Î±Î»Î» Î¿Î¼á½³Î½ÏīÎ½
ĠÏĢÎ¹Î¸Î±Î½ Î¿á¿¦
Ġá¼±ÏĥÏĦÎ¿Ïģá½· Î±Î½
ĠÏĢÏģÎ¿ÏĥÎºÏħÎ½ á½µÏĥÎ¿ÏħÏĥÎ¹Î½
Ġá½ĢÏĨÎ¸Î±Î»Î¼ á½¸ÏĤ
ĠÎ²Î¿ÏħÎ² á¿¶Î½Î±ÏĤ
ĠÏĢÎ»Îµá½·ÏĥÏĦ Î¿Î¹ÏĥÎ¹
ĠÏĢÏģÎ¿ÏĤ ÏĦÎµ
ĠÏĢÏģÎ¿ÏĤ ÏĦá½·Î¸Î·ÏĥÎ¹Î½
ĠÏĢÎ±Ïĩ ÏħÎ¼
Î´Îµá½·ÎºÎ½Ïħ ÏĥÎ¹
ĠÎ¼Î¿Ïģá½· Î¿Ïħ
ĠÎ¼Î¿Ïģá½· Î¿Î¹ÏĤ
ÏĪÎ± ÏĥÎ¸Î±Î¹
ÏĪÎ± ÏĥÏĢÎ¹ÏĤ
ĠÎ¶á¿¶Î½ ÏĦÎµÏĤ
Ġá¼ķÎ»Îº Î¿Î½ÏĦÎ±Î¹
ĠÎ³ÎµÎ³Î¿Î½ á½¸ÏĤ
ĠÎ³ÏģÎ±Î¼Î¼ á½µ
ĠÎ³ÏģÎ±Î¼Î¼ á¿ĨÏĤ
ĠÎ³ÏģÎ±Î¼Î¼ á½µÎ½
ĠÏĦá½»Ïĩ Î·
ĠÏĦá½»Ïĩ Î·Î½
Ġá¼ĻÎ»Î» á½±Î´Î¿ÏĤ
Ġá¼ĢÏĦá½¹Î¼ Î¿Î¹ÏĤ
ÏĦÏĦÎ¿Ïħ ÏĥÎ±
Ġá¼ĲÎ¼ÏĨ Ïī
Ġá¼ĲÎ¼ÏĨ Î±Î½
Ġá¼ĲÎ¼ÏĨ Î¹Î»Î¿ÏĩÏīÏģ
Ġá½ĢÎ¾ ÏħÏĦá½¹Î½ÏīÏĤ
ÏĢÎµÏģÎ¹ ÏĦÏĦ
Ġá¼ĢÎºá½¹Î»Î¿Ïħ Î¸Î±
Ġá¼ĢÎºá½¹Î»Î¿Ïħ Î¸Î¿ÏĤ
ĠÏĢÎµÎ½ Î¸
ĠÏĢÎµÎ½ ÏĦÎµ
ĠÏĢÏĦÎµÏģ ÏħÎ³
ĠÏĢÏĦÎµÏģ ÏīÏĦá½¹Î½
ĠÏĢÏģÏī ÏĦÎ¿
ĠÏĢÏģÏī á¿ĵ
ĠÏĢÏģÏī ÏĬÎ½
Ġá¼ĢÏĢÎµÎ¹ Î»á½´Î½
ĠÎ¿á¼´ Îºá¿³
Ġá¼°Î±Î¼Î² Î¹Îºá¿¶Î½
Ġá½ĳÏĪÎ·Î» á½¹Î½
á¼ľ ÏĦÎ¹
ĠÎ¼Î±Î½ ÏĦÎµá½»
ĠÏĢÏģÎ± ÏĦÏĦá½¹Î¼ÎµÎ½Î¿Î½
Ġá¼ĢÏĢá½³ ÏĢÎ±Ïģ
ĠÏĢÏģÎ¿ÎºÎµÎ¹ Î¼á½³Î½á¿ĥ
ĠÏĦÎµÎ»Îµá½· Î±Î½
ĠÎ´Î¹Î±Î²Î¿Î» á½´
ĠÎ´Î¹Î±Î²Î¿Î» Î±á¿ĸÏĤ
Ġá¼¦Î» Î¸Î¿Î½
ĠÏĥÏħÎ»Î»Î±Î² á¿ĨÏĤ
ĠÏĥÏħÎ»Î»Î±Î² á¿ĩ
ĠÏĨÎ¹Î»á½¹ Î´Î¹ÎºÎ¿ÏĤ
Ġá¼°Î±ÏĦÏģÎ¹Îº á½¸Î½
á¼¦ ÏĥÎ±Î½
ĠÎºÎµÏģ ÏĩÎ½
Ġá¼ĶÏĥÏĩ Î¿Î½
Ġá¼ĶÏĥÏĩ ÎµÎ½
ĠÏĥÏħÎ¼ ÏĢÎµÏģÎ¹
Ġá¼ĲÎºÎº ÏģÎµÎ¼Î±
ĠÎµá½ĲÎ¸Ïħ ÏīÏģá½·Î±Î½
Î¿á¼ µ
ĠÎºÎ¹ Î³Îº
ĠÏĢÎµ Î¼ÏĨ
Î¸Ïħ Î¼Î¹
ĠÎ¼á½± ÏĦÎ±Î¹
Ġá¼ĲÎºÎ»Îµá½· ÏĢÎµÎ¹Î½
Ġá¼ĲÎºÎ»Îµá½· ÏĪÎµÎ¹
ĠÎ½Î¿Î¼Î¿ Î¸á½³
Î±á½·Î½ Î¿ÏħÏĥÎ¹Î½
ĠÎ½á½·Îº Î·
ĠÎ½á½·Îº á¿ĥ
Ġá¼ĲÏĢÎ¹Î³ÏģÎ±ÏĨ á½´Î½
Ġá¼ĲÏĢÎ¹Î³ÏģÎ±ÏĨ á½µÎ½
ĠÎºÎ±ÏĦÎ±ÏĥÏĦ Îµá½·
Ġá¼°ÏĩÎ¸ á¿¦ÏĤ
Ġá¼ĢÎ½ÏĦÎ¹Î½Î¿Î¼ á½·Î±ÏĤ
Î±á½·ÏģÎµ ÏĥÎ¹ÏĤ
ÏĢÎµÏĥ Îµá¿ĸÎ½
Ġá¼ĢÎ½Î±Î³Îºá½±Î¶ ÎµÏĦÎ±Î¹
Ġá¼ĢÎ½Î±Î³Îºá½±Î¶ ÎµÎ¹Î½
ĠÏĥÏħÎ³Î³Î½á½½Î¼ Î·
ĠÎ¼á½³Î»Î¹ ÏĦÎ¹
ĠÎ¼Î±ÏģÏĦÏħÏģá½· Î¿Ïħ
ÎµÎ¾ á½·Î±Î½
ĠÎ´Î±á½· Î¼Î¿
Ġá¼ĳÎ»Îº á¿¶Î½
ÏĥÎ±ÏĨ á¿¶ÏĤ
Ġá¿¥á½³ Î´ÏīÎ½
Ġá¼°Î³Î½á½» Î±ÏĤ
ĠÏĥÏħÎ½á½³Ïĩ ÎµÎ¹Î±Î½
ĠÎ¼ÏħÏĥÏĦ Î·Ïģá½·
ĠÎ¼Î±ÏĥÏĩá½± Î»Î·ÏĤ
ĠÏĢÎµá½·Î¸ ÎµÎ¹ÏĤ
ĠÏĢÎµá½·Î¸ Î¿Î¼Î±Î¹
ĠÏĥÏħÎºÎ¿ÏĨ Î±Î½ÏĦ
ĠÎ¹ Î²Í´
ÏĢÏĦÎ¿Ïħ ÏĥÎ¹
Ġá¼ĲÎ´á½· Ïī
Ġá¼Ģá½¹ ÏģÎ¹ÏĥÏĦÎ±
ÏīÎ½á½· Î´Î¿Ïħ
ĠÎ´Î¹Î·Î³ á½µÏĥÎ±ÏĥÎ¸Î±Î¹
Î¶á½µÏĦÎ· ÏĥÎ±Î½
Ġá½ĢÎ´ á½»Î½Î·
ĠÎļÏģÎ±ÏĦ á¿ĸÎ½Î¿Î½
Ġá¼ĢÏĨÎ±Î½ á½³ÏĤ
Ġá¼ĢÏģÏĩÎ±á½· Î¿Î¹ÏĤ
Ġá¼ĲÎ¾ÎµÏĦÎ± ÏĥÎ¸á½µÏĥÎµÏĦÎ±Î¹
ĠÎ´Î¹Î±Î¹ÏģÎµ ÏĦÎ¹Îºá¿¶Î½
ĠÎĿÎ¹Îº á½·Î¿Ïħ
ĠÎĿÎ¹Îº Î¿Î»Î±
ĠÏĦÏħÏĨÎ» á½¹ÏĦÎ·ÏĦÎ±
ĠÎºÏĦá½· ÏĥÎ¹ÏĤ
á½±Î»Îµ Î¼Î¿Î½
Ġá¼ĶÎ»Î±Î² Î¿Î½
á½¹Î½Ïħ ÏĥÎ¿Î½
ĠÎµá½ĲÏĩ ÎµÏģ
Ġá¼±Î¼ á½±Î½ÏĦÏīÎ½
Ġá¼°ÏĥÏĩÏħ Ïģá½±
ĠÎ¼Î¹ÏĥÎ¸ á½¹Î½
ĠÎµá½ĲÏĦÎµÎ» á¿Ĩ
ĠÎµá½ĲÏĦÎµÎ» á½³ÏĤ
ĠÏĥÎºá½³Î»Îµ Î±
ĠÏĦÎ¼ á½µÎ¼Î±ÏĦÎ¹
ĠÏĢÎ¹Îº Ïģá½¸Î½
ĠÏĥÏħÏĥÏĦÎ± á½·Î·
ĠÏĥÏħÏĥÏĦÎ± ÏĦÎ¹ÎºÎ±á¿ĸÏĤ
ĠÎ±á¼°ÏĥÏĩ á½»Î½Î·Î½
ĠÎ±á¼°ÏĥÏĩ Ïģá¿¶ÏĤ
Ġá¼ĢÎ³Î½Î¿ Îµá¿ĸÎ½
Ġá¼ĢÎ³Î½Î¿ Î¿á¿¦Î½ÏĦÎµÏĤ
Ġá¼ĪÏĦÏĦÎ¹Îº Î¿á½·
ĠÎ²Î»á½±Î² Î·
ĠÏĦÏģÎ±Ïĩ Îµá¿ĸÎ±Î½
ĠÎºÏħÏģ ÏīÎ¸á¿ĨÎ½Î±Î¹
ÏīÎ¸ á½²Î½
Ġá¼ĢÎ´Î¹ Î±Îº
á½³Î»ÎµÎ¹ ÏĢÏĦÎ±Î¹
ĠÏĪÎ¹Î» á½½ÏĥÎµÎ¹Îµ
Ġá¼ĢÎ¼ÏĨÎ¹ÏĥÎ²Î·ÏĦ Î¿á¿¦ÏĥÎ¹
ĠÎ»á½·Î¸ Î¿Î¹
ĠÏĢÏħÎºÎ½ á½¸Î½
ĠÎºÏħÎ½ Î¿Îº
ĠÎ¼Î¿ÏģÏĨ á½´Î½
ĠÏĥÎµÎ» á½µÎ½Î·ÏĤ
ĠÏĨÎµÏģ á½¹Î¼ÎµÎ½Î¿Î½
ĠÏĢÎ¿Î¹Î· ÏĦÎ±á¿ĸÏĤ
Ġá¼ĢÎ½Î±ÏĢ Î»Î·Ïģ
ĠÎķá½ĲÏģÎ¹ÏĢá½· Î´Î·ÏĤ
ĠÏĢÏħÎ³ á½µÎ½
ĠÏĩÎ±á½· ÏģÎ¿Î½ÏĦÎ±ÏĤ
ĠÎ²á½±Ïģ Î²Î±Ïģ
ĠÎ²á½±Ïģ Î²Î±ÏģÎ±
ÏĢÎ±ÏģÎ± ÏĦÎ·ÏģÎ·
ĠÎ²á½·Î² Î»Î¿ÏĤ
Ġá¼ĢÎºÎ¿Î»Î¿ÏħÎ¸ á½·Î±Î½
Ġá¼¸Î¿ÏħÎ´Î±á½· Î¿ÏħÏĤ
ĠÎ´Î±á½·Î¼Î¿Î½ Î±
ĠÎ´Î±á½·Î¼Î¿Î½ Î±ÏĤ
Ġá¼ĢÏĢá½³ÎºÏĦÎµÎ¹Î½ Î±Î½
Ġá¼ĢÏĢá½³ÎºÏĦÎµÎ¹Î½ ÎµÎ½
ÎµÎ¶ Ïī
Ġá¼ĢÎ»Î· ÏĦá½µ
ĠÎ¸á½½ ÏģÎ±ÎºÎ¿ÏĤ
ĠÎ²Î±Î´á½· ÏĥÎµÏīÏĤ
Ġá¼ĢÎ½Î¸ÏģÏīÏĢ á½¹ÏĦÎ·ÏĦÎ¿ÏĤ
Ġá¼ĢÎ½Î¸ÏģÏīÏĢ á½·Î½Î·ÏĤ
Ġá¼ĢÎ½Î¸ÏģÏīÏĢ á½·Î½ÏīÎ½
ĠÏĩÏģÎ·ÏĥÏĦ á½¸Î½
ĠÏĩÎ±Î»Îµ ÏĢÏī
Ġá¼ĢÏĢÎ¿ÏĥÏĦá½¹Î» ÏīÎ½
Ġá¼ĢÏĢÎ¿ÏĥÏĦá½¹Î» Î¿Î¹ÏĤ
Ġá½ģÏĢá½¹ ÏĦÎ±Î½
ĠÎ¼Î¿ÏħÏĥÎ¹Îº á½´Î½
ĠÎ¼Î¿ÏħÏĥÎ¹Îº á½µÎ½
ÎºÎ±Î¸ á½¹Î»Î¿Ïħ
Ġá¼ĲÎ¾á½³Ïĩ Î¿Î½
ĠÏĦá½¹Î½ Î´Îµ
ĠÎºá½±Î¼Î½ Î¿Î½ÏĦÎ±
ĠÎºá½±Î¼Î½ Î¿Î½ÏĦÎ¹
ĠÏĩÎ±ÏģÎ±Îº ÏĦá½´Ïģ
Îķá¼° Î´á½³Î½Î±Î¹
ÏĦÏĦÎ¿ Î¼á½³Î½Î¿Ïħ
ĠÎºÏģÎ¹ Î¸
Ġá¼ĢÎ» Î³
Ġá¼ĢÏĢá½± ÏĦÎ·Î½
Ġá½ĢÎ´ÏħÎ½ á¿¶Î½ÏĦÎ±Î¹
Ġá¼ķÎº ÏĦá¿³
ĠÏĢÎ±ÏģÎ±Îº Î¿Î»Î¿ÏħÎ¸
ĠÎ¾á½³Î½ ÏīÎ½
ĠÎ²Î±ÏĥÎ±Î½ Î¹ÏĥÎ¼Î¿á¿¦
Ġá½ĳÎ³Ïģ á½¹ÏĦÎ·ÏĤ
Ġá¼ĲÏģÎµá½· Î´ÎµÎ¹Î½
ĠÏĩÎ±Î»Îº ÎµÏħ
ĠÎºÎ·Ïģá½» ÏĥÏĥ
ĠÎ»Îµ Î»ÎµÏħÎº
Ġá¼ĢÎ½Îµ ÎºÎ±Î»
Î¿Î³ÎµÎ½ á¿¶Î½
Ġá¼ĪÏģ ÏĦÎ±Î¾
Ġá¼ĢÏĢÎ¿Î´ÎµÎ¹ ÎºÎ½
ĠÎ¼Î·ÏĩÎ±Î½ á½µÎ½
ĠÎºÎ±Î»Î¿ÏħÎ¼á½³Î½ Î¿ÏħÏĤ
Ġá¼ĢÏĨÎ¿ÏģÎ¼ á½°ÏĤ
ĠÏĢá½¹ÏģÎ½ Î¿Ïħ
ĠÏĢá½¹ÏģÎ½ Î·ÏĤ
Ġá¼ĢÎ¼ÏĨÎ¹Î²Î¿Î» á½·Î±Î½
Ġá¼ĢÎ¼ÏĨÎ¹Î²Î¿Î» á½·Î±ÏĤ
Ïħá¿ĸ Î±Î¹
ĠÎ¼Î·Î½ á¿¦ÏĥÎ±Î¹
ĠÏĢÏģÎ±Îº ÏĦÎ¹ÎºÎ¿á¿¦
Ġá¼ĲÎ½Î´Îµ Î´Ïħ
ĠÎ»á½µ ÏĪÎµÏĦÎ±Î¹
Ġá¼ĢÎ½ÎµÎ» á½½Î½
Ġá¿¥á½· ÏĪÎ±ÏĥÏĢÎ¹ÏĤ
ĠÏĢÎ»Î±Î½ á¾·
ĠÎ¼á½³Î¸ Î·ÏĤ
ĠÎ½Î¿Ïĥ Î·Î¼á½±ÏĦÏīÎ½
ĠÎĴÎ±Î²ÏħÎ» á½½Î½
ĠÎ´Î¹ÎºÎ±Î¹Î¿Î»Î¿Î³ á½·Î±ÏĤ
Ġá¼ĢÎ½Î±Î¹ÏģÎµ Î¸á¿ĨÎ½Î±Î¹
Ġá¼ģÏģÏĢ Î±Î³
ĠÎłÎ¿ÏĥÎµÎ¹Î´ á¿¶
Ġá¼į Î´Î·ÏĤ
Ġá¼į Î³Î¹Î¿Î½
Ġá¼ĲÏģÏĩ á½¹Î¼ÎµÎ½Î¿ÏĤ
Ġá¼ĢÎµ ÏĦá½¸ÏĤ
ÏĦÎ¹Î¸á½³ Î¼ÎµÎ½Î¿Î¹
Î¹Îºá½± Î´Îµ
Ġá¼ĲÏĢÎ¹Î¸ÏħÎ¼ á½·Î±ÏĤ
ĠÎłÎ±ÏĨÎ»Î±Î³ á½¼Î½
ĠÎ±á¼°ÏĦÎ¹ á¾¶ÏĦÎ±Î¹
ĠÎ±á¼°ÏĦÎ¹ á¿¶Î½ÏĦÎ±Î¹
ĠÎµá½ĲÎ´Î¿ÎºÎ¹Î¼ Îµá¿ĸÎ½
Ġá¼µÏĥÏĦÎ± ÏĥÎ¸Î±Î¹
ĠÎĶÎ¹ á½¹Î½ÏħÏĥÎ¿Î½
Ġá¼ĲÎ¼ÏĢÎµÎ¹ Ïģá½·Î±Î½
ĠÎ½Î¿Î¼Î¹ ÎºÎ±á¿ĸÏĤ
Ġá½ĢÎ»Î¹Î³ á½±ÎºÎ¹ÏĤ
ĠÏĨÎ¹Î»Î¿Î½ ÎµÎ¹Îºá¿¶Î½
Ġá¼ĲÏĥÏĩÎ· Î¼á½±ÏĦÎ¹
Ġá¼ĲÎ½Î±Ïģ Î¼á½¹
ĠÏĢÏģÎ¿á½³ÏĦÎ± Î¾ÎµÎ½
ĠÎ´Î¹Î±Î¸á½µÎº Î·Î½
ĠÎ´Î¹Î±Î¸á½µÎº Î±Î¹ÏĤ
Ġá¼ĲÏĢÎ¹Î´ á½³ÏĥÎµÎ¹
ĠÎºÎ±Î¸á½µ Î¼ÎµÎ½Î¿Î½
Ġá¼łÎ½ Î¿á½·
ĠÏĥÏĩÎµ ÏĦ
ĠÏĢá½³Î½Î· ÏĦÎ±ÏĤ
ĠÎºÎ±ÏĦÎ±ÏĨÎµá½»Î³ ÎµÎ¹
ĠÎºÎ±ÏĦÎ±ÏĨÎµá½»Î³ ÎµÎ¹Î½
ĠÏĢÎµÏĨÏħÎº á½¸ÏĤ
ĠÏĢÎµÏĨÏħÎº á½¹ÏĦÏīÎ½
Ġá¼ĲÎ½Î±Î»Î»Î±Î³ á½´
Ġá¼ĶÎ¾Îµ ÏĥÏĦÎ¹Î½
Î¿Î»Î± ÏĦÏģ
ĠÏĦÎ±Ïģá½± ÏĦÏĦÏīÎ½
Ġá¼ĲÏĢÎ¹ÏĥÎº Î¿ÏĢ
ĠÎ±á¼±Ïģ á½³ÏĥÎµÎ¹ÏĤ
Ġá¼ĢÏĨÎµ á½¶ÏĤ
ĠÏĦÏģÎ¹ÏĥÎ±ÏģÎ¹ÏĥÏĦ á½³ÏīÏĤ
ĠÏĦÏģÎ¹ÏĥÎ±ÏģÎ¹ÏĥÏĦ Îµá½ºÏĤ
Ġá¼ĲÏĢÎ¹ÏĥÏĦÎ¿Î» á½µÎ½
ĠÎ±á½ĲÎ¾ á½µÏĥÎµÎ¹
ĠÎ¼Î¿Î½Î¿Î¼ÎµÏģ Îµá¿ĸ
ĠÏĥá½»Î½Î¸Îµ ÏĦÎ±
Ġá¼ĲÎ»Î¸ á½¹Î½ÏĦÎ±
Ġá½ģÏĢÎ¿á¿ĸ Î¿ÏĤ
Ġá¼ĲÏĢÎ¹ÏĦÎ·Î´ÎµÎ¹ á½¹ÏĦÎ·ÏĦÎ±
Ġá¼ĲÏĢÎ¹ÏĦÎ·Î´ÎµÎ¹ á½¹ÏĦÎ·ÏĦÎ¿ÏĤ
Ġá¼ĲÏĢÎ¹ÏĦÎ·Î´Îµá½· Î¿Ïħ
Ġá¿¬ÏīÎ¼Î± á½·Î¿Î¹ÏĤ
Ġá¿¬ÏīÎ¼Î± á½·Î¿ÏħÏĤ
Ġá¼ģÎ¼Î±ÏģÏĦÏīÎ» Î¿á½ºÏĤ
Ġá¼ģÎ¼Î±ÏģÏĦÏīÎ» Î¿á½¶
Ġá¼ĲÎ¾ÎµÏĦÎ±Î¶ Î¿Î¼á½³Î½Î·
Ġá¼ĲÎ³ÎºÏīÎ¼Î¹Î±ÏĥÏĦ Î¹ÎºÎ¿á¿ĸÏĤ
ĠÎºÎ·Î¼ á½¸ÏĤ
ĠÏĢÏģÎ¿Î½ Î¿
ĠÏĢÏģÎ¿Î½ Î¿á½·Î±ÏĤ
ĠÏĢÏģÎ¿Î½ Î¿á½·á¾³
Ġá¼ĦÎ³ÏģÎ±ÏĨ Î¿Î½
ĠÏĩÏģÎ¿Î½ Î¹Îºá½´Î½
ĠÏĢÎ±ÏģÎ±Î´á½·Î´Ïī ÏĥÎ¹Î½
Ġá¼ĢÎ½Î±ÏĦÎ¿Î¼ Î¹Îºá¿¶Î½
ĠÎµá½Ĺ ÏģÎµ
Ġá¼łÎ¸ Î¹Îºá½°
Ġá¼łÎ¸ Î¹Îºá¿ĨÏĤ
ĠÏĦá½³Î¸ÎµÎ¹ ÎºÎµ
ĠÎ²Î¿ÏħÎ»ÎµÏħ ÏĦÎ·Ïģá½·Î¿Ïħ
Ġá¼ĲÏĢá½·ÏĥÏĦÎ± ÏĥÎ¸Î±Î¹
ĠÏĢÎ¿Î»Î¹Î¿ÏģÎº á½·Î±Î½
Ġá¼¤ÎºÎ¿Ïħ ÏĥÎµ
Ġá¼¤ÎºÎ¿Ïħ Ïĥá½±
ĠÏĢÎ±ÏģÎµÎ»Î·Î»ÏħÎ¸ á½¹ÏĦÎ¿ÏĤ
ÏģÏĢ Î±Îº
ĠÎºÎ±Î»Î» Î¹
Ġá¼ĶÎ¸Î· ÎºÎµ
Ġá¼ĲÏĢÎ¹ÏĦá½µÎ´ÎµÎ¹ Î±
Ġá¼ĲÏĢÎ¹ÏĦá½µÎ´ÎµÎ¹ Î¿Î½
Ġá¼ĲÎ¾á½·ÏĥÏĩ á¿ĥ
Ġá½ĦÏģÎ½ Î¹ÏĤ
ĠÎºÎ±Î¸á½³ Î´ÏģÎ±
ĠÏĢÎ»Î·Ïģ á¿¶ÏĥÎ±Î¹
ĠÎºá½»ÏĨ ÏīÎ¼Î±
ĠÎ¼ÎµÏĦá½³Ïĩ Î¿Î½ÏĦÎ±
Ġá¼ĲÎ»ÏĢá½· Î´Î±
ĠÎºÎ±ÏĦÎ±ÏĨÏģÎ¿Î½ á½µÏĥÎµÎ¹ÏĤ
ĠÏĥÏĦÎ±ÏħÏģ á½¸Î½
Î²á½±Î»Î»Î¿Î½ ÏĦÎ¿ÏĤ
ĠÎ±á¼°ÏĩÎ¼Î± Î»Ïī
Ġá¼ĲÎ¶ Î·ÏĦÎ¿á¿¦Î¼ÎµÎ½
ÏĥÏĦá½³Ïģ Î±Î½
ĠÏĨá½± ÏĥÎ¹ÏĤ
Ġá¼ĢÎ½ÏĦá½³ Î¸Î·
Ġá¼ĲÎºÏĦÎµá½·Î½ ÎµÏĥÎ¸Î±Î¹
ĠÎ½á½µ ÏĨ
ĠÎ½á½µ ÏĢÎ¹Î¿Î¹
Ġá¼ĲÎ¾Î±á½· ÏģÎµÎ¹
ĠÎµá¼´Ïī Î¸ÎµÎ½
ĠÎºÎ±ÏĦÎ±Î³Î½ á¿¶Î½Î±Î¹
Ġá¼ĢÏĢÎ¿ÏĨá½» ÏĥÎµÎ¹ÏĤ
Î»á½±Î² á¿ĥ
Ġá¼ĢÏģÏĩÎ± á¿ĸÎ¿Î½
ĠÎ¼ÎµÏĦá½½ÏĢ á¿³
Ġá¼ĢÏĥá½±ÏĨ ÎµÎ¹Î±
Ġá¼ĢÏĢÎ±ÏĦ á¾¶ÏĦÎ±Î¹
Ġá¼ĲÏĢÎ¹ÏĦÎ·Î´Îµá½» Î¼Î±ÏĦÎ±
Ġá½łÏĨá½³Î» ÎµÎ¹Î±
Ġá¼ĢÎ½Î±Î»Î¿Î³ á½·Î±ÏĤ
ĠÎłÎµÎ»Î¿ÏĢÎ¿Î½Î½Î· Ïĥá½·Î¿ÏħÏĤ
Î¿Î´á½· Î¿Ïħ
ĠÎºÎµÏģÎ± Î¼
ÏħÎ»á½± Îº
Ġá¼ĲÏĦÎµ Î»Îµá½»ÏĦÎ·
Ġá¼ĶÎ¾ Î±ÏģÎ¸Ïģ
Ġá½ģÎºá½¹ ÏĦÎ±Î½
Ġá¼ĢÎ½Î¿ Î·ÏĦÎ±
ĠÏĢÏģÎ¿Î´ á½¹ÏĦÎ·Î½
ĠÏĢÏģÎ¿Î´ á½µÎ»ÏīÏĤ
ĠÏĢÏģÎ¿Î¿Î¹Î¼ á½·ÏīÎ½
Ġá¿¥Î¿ÏĢ á½´Î½
ĠÎºÎ±ÏĦÎ±Î½Î±Î³ Îºá½±Î¶
Ġá½ĦÏĩ Î»Î¿Ïħ
ĠÎĶÎ±Î½Î¹ á½µÎ»
Ġá¼ĲÎ¼ÏĢÎµÏģÎ¹ á½³Ïĩ
ĠÎºá¼ĢÎ³ á½½
ĠÏĥá½»Î¼ÏĢ Î±
ÏĦÏģá½·Î² ÏīÎ½
ĠÎ£ÏīÎºÏģá½± ÏĦÎµÎ¹
ĠÎ²á½±Î¸Ïģ Î¿Î½
ĠÎ²á½±Î¸Ïģ Î¿Ïħ
Ġá¼ĲÎ¾á½³ÏĢÎµ ÏĥÎµ
ĠÏĥÏĢÎ¿ÏħÎ´Î± á¿ĸÎ¿Î½
ĠÏĢÏģÎ¿ÏĥÎ¸á½µÎº Î·Î½
ĠÎ±á½ĲÏĩá½³Î½ Î¹
Ġá½ģÎ´Î¿Î¹ÏĢÎ¿Ïģ á½³ÎµÎ¹Î½
ĠÏĦÎ·Î½ Î¹Îºá½±Î´Îµ
ĠÏĢá½¹Î½ Î¿Î½
ĠÏĢÎµÏĥ Îµá¿ĸÎ½
ÏĨÏģÎ± ÏĥÏĦÎ¹Îºá¿¶ÏĤ
ĠÎµá¼± ÏģÎ¼
ĠÎ±á½ĲÏĦÎ¿Î¼Î¿Î» á½µÏĥÏīÎ¼ÎµÎ½
ĠÏĢÏģÎ¿Î¿á½· Î¼Î¹Î±
ĠÏĢÏģÎ¿ÏĥÏĦÎ± ÏĦÎµá¿ĸÎ½
ĠÎ¸Î±Ïģ ÏĥÎ±
ĠÎ²á½»Ïģ ÏĥÎ±ÏĤ
Ġá¿¥Î± Ïĩ
Ġá¼ĪÎ³ Î¿ÏģÎ±Îº
ĠÎ±á¼°Îµ ÏĦÎ¿á¿¦
Ġá¾Ĳ Î½á½·Î¾Î±ÏĦÎ¿
ĠÎ§á½± ÏģÎ·
ĠÎ³ÎµÎ³á½¹Î½Î± ÏĥÎ¹
ĠÏĩÏģÎ·Î¼Î±ÏĦá½· Î¶ÏīÎ½
ĠÎ±á½ĲÎ» á½¸ÏĤ
ĠÏĢÎ±Î¹ÏīÎ½ Î¹Îºá½¸Î½
ĠÎºÎµÎºÎ» Îµá¿ĸÏĥÎ¸Î±Î¹
ĠÎ¤ÏģÎ¹ ÏĦÎ¿Î³ÎµÎ½
ĠÎ´ÏħÏĥÎº Î¿Î»
Ġá¼ĲÎºÎ²Î·Ïĥ Î¿Î¼á½³Î½Î¿Ïħ
ĠÏĩÎ±Î»ÎµÏĢ á½¸Î½
ÎµÏħÎ¸á½»Î½ Î¿ÏħÏĤ
ĠÏĥá½±Î»ÏĢÎ¹Î³Î³ ÎµÏĤ
Ġá¼ĲÎ½Î´á½¹Î¾ Î¿Ïħ
Ġá¼ĲÎ½Î´á½¹Î¾ ÏīÎ½
Ġá¼ĲÏĢÎ± ÏĩÎ¸á¿ĨÎ½Î±Î¹
ĠÎ»Î·Î½ Î¿á¿¦
ĠÎµá¼°Î»Î·ÏĨ á½¹ÏĦÎ±
Ġá¼ĢÎ½Î±Î½ ÏĦÎ¹
ĠÎ¼ÎµÎ¼Î½Î· Î¼á½³Î½Î¿ÏĤ
Ġá¼ĳÏĦÎ±á½· ÏģÎ±ÏĤ
ĠÏĢÎ±ÏģÎ¿Î¾ ÏħÎ½
ĠÏĢÎ»á½µ Î¸ÎµÎ¹
ĠÏĢÏģá½¹ÏĥÏĨ ÏħÏĥÎ¹Î½
ĠÏĢÎµÏģÎ¹Î²ÎµÎ²Î»Î· Î¼á½³Î½Î·
ĠÎ³ÎµÎ½Îµ ÏĦá¿ĨÏĤ
ĠÎ¾ÎµÎ½ Î¿ÏĢÏģÎµÏĢ
ĠÏĦá½±Ïĩ ÎµÏīÏĤ
ĠÎ´ÎµÎ´Îµ Î³Î¼á½³Î½Î¿Î½
ĠÎ£Î¿ÏĨ Î¹ÏĥÏĦ
ĠÏĨÏħÎ»Î±Îº á½´
ĠÎ¼ÏħÏģÎ¹ á½±Î´ÎµÏĤ
ĠÏĥÏīÎ¼Î±ÏĦÎ¹Îº á¿¶ÏĤ
ĠÏĥá½»Î¼ÏĨ ÏīÎ½Î¿Î½
Ġá¼ĶÎºÏģÎ± Î¶Î¿Î½
ĠÏĩá½±ÏģÎ¹ ÏĤ
Ġá¼ĢÏĢÎ±ÏģÎ¹Î¸Î¼ Îµá¿ĸÏĦÎ±Î¹
ĠÎ¼Îµá½·Î¶ Ïī
ĠÎ½ÎµÏĨá½³ Î»Î·
ĠÏĢÏģÎ¿ÏĥÏĦá½· Î¸Î·ÏĥÎ¹Î½
ĠÎºÎ»Î¹Î¼Î±Îº ÏĦá¿ĨÏģÎ±
á¼Į Î»Î»
ĠÎºá½¹Î¼ Î¼Î¹
ĠÎºÎ·Ïģ ÏīÏĦá¿ĩ
ĠÏĢÎµá¿ĸ ÏģÎ±
ĠÏĢá½³Ïģ Î·Î½
ĠÏĢÏĦá½½ Î¼Î±ÏĦÎ¿ÏĤ
Ġá¼ĢÎ¼Î¿Î¹ Î²
ĠÎ¼ÏħÏģá½· ÏīÎ½
ĠÎ³Î»Î¿Ïħ ÏĦá½¸Î½
ĠÎ´Î¹ÎµÎ½ á½µÎ½Î¿Ïĩ
Ġá¼ĲÏĢÎ±Î³Î³ÎµÎ» á½·Î±ÏĤ
ĠÎ»á½µÎ¼ Î¼Î±ÏĥÎ¹Î½
Ġá¼¡ÏĦÎ±Î¹ÏģÎ· Îºá½¹ÏĦÎ±
Ġá¼ĦÏĢÎ¿Î¹ ÎºÎ¿Î¹
Ġá¼ĲÎºÏĥÏĦ á¿ĩ
ĠÎ²ÏģÎ¿Î½ ÏĦá¿ĨÏĤ
ĠÎ¶ÏħÎ³ á½½Î¼Î±ÏĦÎ¿ÏĤ
ĠÎ±á¼°Î½Î¹ ÏĦÏĦá½¹Î¼ÎµÎ½Î¿ÏĤ
ĠÎºÎ±ÏĦá½±Î³ Î¼Î±ÏĦÎ¿ÏĤ
ĠÎ£á½· Î¼ÏīÎ½
ĠÏĢÏģÎ¿ÏĨÎ· ÏĦÎµá½»
ĠÎ´Î¹Î±ÏĢÏģÎ± Î¾
ĠÏĪá½µÏĨ Î¹ÏĥÎ¼Î±
ĠÎľÏīÏĭÏĥ á½³ÏīÏĤ
ĠÏĥÏĦÏģÎ¿Î³Î³ á½»Î»Î¿Î½
Ġá¼ĢÎ¼ÏĨÎ¹Î²á½±Î»Î» ÎµÏĦÎ±Î¹
ĠÎ»Î±Î½Î¸á½±Î½ ÎµÎ¹
ĠÎŁ á¼°
ĠÎ¼á¿¦ Î¸Î¿Î½
ĠÎ»Î¿Ïģ Î´
ĠÎ²á½¹ ÏĦÏģÏħ
ĠÏĢÎ±ÏģÏģÎ· Ïĥá½·Î±Î½
ĠÏĢÎ±ÏģÎµÏĩ á½¹Î¼ÎµÎ½Î±
ĠÏĦÎ¹Î¸á½³ Î±ÏĥÎ¹
Ġá¼ĲÏĢÎ¹ÎµÎ¹Îº á¿¶ÏĤ
Ġá¼ĲÎ¾Î¹Ïĥ á½±Î¶ÎµÎ¹Î½
Ġá¿¥á½» ÏĢÎ¿Ïħ
ĠÏĥÏħÎ½á½±ÏĢ ÏĦÎ¿ÏħÏĥÎ¹
Î´Î¹á½¹ ÏĢÎµÏģ
ĠÎłá½³ ÏĦÏģÎ¿Î½
ĠÎµá½ĲÎ´Î¿Îº á½·Î¼Î·
Ġá½ģÎ¼ÏīÎ½ÏħÎ¼ á½·Î±Î½
Ġá½ģÎ¼ÏīÎ½ÏħÎ¼ á½·Î±
ĠÎ¸ÎµÎ¿ ÏĦá½¹
Ġá¼ĢÎ½Î±ÏĦÎ¿ Î»á¿ĨÏĤ
Ġá¼ĢÎ¼ÏĨá½· Î²Î¿Î»Î¿Î½
ĠÎ¼Î·Î´ÎµÎ½ á½¸ÏĤ
ÎµÏĥÏĦá½³Ïģ Î±Î½
ĠÎ»Î¿Î³Î¹ ÎºÎ±á¿ĸÏĤ
ĠÏĢÎ¿Î½Î· ÏģÎ¿á½ºÏĤ
ĠÏĥá½»Î½ÏĦÎ¿ Î¼Î¿ÏĤ
ĠÏĢÎ½Îµá½»Î¼Î¿Î½ Î±
Ġá½łÎ½Î¿Î¼á½± ÏĥÎ¸Î·
Ġá½łÎ½Î¿Î¼á½± ÏĥÎ¸Î·ÏĥÎ±Î½
ĠÏĢÎ»Î±Î³ á½·ÏīÎ½
ĠÎ´Î·Î¼Î¿Îº Î¿ÏĢá½·Î¿Ïħ
Ġá¼ĲÏĢÎµÏĦá½µÎ´ÎµÏħ ÏĥÎµ
Ġá¼ĲÎ»á½±Î¼Î²Î±Î½ Î¿Î½
Ġá¼ĢÎ½ÏĦÎ¹Î´Î¹Î±Î¹Ïģ Î¿ÏħÎ¼á½³Î½ÏīÎ½
Ġá¼ĢÏĢÎ±Î¹ÏĦ á½µÏĥÎµÎ¹
Ġá½ĻÏĢá½³Ïģ Î²Î¿Î»Î¿ÏĤ
ĠÎµá¼°Î´ÏīÎ» Î¿Î»Î±ÏĦÏģ
Î¹Î³Î³ Î»
Ġá¼ĢÎ¼Î² Î»
Ġá¼ĲÎ½á½¹Î¼ Î¹ÏĥÎ±Î½
ĠÎ»á½±Ïĩ Î±Î½Î±
ĠÎµá¼°Î´á½¹ ÏĦÎµÏĤ
ĠÏĨá½±Î³ Îµ
Ġá¼ĢÎ½ÎµÏĢÎ¹ ÏĦÎ·Î´Îµá½·
Ġá¼ĦÏĢÎµ ÏĥÏĦÎ¹
Ġá¼ĦÏĢÎµ ÏĥÏĦÎ¹Î½
Ġá¼ĢÏĢÎ·Î½ á½³Î³
ĠÏĥÏħÎ¶ÏħÎ³ á½·Î±ÏĤ
Ġá¼ĲÎºÏĢÏĦ á½½
ĠÏĢÏģÎ¿á½Ķ Ïĩ
ĠÎ¸Ïģá½³ Î¼
ĠÎ²Ïģá½³ ÏĦÎ±ÏĤ
Ġá¼ĢÎ»Î»á½¹ÏĦ ÏģÎ¹Î¿Î½
Ġá½ĢÏģÏĩ á½µÏĥÎµÏīÏĤ
Ġá¼ĲÏĢÎ¹ÎºÎ±Î» Îµá¿ĸÏĦÎ±Î¹
ĠÎ¶ÏīÎ³ Ïģá½±ÏĨÎ¿Ïħ
ĠÎłÎ¿ÏģÏĨ á½»ÏģÎ¹
ĠÎłÎ¿ÏģÏĨ ÏħÏģá½·Î¿Ïħ
ĠÏĢÎ±ÏģÎ±Î²Î±Î»Î» Î¿Î¼á½³Î½Î·
ĠÏĪÎ·ÏĨ á½·ÏĥÎ¼Î±ÏĦÎ±
ĠÎľÎµÎ³ á½±ÏģÎ¿Î¹ÏĤ
ĠÏĢÏģÎ¿ÏĨÎ¿ÏģÎ¹Îº á½¸ÏĤ
ĠÏĢá½±ÏģÎµ ÏĥÏĦÎ¹
ĠÏĢá½±ÏģÎµ ÏĥÏĦÎ¹Î½
ĠÎ»á½»ÏĩÎ½ Î¿ÏħÏĤ
ĠÏĥÎ±ÏĨÎ·Î½ Îµá½·Î±ÏĤ
ĠÎºÎ±ÏĦÎµÏĥÎ¸á½· ÎµÎ¹Î½
ĠÏĢÏģÎµÏĥÎ²ÎµÏħ ÏĦá½´ÏĤ
Ġá¼ĢÏĢÎ¿ÏĥÏĦá½± ÏĦÎ·Î½
ĠÏĢÎµÏĨá½» ÎºÎ±ÏĥÎ¹Î½
ĠÏĥÏĦÎµÏģÎ· ÏĦÎ¹Îºá½¸Î½
ĠÏĥÏħÎºÎ¿ÏĨá½±Î½ ÏĦÎ·ÏĤ
Ġá¼Ģá½¹ÏģÎ± ÏĦÎ¿ÏĤ
ĠÏĢÏģÎ¿ÏĭÏĢ á½±ÏģÏĩÎµÎ¹
ĠÎłÏħÎ¸Î±Î³ á½¹ÏģÎ¿Ïħ
Ġá¼ĳÎ²Î´á½¹Î¼ Î·ÏĤ
ĠÏĥÏħÎ½Î´á½³ÏĥÎ¼ Î¿ÏħÏĤ
ÏģÎµÏĨ á½¹Î½ÏĦÏīÎ½
Ġá¼ĲÏĥÎº Î¿
Ġá¼ĲÏģÎµ ÏĥÏĥá½¹Î½ÏĦÏīÎ½
Ġá¼ĲÏĥÏī ÏĦá½³ÏģÏī
ĠÏĨÎ±á½· Î·
ÏĦÎ¿ÏĢá½½ Î»Î·ÏĤ
Ġá¼ĦÎ³Î½ Î¿Î¹Î±Î½
ĠÎ²Î´ÎµÎ» ÏħÏģ
ĠÏĢÎµÏģÎ¹Î½ Î±á½·Î¿Ïħ
Ġá¼ĲÏĢÎ¹ÏĥÏĨ Î±ÎºÎµÎ»á½·
á½³Î»Î¹ ÏĢÎµÎ½
ÏĥÎºÎµá½» Î±
ĠÎĺÎ·Ïĥ á½³ÏīÏĤ
Ġá¼ĢÎ³Î± Î¸Î±
ĠÏĢÎ±ÏģÎ±Î²ÎµÎ² Î±Ïĥ
ÏĦÏģá½½ Î¾
ĠÏĢÎµÏģÎ¹Î²ÎµÎ² Î»á¿ĨÏĥÎ¸Î±Î¹
ĠÏĪÎ±á½» ÎµÎ¹Î½
ĠÎ£ÏĨÎ±Îº ÏĦÎ·Ïģá½·Î±Î½
Ġá¼łÎ´ÏħÎ½ á½µÎ¸Î·
Ġá¼łÎ²Î¿Ïħ Î»á½µÎ¸Î·
ĠÏĦÏģá½·Ïĩ Î±ÏĤ
ĠÎ´á½·ÏģÏģÏħÎ¸ Î¼Î¿Î½
Ġá¼¸á½½ ÏĥÎ·
Ġá¼¸Î±Îº á½¼Î²
Ġá½ĳÏĢÎµÏģÎ¿ÎµÎ¹Î´ á½²ÏĤ
ĠÎ»á½³Î¾Îµ ÏĥÎ¹
ĠÎºÎµÎºÏī Î»Ïħ
ĠÎºÏħÎ²ÎµÏģÎ½ á¾¶Î½
Ġá½ĳÎ³Î¹ÎµÎ¹Î½ á½¸Î½
Ġá¼°Ïĥá½¹ á¿¤á¿¥Î¿ÏĢÎ¿Î½
Ġá¼ĢÎ½ÏīÏĨÎµÎ» á½³ÏĤ
ĠÎ³ÎµÎ½Î¹ÎºÏīÏĦá½± ÏĦÏīÎ½
ĠÏĥÏħÎºÎ¿ÏĨÎ±Î½ ÏĦÎµá¿ĸÎ½
Ġá¼ĪÏģÏĩÎµÏĢ ÏĦÎ¿Î»á½³
ĠÎ¼Î·ÏĦÏģÏħÎ¹ á½°Î½
ĠÏĦÎ±ÏħÏĦ á½¹ÏĦÎ·ÏĤ
Ġá¼łÎºÎ¿Î»Î¿á½»Î¸Î· ÏĥÎµÎ½
ĠÏĦÏģÎ±ÏĢá½³Î¶ Î·ÏĤ
Î¿á½·Î½ Î¹ÎºÎµÏĤ
ĠÏĦÎ±Î¹Î½á½· á¿ĥ
ÎºÏīÎ¼ á¿³Î´Îµá¿ĸ
á½³ÏĪ Î¿Î¼Î±Î¹
ĠÎ´ÏģÎ¿ Î¼Î¹Îº
á½µÎ½Î± ÏĥÎ¸Î±Î¹
á½½ÏģÎ¹ ÏĥÎµÎ½
ÏĦÎ¿á½Ĳ Î»Îµá½¹Î½
Ġá¼ĦÏĥÎ±Ïģ ÎºÎ¿Î½
Îµá½·Î»Î·ÏĨ Îµ
Ġá¼ĢÎ»Î»á¾¶Î½ ÏĦÎ±ÏĤ
ĠÎ´Î¹Î±ÏĦ ÏģÎ¹Î²
ĠÎ´Î¹Î±ÎºÎ¿ Ïĥá½·Î±ÏĤ
Ġá¼ĲÎ¾á½±Ïģ Î¸ÏģÎ·
Ïģá½±ÏĦÎµÎ¹ Î¿Î½
ÏĦÎ¿ÏħÏĦá½³ ÏĥÏĦÎ¹Î½
Ġá¼¡Î¼á½³ ÏĦÎµÏģÎ¿Î½
ĠÏĢÏģÎ¿Ïĥá½µÎº Î¿Î½ÏĦÎ¿ÏĤ
ĠÏĢÏģá½¹Î²Î± ÏĦÎ±
Ġá¼ĢÎºÏģÏī ÏĦá½µÏģÎ¹Î¿Î½
ĠÎ³á½³Î½Î½Î· ÏĥÎ¹Î½
ĠÏĢÎµÏĢÎ·Ïģ ÏīÎ¼á½³Î½Î¿Î½
ĠÎ³Î½Ïī ÏģÎ¹Î¼
ĠÏĢá½³ÏĦÏģ á¾³
Ġá¼ĢÎ½ÏĦÎ¹ÏĥÏĦÏģÎ¿ÏĨ á½´
ĠÏĥÎ¹Î¼ Î¿á¿¦ÏĥÎ¸Î±Î¹
ĠÎºÎµÎºá½½Î» ÏħÎºÎµÎ½
Ġá¼ĢÎ¾Î¹á½¹Î» Î¿Î³Î¿Î½
Ġá¼ĢÏĢÎ±ÏģÏĩ á½´
ĠÎ´Î·Î»Î· ÏĦá½µÏģÎ¹Î¿Î½
ĠÎ±á¼µÏģÎµ ÏĥÎ¹Î½
Ġá¼ĲÎ½Î±Î½Î¸Ïģá½½ÏĢ Î·ÏĥÎ¹Î½
ĠÎĳá¼°Î¸ á½·Î¿
ĠÏĨá½·Î» ÏĦÎ±
ĠÎ´ÎµÎ¹ÎºÎ½á½»Î½ ÏĦÎ¿ÏĤ
ĠÎ´Î¹Î±ÏĢÏģá½± Î¾Î±ÏĥÎ¸Î±Î¹
ĠÎºÎ¹Î¸Î±Ïģ á¿³Î´á½¸ÏĤ
ĠÏĢÎ±ÏģÎ±ÏĢÎ»Î· Ïĥá½·ÏīÏĤ
Ġá¼ĲÏĥÏĨÏģÎ±Î³ Î¹Ïĥ
Ġá¼ĲÏĢÎ±Î³Î³á½³Î»Î» ÎµÏĦÎ±Î¹
Ġá¼ĪÏģá½·Î³Î½Ïī ÏĦÎ¿ÏĤ
ĠÎ¸Ïģá½±Ïĥ Î¿ÏħÏĤ
Ġá¼ĢÏĢá½³ÏĥÏĨÎ± Î¾Îµ
á½© ÏĤ
ĠÏĢá½±Ïĩ Î¿ÏĤ
Ġá¼Ģá½³ ÏģÎ¹
Ġá¼ĢÏĥÏĨ á½±Î»
ĠÏĥÎ· ÏĦÎ±Î½
Ġá¼ĦÏĥÏĦ ÏģÏīÎ½
Ġá¼ĦÎ² ÏħÏĥÏĥÎ¿Î½
ĠÏĩÎ¿á½· ÏģÏīÎ½
Ġá¼ĲÎºÎ²Î¿Î» á½´
ĠÎ¸á½³Î± ÏĦÏģÎ¿Î½
Ġá½ĳÏĢÎµÎ½ Î±Î½ÏĦá½·
ĠÎµá¼´Î´Îµ ÏĥÎ¹
ĠÎºÎ±ÏĦÎ±ÏĦÎ± Ïĥá½·ÏīÎ½
Ġá¼ĪÎ´ á½°Î¼
Ġá¼ģÎ»Î¼ ÏħÏģ
ĠÎłÎ»ÏīÏĦ á¿ĸÎ½Î¿ÏĤ
ĠÎ¼Î·Ïĩá½±Î½ Î·Î¼Î±
ÏĢÎ±ÏģÎµ ÏĢÎ¹Î³ÏģÎ±ÏĨ
ĠÎºÎ±ÏĦá½¹ÏģÎ¸ ÏīÎ¼Î±
Ġá¼ĢÏģÏĩÎ¹ ÎµÏģ
ÏħÎ³ÏĩÎ±Î½ á½¹Î½ÏĦÏīÎ½
Ġá¼ĶÎ½Î½ Î¿Î¹
ĠÏĨÎ±á½» Î»Î·
ĠÎ§Î±Î¹Ïģ ÏīÎ½Îµá½·á¾³
Ġá¼¤Î³Î±Î³ ÎµÎ½
ĠÎ¼á½±Î»Î¹ÏĥÏĦ á½±
ĠÎ¸ÎµÏģá½± ÏĢÎ¿Î½ÏĦÎµÏĤ
Ġá¼ĢÏĢÎ¿Îºá½µÏģÏħÎº ÏĦÎ¿ÏĤ
ĠÎ´Î±ÎºÏĦá½» Î»Î¹Î¿Î½
Ġá¼ĶÎºÏĢ ÏĦÏīÏĥÎ¹Î½
á½³Î²Î±Î» ÎµÎ½
ĠÏĢÎ¿ÏģÏĨá½» ÏģÎ±ÏĤ
ĠÏĢÎ¿ÏģÏĨÏħÏģ Î¿á¿¦Î½
ĠÎĵÏģÎ·Î³á½¹ ÏģÎ¹Î¿ÏĤ
ĠÏĥÏħÎ¼Î²Î±ÏĥÎ¹ Î»Îµá½»
ĠÎ²Î¿á½µ Î¸ÎµÎ¹Î±Î½
Ġá¼ĲÎ²Î¿á½µÎ¸Î· ÏĥÎµÎ½
ĠÏĢÎ·Î´Î±Î» á½·Î¿Ïħ
ĠÎłÎ»Î±ÏĦÎ±Î¹ á½³ÏīÎ½
Ġá¾ĦÎ´ Î¿ÏħÏĥÎ¹Î½
ĠÏĦÎµÎ¸Î½á½µ Î¾ÎµÏĦÎ±Î¹
Ġá¼ĿÎ»Î»Î·Î½ ÎµÏĤ
ĠÎłÎ±Î½Î±á½· ÏĦÎ¹Î¿ÏĤ
Ġá¼ĢÏĢÎ¿ÏĥÎ¿Î² Îµá¿ĸ
ĠÎºÏģÎ¿ÏĦÎ±ÏĨá½· ÏĦÎ±ÏĤ
ĠÏĨÏģá½³Î± ÏĦÎ¿ÏĤ
Ġá¼ĢÎ½ÏĦÎ±Î³ÏīÎ½ Î¹ÏĥÏĦ
Ġá¼ĪÎ»ÎµÎ¾á½±Î½Î´Ïģ Î¿Ïħ
ĠÏĢÎ¹ÏĢÏģá½±Ïĥ ÎºÎµÏĦÎ±Î¹
Î¼á¾¶ Î»Î»Î¿Î½
ĠÎºá¿´ Î´Î¹Î¿Î½
ĠÏĢÏĦÏī Ïĩ
Ġá¼ĲÏģÏħÎ¸ ÏģÎ¹
ĠÏĥÎ¼Î± ÏģÎ±Î³
Î»Î»Î±Î² Î¿Î½
Ġá¼ĲÏĢÎ±á½» ÏĥÎ±ÏĦÎ¿
Ġá¼¡Ïĥá½» ÏĩÏīÏĤ
Ġá¼ĦÎºÎ±Î½ Î¸Î±Î½
Ġá¼ĲÎºÏĢÎ¿ Î´á½¼Î½
ĠÎ´Î¹Î±ÎºÎ¿Î½ á½·Î±Î½
Ġá¼°á½±Ïĥ ÏĢÎ¹
Ġá¼ķÎ²Î´ Î¿Î¼Î¿ÏĤ
ÎµÏĨÎ±Î»Î± á½·Î±Î½
Ġá¼ģÏĢÎ± Ïĥá¿¶Î½
ĠÏĢÏģÎ¿ÏĥÎ¿Î¼ Î¹Î»
ĠÏĢÎ»á½»Î½ Î¿Î½ÏĦÎµÏĤ
ĠÏĥÎºá½¹ÏĢ ÎµÎ¹
ĠÎ±á¼±ÏģÎµÏĥÎ¹ á½±ÏģÏĩÎ¿Ïħ
ĠÏĢÎµÏģÎ¹Î³ÎµÎ½ á½³ÏĥÎ¸Î±Î¹
Ġá¼ĢÎºÏģá½½ Î¼Î¹Î¿Î½
ĠÎĶÎ±Ïģ Îµá½·Î¿Ïħ
Ġá½ķÏĢÎµÏģ Î¿Î½
ĠÎ£á½±Ïģ Î´ÎµÏĥÎ¹Î½
ĠÎ³ÎµÎ³á½³Î½ Î·Î½ÏĦÎ±Î¹
ĠÎ¼ÎµÏĦÎµÎ½á½¹ Î·ÏĥÎ±Î½
ĠÏĨÎ¹Î»Î¿ÏĦÎ¹ Î¼á½·Î±Î½
ĠÎ¿á½ĲÎ´ÎµÎ¼á½· Î·Î½
ĠÏĦÎµÏĦÏģÎ±Î¼á½³ ÏĦÏģÏīÎ½
Ġá¼ĻÏģ Î¼Î±Î³
ĠÎ¦Î±á½· Î´ÏīÎ½
ĠÎ¼Î±ÏģÏĦá½» ÏģÏīÎ½
ÎłÎ±ÏĨÎ»Î±Î³ á½¹Î½Î±
Ġá¼ĺÎ»ÎµÏħ Ïĥ
Ġá½ĳÏĢÎ¿Î¼Î½Î· Î¼á½±ÏĦÏīÎ½
ĠÎ»ÏħÏĩÎ½Î¹ á¿¶Î½
Ġá¼ĢÏĢÎµÎºá½µÏģÏħ Î¾Îµ
ĠÎľÏīÏħÏĥ á½³ÏīÏĤ
Ġá¼łÎ½Îµ ÏīÎ³
ĠÏĥÎºá½¹ÏģÎ¿ Î´Î±
ĠÎľÎ±Î³Î½Î· Ïĥá½·Î±Î½
Ġá¼ĢÏĩÏģá½µ ÏĥÏĦÎ¿ÏħÏĤ
Î¹Î³Î½Ïī ÏĥÎº
ĠÏĢá½½ÏĢ Î¿ÏĦÎµ
á½¹Î»Îµ ÏīÏĤ
Ġá¼ĢÎ»Îµ Î¾Î¹ÏĨá½±Ïģ
Ġá¼ĢÎ»ÏĨ á½·ÏĦÏīÎ½
ĠÎ»á½¹Ïģ Î´Ïī
Ġá½ģÎ´Î· Î³
ĠÏĨÎ»á½¹Î³ Î±
Ġá¼¡Î´Îµá¿ĸ Î±Î¹
Ġá¼ĢÎ½á½¹Î¼Î¿Î¹ Î¿Î½
ÏĦÎµÏĦá½±Ïģ ÏĦÎ·
Î¿Î»ÏħÎ¼Î½ á½µ
ĠÎ²á½»Ïĥ ÏĥÎ¹Î½Î¿Î½
Ġá¼ĲÏĥÏĦÎ·ÏģÎ¹ Î³Î¼á½³Î½Î¿Ïħ
Ġá½ĳÏĢÎ¿Î»Î± Î¼Î²á½±Î½
Ġá¼ĲÏĢÎ¹Î³Î½ÏīÏĥ á½¹Î¼ÎµÎ¸Î±
ĠÎ±á¼°ÏĨÎ½á½· Î´Î¹Î¿Î½
ÎµÏĢÏħÎ´á½± ÏģÎ¹ÏĥÎ±
ĠÏĥÎºÎµÏĢÏĦ á½¹Î¼ÎµÎ½Î¿ÏĤ
Ġá¼ħÏģÏĢ Î±Î³Î±
ĠÎĶÎ¿Î¼Îµ ÏĦÎ¹
ĠÎ´á½·ÏĨÎ¸ Î¿Î³Î³
ĠÎľÎ±Î»Î± Ïĩ
á½ħÎ¼Î¿Î¹ Î¿Î½
Ġá¼¹ÎµÎ¶ ÎµÎºÎ¹
ÏħÎ»Î¿ÏĩÎµá½· Î»Î·ÏĤ
ĠÎ¼Î¿Î½Î¿Î½Î¿Ïħ Ïĩá½¶
ĠÏĥÎ¹Î»ÏĨ á½·Î¿Ïħ
ĠÏĢÏģÎ¿ÏĥÎºÎ¿Î»Î» á¿ĨÏĥÎ±Î¹
Ġá¼ĺÎ¼Î¼Î±Î½ Î¿Ïħ
ĠÎ¶Î·ÏĦÎµá½· ÏĥÎ¸Ïī
ĠÎĿÎ¹ÎºÎ¿Î»Î± ÏĬÏĦá¿¶Î½
ÏĢÎ±ÏģÎ±ÏĦÎ·ÏģÎ· ÏĦá½³Î¿Î½
Ġá¼ĪÏģÏĦÎ±Î¾ á½³ÏģÎ¾
ĠÎ²á½¹ÏĦÏģÏħ Î±ÏĤ
Ġá¼ĪÏģÏĩÎµÏĢÏĦÎ¿Î»á½³ Î¼Î¿Ïħ
Ġá¼ĢÎ»ÎµÎ¾Î¹ÏĨá½±Ïģ Î¼Î±ÎºÎ¿Î½
Ġ Ïģ
á½ Ĺ
á½ Ļ
ÏĦ Î¼
ÏĦ á¿¶ÏĤ
ÏĦ ÏģÎ±ÏĨ
ÏĦ ÏģÎ±Î³
Î± ÏĦÎ¿
Î± ÏĦÎ¿Î½
Î± á¿¦ÏĦÎ±
Î± Í´
Î± á¼´
Î¿ ÏĦÎµá½»
Î¿ á½µÎºÎ±Î¼ÎµÎ½
Î¿ Î´Î¿Î¾
Î¿ á½µÏĥÎ¿Î¼Î±Î¹
á¼ ¼
á¼ Ń
Î¹ Ïī
Î¹ Ïĩ
Î¹ Î»á½³
Î¹ ÏĥÏĩ
Î¹ Î±Îº
Î¹ Î±Î½á½¸ÏĤ
Îµ Î¿ÏĤ
Îµ Ïĥá½·
Îµ Î´Î¿Î½
Îµ á½½ÏĤ
Ġá¼ ¼
Ïģ Îµá¿ĸ
Ïģ Ïģá½·
Ïģ Î¿á¿ĸÏĤ
Ïģ ÎµÎ¹ÏĤ
Ïģ Îµá¿ĸÏĤ
Ïģ á¿ĥÏĤ
Ïģ á½³ÏĥÎ²
ĠÏĦ á½¶
ĠÏĦ ÏħÎ»
ĠÏĦ á¼Ĩ
ĠÏĦ ÏħÎ³ÏĩÎ±Î½á½¹Î½ÏĦÏīÎ½
Ïĥ á½´
Ïĥ ÏĢÎ¿Î½
Ïĥ á½³Î²
Ïĥ á½±ÏĥÎ±ÏĤ
Ïĥ á½»Î½Î·
ÏĢ Î¿Î½ÏĦÎ±
ÏĢ ÏĢÎµ
ÏĢ Î¿ÏħÏĥÎ¹Î½
ÏĢ Î¹ÏĥÏĦ
ÏĢ Î¹Îºá¿¶ÏĤ
ÏĢ á½±Î½ÏĦÎ±
Î» á½³Î½
Î» á½¹ÏĤ
Î» á¿¦ÏĥÎ±Î¹
Î» á½±Î¶ÎµÎ¹Î½
Î» á½³Î»Î¿Î¹
Î¼ ÎµÎ¹
Î¼ á½²
Î¼ á½²Î½
Î¼ Îµá¿ĸÎ½
Î¼ á½¹ÏĤ
Î¼ Î¿á½ºÏĤ
Î¼ Î¼á½³Î½Î¿Î½
Î¼ á½µÏģ
Î¼ Î¼Î¿
ĠÎº á¿¦
ĠÎº Î»Îµ
ĠÎº á½±Î»
ĠÎº á½¹Î³
ĠÎº Î»Î¿Î½
ĠÎº ÏĦá½»
ĠÎº á½·ÏĥÏĦ
ĠÎº Îµá½·Î¼ÎµÎ½Î¿ÏĤ
Îº Î¹Î½
Îº Î¹ÏĤ
Îº á½¼
Îº ÎµÎº
Îº Îµá¿ĸÏĦÎ±Î¹
Îº á½¹Î½ÏĦÏīÎ½
Îº á½±ÏĥÎµÎ¹ÏĤ
Îº ÎºÏħ
Ïħ Î¿ÏĤ
Ïħ ÏĦÎ¿Î½
Ïħ á¿¶ÏĤ
Ïħ ÏĥÎ¹ÏĤ
Ïħ Î¼á½±
Ïħ Î¾Î¹
Ïħ Î¾Î¹Î½
Ïħ Î¼Î±ÏĦá½·
Ïħ Î²Î´
Î· ÏĦÎ¿ÏĤ
Î· Ïģá½³
Î· Î¼á½³Î½Î±
Î· Î´Î¿Î½
Î· Î¼á½³Î½Î¿ÏĤ
Î· ÏĦá½°ÏĤ
Î· ÏĪÎ¹Î½
ĠÏĢ Î±Î½ÏĦá½·
ĠÏĢ ÎµÏĦÎ¿
ĠÏĢ á½³Ïĥá¿ĥ
á½· ÏĤ
á½· ÏĥÎ±ÏĤ
á½³ Î»Î±
á½³ Î¼Î²
á½³ Î¿Î½ÏĦÎ±Î¹
á½³ Î¿Î½ÏĦÎ¿ÏĤ
á½³ Î²Î±
á½³ Î¶ÎµÎ¹Î½
á½³ ÏĥÎ¸Ïī
á½³ ÎºÎµÎ¹ÏĦÎ¿
ĠÎºÎ± ÏħÎ»
Ġá¼Ĳ Î»á½³
Ġá¼Ĳ ÏĥÏĢ
Ġá¼Ĳ ÏĥÎºÎµÏħ
Ġá¼Ĳ ÏĦá½µ
Ġá¼Ĳ Î¿á¿¦ÏĥÎ¹
Ġá¼Ĳ Î»Ïħ
Ġá¼Ĳ Î»á½»
Ġá¼Ĳ ÏĦá½»
Ġá¼Ĳ á½±ÏĥÎµÎ¹ÏĤ
Ġá¼Ĳ Î¶á½µÏĦÎ·ÏĦÎ±Î¹
Ġá¼Ĳ ÏĦÎ±Ïģá½±
Ġá¼Ĳ Î´á½³Î¾Î±ÏĦÎ¿
Ïī Î¼á½³Î½Î¿ÏĤ
Ïī Î¼á½³Î½Î¿Î¹
Ïī ÏĦÎ¹Îºá½´
Ïī Î»ÎµÎ¸
Ġá½ ĮÎ»ÏħÎ¼ÏĢÎ¿ÏĤ
ĠÎ´ ÏģÎ±
ĠÎ´ á¾³
ĠÎ´ Î±Î¹Î¼Î¿Î½
ĠÎ´ Î¿á¿ĸÎ´ÏħÎ¾
Î³ Î¹
Î³ ÎµÎ»
Î³ Î¿á½ºÏĤ
Î³ Î¼á½³Î½Î¿ÏĤ
Î³ ÏĩÎ±Î½
Î³ ÏħÏĤ
Î¿Î½ ÎµÎ¹Î´
ÏĦÎ± Ïģ
ÏĦÎ± Î¼á¿¶Î½
ÏĦÎ± ÏĢÎ»Î±
á½± ÏĥÎ¹Î½
á½± Î»Î±
á½± ÏĦÏīÏĤ
á½± ÏĦÎ¿ÏħÏĤ
á½± ÏĥÎ¸Î·ÏĥÎ±Î½
Î¸ Î»
Î¸ Ïī
Î¸ á½¼Î½
Î¸ Î¿ÏħÎ½
Î¸ Î¹Î¿Î½
Î¸ ÏģÎ·Î¼Î±
Î¸ á½µÏĥÎµÏĥÎ¸Î±Î¹
Î¸ á½µÏĦÏī
á½¹ ÏĦÎ±Î¹
á½¹ ÏĥÎ¼
á½¹ ÏģÎµ
á½¹ Î¼Î¿Î½
á½¹ Î´Î±
á½¹ ÏĦÎµÏģÎ¿Î¹
á½¹ ÏĪÎµÎ¹
á½¹ ÏĦÎµÎ»Îµ
á½¹ ÏģÎ·ÏĦÎ¿Î½
á½¹ ÎºÎºÏħ
Ġá¼Ģ Î´Î·
Ġá¼Ģ Ïģá½³
Ġá¼Ģ ÏĥÏĦÎµ
Ġá¼Ģ Î¸ÏħÎ¼
Ġá¼Ģ Î´á½¹Î¾
Ġá¼Ģ Î¼Î±Î¸
Ġá¼Ģ Î¼Î¹Î³
Ġá¼Ģ ÏĪá½»ÏĩÏīÎ½
ĠÎ¼ Î¿á¿ĸ
ĠÎ¼ ÏħÏģÏģá½·Î½
Ïĩ á½¹
Ïĩ á½»
Ïĩ Î¿Î»
Ïĩ ÎµÎ¹ÏĤ
Ïĩ ÏģÎ¿Î½
Ïĩ ÏģÏħ
Ïĩ Ïģá¿¶Î½
Ïĩ Î¸á½³Î½ÏĦÎ±
Î´ á½´Î½
Î´ Î±Î»
Î´ Î±Ïģ
Î´ Î·Î¼
Î´ á½½Î½
Î´ Î·Î¼Î¿
Î´ á¿ĥÏĤ
Î´ Î±Î»Î¹
Î´ á½±Î»ÎµÎ¹
Î´ Î·Î¼Î¹
Î´ Ïģá½±ÎºÎ¿Î½ÏĦÎ±
ÏĨ á½±
ÏĨ á¿³
ÏĨ á½±Î½
ÏĨ Î·Î¼
ÏĨ Î±Î½ÏĦ
Î¿á¿¦ ÏĩÎµ
ĠÏĦá¿ ³
ÎµÎ¹ Î±Î¹
ÎµÎ¹ ÏģÎ¿
á½» Ïī
á½» ÏĥÏĦ
á½» ÏĥÎµÏīÏĤ
á½» ÏĥÏĦá¿³
á½» Î»ÎµÏĥÎ¸Î±Î¹
ÏĥÏĦ ÎµÎ¹
ÏĥÏĦ Î¿Î¹ÏĤ
ÏĥÏĦ ÏħÏĩ
ÏĥÏĦ Î¹Îºá¿¶Î½
ÏĥÏĦ á½±ÏĥÎµÎ¹
ÏĥÏĦ Îµá½·ÏīÏĤ
ÏīÎ½ Î±
ÏīÎ½ ÎµÏĤ
Î¿Î¹ ÎºÎ¿Î½
ĠÎ³ Î»Î±
ĠÎ³ Î¿Î¼ÏĨ
ĠÎ³ ÏħÎ¹
ĠÎ³ Î¹Î³Î½ÏīÏĥÎº
Î±Î½ ÏĦÎ±ÏĤ
Î±Î½ Î´ÏģÎ¿ÏĤ
á½µ ÏĦá¿³
á½µ ÏĦÎ¿ÏħÏĤ
á½µ ÏĥÎ¹Î¿ÏĤ
á½µ Î¸ÎµÎ¹
á½µ Î½Î±ÏĦÎ¿
á½µ Î¸Î·Î½
ÎµÎ½ á¿¶
ÎµÎ½ Î´Îµ
ĠÏĢÏģ á½¹Î½
ĠÏĢÏģ á½±Ïĥ
ĠÏĢÏģ ÎµÏĢ
ĠÏĢÏģ á½³ÏĥÎ²
ĠÏĥ á¿¶
ĠÏĥ ÎµÎ²
ĠÏĥ á½±Îº
ĠÏĥ á½»Î¼
ĠÏĥ ÏĢÎ¹
ĠÏĥ á½»Î¼Î¼Î±ÏĩÎ¿ÏĤ
ĠÏĥ á½µÎ¼ÎµÏģÎ¿Î½
ÎµÏģ Î¿Î¼á½³Î½ÏīÎ½
ÏĦÎ¹ ÏĥÏĦ
ÏĦÎ¹ Î¼Î¿ÏĤ
ÏĦÎ¹ ÎºÎ±á½·
ÏĦÎ¹ Î¸á½³Î½ÏĦÎµÏĤ
ÏĦÎ±Î¹ á½¹ÏĦÎ·ÏĦÎ¹
á½³Î½ Î±Î½Î´ÏģÎ¿ÏĤ
Îµá¿ĸ ÏĥÎ¸
Îµá¿ĸ ÏĦÏĦÎ¿Î½
Îµá¿ĸ ÏĢÎµÎ½
Îµá¿ĸ Î´Î¿Î½
Îµá¿ĸ Î¼Î±Î¹
Îµá¿ĸ ÏĥÎ¸Î±á½·
Î»Î» Î·Î»Î¿Î½
Ġá¼ĲÎ½ Î¿Î¼
Ġá¼ĲÎ½ á½·ÏīÎ½
Ġá¼ĲÎ½ Î±Î»Î»
Ġá¼ĲÎ½ ÎµÎ³Îº
Ġá¼ĲÎ½ ÏĦÎ¹Î¸á½³Î½Î±Î¹
Ġá¼ĲÎ½ á½±ÏģÎµ
Ġá¼ĲÎ½ Î¿á½µÏĥÎ±Î¼ÎµÎ½
Î¼Î± Î¾
Î¼Î± ÎºÎ±
Î¼Î± á¿ĸÏĤ
ĠÎ´Î¹ Îº
ĠÎ´Î¹ ÎµÏĨ
ĠÎ´Î¹ ÎµÏĢ
ĠÎ´Î¹ ÎµÎº
ĠÎ´Î¹ á½³ÏĨ
ĠÎ´Î¹ ÎµÏģÏĩ
ĠÎ´Î¹ á½±ÏĥÏĦÎ±ÏĥÎ¹ÏĤ
ĠÎ´Î¹ á½³ÏĦ
ĠÎ´Î¹ á½³Î»Ïī
ĠÎ´Î¹ Îµá½·ÏģÎ³
á½ĲÏĦ ÏħÏĩ
Î¾ ÏħÎ½Î±
Î¾ á½±Î¼ÎµÎ½Î¿Î¹
Ġá¼Ķ Î¾Î±
Ġá¼Ķ Î»ÎµÎ¿Î½
Ġá¼Ķ ÏĦÏģÎµÏĨ
Ġá¼Ķ Î¼Î¼Î¿
Î² Î±Î¹
Î² Î¿Ïģ
Î² Î¹Î²
Î² á½±ÏĥÏī
Î² ÏģÎ¿Î½ÏĦÎ±
Ġá¼ĲÏĢ á¿Ĩ
Ġá¼ĲÏĢ Î¿Î»
Ġá¼ĲÏĢ Ïģá½±
Ġá¼ĲÏĢ Î¿ÏĢ
Ġá¼ĲÏĢ á½µÎ³
Ġá¼ĲÏĢ Î¿Î»Î¹
Ġá¼ĲÏĢ ÏīÎ»
Ġá¼ĲÏĢ Î±á½·Ïģ
Ġá¼ĲÏĢ á½µÎ½ÎµÎ³ÎºÎµÎ½
ĠÎ±á½ĲÏĦ á½±ÏĤ
ĠÎ» Îµá¿ĸÎ¿Î½
ĠÎ» ÏħÏĢ
ĠÎ» Î¿Î¾
ĠÎ» Î²Í´
Ġá½ģ ÏĢÎ¿
ĠÎ¿á½Ĳ Ïģá¾·
ĠÎµá¼° ÏģÎ³
ĠÎµá¼° ÏĥÎµÎ½
ĠÎµá¼° Î´Îµá½·
Ġá½ħ ÏĥÏīÎ½
ĠÏĨ Î»
ĠÏĨ Î»Ïħ
ĠÏĨ Î¹Î¼
ĠÏĨ Î±ÏħÎ»
Ġá¼¡ Î½
Ġá¼¡ ÏĪ
Ġá¼¡ ÏģÎ¼Î·Î½
Ġá¼¡ Î´Ïħ
á½½ Î²
á½½ Î¼Î¿Î½
á½½ Î´ÎµÎ¹
á½½ ÏĥÎ¹Î¿ÏĤ
ÏĦÎ· Î¸Îµá½¶ÏĤ
ÏĦÎ· Îºá½³Î½Î±Î¹
ÏĦÎ· Ïĥá½½Î¼ÎµÎ¸Î±
Ġá¼ĢÎ½ á¿ĥ
Ġá¼ĢÎ½ ÎµÏħ
Ġá¼ĢÎ½ ÎµÏĢ
Ġá¼ĢÎ½ ÎµÎ²
Ġá¼ĢÎ½ ÎµÏĩ
Ġá¼ĢÎ½ ÏīÎ¼
Ġá¼ĢÎ½ á½³Î²
Ġá¼ĢÎ½ á½µÎºÎµ
Ġá¼ĢÎ½ ÎµÎ½ÎµÎ³Îº
ÏĦÎµ ÏīÏģá½·
ÏģÎ¹ á½³Î½
ÏģÎ¹ ÏĥÎ¹Î½
ÏģÎ¹ á½¹Î½
ÏģÎ¹ ÏĥÎº
ÏģÎ¹ ÏĢÎ¹Îºá¿¶ÏĤ
á½¹Î½ Î¿Î½
á½¹Î½ Î¹ÎºÎ¿ÏĤ
ÏĥÎ¸ Î»Î·ÏĤ
ÏĥÎ¸ Î¹Î¿Î½
ÏĦÎ¿ ÏĨÏħ
Î¹Î½ á½¸Î½
Î¹Î½ Î¿Î¼á½³Î½Î¿Ïħ
ÎºÎ± ÏĦÎ¹
ÎºÎ± ÏĥÎµ
ÎºÎ± Î¸á½³
ÎºÎ± ÏĥÏĦÎ¿Î½
ÎºÎ± á¿ĸÎ¿Î½
Ġá¼Ħ Î¼
Ġá¼Ħ ÏģÎ¹ÏĥÏĦÎ¿Î½
Ġá¼Ħ ÏģÎ¹ÏĥÏĦÎ¿ÏĤ
Ġá¼Ħ Î´Î¹ÎºÎ¿Î½
Ġá¼ĢÏĢ Î¿Ïħ
Ġá¼ĢÏĢ ÎµÎ½
Ġá¼ĢÏĢ á½±Î³
Ġá¼ĢÏĢ ÎµÏĨ
Ġá¼ĢÏĢ ÎµÏĥÏĦ
Ġá¼ĢÏĢ á½³ÏĢ
Ġá¼ĢÏĢ á½·ÏĥÏĦ
Ġá¼ĢÏĢ á½µÎ½ÎµÎ³
Ġá¼ĢÏĢ Î¿Î³ÎµÎ½
Ġá¼ĢÏĢ Î¹á½³Î½Î±Î¹
Ġá¼ĢÏĢ Î±Î½ÏĦ
Ġá¼ĢÏĢ Î±Î»Î»á½±
Ġá¼ĢÏĢ Î¿á½·á¿³
Ġá¼ĢÏĢ ÎµÏĢÏħÎ´á½±ÏģÎ¹ÏĥÎ±
ĠÏĢÎ± ÏģÎ¹
ĠÏĢÎ± Î»Î±
ĠÏĢÎ± ÏĥÏĩ
ĠÏĢÎ± Î»Î¹
ĠÏĢÎ± ÏĦÏĦ
ĠÏĢÎ± Î»Î±á½·
Îµá½· ÏģÎ·
Îµá½· ÏĥÎ±ÏĦÎ¿
Ïģá½· ÏĥÎµÎ¹
Ïģá½· Î¶ÎµÎ¹
Ïģá½· ÏĥÎµÎ¹ÏĤ
ĠÏĩ Î±Î½
ĠÏĩ Î¿á¿ĸ
ĠÏĩ Î±Î¹Ïģ
ĠÏĩ ÎµÏĥ
ĠÏĩ Î¿ÏģÎ¹
ĠÏĩ Î¿ÏģÎ¹Îº
ĠÏĩ ÏīÎ»
ĠÏĩ Î»á½¹
Ġá½ĳ Î´Î±
Ġá½ĳ ÏĥÏĦÎµÏģ
á¿¶ ÏĥÎ´Îµ
á½³Î³ ÎµÏĦÎ±Î¹
á½³Î³ Î½Ïī
ĠÏĥÏħ ÏĥÏĦÏģÎ±
ĠÏĥÏħ Îºá½±Î¶ÎµÎ¹Î½
Ġá¼ĲÎº ÏģÎ¿ÏĨ
Ġá¼ĲÎº ÏĨÏħ
Ġá¼ĲÎº á½µÏģÏħ
Ġá¼ĲÎº Î¼Î¿Ïĩ
Ġá¼ĲÎº ÏĦÏģá½³ÏĨ
Ġá¼ĲÎº Î²Î±Î»Îµá¿ĸÎ½
Ġá¼ĲÎº Î¸Î·Î»
ĠÏĦÎ¿ Î»
ĠÏĢÏģÎ¿ ÏĥÏĩ
ĠÏĢÏģÎ¿ ÏĥÏĦá½³
ĠÏĢÏģÎ¿ Î´á½¹
ĠÏĢÏģÎ¿ Î»Î±Î¼Î²á½±Î½
ĠÏĢÏģÎ¿ Î»Î·ÏĨ
ĠÏĢÏģÎ¿ ÏĦá½³ÏģÎ±Î½
ĠÏĢÏģÎ¿ Î¸á½³ÏĥÎµÏīÏĤ
ĠÏĢÏģÎ¿ ÏĦá½³Ïģá¿³
ĠÏĢÏģÎ¿ Î»Î±Î²Îµá¿ĸÎ½
ĠÏĢÏģÎ¿ Î²Î±á½·Î½ÎµÎ¹Î½
ĠÏĢÏģÎ¿ Î²Î»Î·
ĠÏĢÏģÎ¿ Î»á½±Î²
ĠÏĢÏģÎ¿ ÏĦá½·Î¸ÎµÏĥÎ¸Î±Î¹
ĠÏĢÏģÎ¿ ÏĢÎµÏĢ
ĠÏĢÏģÎ¿ ÏĢÎ±ÏģÎ¿Î¾
Î»Î· Î¾Î¹Î½
Î»Î· ÏģÎ¿á¿¦
á½³Ïģ Ïī
á¿Ĩ ÏĥÎ±Î½
á¿Ĩ ÎºÎµ
á¿Ĩ ÏģÎµÏĤ
á¿Ĩ ÏģÎ¿ÏĤ
Î½Î± Î¾Î¿Î½
á¿¦ ÏĥÎ¹Î½
ĠÎ¸ á½³ÏĥÎ¸Î±Î¹
ĠÎ¸ Îµá½·Î±Î½
ĠÎ¸ á½³ÏĥÎµÎ¹
ĠÎ¸ á½¹ÏģÏħ
Î¹Îº á½½ÏĦÎµÏģÎ¿Î½
Î¶ Î¿ÏħÏĥÎ±
Î¿Î» á½±Î²
ĠÎ² Î±Î»
ĠÎ² á½·Î±Î½
ĠÎ² á½¹Ïģ
ĠÎ² ÎµÎ²Î·Îº
ĠÎ² Î·Ïĩ
ĠÎ² Î±Î»Îµá¿ĸÎ½
ĠÎ² Î±ÎºÏĩ
á½±Î½ Î±ÏĤ
á½±Î½ Î¸Î·
á½±Î½ Î½Î·
á½±Î½ Î¿Î¹Î±Î½
á½±Î½ Î¹Î¿ÏĤ
Ġá¼ĲÏĥÏĦ Î·Ïģá½·
Ġá¼ĲÏĥÏĦ ÎµÏĨá½±Î½
Ġá½ĳÏĢ Î±Îº
Ġá½ĳÏĢ Î¿Ïĩ
Ġá½ĳÏĢ Î±Î»Îµá½·
Ġá½ĳÏĢ Î·ÏģÎµ
Ġá½ĳÏĢ ÎµÏħÎ¸á½»Î½Î¿Ïħ
ĠÎ¼Îµ ÏĦÎ¿Ïħ
ĠÎ¼Îµ Î¼á½³
ĠÎ½ á¾¶
ĠÎ½ ÏħÎ¼ÏĨ
ĠÎ½ á½ºÎ¾
Ġá¼ĳ Î»á½·
Ġá¼ĳ ÏĨÎ¸
Ġá¼ĳ Î´ÏģÎ±
ÏĪ ÏīÎ¼ÎµÎ½
ĠÎ»á½³Î³ Î¿Î¹ÏĤ
á½µÏĥ Î·ÏĦÎ±Î¹
á½µÏĥ ÎµÏĦÎ±á½·
á½µÏĥ Î¿Î¼Î±á½·
Î»Îµ Î¼Î¿ÏĤ
Ġá¼ĢÎ»Î» Î·Î³Î¿Ïģ
Ġá½Ģ Î»á½³
Ġá½Ģ Î»á½·ÏĥÎ¸
ĠÏĦÎµ Î¸Îµ
ĠÏĦÎµ ÏħÎ¸
Ïĥá½· Î²ÏģÎ¿Î½ÏĦÎ±
ĠÏĢÎ±Ïģ Î·Î³
ĠÏĢÎ±Ïģ á¿Ħ
ĠÏĢÎ±Ïģ Î¿á¿¦ÏĥÎ±Î½
ĠÏĢÎ±Ïģ ÎµÎ¹Î¼á½³Î½ÏīÎ½
ĠÏĢÎ±Ïģ ÎµÎ³Îº
ĠÏĢÎ±Ïģ á¿´Î´Î·
ĠÏĢÎ±Ïģ Î´á½±Î»ÎµÎ¹
ÏĦá½· Î±Î½
ÏĦá½· ÏĥÎ¸Î·
ÏĦá½· Î´Î±ÏĤ
á½±Ïĥ Î¿Î½ÏĦÎ±Î¹
á½±Ïĥ Î¿Î¼Î±Î¹
Ġá¼ĶÏĩ Î¿Î¹ÏĤ
Ġá¼ĶÏĩ ÎµÏĥÎ¸Î±Î¹
ĠÏĦÎ¹ Î¸á½³Î½Î±Î¹
ĠÏĦÎ± ÏģÎ±ÏĦ
ĠÏĦá¿ĩ ÏĥÎ¹Î½
Î·Î½ Î±ÏĤ
Î»Î± á½¶
Î»Î± ÎºÎ¿Î½
Î¿á½» ÏĥÎ¹Î¿ÏĤ
Î¿á½» Î¼Î±Î½
ĠÎ´Î¹Î± ÎºÎ±
ĠÎ´Î¹Î± Î¶
ĠÎ´Î¹Î± Îºá½¹
ĠÎ´Î¹Î± Î»á½»
ĠÎ´Î¹Î± Î²ÎµÎ²
ĠÎ´Î¹Î± Î»Î±Î¼Î²á½±Î½ÎµÎ¹Î½
ĠÎ´Î¹Î± Î¼Î±ÏģÏĦá½»
ĠÎ´Î¹Î± Î³ÏīÎ³á¿ĨÏĤ
ÏĥÎ± ÏĥÎ±Î½
ÏĥÎ± Î¼á½³Î½á¿³
ÏĦÎµÏģ Î¿á½·
ÏģÎ· Î¼
ÏģÎ· ÏĦÎ¿ÏĢÎ¿Î¹
Ġá¼ĲÏĢÎ¹ ÏĢÎ±
Ġá¼ĲÏĢÎ¹ ÏĢÎ»
Ġá¼ĲÏĢÎ¹ Î»Î±Î²
Ġá¼ĲÏĢÎ¹ ÎºÎ±Î¸
Ġá¼ĲÏĢÎ¹ ÏĦÏģá½¹ÏĢ
Ġá¼ĲÏĢÎ¹ Î²Î±á½·Î½Î¿Î½ÏĦÎµÏĤ
Ġá¼ĲÏĢÎ¹ Î¼ÎµÎ¼Î¹Î³
Ġá¼ĲÏĢÎ¹ ÏĥÏĦá½³Î»Î»ÏīÎ½
Ġá¼ĲÎ¾ Î·
Ġá¼ĲÎ¾ á½½
Ġá¼ĲÎ¾ á½¸Î½
Ġá¼ĲÎ¾ Î±Ïģ
Ġá¼ĲÎ¾ á¿ĨÎ½
Ġá¼ĲÎ¾ Îµá¿¦
Ġá¼ĲÎ¾ ÎµÏģÏĩ
Ġá¼ĲÎ¾ Î¹á½³Î½Î±Î¹
Ġá¼ĲÎ¾ á¿ĨÎ»Î¸Î¿Î½
ÏĦá½³ Î±
ĠÏĥÏĦ á¿ĨÎ½Î±Î¹
ĠÏĥÏĦ Ïģá½³ÏĨ
ĠÏĥÏĦ Î¿Î¼á½±ÏĦÏīÎ½
ĠÏĥÏĦ á½µÏģÎ¹
ĠÏĥÏĦ á½»ÏĢÏĢÎ±
ĠÏĥÏĦ á½µÎ¸ÎµÎ¹
ÎµÏħ Î¼á½±ÏĦÏīÎ½
ÎµÏħ ÏĥÎ±ÏĤ
ÎµÏħ Î¼á½³Î½Î±
ĠÎµá¼´ Î´Ïī
Î±Î³ Î¿Î½
Î±Î³ ÏģÎ±ÏĨ
Î±Î³ á½¹Î½ÏĦÎ±
Î±Î³ ÎºÎ±Î¶
ĠÏĢÎ¿ ÏģÎ¹
ĠÏĢÎ¿ ÏģÎ¹ÏĥÏĦ
ĠÏĢÎ¿ Î´á½·
ĠÏĢÎ¿ ÏĦÎ·Ïģá½·á¿³
ĠÏĢÎ¿ ÏĦÎ±Î¼á¿¶Î½
Î´Îµ Î´
Î´Îµ ÏĪ
Î´Îµ Îºá½±
Î´Îµ Îºá½±Îº
Î¸Ïģ á½³
Î¸Ïģ Î±Î½
Î¸Ïģ á¾³
Î¿Î³ Î¿ÏĤ
Î¿Î³ Î¿Î¹
Ġá¿¥ Î·Î¼Î±
Ġá¿¥ ÏħÏĢ
Ïģá½± ÏĥÎ¹Î½
Ïģá½± ÏĦÎ·Î½
ĠÎ¶ Î·Î¼
ĠÎ¶ á½½Î½Î·Î½
ĠÎ¶ á¿ĨÎ»Î¿Î½
ĠÏĩÏģ á¿ĨÎ½Î±Î¹
ĠÏĩÏģ á½µÏĥá¿ĥ
ĠÏĩÏģ ÏīÎ¼á½³Î½ÏīÎ½
ĠÏĩÏģ á¿¶ÏĦÎ±
ĠÏĩÏģ á¿ĨÏĥÎ¹ÏĤ
ĠÎºÎ±ÏĦÎ± ÏĢÎ±
ĠÎºÎ±ÏĦÎ± ÏĥÏĦá½±ÏĥÎµÏīÏĤ
ĠÎºÎ±ÏĦÎ± Î²Î±á½·Î½Î¿Î½ÏĦÎ±
á½±Î» Î¼Î±
Î±Î» á¿¶Î½
Î±Î» á¿¶ÏĤ
Î±Î» á½°Îº
Ġá¼° Î¸
Ġá¼° Î¿á½»
á½³Î» Î¿ÏħÏĤ
Îµá½» Î¿Î½ÏĦÎ¿ÏĤ
Îµá½» Î¼Î±ÏĥÎ¹Î½
Îµá½» Î¿ÏħÏĥÎ±Î½
Îµá½» Î¸Î·ÏĥÎ±Î½
Îµá½» ÏĥÎµÏĦÎ±Î¹
ÏģÎ¿ ÏĢá½·
ÏģÎ¿ ÏĨÎ±
ĠÏĥÏħÎ½ á½³
ĠÏĥÏħÎ½ Îµá½·
ĠÏĥÏħÎ½ Î´Î¹
ĠÏĥÏħÎ½ Î¿Î¼
ĠÏĥÏħÎ½ Î¿ÏħÏĥÎ¹
ĠÏĥÏħÎ½ Î·Î³
ĠÏĥÏħÎ½ á½³Îº
ĠÏĥÏħÎ½ á½±Î³ÎµÎ¹
ĠÏĥÏħÎ½ Î¸á½³ÏĥÎµÏīÏĤ
ĠÏĥÏħÎ½ á¾´
ĠÏĥÏħÎ½ ÎµÏĢÎ¹
ĠÏĥÏħÎ½ ÎµÎ²Î¿á½»Î»ÎµÏħ
ĠÏĥÏħÎ½ ÏĦá½³Î»ÎµÎ¹Î±Î½
Ġá¼Ī ÏĥÏĥ
ÏĥÎ¼ Îµ
á½¹Î³ ÏīÏĤ
ÏĢÎµÏģ Î±Î½
ÏĢÎµÏģ Î¹Î²
Î´Î¹ Î¿ÏħÏģÎ³
ĠÎļ á½±Ïģ
ĠÎļ Ïģá½±ÏĦÎ·ÏĤ
ĠÎļ á½¹Î½ÏīÎ½
ĠÎļ Î»ÎµÎ¹ÏĥÎ¸á½³Î½
ĠÎļ ÎµÏģÎ±Î¼ÎµÎ¹Îº
á½±Î³ Îº
á½±Î³ Î¿ÏĤ
Î¼á½± Ïĩ
ÏĥÎ±Î½ Îµá½¶
ÏħÎ½ Î±Î½
ÎµÏĨ á¿¶Î½
Î¿Î¼á½³Î½ Î±Î¹ÏĤ
Î¼ÏĢ Î±Î½
ĠÎ¿á½ĲÎ´ á½³Î½Î±
ĠÎ´á½³ Ïĩ
ĠÎ´á½³ ÏĩÎ¿Î½ÏĦÎ±Î¹
ĠÎ´á½³ Î´ÎµÎ½ÏĦÎ±Î¹
Î¿á½· Î¼Î·Î½
á½¹ÏĦÎ· ÏĥÎ¹Î½
Ġá½Ħ Ïģ
Ġá½Ħ Î»Îµ
Ġá½Ħ ÏģÎµÏĥÎ¹
Ġá½Ħ Î³Î´Î¿Î¿Î½
ÏĦÏī Îºá½¹ÏĦÎ±
ÏĦÏī Î´á¿¶ÏĤ
ĠÎµá¼¶ Î´á½¹ÏĤ
ÏĦá½± ÏĥÎ¸Î·
ÏĦá½± Î¾ÎµÏīÏĤ
Î»á½³ ÏĤ
Î»á½³ Î¿Î½
ÏĥÏĦÎ± ÏĦÎ¿ÏĤ
ÏĥÏĦÎ± ÏĦá½¹
ÏĥÏĦÎ± ÏģÏĩÎ¿ÏĤ
ÏĥÎº Îµ
ÏĥÎº ÎµÎ¼
Î¼ÏĨ á½±ÏĦÎ¿Î¹ÏĤ
ÏģÎµ Î¼ÏĨá½±ÏĦÎ¿Î¹ÏĤ
á¼Ģ ÏĨ
á¼Ģ Î½Î±Î³
á¼Ģ Î³Îº
á¼Ģ ÎºÎ¿Î»Î¿á½»
á¼Ģ Î¼á½µÎ½
á¼Ģ Î³Î±Î¸
á¼Ģ Î³Î½Î¿
á¼Ģ ÏĥÏĦÎµá½·ÏīÏĤ
ĠÎºÎ±Î¸ ÏħÏĨ
Ġá¼ģ Î»Î¿Ïħ
Ġá¼ģ Î»á½·ÏĥÎº
ĠÎł Ïģá½±
ĠÎł Î±Ïģ
ĠÎł Î±Ïħ
ĠÎł ÎµÏģÎ³
ĠÎł Î¿ÏĦÎ¹Î´Î±á½·
ĠÎł Î¿Î»ÏħÎ¼Î½á½µ
á¼Ĳ ÏģÎ¹
á¼Ĳ Î¾Îµ
á¼Ĳ Î´á½¹
á¼Ĳ Î¼Î¿á½¶
Î»á½· Î±Î¹
Î»á½· Î¶ÏīÎ½
Ġá¼¡Î¼ ÎµÏģ
Ġá¼¡Î¼ Î¹Ïĥ
ĠÎĺ á½³ÏīÏģÎ¿ÏĤ
ÏĦÎ¿Î¹ Î±
ÏĦÎ¿Î¹ ÏĥÎ¹Î½
ÏĦÎ¿Î¹ Î±á½»
ÏĦÎ¿Î¹ Î³Î±ÏģÎ¿á¿¦Î½
ÏĦÎ¿Î¹ Î¿á¿¦ÏĦÎ¿ÏĤ
ĠÏĢÏģÎ¿Ïĥ á½³
ĠÏĢÏģÎ¿Ïĥ Ïī
ĠÏĢÏģÎ¿Ïĥ Î´á½³
ĠÏĢÏģÎ¿Ïĥ ÏĨá½³ÏģÎµÎ¹Î½
ĠÏĢÏģÎ¿Ïĥ Îµá¿ĸÏĩÎ¿Î½
á½³Ïĩ Î¸Î·
á½³Ïĩ ÏģÎ·ÏĦÎ¿
Ġá¼ĢÎ³ Î±Î»Î»
Ġá¼ĢÎ³ á½½Î½ÏīÎ½
Ġá¼ĢÎ³ Ïģá½±ÏĨá¿³
ĠÏĢÎ±ÏģÎ± ÏĦÎµ
ĠÏĢÎ±ÏģÎ± Î´á½³
ĠÏĢÎ±ÏģÎ± Î²á½±Î»Î»ÎµÎ¹Î½
ĠÏĢÎ±ÏģÎ± Î»Î±Î¼Î²Î±Î½
ĠÏĢÎ±ÏģÎ± Î»Î±Î¼Î²á½±Î½ÎµÏĦÎ±Î¹
ĠÏĢÎ±ÏģÎ± Î»Î»Î±Î³
ĠÏĢÎ±ÏģÎ± ÏĨÎ¸Î¿Ïģ
ĠÏĢÎ±ÏģÎ± ÎºÎ±ÏĦÎ¹
ĠÏĦÎ¹Î½ á½±
Ġá¼ĢÏĢÎ¿ Ïĩ
Ġá¼ĢÏĢÎ¿ Î¾
Ġá¼ĢÏĢÎ¿ Î´á½³
Ġá¼ĢÏĢÎ¿ Î¸Î½
Ġá¼ĢÏĢÎ¿ Î¸Î»á½·Î²
ĠÏĢÎ» Ïħ
ĠÎ¿á½ķ ÏĤ
ĠÎµá½Ĳ Î¼ÎµÏĦÎ±
ĠÎµá½Ĳ ÏģÎ¹ÏĢÎ¹
ĠÎ¿á¼· Î¿ÏĤ
ĠÎ¿á¼· á½¹ÏĤ
Ġá¼ĦÎ½ Î¸Î¿ÏĤ
ÎµÏĢ á½²ÏĤ
ĠÏĥÎº ÎµÏĢ
ĠÏĥÎº á½·ÏĢ
ĠÏĥÎº á½½ÏĢÏĦÏīÎ½
ĠÏĥÎº ÏħÎ»á½±Îº
Î¿Î¼ Î¿Î¹
ĠÏĦá½· Î¼Î¹
ĠÏĦÎ¿Î¹ á¿¶ÏĥÎ´Îµ
ĠÎĺÎµ ÏĥÎ²
á½¼ Ïĩ
ÏĦÏģ Î¿ÏĤ
ÏĦÏģ ÏīÏĤ
Î±Ïħ ÏĥÎ¹Î½
ÎµÎ¹Î´ Î¿á¿¦ÏĤ
Ġá¼ĢÎ½ÏĦÎ¹ ÏĥÏĢ
Ġá¼ĢÎ½ÏĦÎ¹ ÏĥÏĢÎ±
Î±á½· Î¿Î¹ÏĤ
ĠÏĢÏģá½¹ ÏĦÎ±
ĠÏĢÏģá½¹ ÏĥÎµ
ĠÏĢÏģá½¹ ÎµÎ¹ÏĥÎ¹
ĠÏĢÏģá½¹ ÎµÎ¹ÏĥÎ¹Î½
Î¸Îµ Î¼á½³Î½ÏīÎ½
Ġá¼µ ÏĥÏĦ
ĠÏĢÎµÏģÎ¹ Î²
ĠÏĢÎµÏģÎ¹ ÏĦÎµ
ĠÏĢÎµÏģÎ¹ Î³ÏģÎ±ÏĨ
ĠÏĢÎµÏģÎ¹ Î²á½±Î»Î»
ĠÏĢÎµÏģÎ¹ ÏĢÎ¿Î¹
ĠÏĢÎµÏģÎ¹ Î²Î±Î»
ĠÏĢÎµÏģÎ¹ ÏĦÎ¿Î¼
ĠÏĢÎµÏģÎ¹ ÏĦÎ¹Î¸á½³Î½Î±Î¹
ĠÏĢÎµÏģÎ¹ Î¿ÏħÏĥá½·Î±ÏĤ
ĠÏĢÎµÏģÎ¹ ÏĨÏģÎ±ÏĥÏĦÎ¹Îºá¿¶ÏĤ
á½¹Î¼ Î¿Ïħ
á½µÎ½ Î¿ÏħÏĤ
á½µÎ½ ÎµÎº
ÏĥÏī Î¼á½³Î½Î·
ĠÏĪ á½¹Î³Î¿ÏĤ
Ġá¼¦ Î¼ÎµÎ½
Ġá¼¦ Î¸Î¿ÏĤ
Ġá½¥ ÏģÎ¹ÏĥÏĦÎ±Î¹
Ġá¼ĲÎ³ ÎµÏģ
Ġá¼ĲÎ³ á½·Î½
Ġá¼ĲÎ³ ÎºÎµ
ÏģÎ³ Î¿Î¹
ÏģÎ³ á½·Î´Î±
Î´á½· Î¼Î½
ĠÏĨá½» ÏĥÎµÏīÎ½
Ġá¼ħ Î´Î¿Ïħ
Î´Î· Î»Î±
Ġá¼ĢÎº Î¹Î½
Ġá¼ĢÎº Î¼á½±
Ġá¼ĢÎº Ïģá½±ÏĦÎ¿Ïħ
Ġá¼ĢÎº Î·ÎºÎ¿
Î´Î± Ïģá½·Î¶ÎµÎ¹Î½
Î´Î± ÏĦÏģÎ±ÏĨ
Î±Î½ÏĦá½· á¿³
á½³Ïĥ Î¼Î±ÏĦÎ±
ĠÏĢÎ¿Î» ÏħÏĩ
ÏĢÎ± Î´
ÏĢÎ± Î¾
ÏĢÎ± ÏĥÏĦÎ¿Î½
Ġá½ģÎ¼ á½¹
ÏĥÏĦÎ¹ Î³
ĠÎ¸Îµ á½¶ÏĤ
ĠÎ¸Îµ á½¹ÏĦÎ·ÏĦÎ¿ÏĤ
ĠÎ¸Îµ ÏĦÎ¹Îºá½°
Î»Î¹ ÏĥÏĥ
Î»Î¹ Î±ÏĥÏĦ
Î´ÎµÎ¹ Î¾ÎµÎ½
Ġá¼ĢÎ½Î± ÏĩÎ¸á½µÏĥÎµÏĦÎ±Î¹
Ġá¼ĢÎ½Î± ÏĢÎ±á½»
ĠÎºÎ±Î» Î¿ÏħÎ¼á½³Î½Î¿Ïħ
ĠÎºÎ±Î» Î¿ÏħÎ¼á½³Î½á¿³
á¼° Î·ÏĦÏģ
ĠÎºÎ¿Î¹ Î»Î±
ĠÎºÎ¿Î¹ Î»á½·á¾³
ĠÎ³á½³Î½ ÎµÎ¹Î±
ĠÎ´Î¹Î±ÏĨ Î±Î½
ĠÎ´Î¹Î±ÏĨ Î¸Îµá¿ĸ
ĠÎ´Î¹Î±ÏĨ á½¹ÏģÏīÎ½
Î¼Îµ Î¸
ĠÎ³ÎµÎ½ Î·Ïĥ
ĠÎ³ÎµÎ½ Î¿Î¼á½³Î½Î·Î½
ĠÎ³ÎµÎ½ Î¿Î¼á½³Î½á¿³
Î¿ÏĢ á½¹Î½
Î¿ÏĢ ÏĦÎ¿Î¼á½³Î½ÏīÎ½
ĠÏĦÏģ á½³Ïĩ
ĠÏĦÏģ á½³ÏĩÎµÎ¹Î½
Î»á½± Î¼ÏĪ
Ġá¼ĳÎ±Ïħ ÏĦá½¹
Î¿Ïģá½· ÏĥÎ±Î¹
Ġá¼ĢÏĨ á½»
Ġá¼ĢÏĨ Î¹Îº
Ġá¼ĢÏĨ á½³Î»
Ġá¼ĢÏĨ á½·Îº
Ġá¼ĢÏĨ ÏīÏģÎ¹Ïĥ
Ġá¼ĢÏĨ á½»ÏīÎ½
Ġá¼ĲÎ½Î±Î½ÏĦá½· Î±Î¹
Ġá¼ĲÎ½Î±Î½ÏĦá½· Î¿ÏħÏĤ
ĠÎ¾ á½»Î½
ĠÎ¾ ÏħÎ¼Î²
Î³Î½ Ïħ
Î³Î½ Î¿á½ºÏĤ
Î³Î½ á¿¶Î½Î±Î¹
ĠÎµá¼°ÏĢ á½³
ĠÎµá¼°ÏĢ á½¹Î½ÏĦÎ±
ĠÎ¼ÎµÏĦÎ± Î²á½±Î»Î»
ĠÎ¼ÎµÏĦÎ± Î¸á½³ÏĥÎµÎ¹
Î¿Ïĩ Î»
ĠÎºÎ±ÏĦ á½µ
ĠÎºÎ±ÏĦ á½½
ĠÎºÎ±ÏĦ á½±ÏĥÎµÎ¹
Î¼Î½ Î¿á½ºÏĤ
Î¼Î½ á½µÏĥÎ¸Î·
Î¼Î½ Î·Î¼á½¹Î½ÎµÏħ
Î¼Î¹ á¾¶ÏĤ
Ġá¼ĢÏģÏĩ á¿¶Î½
Ġá¼ĢÏģÏĩ á½¹Î½ÏĦÏīÎ½
Ġá¼ĢÏģÏĩ Î¹ÏĥÏĦ
ÏĢÎµ ÏĦá½±Ïĥ
Î»á½µ Îº
Ġá½ĢÎ½ á½·ÏĥÎº
ĠÏĢá½¹ ÏĥÎ±
ĠÏĢá½¹ á¿¤á¿¥Ïī
ĠÏĥÏħÎ¼Î² Î¹
ĠÏĥÏħÎ¼Î² á½°Î½
ĠÏĥÏħÎ¼Î² á½±Î»Î»
Ġá¼ĶÎ½ Î¸ÎµÏĥÎ¹Î½
Ġá¼ĶÎ½ Î´Î¿Î¾Î±
ĠÏĢÎ¿Î¹á½¹ÏĦÎ· ÏĦá½¹ÏĤ
ĠÏĦá½± ÏĤ
ĠÏĦá½± Î³Î¼Î±
ĠÏĦá½± ÏĥÏĥ
ĠÏĦá½± ÏĥÎµÎ¹ÏĤ
ĠÏĦá½± Î¾Î±ÏĤ
Î·Î³ á½³
Î¿ÏĨ á½¹ÏģÎ¿ÏĤ
Ïģá½³ ÎµÏĥÎ¸Î±Î¹
ĠÎ²Î± Î¸
ĠÎ²Î± á½·Î½Î¿ÏħÏĥÎ¹
ĠÎ²Î± á½·Î½Î¿ÏħÏĥÎ¹Î½
á½±Î»Î» ÎµÏĦÎ±Î¹
á½±Î»Î» ÎµÏĥÎ¸Î±Î¹
ĠÎ´Îµ ÎºÎ±
[...]
