{"version":"1.0","truncation":{"max_length":256,"strategy":"LongestFirst","stride":0},"padding":null,"added_tokens":[{"id":0,"special":true,"content":"<s>","single_word":false,"lstrip":false,"rstrip":false,"normalized":true},{"id":1,"special":true,"content":"<pad>","single_word":false,"lstrip":false,"rstrip":false,"normalized":true},{"id":2,"special":true,"content":"</s>","single_word":false,"lstrip":false,"rstrip":false,"normalized":true},{"id":3,"special":true,"content":"<unk>","single_word":false,"lstrip":false,"rstrip":false,"normalized":true},{"id":4,"special":true,"content":"<mask>","single_word":false,"lstrip":true,"rstrip":false,"normalized":true}],"normalizer":null,"pre_tokenizer":{"type":"ByteLevel","add_prefix_space":false,"trim_offsets":true},"post_processor":{"type":"RobertaProcessing","sep":["</s>",2],"cls":["<s>",0],"trim_offsets":true,"add_prefix_space":false},"decoder":{"type":"ByteLevel","add_prefix_space":true,"trim_offsets":true},"model":{"type":"BPE","dropout":null,"unk_token":null,"continuing_subword_prefix":"","end_of_word_suffix":"","fuse_unk":false,"vocab":{"<s>":0,"<pad>":1,"</s>":2,"<unk>":3,"<mask>":4,"!":5,"\"":6,"#":7,"$":8,"%":9,"&":10,"'":11,"(":12,")":13,"*":14,"+":15,",":16,"-":17,".":18,"/":19,"0":20,"1":21,"2":22,"3":23,"4":24,"5":25,"6":26,"7":27,"8":28,"9":29,":":30,";":31,"<":32,"=":33,">":34,"?":35,"@":36,"A":37,"B":38,"C":39,"D":40,"E":41,"F":42,"G":43,"H":44,"I":45,"J":46,"K":47,"L":48,"M":49,"N":50,"O":51,"P":52,"Q":53,"R":54,"S":55,"T":56,"U":57,"V":58,"W":59,"X":60,"Y":61,"Z":62,"[":63,"\\":64,"]":65,"^":66,"_":67,"`":68,"a":69,"b":70,"c":71,"d":72,"e":73,"f":74,"g":75,"h":76,"i":77,"j":78,"k":79,"l":80,"m":81,"n":82,"o":83,"p":84,"q":85,"r":86,"s":87,"t":88,"u":89,"v":90,"w":91,"x":92,"y":93,"z":94,"{":95,"|":96,"}":97,"~":98,"¡":99,"¢":100,"£":101,"¤":102,"¥":103,"¦":104,"§":105,"¨":106,"©":107,"ª":108,"«":109,"¬":110,"®":111,"¯":112,"°":113,"±":114,"²":115,"³":116,"´":117,"µ":118,"¶":119,"·":120,"¸":121,"¹":122,"º":123,"»":124,"¼":125,"½":126,"¾":127,"¿":128,"À":129,"Á":130,"Â":131,"Ã":132,"Ä":133,"Å":134,"Æ":135,"Ç":136,"È":137,"É":138,"Ê":139,"Ë":140,"Ì":141,"Í":142,"Î":143,"Ï":144,"Ð":145,"Ñ":146,"Ò":147,"Ó":148,"Ô":149,"Õ":150,"Ö":151,"×":152,"Ø":153,"Ù":154,"Ú":155,"Û":156,"Ü":157,"Ý":158,"Þ":159,"ß":160,"à":161,"á":162,"â":163,"ã":164,"ä":165,"å":166,"æ":167,"ç":168,"è":169,"é":170,"ê":171,"ë":172,"ì":173,"í":174,"î":175,"ï":176,"ð":177,"ñ":178,"ò":179,"ó":180,"ô":181,"õ":182,"ö":183,"÷":184,"ø":185,"ù":186,"ú":187,"û":188,"ü":189,"ý":190,"þ":191,"ÿ":192,"Ā":193,"ā":194,"Ă":195,"ă":196,"Ą":197,"ą":198,"Ć":199,"ć":200,"Ĉ":201,"ĉ":202,"Ċ":203,"ċ":204,"Č":205,"č":206,"Ď":207,"ď":208,"Đ":209,"đ":210,"Ē":211,"ē":212,"Ĕ":213,"ĕ":214,"Ė":215,"ė":216,"Ę":217,"ę":218,"Ě":219,"ě":220,"Ĝ":221,"ĝ":222,"Ğ":223,"ğ":224,"Ġ":225,"ġ":226,"Ģ":227,"ģ":228,"Ĥ":229,"ĥ":230,"Ħ":231,"ħ":232,"Ĩ":233,"ĩ":234,"Ī":235,"ī":236,"Ĭ":237,"ĭ":238,"Į":239,"į":240,"İ":241,"ı":242,"Ĳ":243,"ĳ":244,"Ĵ":245,"ĵ":246,"Ķ":247,"ķ":248,"ĸ":249,"Ĺ":250,"ĺ":251,"Ļ":252,"ļ":253,"Ľ":254,"ľ":255,"Ŀ":256,"ŀ":257,"Ł":258,"ł":259,"Ń":260,"á½":261,"ÏĦ":262,"Î½":263,"ĠÎ":264,"Î±":265,"Î¿":266,"á¼":267,"Î¹":268,"Îµ":269,"Ġá¼":270,"á¿":271,"Ïģ":272,"ÏĤ":273,"ĠÏĦ":274,"Ïĥ":275,"ÏĢ":276,"Î»":277,"Î¼":278,"ĠÎº":279,"Îº":280,"Ïħ":281,"á½¶":282,"Î·":283,"ĠÏĢ":284,"á½·":285,"á½³":286,"ĠÎºÎ±":287,"Ġá¼Ĳ":288,"Ïī":289,"Ġá½":290,"ĠÎ´":291,"ĠÏĦá½":292,"Î³":293,"Î¿Î½":294,"ÏĦÎ±":295,"á½±":296,"Î¿á¿":297,"Î¸":298,"ĠÎºÎ±á½¶":299,"á½¹":300,"Ġá¼Ģ":301,"ĠÎ¼":302,"Ïĩ":303,"Î´":304,"ÏĨ":305,"Î¿á¿¦":306,"ĠÏĦá¿":307,"á½Ĳ":308,"á½°":309,"ÎµÎ¹":310,"á½²":311,"Î¿Ïħ":312,"ĠÎ¿":313,"¶Î½":314,"á½»":315,"ĠÏĦá½¸":316,"ÏĥÏĦ":317,"á½¸":318,"ÏīÎ½":319,"ĠÎµ":320,"Î¿ÏĤ":321,"Î¿Î¹":322,"ÏĥÎ¹":323,"ĠÎ³":324,"Î±Î¹":325,"ĠÎµá¼":326,"ĠÎ±":327,"á¿ĸ":328,"Î±Î½":329,"á½µ":330,"ÎµÎ½":331,"ĠÏĦÎ¿á¿¦":332,"ĠÏĢÏģ":333,"ĠÎ´á½²":334,"ĠÏĥ":335,"ÎµÏģ":336,"ÏĦÎ¹":337,"ÏĦÎ±Î¹":338,"á½³Î½":339,"´Î½":340,"ĨÏĤ":341,"Îµá¿ĸ":342,"Î»Î»":343,"Ġá¼ĲÎ½":344,"Î¼Î±":345,"ĠÎ´Î¹":346,"á½ĲÏĦ":347,"Î¾":348,"Ġá¼Ķ":349,"Î²":350,"Ġá¼ĲÏĢ":351,"ĠÎ±á½ĲÏĦ":352,"ÏģÎ±":353,"ĠÎ»":354,"Ġá½ģ":355,"ĠÎ¿á½Ĳ":356,"ĠÎµá¼°":357,"Ġá½ħ":358,"ĠÏĦá¿¶Î½":359,"ĠÏĨ":360,"á¿¶Î½":361,"Ġá¼¡":362,"ĠÏĦá½´Î½":363,"ĠÏĦá½°":364,"á½½":365,"á½°Ïģ":366,"ĠÎ³á½°Ïģ":367,"ÏĦÎ·":368,"Ġá¼ĢÎ½":369,"ÏĦÎµ":370,"ÏĥÎ¹Î½":371,"ÏīÏĤ":372,"ÏģÎ¹":373,"á½´":374,"á½¹Î½":375,"ÏĥÎ¸":376,"Î¼á½³Î½":377,"ĠÏĦá¿ĨÏĤ":378,"á½¸ÏĤ":379,"á¾":380,"ÏĦÎ¿":381,"Î¹Î½":382,"ÎºÎ±":383,"Ġá¼Ħ":384,"Ġá¼ĢÏĢ":385,"ĠÎ¿á½":386,"Î¼ÎµÎ½":387,"Î±ÏĤ":388,"ĠÏĢÎ±":389,"Îµá½·":390,"á½¸Î½":391,"á½²Î½":392,"Ïģá½·":393,"ĠÏĩ":394,"Î¿á¿ĸ":395,"ÏĦÎ¿ÏĤ":396,"ĠÎ¿á¼":397,"Ġá½ĳ":398,"Ġá½¡":399,"á¿¶":400,"á½º":401,"ĠÎ¼á½²Î½":402,"ÏĦá½°":403,"ĠÏĦá½¸Î½":404,"á½³Î³":405,"ĠÏĥÏħ":406,"Ġá¼ĲÎº":407,"Ġá½¡ÏĤ":408,"ĠÏĦÎ¿":409,"ĠÏĦá¿·":410,"ÏĦÏīÎ½":411,"ĠÏĢÏģÎ¿":412,"á¿³":413,"Î»Î·":414,"á½³Ïģ":415,"á¿Ĩ":416,"Î½Î±":417,"á¿¦":418,"ÎµÏĦÎ±Î¹":419,"ĠÎ¸":420,"Î¹Îº":421,"ÎµÎ¹Î½":422,"Ġá½ħÏĦÎ¹":423,"Î¶":424,"Î¿Î»":425,"ĠÎ²":426,"Î¿á¿ĸÏĤ":427,"á½±Î½":428,"Ġá¼ĲÏĥÏĦ":429,"Ġá½ĳÏĢ":430,"á½·Î½":431,"Îĵ":432,"ĠÎ¼Îµ":433,"ĠÏĢÎµÏģ":434,"ĠÎ½":435,"á½ºÏĤ":436,"á¿ĨÏĤ":437,"Î¿ÏħÏĤ":438,"Ġá¼ĳ":439,"ÏĥÎ¸Î±Î¹":440,"ÏĪ":441,"Ġá¼¢":442,"ĠÎ»á½³Î³":443,"á½µÏĥ":444,"Î»Îµ":445,"Ġá¼ĲÏĢá½¶":446,"ĠÎºÎ±ÏĦá½°":447,"Ġá¼ĢÎ»Î»":448,"Îµá¿ĸÎ½":449,"ĠÎ±á¼":450,"Ġá½Ģ":451,"á¿ĥ":452,"ĠÏĦÎµ":453,"ÏĦÎ¿Î½":454,"Ïĥá½·":455,"ĠÏĢÎ±Ïģ":456,"ÏĦá½·":457,"á½±Ïĥ":458,"Ġá¼ĶÏĩ":459,"Î¿Ïģ":460,"ĠÏĦÎ¹":461,"ĠÏĦÎ±":462,"ĠÏĦá¿ĩ":463,"Î·Î½":464,"á½´Î½":465,"Î»Î±":466,"Î¿á½»":467,"ĠÎµá¼°ÏĤ":468,"Î¿Î¹ÏĤ":469,"á¾¶":470,"ĠÎ´Î¹Î±":471,"Î·ÏĤ":472,"ĠÎ¼á½´":473,"ÏĥÎ±":474,"ĠÏĢÎ¿Î¹":475,"ĠÎ¿á½ĸ":476,"ĠÏĦÎ¿á¿ĸÏĤ":477,"á¿·":478,"ÏĦÎµÏģ":479,"ÏģÎ·":480,"Ġá¼ĲÏĢÎ¹":481,"á¿¥":482,"Ġá¼ĲÎ¾":483,"ÏĦá½³":484,"á¿¶ÏĤ":485,"ĠÎ´Î¹á½°":486,"á½¹ÏĤ":487,"ÏĦÎ¹Îº":488,"ĠÏĥÏĦ":489,"ĠÎ¿á¼±":490,"ÎµÏħ":491,"ĠÎ¿á½ĸÎ½":492,"ĠÏĢÎµÏģá½¶":493,"ĠÎµá¼´":494,"Î±Î³":495,"Î¸Î·":496,"ĠÏĢÏģá½¸ÏĤ":497,"ĠÏĦÎ¿á½ºÏĤ":498,"ĠÏĢÎ¿":499,"Î´Îµ":500,"ÎºÎ±á½¶":501,"ĠÏĨÎ·":502,"Î¸Ïģ":503,"ĠÎ¿á½ĲÎº":504,"Î¿Î³":505,"Ġá¿¥":506,"Î¿Îº":507,"ÏĥÎµ":508,"Ïģá½±":509,"á½¹Î¼ÎµÎ½":510,"ĠÎ¶":511,"ĠÏĩÏģ":512,"ĠÎºÎ±ÏĦÎ±":513,"ĠÏĦÎ¿á¿¦ÏĦÎ¿":514,"Î¼Î²":515,"á½±Î»":516,"Î±Î»":517,"Ġá¼°":518,"ÏĥÎ¹ÏĤ":519,"á½³Î»":520,"Îµá½»":521,"ÏģÎ¿":522,"ĠÏĥÏħÎ½":523,"Ġá¼ĦÎ»Î»":524,"Î·ÏĦ":525,"Îĺ":526,"Ġá¼Ī":527,"Î¿á¿¦Î½":528,"ÏĥÎ¼":529,"ÏĦÎµÏĤ":530,"á¿ĩ":531,"á½¹Î³":532,"ÎĵÎĺ":533,"ÏĢÎµÏģ":534,"Ġá¼ķ":535,"Î´Î¹":536,"ÏģÏĩ":537,"ĠÎļ":538,"á½±Î³":539,"ÎµÎ»":540,"Î¼á½±":541,"Î¸Î±":542,"ÏĥÎ±Î½":543,"ÏħÎ½":544,"ÎµÏĨ":545,"Î¿Î¼á½³Î½":546,"Î¼ÏĢ":547,"ĠÎ´á½»":548,"Ġá¼ĢÏĢá½¸":549,"ÏĦá½³Ïģ":550,"ĠÎ¿á½ĲÎ´":551,"ĠÎ´á½³":552,"ĠÏĦÎ¿á½»":553,"Î¿á½·":554,"á½¹ÏĦÎ·":555,"Ġá½Ħ":556,"ĠÎ±á½ĲÏĦÎ¿á¿¦":557,"ÏĦÏī":558,"ĠÏĦá½°ÏĤ":559,"ĠÎµá¼¶":560,"ÏĦá½±":561,"Î»á½³":562,"ĠÎµá¼¶Î½":563,"ÏĥÏĦÎ±":564,"ÏĥÎº":565,"á¾³":566,"Î¼ÏĨ":567,"ÏģÎµ":568,"ĠÎµá¼¶Î½Î±Î¹":569,"ÏĦÏīÏĤ":570,"ÏĥÎ±Î¹":571,"ĤÎ½":572,"á¼Ģ":573,"á¿¦ÏĦÎ±":574,"ĠÎºÎ±Î¸":575,"Ġá¼ģ":576,"ÏģÎ¹ÏĥÏĦ":577,"ĠÎł":578,"ĠÏĢá½±Î½":579,"á¼Ĳ":580,"ĠÎ»á½¹Î³":581,"ĠÎ±á¼°":582,"ÏĦÎ¿Ïħ":583,"Î»á½·":584,"ÎµÏĥÎ¸Î±Î¹":585,"ÏħÏģ":586,"Ġá¼¡Î¼":587,"Î¿Î½ÏĦÎ±":588,"ÏĥÏĩ":589,"Ġá¼¤":590,"ĠÎĺ":591,"ÏĦÎ¿Î¹":592,"ÎµÎ¹ÏĤ":593,"ĠÏĢÏģÎ¿Ïĥ":594,"Ġá¼ĢÎ»Î»á½°":595,"á½³Ïĩ":596,"Î±Ïģ":597,"Ġá¼ĢÎ³":598,"Î¼Î¿Î½":599,"ĠÏĢÎ±ÏģÎ±":600,"Ġá¼ĲÏĥÏĦÎ¹":601,"ĠÏĦÎ¹Î½":602,"Ġá¼ĢÏĢÎ¿":603,"á½½ÏĢ":604,"Î¹ÏĤ":605,"á½·Î±Î½":606,"ĠÏĢÎ»":607,"ĠÎ¿á½ķ":608,"ĠÎµá½Ĳ":609,"ÎµÏīÏĤ":610,"ĠÎ¿á¼·":611,"Ġá¼ĦÎ½":612,"ÏĦÎµÏģÎ¿Î½":613,"á¿ĸÏĤ":614,"Ġá¼ĲÏĥÏĦÎ¹Î½":615,"ÎµÏĢ":616,"Î·Î¼":617,"ĠÎºÎµÏĨ":618,"Î¼Î±ÏĦÎ±":619,"ÏĦÎ·Î³":620,"á½¹Î»":621,"ĠÏĥÎº":622,"Î¿Î¼":623,"ĠÏĦá½·":624,"ĠÏĦÎ¿Î¹":625,"ĠÎĺÎµ":626,"Î¼Î±ÏĦÎ¿ÏĤ":627,"á½¼":628,"Ïĥá½¶":629,"ĠÎ±á¼±":630,"Ġá¼ĤÎ½":631,"Ġá½ĦÎ½":632,"á½±Ïģ":633,"ĠÎ¼á½¹Î½":634,"ÏĦÏģ":635,"Î±Ïħ":636,"ÎµÎ¹Î´":637,"Ġá¼ĢÎ½ÏĦÎ¹":638,"á¿ĨÎ½":639,"Î±á½·":640,"ĠÏĢÏģá½¹":641,"Î¸Îµ":642,"Ġá¼µ":643,"ĠÏĢÎµÏģÎ¹":644,"Î±Îº":645,"Î¿Î½ÏĦÎ±Î¹":646,"á½¹Î¼":647,"á½µÎ½":648,"ÏĥÏī":649,"Î·Îº":650,"ĠÏĪ":651,"ĠÎ³Îµ":652,"Î»Î¿Î½":653,"Ġá¼¦":654,"ĠÎ±á½ĲÏĦá¿¶Î½":655,"Ġá½¥":656,"Î¿ÏħÏĥÎ¹":657,"Ġá¼ĲÎ³":658,"ÏģÎ³":659,"ÏĢÎ¿Î½":660,"Î´á½·":661,"Ġá¼ĶÏĩÎµÎ¹":662,"ĠÏĦÎ±á¿¦ÏĦÎ±":663,"ĠÏĨá½»":664,"Ġá¼ħ":665,"ÏĦÎ±Î½":666,"Î´Î·":667,"Ġá¼ĢÎº":668,"Î´Î±":669,"Î±Î½ÏĦá½·":670,"á½³Ïĥ":671,"á½°ÏĤ":672,"ĠÎ¼Î·":673,"ĠÏĢÎ¿Î»":674,"ÏĢÎ±":675,"ĠÏĦá½¹":676,"ÏģÎ±ÏĨ":677,"á½½Î½":678,"ĠÏĦÎ¹ÏĤ":679,"Ġá½ģÎ¼":680,"Î¼á½±ÏĦÏīÎ½":681,"ÏĥÏĦÎ¹":682,"ÏĦÎ±ÏĤ":683,"ĠÎ¿á½Ķ":684,"ĠÎ¿á½ĲÏĥá½·":685,"á½»Î½":686,"Î¿á½ºÏĤ":687,"á½·Î±ÏĤ":688,"á½±Î¶":689,"ÏģÎ±Î½":690,"Ġá¼ĲÏĥÏĦá½¶":691,"ĠÎ¸Îµ":692,"ĠÎ¿á½ĲÎ´á½²":693,"ĠÏĢÎ±Ïģá½°":694,"ĠÎ±á½ĲÏĦá¿·":695,"Î»Î¹":696,"Î¸ÎµÎ½":697,"Î´ÎµÎ¹":698,"ÏģÎ¿Î½":699,"ĠÎºÎ±ÏĦÎ·Î³":700,"Ġá¼ĢÎ½Î±":701,"ĠÎºÎ±Î»":702,"ÏģÎ±ÏĤ":703,"á½·Î±":704,"ĠÏĢÎ¿Î»Î»":705,"á¼°":706,"ĠÎºÎ¿Î¹":707,"ĠÎ³á½³Î½":708,"ÎµÎº":709,"ĠÎ¿á½Ĺ":710,"á¿¦Î½":711,"ĠÎ´Î¹Î±ÏĨ":712,"Ġá¼´":713,"ĠÎ±á½ĲÏĦá½¸Î½":714,"Î¼Îµ":715,"ÎµÏĤ":716,"ÏĦÎ·ÏĤ":717,"Î¿á½¶":718,"Îµá¿ĸÏĦÎ±Î¹":719,"á¾¶ÏĤ":720,"Ġá¼ĢÎ¼ÏĨ":721,"ĠÎ±á½":722,"ĠÎ³ÎµÎ½":723,"Î¿ÏĢ":724,"ĠÏĦÏģ":725,"Î»á½±":726,"Ġá¼ĳÎ±Ïħ":727,"Î¿Ïģá½·":728,"Ġá¼ĢÏĨ":729,"Ġá¼ĲÎ½Î±Î½ÏĦá½·":730,"ĠÎ»á½³Î³ÎµÎ¹":731,"ĠÎ¾":732,"Ġá¼±":733,"á½·ÏīÎ½":734,"Î¼á½³Î½Î¿Î½":735,"Ġá¼¦Î½":736,"Îµá¿ĸÏĤ":737,"Î³Î½":738,"ĠÎ´á½»Î½Î±":739,"ĠÎµá¼°ÏĢ":740,"ĠÎ¼ÎµÏĦÎ±":741,"Î¿Ïĩ":742,"ĠÎºÎ±ÏĦ":743,"ÏħÏĩ":744,"Ġá½ĥ":745,"ĠÎ¿á½ķÏĦÏīÏĤ":746,"Ġá¾":747,"ÎµÎ¹Î´á½´":748,"ĠÎ¼á½³Ïģ":749,"ĠÏĢÏģá½¹ÏĤ":750,"á½·Î½ÎµÏĦÎ±Î¹":751,"Î¼Î½":752,"ĠÎĶ":753,"ÏĦÎ·Î½":754,"á½»Î»":755,"ÏĥÎµÏīÏĤ":756,"Ġá¼µÎ½Î±":757,"Î¼Î¹":758,"Ġá¼ĢÏģÏĩ":759,"ÏħÎ³":760,"ÏĢÎµ":761,"Î»Î»Î¿Î½":762,"ĠÎ´á½»Î¿":763,"Î»á½µ":764,"Ġá½ĢÎ½":765,"á½¶ÏĤ":766,"Î¿ÏħÏĥÎ¹Î½":767,"ĠÏĨÎ·ÏĥÎ¹Î½":768,"ÏĥÏĢÎµÏģ":769,"Ġá½ĳÏĢá½¸":770,"ĠÏĦÎ±á¿ĸÏĤ":771,"ĠÏĢá½¹":772,"ĠÏĥÏħÎ¼Î²":773,"ÏĦÎ¿á¿¦":774,"Ġá¼ĶÎ½":775,"ĠÏĢÎ¿Î¹á½¹ÏĦÎ·":776,"Î¼á½³Î½ÏīÎ½":777,"ĠÏĦá½±":778,"Î±Î¹ÏĤ":779,"ÎµÎ²":780,"ÏĥÎµÎ½":781,"ĠÎ´Îµá¿ĸ":782,"á½¹Î¼ÎµÎ½Î¿Î½":783,"Î·Î³":784,"ÏĦÎ±á¿¦":785,"Î¸á½³Î½":786,"á¿ĨÎ½Î±Î¹":787,"ĠÎµá½":788,"ĠÏĢÎµÏĢ":789,"ĠÎ½á¿¦Î½":790,"á½µÏĦÎ·":791,"Î¿ÏĨ":792,"Ïģá½³":793,"Î»á½³ÏīÎ½":794,"ÏĦÎ±á¿¦Î¸Î±":795,"Ġá½ķ":796,"ĠÎ²Î±":797,"ĠÎºÎ¿Î¹Î½":798,"á½°Î½":799,"á½±Î»Î»":800,"Î´Î¿ÏĤ":801,"ĠÎ´Îµ":802,"á½¼Î½":803,"ĠÎ¼ÎµÏĦá½°":804,"ĠÏĢÏģá¿¶":805,"Î¿Î½ÏĦÎ¿ÏĤ":806,"ĠÏĢÎ±Î½":807,"ÏģÎ·ÏĦÎ±Î¹":808,"Î¼ÎµÎ½Î¿ÏĤ":809,"ÏĢÎ»":810,"Î¼Î±ÏĦÎ¹":811,"Ġá¼ĢÎ½Î¸Ïģ":812,"ĠÏĨÎ±":813,"Î¿Î»Î¿Î³":814,"Ġá½§":815,"Ġá½¥ÏĥÏĢÎµÏģ":816,"Î¿Î½ÏĦÎµÏĤ":817,"Î¸á½³":818,"ĠÎļÎ»á½³ÏīÎ½":819,"ĠÎ¿á¼·Î¿Î½":820,"Î´Î¿":821,"á¿ĸÎ½":822,"ĠÏĥÏĨ":823,"ÏĦá½¶":824,"ĠÎ¼á½³":825,"á½µÎ¼":826,"á¼±":827,"ÏħÏģá½·":828,"ĠÎ±á½ĲÏĦá½¸":829,"á½¹Î¼ÎµÎ½Î¿ÏĤ":830,"ĠÎ£":831,"ÏħÎº":832,"á½¹Î½ÏĦÏīÎ½":833,"Î»Î·ÏĤ":834,"Ġá¼ł":835,"ĠÎºÎµÏĨÎ±Î»":836,"Ġá¼ĲÏĨ":837,"ĠÎĺÎµÎ¿á¿¦":838,"ÏĦá½¸":839,"Ġá¼ĲÏĢÎµÎ¹Î´á½´":840,"Î¾Î¹":841,"ÏģÎ¹Îº":842,"Îµá½·Î±ÏĤ":843,"ÏīÏģ":844,"Î¼á½³Î½Î¿Ïħ":845,"Ġá½§Î½":846,"ÏĥÏĦÎ¹Î½":847,"ĠÎ±á½ĲÏĦá½¸ÏĤ":848,"ĠÎ»Î±":849,"ĠÎºÏģá½·":850,"ĠÎ¿á½ĶÏĦÎµ":851,"ÏĢÏĢ":852,"Î·ÏĦÎ±Î¹":853,"ÎµÎ¹Ïģ":854,"Î·Î¼Î±":855,"ÏĥÎ¸ÎµÎ½":856,"Î¼ÎµÎ½Î¿Î½":857,"ĠÏĦÎ¿á½»ÏĦÏīÎ½":858,"Ġá¼ĢÎ½Î¸Ïģá½½ÏĢ":859,"ÏĥÎµÎ¹":860,"Î·Ïģ":861,"Ġá¼ĲÎ½ÏĦÎ±á¿¦Î¸Î±":862,"ÎµÏĩ":863,"á½¹Ïģ":864,"Î¿Î¼ÎµÎ½":865,"ÎµÎ³":866,"Î·Î»":867,"á½·Î¶":868,"ĠÏĢÏģá½±Î³":869,"Ġá½ħÏĦÎ±Î½":870,"á¿ĨÏĥÎ±Î¹":871,"Ġá¼ĦÏģ":872,"ÎºÎµÎ¹":873,"ĠÏĥÏĩ":874,"Ġá¼ĪÏģÎ¹ÏĥÏĦ":875,"Ïĥá½¶Î½":876,"ĠÎ¼á½¹Î½Î¿Î½":877,"Î¹ÏĥÏĦ":878,"Î¿ÏħÎ½":879,"Ġá¼ĲÏĩ":880,"Î²Î±":881,"ĠÎºá½±":882,"á½µÎ»":883,"ÏĦÏĦ":884,"ĠÏĦÏģá½·":885,"Î³Î³":886,"á½³Î½Î±Î¹":887,"ÏģÎ±Î¼":888,"á½·Î¿Ïħ":889,"ĠÎ¼á¾¶":890,"Î¸ÏģÏī":891,"ÏĥÏĢ":892,"ĠÎ¼á½³Î½":893,"Ġá¼¥":894,"ĠÎ´á½·":895,"ÎºÎµ":896,"á½²ÏĤ":897,"Î¾Î¹Î½":898,"ĠÎºÎ±Îº":899,"Î»ÎµÏħ":900,"ĠÏĦÎ¿á½»ÏĦ":901,"ÏħÎ¼":902,"á½¹ÏĢ":903,"ĠÎ±á½ĲÏĦá¿ĨÏĤ":904,"ĠÎ¼á¾¶Î»Î»Î¿Î½":905,"Î¹Î»":906,"Î²Î¿Î»":907,"Ġá½ħÏģ":908,"ĠÎ¿á¼°":909,"Î¸Î¿ÏĤ":910,"ĠÎµá¼°ÏĢÎµá¿ĸÎ½":911,"ÏĦá¿¶Î½":912,"ÎºÎ½":913,"ĠÎ§":914,"Î¿ÏĦá½³":915,"Î¹Ïĥ":916,"á¾·":917,"ĠÎ¶Î·ÏĦ":918,"ĠÏĢá½±Î½ÏĦÎ±":919,"ÏĥÎ·ÏĤ":920,"Î³Î¼Î±":921,"á¼Ķ":922,"ÏģÎ¿á¿¦":923,"Ġá½ĳÏĢÎ¿Îº":924,"ĠÎ³Î½":925,"á½±Î»Î¹Î½":926,"ÏĥÎºÎµÏħ":927,"Î¿Î¼Î±":928,"ĠÎ¼ÎµÎ³":929,"Î»Îµá½»":930,"Î´Îµá½·":931,"Î»Î·Î¸":932,"ĠÏĦá½³":933,"Î¾Ïī":934,"ĠÎ¿á½ķÏĦÏī":935,"á½¹Î»Î¿Ïħ":936,"ĠÏĨá½»ÏĥÎ¹Î½":937,"Î´á½³":938,"ÏĥÏĦá½³":939,"ÏģÎ±Ïĩ":940,"Ġá¼ĦÎ»Î»ÏīÏĤ":941,"ĠÎľ":942,"ĠÏĢá½³":943,"Ġá¼°ÏĥÏĩ":944,"Ġá¼¸":945,"ÎºÎ»Î·":946,"ÏħÎ½Î±":947,"á½±Îº":948,"ĠÎ¿á½ĲÏĩ":949,"á½±Î»Î±Î¹":950,"ÏģÎ¼":951,"ÏĢÏĦ":952,"Ġá¼ĢÎ½ÏĦá½¶":953,"ĠÏĦÎ±á½»":954,"Î¹Î¿Î½":955,"ÏĥÎ¿Î½":956,"ÏĢÎ¿":957,"Î¼Î±ÏĦÎ¹Îº":958,"ĠÎ»á½³Î³ÏīÎ½":959,"Î¹ÏĥÏĦÎ±":960,"Îµá¼°":961,"ÏĥÎ±ÏĤ":962,"ĠÏĢá½±Ïĥ":963,"Î´Ïī":964,"Ġá¿¥Î·ÏĦ":965,"Ġá¼ĢÎ½Î±Î³":966,"ĠÏĨÎ·ÏĥÎ¹":967,"Îµá½¶":968,"Ġá½ł":969,"á¾¶Î½":970,"Ġá¼ĳÏĦá½³Ïģ":971,"Î¸Î·Î½Î±":972,"ĠÏĢÏģá¿¶ÏĦÎ¿Î½":973,"ĠÏĢá½±Î»Î¹Î½":974,"Î»ÎµÎ³":975,"Îºá½¹":976,"á½ģ":977,"Î´Î¹Îº":978,"Î¿ÏħÏĥÎ±":979,"ĠÎ³á½·Î½ÎµÏĦÎ±Î¹":980,"Ġá½ĳÏĢÎ¿":981,"ĠÎ±á¼°ÏĦá½·":982,"á½ħ":983,"ÏĦá½¸Î½":984,"á½»ÏģÎ¹":985,"ĠÎ±á½ĲÏĦÎ¿á¿ĸÏĤ":986,"á¼ĢÎ»Î»":987,"ÏĢá½·":988,"ĠÏĢÏģÎ±Î³":989,"Ġá¼ĪÎ¸Î·Î½Î±":990,"Î¹Î²":991,"ĠÏĦá½³Î»":992,"Î±Î¹Ïģ":993,"ĠÏĨÏħ":994,"ĠÏĦÎ¿Î¹Î±":995,"Î½á½·":996,"Ġá¼ĲÎ¼ÏĢ":997,"ĠÎ½á½¹Î¼":998,"ĠÎ¿á¼°Îº":999,"Î¿á½Ĳ":1000,"Ġá¼ĲÏĥÏĦá½¶Î½":1001,"Îºá½±":1002,"ĠÎ¼á½µ":1003,"Î»Î·Î½":1004,"Ġá¼§":1005,"ĠĠ":1006,"ĠÏĨÏīÎ½":1007,"ĠÏĥÏĦÎ¿Ïĩ":1008,"ĠÎ´Î¿Îº":1009,"Î¿Î¼á½³Î½ÏīÎ½":1010,"Ġá¼ĪÏģÎ¹ÏĥÏĦÎ¿ÏĦá½³":1011,"Î±Î¸":1012,"ĠÎ²Î¿Ïħ":1013,"Îµá¿ĸÏĥÎ¸Î±Î¹":1014,"ĠÏĢÏģÎ¿ÏĨ":1015,"ĠÏĥÏĦÎ¿ÏĩÎ±":1016,"ĠÏĦÏģÎ¹":1017,"Î¾Î±":1018,"ÏĦÎµÎ»":1019,"ĠÎ¼Î·Î´":1020,"ĠÎ²Î±ÏĥÎ¹":1021,"ÏĦÏĦÎ¿Î½":1022,"ĠÎ±á½ĲÏĦÎ¿á½ºÏĤ":1023,"ÏģÎ¹Î½":1024,"ĠÏĢÏģá½¹ÏĥÏī":1025,"ÏīÏģá½·":1026,"ĠÎ½Î¿":1027,"ĠÎ»á½³Î³ÎµÏĦÎ±Î¹":1028,"Î¼Î²á½±Î½":1029,"ĠÏĦÎ¿á½»ÏĦÎ¿Ïħ":1030,"ĠÎ³ÎµÎ³":1031,"Ġá¼ĢÏģ":1032,"Î¾Îµ":1033,"ĠÏĩÏģá½¹Î½":1034,"ĠÎ¼á½³ÏģÎ¿ÏĤ":1035,"ÏģÎ±Î³":1036,"Ġá¼ĦÎ½Î¸ÏģÏī":1037,"Ġá¼ĶÏĥÏĦÎ¹":1038,"ĠÎºÎµÏĨá½±Î»Î±Î¹":1039,"Î½Î·":1040,"ĠÎ¶á½µÏĦÎ·":1041,"ĠÎµá¼´ÏģÎ·ÏĦÎ±Î¹":1042,"ÏĢÎµÎ½":1043,"ÎºÎµÎ½":1044,"Ġá¼ĢÏĢá½¹":1045,"Î¹Îºá½¸Î½":1046,"Î±Î»Î±":1047,"Î¸á¿ĨÎ½Î±Î¹":1048,"Î±Î¹Î½":1049,"ĠÎ¿á½ĲÎ´á½²Î½":1050,"ÎµÎ²Î·Îº":1051,"ÏĥÏĨ":1052,"Ġá¼ĶÏĩÎµÎ¹Î½":1053,"ĠÏĢá¾¶":1054,"á½±Î¼":1055,"ĠÎ³á½±Ïģ":1056,"ĠÏĢÏģá½½":1057,"ĠÎ¿á½ĲÏģÎ±Î½":1058,"ĠÏĢá½¹Î»":1059,"ĠÎ±á½ĲÏĦá½´Î½":1060,"Ġá¼ĲÏĢÎ¹ÏĥÏĦ":1061,"ĠÏĢÏģÎ¿Ïĥá½½ÏĢ":1062,"ĠÎµá¼°ÏĥÎ¹Î½":1063,"Ïĥá½·Î±Î½":1064,"á½·Î¿Î¹ÏĤ":1065,"ĠÎºÎ±ÏĦÎ±ÏĥÎºÎµÏħ":1066,"ĠÏĪÏħÏĩ":1067,"á½µÏĥÎ±":1068,"ÏĢÎ¿ÏĤ":1069,"Îµá½·Î½":1070,"ÏĦÎµÏģÎ±":1071,"ĠÎºÎ±ÏĦÎ·Î³Î¿Ïģá½·":1072,"Ġá¼ĲÏĤ":1073,"ÏĩÎ½":1074,"Î¿Î¹ÏĢ":1075,"ĠÎ³á¿ĨÏĤ":1076,"Ġá¼ĢÎ½ÏĦá½·":1077,"ÏĥÎ¸á½³Î½":1078,"á¼ĲÏĢ":1079,"Î±ÏĨ":1080,"Ġá¼¤Î³":1081,"Î»á½³Î³":1082,"Ġá¼ĲÎ¼":1083,"Î´Ïģ":1084,"á½¹Î¼ÎµÎ½Î±":1085,"ĠÎ§ÏģÎ¹ÏĥÏĦ":1086,"ķÏĦÎ·":1087,"Î¹ÏĥÎ¼":1088,"Ïĥá½·Î½":1089,"á½³ÏĥÏĦ":1090,"ÏĨÎ±":1091,"ÏĦá½µ":1092,"á½±ÏģÏĩ":1093,"Ġá½ħÏĢÎµÏģ":1094,"Î·Î¼Î¿":1095,"ĠÎ´á½»Î½Î±ÏĦÎ±Î¹":1096,"Îµá¿¦":1097,"Î»Îµá½·":1098,"Ġá¼ĳÏĢ":1099,"ÏĢÎµÎ¹":1100,"Î³ÏģÎ±ÏĨ":1101,"ĠÎ¼Î¿Î¹":1102,"ĠÎºÏģá½·Î½":1103,"ĠÏĦÎ¿Ïħ":1104,"Î¿á¿¦ÏĥÎ¹":1105,"ÎµÏģÎ³":1106,"ĠÎ¼ÎµÏĦ":1107,"ĠÎ»á½³Î³ÎµÎ¹Î½":1108,"á½µÏĥÎµÎ¹":1109,"ÏĢÏī":1110,"ĠÏĥÏħÎ¼ÏĢ":1111,"ÎµÏĦÎ¿":1112,"ĠÎ´ÏħÎ½":1113,"ĠÏĥÏħÎ»Î»":1114,"ĠÏĢÎ¿Î¹Îµá¿ĸ":1115,"ÏģÎ¿ÏĨ":1116,"Ġá¼¡Î¼á¿ĸÎ½":1117,"á½±Ïĩ":1118,"Ġá¼ĶÎ¾Ïī":1119,"ĠÎ»á½¹Î³Î¿ÏĤ":1120,"ĠÏĥÏħÎ¼Î²ÎµÎ²Î·Îº":1121,"ÎºÎ±Î¹":1122,"Î·Ïģá½·":1123,"Î¾á¿ĨÏĤ":1124,"Î¼á½³Î½Î±":1125,"Ïģá½±ÏĨ":1126,"ĠÎ¿á¼·ÏĤ":1127,"Î¿á½":1128,"ĠÎ²ÏģÎ±Ïĩ":1129,"ĠÏĢá¿¶ÏĤ":1130,"ĠÎ¸á½±":1131,"ĠÏĩÏģá½´":1132,"ÏĢÎ¿Ïħ":1133,"ĠÎ´Î¹ÎºÎ±":1134,"ĠÏĥÏĦÎ¿ÏĩÎ±ÏĥÎ¼":1135,"Ġá¼¤Î³Î¿ÏħÎ½":1136,"Ïģá½¹Î½":1137,"Ïģá½¸Î½":1138,"ĠÏĥÎ¿Ïħ":1139,"ĠÏĥÎ·Î¼":1140,"ĠÏĩÏģÎ·":1141,"ĠÎµá¼¶ÏĢÎµÎ½":1142,"Î¹Î±":1143,"ÎµÏĥÏĦ":1144,"Î´Î¿Î½":1145,"ÎµÎ¹Î±Î½":1146,"Î²á½±Î»Î»":1147,"ĠÎ»Î¿Î³":1148,"Î¼á½³Î½á¿³":1149,"ĠÎ¼á½±Î»":1150,"Ġá¼ĢÎ³Î³":1151,"ĠÏĢÎ»Îµá½·":1152,"ÏĬ":1153,"Ġá¼ĶÏĦÎ¹":1154,"á½´ÏĤ":1155,"ÎµÏĥ":1156,"Î¿á¿¦ÏĤ":1157,"ÏĦá½¸ÏĤ":1158,"Ïģá½¸ÏĤ":1159,"Î´á½¹":1160,"ĠÏĨÎ¹Î»":1161,"Ġá½ĢÎ½á½¹":1162,"ĠÏĦÎ¿ÏħÏĦá½³":1163,"¤á¿¥":1164,"ĠÏĢá½±":1165,"ĠÎ¼Ïħ":1166,"Ġá½ĦÎ½Î¿Î¼Î±":1167,"ĠÎ¸ÎµÏģ":1168,"Î¾Î¹ÏĤ":1169,"Ġá¼ģÎ³":1170,"á¼ĲÎ½":1171,"ĠÏĢá½¹Î»Îµ":1172,"ĠÎ¼á½³Î³":1173,"Ġá½ĳÏĢÎµÏģ":1174,"á½µÏĥÎµÏĦÎ±Î¹":1175,"ĠÎµá¼¶Î´Î¿ÏĤ":1176,"Ġá¼ħÎ¼Î±":1177,"Î¿Ïĥ":1178,"á½»Î¼":1179,"Ġá¼ĢÎ½á½±Î³":1180,"ÏĦá½³ÏģÎ±":1181,"ĠÏĥÏĦÏģÎ±":1182,"ÎµÏħÎº":1183,"ĠÎļá½»ÏģÎ¹":1184,"ÏģÏī":1185,"Ġá¼ĲÎ¼Î²":1186,"ĠÎ±á½Ĳ":1187,"ĠÎµá¼°ÏģÎ·":1188,"á¿¶Î¼Î±":1189,"Ġá¼£":1190,"ÏģÎ¸":1191,"ĠÎ¼Î¹Îº":1192,"Îµá¿ĸÎ¿Î½":1193,"á½µÏĥÎµÏīÏĤ":1194,"Î±Î³Î³":1195,"ÏīÎ³":1196,"ĠÎ´á¿Ĩ":1197,"ĠÎ´Î¹Î±ÏĨÎ¿Ïģ":1198,"ÏĦá½¹Î½":1199,"ĠÏĦá½³Ïĩ":1200,"á½¹ÏĦÎ±":1201,"Ġá¼ĳÎ½":1202,"á½±ÏĥÎµÏīÏĤ":1203,"ĠÎ»á½¹Î³Î¿Î½":1204,"Ġá¼ĦÎ½Ïī":1205,"Î¼Î±Ïģ":1206,"ÏģÎ±Îº":1207,"ĠÎ½Î¿Î¼":1208,"ĠÎ¿á½ĹÏĦÎ¿ÏĤ":1209,"Ġá¼ĥ":1210,"Ġá¼ĵ":1211,"Î¸Î¼":1212,"ĠÏĢÏģá¾¶":1213,"Ġá½ĳÎ³":1214,"Î»á½·Î³":1215,"Ġá¼´Î´Î¹":1216,"ĠÎ¼á½±Î»Î¹ÏĥÏĦÎ±":1217,"ĠÎĽ":1218,"ÏĢÎ¹":1219,"Îµá½»Î³":1220,"ÏĢÎ¿Î¹":1221,"ĠÏĢÎ½":1222,"Ġá¼ĲÏĢá½·":1223,"Ġá¼ĳÎºá½±":1224,"ĠÎ±á½ķÏĦÎ·":1225,"ÏģÏħ":1226,"ÏĨÎ·":1227,"Î¿á¿¦ÏĥÎ¹Î½":1228,"ÎºÎ±Î»":1229,"Î¿Î¼á½³Î½Î¿Ïħ":1230,"ÏĥÏĦÎ±Î¹":1231,"Î¼Î¿Î¹":1232,"ĠÎ´á½¹":1233,"ĠÎµá¼°Î´":1234,"ÏĥÎ¸Î·":1235,"á½·Î½ÎµÎ¹":1236,"Î¿á½»Î»":1237,"ĠÏĢÎ¿Ïĥ":1238,"ÏĥÏĥ":1239,"ĠÎ´Îµá½·":1240,"ĠÎ´Î¹á½±":1241,"á½µÏĥÏī":1242,"ĠÎµá¼´Î´Î·":1243,"Î´á½»":1244,"ÏĨÎ¿Ïģ":1245,"á½µÎ³":1246,"Î¾ÎµÎ¹":1247,"Ġá¼ĶÏĥÏĦÎ¹Î½":1248,"ÏģÎ¹Î¿Î½":1249,"Ġá½ĢÎ»á½·Î³":1250,"á½¹ÏĦÎ·ÏĤ":1251,"Ġá¼ĦÏģÎ¸Ïģ":1252,"Ġá½ĳÏĢÎ¿ÎºÎµÎ¹":1253,"Ġá¼ĢÏĥ":1254,"ĠÎ»ÎµÏħÎº":1255,"Ġá¼ĲÎºÎµá½·Î½":1256,"Î¹Îºá¿¶Î½":1257,"ĠÏĢá½±Î½ÏĦÏīÎ½":1258,"Ġá¼£Î½":1259,"Î¤":1260,"Ġá¼ĢÎ»Î·Î¸":1261,"ÏĥÏĦÎ¿Î½":1262,"ĠÏĥÎµ":1263,"Ġá¼ĦÏĩ":1264,"ĠÎ²Î¹Î²":1265,"Î»Î±Î²":1266,"Ġá¼°Î±":1267,"Ġá¼ĦÎ»Î»Î¿":1268,"Ġá¼ĢÎ³Î³á½³Î»":1269,"ÏĦá¿³":1270,"ÏĥÏĦÎµ":1271,"ĠÎ±á½ĲÏĦá½°":1272,"ĠÎ»ÎµÎ³":1273,"ĠÎ»Î¿Î¹ÏĢ":1274,"Î»Î·ÏĪ":1275,"ĠÎ´Î·Î»":1276,"ĠÎ¼Î±":1277,"Ġá¼ķÏĦÎµÏģÎ¿Î½":1278,"ĠÎ½Î±":1279,"ĠÎºá¼Ģ":1280,"ÏīÎ¼":1281,"ĠÎ»á½³":1282,"ĠÏĩá½½":1283,"Ġá¼ĢÎ»Î»á½µÎ»":1284,"ĠÏĨÎ·Ïĥá½¶Î½":1285,"ĠÏĢÎ¿Î»Î¹":1286,"Ġá¼ĪÏģÎ¹ÏĥÏĦÎ¿ÏĦá½³Î»Î·ÏĤ":1287,"á½³ÏĥÎ¸Î±Î¹":1288,"ĠÏĥá½½":1289,"á½³ÏģÎµÎ¹":1290,"Ġá¼¹":1291,"Ïĥá¿ĥ":1292,"ĠÎ´Îµá½»":1293,"ĠÏħ":1294,"ĠÎºÎ¹Î½":1295,"ĠÎ¼ÎµÏģ":1296,"á¿ĸÎ¿Î½":1297,"ĠÏĥÏħÎ³":1298,"Ġá½ĳÏĢá½±ÏģÏĩ":1299,"Ġá¼ĢÎ³Î±Î¸":1300,"ĠÎºÎ±ÏĦÎ·Î³Î¿Ïģ":1301,"ĠÏħá¼±":1302,"ĠÏĢÎ»Î·":1303,"ĠÎ¼á½³Ïĥ":1304,"Ġá¼ĢÏĢÎ¿Îº":1305,"Ġá¿¥Î·":1306,"Î¿Î½ÏĦÎ±ÏĤ":1307,"á½½Î½Ïħ":1308,"Î·Ïĥ":1309,"Ġá½¦":1310,"ĠÎ´Î¹Î´":1311,"á½µÏĥÎ±ÏĤ":1312,"ĠÎºÎ±Î¸á½¹Î»Î¿Ïħ":1313,"Ġá¼ģÏĢÎ»":1314,"á½µÎ¼Î±ÏĦÎ±":1315,"á½µÏĥÎ±Î½":1316,"ĠÎ´á½»Î½Î±Î¼":1317,"ÏĦá¿ĥ":1318,"á½·á¾³":1319,"ĠÎµá¼´Î·":1320,"ĠÎ²Î¹Î²Î»á½·":1321,"á½³Î¼":1322,"Î´Î±ÏĤ":1323,"Ġá¼ĶÎ»ÎµÎ³":1324,"ĠÏĦÎ¹Î½Î±":1325,"ĠÎµá½ĳ":1326,"ĠÎºá½±ÏĦÏī":1327,"Î»Î±Î¹":1328,"ĠÎ´ÎµÏħ":1329,"Ġá½ħÎ»":1330,"ĠÏĦÎ¿Î¹Î¿á¿¦":1331,"ÎºÎ½Ïħ":1332,"ÏĦá½¹":1333,"Î¿Î¼á½±":1334,"á½¹ÏĦÎ¹":1335,"ĠÎ¿á¼¶":1336,"Ïĥá½·Î±ÏĤ":1337,"ÏĦá½³ÏģÏīÎ½":1338,"ÏħÎ»":1339,"Î¸Îµá¿ĸÎ½":1340,"Î´ÎµÏĤ":1341,"Ġá¼ĲÎ½Î±Î½ÏĦá½·Î±":1342,"Î¿ÏģÎ¹":1343,"Î¾Î±Î½":1344,"ĠÎ±á½ĲÏĦá¿ĩ":1345,"Î¿á½»ÏĤ":1346,"ĠÎļÏħÏģá½·":1347,"Ġá¼¡Î¼á¿¶Î½":1348,"Ġá½ģÎ¼Î¿á½·":1349,"ĠÎ³á½³Î½Î¿ÏĤ":1350,"ĠÎ¼á½³Î½ÏĦÎ¿Î¹":1351,"ÏĦÎ¿ÏħÏĤ":1352,"ĠÎķ":1353,"Ġá½ħÏĦÎµ":1354,"ĠÏĨÎµá½»Î³":1355,"á½¹ÏĦÎ·ÏĦÎ±":1356,"Ġá¼ĳÏĢÏĦá½°":1357,"Î±á½¶":1358,"á¿¤á¿¥":1359,"Î·ÏĥÎ¹ÏĤ":1360,"ĠÏĢÏħÏģ":1361,"Ġá¼ĶÎ¼ÏĢ":1362,"ÏģÎ¹Î²":1363,"Ġá¼Ĳá½°Î½":1364,"Î¸Î¿Î½":1365,"Î¿ÏħÎ¼á½³Î½":1366,"ĠÏĥÏī":1367,"ĠÏĥá¿¶Î¼Î±":1368,"Îµá½·Î±Î½":1369,"á½·Î½ÎµÎ¹Î½":1370,"ĠÏĢá½·":1371,"Ġá¼ĲÏģ":1372,"ÏģÎ¹Î¸Î¼":1373,"ĠÏĥÏħÎ»Î»Î¿Î³":1374,"ĠÎ»á½³Î³Î¿Î¼ÎµÎ½":1375,"Î»á½µÏĪ":1376,"Ġá¼ĵÎ½":1377,"Í´":1378,"Î±ÏĥÏĦ":1379,"á¼ĺ":1380,"ÏĢÎ±Î½":1381,"ÏħÏĨ":1382,"Ġá¼ĢÎ¼":1383,"ĠÏĦá½·ÏĤ":1384,"á¼¡":1385,"ĠÎºá¼":1386,"ĠÎµá¼°ÏĥÎ¹":1387,"ĠÏĥÏĦá½±Ïĥ":1388,"ĠÎłÎµÏģ":1389,"Ġá¼¤Î´Î·":1390,"ÏĦÎ¿á¿¦ÏĦÎ¿":1391,"Î¸Î±Î½":1392,"ĠÏĥá½»":1393,"ÏĦÎ¹Îºá½¸Î½":1394,"á½¹Î´":1395,"ĠÎ»á½»":1396,"Ġá¼ĶÏĩÏīÎ½":1397,"ĠÏĥÎºá½³Î»":1398,"ĠÏĦÎ¿Î¹Î¿á½»":1399,"ĠÏĦÏģá½¹ÏĢ":1400,"Ġá¼ĢÎ½Î±Î³ÎºÎ±":1401,"ĠÏĢÎ±Î¹":1402,"á½³ÏīÎ½":1403,"ĠÎ¼Î¿Ïħ":1404,"ĠÎ³á½·Î½":1405,"Î¶Î¿Î½":1406,"ĠÏĥÏħÎ½ÎµÏĩ":1407,"ĠÏĦá½³ÏĩÎ½":1408,"ÏĦÏĦÎµ":1409,"Ġá¼¡Î¼á¾¶ÏĤ":1410,"ĠÎ¿á½ĲÏĥá½·Î±ÏĤ":1411,"Î¹ÏĥÎ²":1412,"á½µÎº":1413,"á½½Î¼":1414,"ĠÎµá½ĲÎ¸":1415,"Ġá¼ĦÏĩÏģÎ¹":1416,"á¼´":1417,"ÏģÏīÎ½":1418,"ÏĨÎ¸":1419,"ÏģÎ¿ÏĥÎ¸ÎµÎ½":1420,"Ġá¼ĢÎ¼ÏĨÎ¹ÏĥÎ²":1421,"ĠÎ³ÎµÎ½á½³ÏĥÎ¸Î±Î¹":1422,"ĠÏĢÏģá½±Î³Î¼Î±ÏĦÎ¿ÏĤ":1423,"ĠÏĦÎ¿á½»ÏĦÎ¿Î¹ÏĤ":1424,"Ġá¼ĳÎºá½±ÏĥÏĦ":1425,"á½·Î¿Î½":1426,"ÏīÎ½á½»Î¼":1427,"á½µÏģ":1428,"Îµá½·á¾³":1429,"á¿ĨÏĥÎ¸Î±Î¹":1430,"á½¼ÏĤ":1431,"ĠÏĢÏģÎ¿Ïĥá½½ÏĢÎ¿Ïħ":1432,"Î»Ïħ":1433,"Î¼Î¿ÏĤ":1434,"ĠÏĥÎ±ÏĨ":1435,"ÎµÏģÎ¿Î½":1436,"ĠÎ¿á½ĲÎ´Îµ":1437,"ÏģÎ¹Ïĥ":1438,"á½µÏĥá¿ĥ":1439,"Ġá¿¥á½µ":1440,"Ġá¼ĲÏĩÏģ":1441,"ÏĩÎ¸":1442,"Î¿Î¹Î±Î½":1443,"Î»Î·Îº":1444,"Ġá½ĢÏĥÏĦá½³":1445,"Ġá¼ĳÎ±ÏħÏĦ":1446,"Î·Î¼Î¿ÏĥÎ¸á½³Î½":1447,"Î·ÏĥÎ¹Î½":1448,"ĠÎºÎ±Î¹":1449,"Î¼Î±ÏĥÎ¹Î½":1450,"ĠÏĥÏħÎ¼ÏĨ":1451,"Ġá¼ĦÎ»Î»ÏīÎ½":1452,"Ġá¼ĲÎ³Îº":1453,"ĠÏĥÏĦÏģÎ±ÏĦÎ·Î³":1454,"Î±Î³Î³ÎµÎ»":1455,"ĠÎļÏħÏģá½·Î¿Ïħ":1456,"ĠÏĥÏħÎ»Î»Î¿Î³Î¹ÏĥÎ¼":1457,"Ġá¼ĲÎ¸":1458,"ÏĦÎ·Ïģá½·":1459,"Î½Î±ÏĦÎ¿Î½":1460,"ĠÏĦÎµÏĩÎ½":1461,"Ġá¾ĸ":1462,"ĠÏĢÏģÎ±Î³Î¼á½±ÏĦÏīÎ½":1463,"ÏĦá½¹ÏĤ":1464,"Î¿Î²":1465,"ĠÎºá½»":1466,"ĠÎ³á¿ĨÎ½":1467,"ĠÎ³ÏģÎ±Î¼":1468,"Ġá¼ĶÏģÎ³":1469,"Ġá¼ĲÎºÎºÎ»Î·":1470,"Ġá¼ĲÎ³á½³Î½":1471,"Ġá¼ĲÎ½Î±Î½ÏĦá½·Î¿Î½":1472,"Ġá¾§":1473,"ĠÏĢÎ¿Î¹á½¹ÏĦÎ·ÏĦÎ¿ÏĤ":1474,"Îºá½¹ÏĦÏīÏĤ":1475,"ĠÏĦÎ¿Î¹Î±á½»":1476,"Ġá¼§ÏĦÏĦÎ¿Î½":1477,"ÏħÏĥ":1478,"Î¼Î±ÏĥÎ¹":1479,"Î¾Î±Î¹":1480,"Î¾ÎµÎ½":1481,"á½´Ïģ":1482,"Î¼ÎµÎ½Î±":1483,"ÏĦÎµÏģÎ¿ÏĤ":1484,"Ïģá½±ÏĦÎ·ÏĤ":1485,"Ġá¼ģÎ¼Î±Ïģ":1486,"Ġá½ĦÎ½ÏĦÎ±":1487,"ĠÎĶÎ·Î¼Î¿ÏĥÎ¸á½³Î½":1488,"ĠÏĦÎ¿á½»ÏĦá¿³":1489,"ÏĢÎ¿ÏĦÎµ":1490,"ĠÎ¼á½µÏĦÎµ":1491,"ĠÎļá½»ÏģÎ¹Î¿ÏĤ":1492,"á½³Î¸Î·":1493,"Î¼á½³Î½Î¿ÏĤ":1494,"ĠÎ½á½¹":1495,"Î¿á½»Î¼ÎµÎ½Î¿Î½":1496,"Î¿á½»ÏĥÎ·ÏĤ":1497,"ĠÏĢÎ¿Î»á½º":1498,"ĠÎ¿á½ĲÏĥá½·Î±":1499,"Îļ":1500,"ÏĢá½½":1501,"Î»Î¿Î³":1502,"ÏīÎº":1503,"ĠÎ¼á½³Î»":1504,"Î´á½³Ïĩ":1505,"Î¿á¿¦Î½ÏĦÎµÏĤ":1506,"ĠÎ´á½³ÎºÎ±":1507,"Ġá¼ĦÎ½Î¸ÏģÏīÏĢÎ¿ÏĤ":1508,"ĠÎºÎµÏĨá½±Î»Î±Î¹Î¿Î½":1509,"ĠÏĢÏģá¾¶Î³Î¼Î±":1510,"ÎºÎ±Î½":1511,"ĠÏĢÎ¹":1512,"á½³Î±":1513,"ĠÏĦá½»":1514,"ÏĩÎµÎ¹":1515,"Î´Î¿Îº":1516,"ĠÏĢÏģá½¸":1517,"ĠÏĨÎ¸":1518,"Î»Î±Î¼Î²á½±Î½":1519,"ĠÏĢá½±Î½ÏĦÏīÏĤ":1520,"ĠÎķá½Ĳ":1521,"Î»Îº":1522,"ÏĦÎ±á½·":1523,"Ġá¼ĲÎ¾Î¿Ïħ":1524,"Ġá¼ĢÎºÏģÎ¹Î²":1525,"ĠÎ²Î¿ÏħÎ»":1526,"ĠÎºÎ¿Î»":1527,"á½±ÏĤ":1528,"Ġá¼ĢÏģÎ¹Î¸Î¼":1529,"ĠÎ¼Î¿Î½":1530,"Î±Î½ÏĦÎ¿":1531,"Îµá¿ĸÎ±":1532,"ĠÎ´Î¹Î±Î¹Ïģ":1533,"á¿¶Î½Î±":1534,"Î¼ÎµÎ½Î¿Î¹":1535,"á½±Î½ÏĦÏīÎ½":1536,"ĠÏĦÎ¹Î¼":1537,"á½¹Î¼ÎµÎ½Î¿Î¹":1538,"Î¿á¿¦Î½ÏĦÎ±":1539,"Ġá¼ĢÎ¼ÏĨÎ¿":1540,"ĠÎļÎ»á½³ÏīÎ½Î±":1541,"Ġá¼´Î´Î¹Î¿Î½":1542,"Ġá½ģÎ¼Î¿á½·ÏīÏĤ":1543,"ĠÎºá½¹":1544,"Î·Î¸":1545,"á½·Î¿ÏħÏĤ":1546,"ĠÎºÎ±á½·":1547,"ĠÎºÎ±ÏĦá½±":1548,"ĠÎ´Î±Îº":1549,"ĠÎ´ÏħÎ½Î±":1550,"Ïĩá½±Î½":1551,"Ġá½ħÎ¼Î¿Î¹":1552,"ÎºÎ±ÏĦÎ±":1553,"Ġá¼ĲÎºÎµá¿ĸ":1554,"á¿ĨÎ¼Î±":1555,"Î¶ÎµÎ¹":1556,"Ġá½ĢÏĥÏĦ":1557,"ĠÏĢÎ±Ïģá½±":1558,"Î¿á½»Î¼ÎµÎ½Î¿ÏĤ":1559,"Ġá¼ĲÏĢÎ¹ÏĨ":1560,"Ġá½¥ÏĥÏĦÎµ":1561,"ÏĥÎ¸Îµ":1562,"ĠÏĩÎ±":1563,"ĠÏĩÎµÎ¹Ïģ":1564,"Ġá¼¢Î½":1565,"ĠÏĦÎµÏĦ":1566,"ÏĦá½³Î¿Î½":1567,"Î¿á¿¦Î½ÏĦÎ±Î¹":1568,"Î¿Î¼á½³Î½Î·":1569,"á½¹ÏĦÎ·ÏĦÎ¿ÏĤ":1570,"Ġá¼ĶÎ¼ÏĢÏģÎ¿ÏĥÎ¸ÎµÎ½":1571,"Î»á½»":1572,"ĠÏĢá½³Î½":1573,"ĠÏĢá¾¶Î½":1574,"á½±Î²":1575,"Ġá¼ĲÏĢÎµá½¶":1576,"Ġá½ĳÏĢÎ¿Î³":1577,"á½±ÏĥÎµÎ¹":1578,"ĠÏĥÎºÎ¿ÏĢ":1579,"Ġá¼ĢÎ½ÏĦÎ¹ÏĥÏĦ":1580,"ĠÏĦÎ¿ÏħÏĦá½³ÏĥÏĦÎ¹":1581,"ĠÏĢá½¹Î»ÎµÏīÏĤ":1582,"Î¹Î¼":1583,"Ġá¼Ļ":1584,"ĠÏĢÎ¿Î½":1585,"ĠÎ´á½´":1586,"ĠÎ¼ÎµÏĦá½±":1587,"ĠÎ±á¼´":1588,"ĠÏĦÎ¹Î½ÎµÏĤ":1589,"ĠÎ¼á½³Î»Î»":1590,"á½±ÎºÎ¹ÏĤ":1591,"ĠÏĢÎ»Îµ":1592,"á½±Î¼ÎµÎ½Î¿ÏĤ":1593,"á½µÎ¼Î±ÏĦÎ¿ÏĤ":1594,"ĠÏĨÎ·Ïĥá½·Î½":1595,"ĠÎµá¼¶ÏĢÎµ":1596,"á½³ÏĥÎµÎ¹":1597,"ĠÏĢÏģá½±Î³Î¼Î±ÏĦÎ±":1598,"á¼ĢÎ»Î»á½°":1599,"Ġá¼ĲÏĢÎ¹ÏĥÏĦá½µÎ¼":1600,"ĠÎºÏģá½·Î½ÎµÏĦÎ±Î¹":1601,"ĠÎºá¼ĤÎ½":1602,"ĠÏĥÎ¹":1603,"ÏĦÏģá½·":1604,"Î±Î»Î»":1605,"á¼Ħ":1606,"Ġá¼ĢÎµá½¶":1607,"ÏĩÎ¿Î½":1608,"Î´ÏħÎ½":1609,"ÏĥÎ¹Î¿ÏĤ":1610,"Ġá¼ĲÎºÎµá¿ĸÎ½":1611,"Ġá¼¤ÏĦÎ¿Î¹":1612,"Ġá¼¹ÏĢÏĢ":1613,"á½¹Î¼Î±":1614,"Ġá¼ĢÏģÎ¹ÏĥÏĦ":1615,"Î¾ÎµÏīÏĤ":1616,"Ġá¼ĢÏĢÎ¿Î»Î¿Î³":1617,"ĠÏĨÎ·Ïĥá½¶":1618,"ÏĦá½³ÏģÎ¿Ïħ":1619,"ÏģÎµÏĤ":1620,"Î¿Î¼Î±Î¹":1621,"á½¹Î¼Îµ":1622,"ĠÏĨá½»ÏĥÎµÎ¹":1623,"Ġá½ģÎ¼Î¿Î»Î¿Î³":1624,"ĠÎ¿á½ĲÏĥá½·Î±Î½":1625,"ĠÏĦá½±Î¾Î¹Î½":1626,"Î³Î³ÎµÎ»":1627,"ĠÏĢÏģá½¹ÏĥÏīÏĢÎ¿Î½":1628,"Î»Î·ÏĪÎ¹ÏĤ":1629,"ĠÏĩá½½ÏģÎ±Î½":1630,"Î¿á¼±":1631,"ĠÎºÎµÎº":1632,"á½¹ÏĦÎ¿ÏĤ":1633,"ĠÎ³á½³Î³":1634,"Ġá¼ĶÎº":1635,"Ïĥá½·Î±":1636,"Ġá¼ĢÎ½Î¸Ïģá½½ÏĢÏīÎ½":1637,"ĠÎ´ÏħÎ½á½±Î¼":1638,"ĠÎ¦":1639,"ĠÎĳ":1640,"ÏĢÎ±Ïģ":1641,"ĠÎºÎ±ÏĦÎµ":1642,"Î¿Î¹ÏĥÎ¹":1643,"ĠÏĥÎ·Î¼Î±":1644,"ĠÎ´Î¹ÏĢÎ»":1645,"Î¿á¿ĸÏĥÎ¹":1646,"Îµá¿ĸÎ½Î±Î¹":1647,"ĠÎ¶Ïī":1648,"ĠÏĢÏģá½¹ÏĦÎµÏģÎ¿Î½":1649,"Ġá½ħÏģÎ¿ÏĤ":1650,"ÏĢÏĦÎµÎ¹":1651,"ĠÏĦÎ¿Î¹Î±á¿¦ÏĦÎ±":1652,"ĠÎ§ÏģÎ¹ÏĥÏĦÎ¿á¿¦":1653,"ÏĦÎµÎ¹Î½":1654,"Î¿ÏģÎ±":1655,"ÎµÎ¼":1656,"ÎºÏĦÎ±Î¹":1657,"á½·á¿³":1658,"ĠÎ³ÏħÎ½":1659,"ĠÎ³ÏģÎ±ÏĨ":1660,"ĠÏĥá½»Î½":1661,"ĠÏĦÎ¿á½·Î½":1662,"Î¿á½·Î·":1663,"Ġá¼ĢÏģÏĩá¿ĨÏĤ":1664,"ĠÎ¼ÎµÎ³á½±":1665,"Ġá¼ĦÏģÎ¸ÏģÎ¿Î½":1666,"ĠÏĦÎ¿á½·Î½ÏħÎ½":1667,"ÎºÏīÎ½":1668,"á½³ÏĨ":1669,"ÏĦÎ±ÏĥÎ¹Î½":1670,"á½²Ïģ":1671,"ĠÏĥá½º":1672,"ĠÎ´Î¹á½¸":1673,"ĠÏĨÎ±Î½":1674,"ÏģÎ¹Î±":1675,"Ġá¼ķÎºÎ±":1676,"Ġá½ĥÎ½":1677,"Ġá¿¥Î·ÏĦá½¸Î½":1678,"ÏĦÏħ":1679,"Î±ÏĢ":1680,"Ïĥá¿¶Î½":1681,"Î»Î¿ÏĤ":1682,"á½·Î³Î½":1683,"á½±ÏĦÏīÎ½":1684,"ÏĦÎ¿ÏģÎ¹Îº":1685,"Ġá¼ĦÏģÎ±":1686,"á½µÏĥÎµÎ¹ÏĤ":1687,"ĠÏĢÎ±ÏģÎ±Î³ÏģÎ±ÏĨ":1688,"ĠÏĦá½¹ÏĦÎµ":1689,"ĠÎºÎ¿Î¹Î½ÏīÎ½":1690,"ĠÎ´Îµá½»ÏĦÎµÏģÎ¿Î½":1691,"Ġá¼©":1692,"á¿´":1693,"Î¼á¿¶Î½":1694,"ĠÎ¼Î±Îº":1695,"Ġá¼ĲÎ½ÎµÏģÎ³":1696,"Ġá¼ĦÎ³Î³ÎµÎ»":1697,"ĠÎ²Î¿á½»Î»":1698,"Ġá¼°Î´á½·":1699,"ÏģÎ¿ÏĢ":1700,"Î´Î¹á½°":1701,"ĠÏĦá½³Î»ÎµÎ¹":1702,"á¼¢":1703,"ĠÎºÎ±Î¸Î±":1704,"ÏĦÎ±Î³":1705,"á½±ÏĢ":1706,"ĠÎ¼á½´Î½":1707,"Î¼á½³Î½Î¿Î¹ÏĤ":1708,"ĠÏĢÎ±Î»Î±Î¹":1709,"ĠÏĩá½±":1710,"Î¹Îºá¿¶ÏĤ":1711,"Ġá½ĳÏĢá½²Ïģ":1712,"Ġá¼ĲÎ¾Îµ":1713,"ÏĦá½³ÏģÏī":1714,"ĠÎ»á½¹Î³á¿³":1715,"ĠÎ±á¼°ÏĥÎ¸":1716,"Ġá½ĦÎ½ÏĦÏīÎ½":1717,"Ïģá½³ÏĨ":1718,"Ġá¼°ÏĥÏĩÏħÏģ":1719,"ĠÎºÎ±ÏĦÎ±ÏĥÎºÎµÏħá½±Î¶":1720,"Ġá¿¥Î·ÏĦÎ¿ÏģÎ¹Îº":1721,"ÎµÎ´":1722,"Ġá¼ĢÎ¾Î¹":1723,"ĠÎ¼Î±Ïģ":1724,"Ġá¼ĶÎ³":1725,"ĠÎµá¼°Îºá½¹ÏĦÏīÏĤ":1726,"ĠÎ¸Ïģá½¹Î½":1727,"ĠÎłÎ»á½±":1728,"ĠÎºÎµÏĨÎ±Î»Î±":1729,"ĠÏĢÎ¿Î¹á½¹ÏĦÎ·ÏĤ":1730,"Ġá¼ĢÎ½á½±Î³Îº":1731,"ĠÏĥÎºá½³Î»Î¿ÏĤ":1732,"ÏĦá½»":1733,"ÏĦá½´Î½":1734,"Î´Î·ÏĤ":1735,"Ġá¼ĶÏĥÏĦÎ±Î¹":1736,"ĠÏĢÎ¿Î¹Îµá¿ĸÎ½":1737,"ÏĦÎ¹Îºá¿¶Î½":1738,"Î¸Îµá½¶ÏĤ":1739,"ĠÎµá½Ķ":1740,"ĠÏĢÏģÎ¿ÏĨá½µ":1741,"ĠÎ¶á½µÏĦÎ·Î¼Î±":1742,"ÏĦá½½":1743,"ÏģÎ¿ÏĤ":1744,"Ġá¼ĲÏģÎ³":1745,"Ġá¼ĲÏģÎ¿á¿¦":1746,"ĠÎ´ÎµÎ¹":1747,"ĠÎ³Î¹Î½":1748,"ÏĦÎ¹Î¿Î½":1749,"ĠÎ´Î¹Î±Î½":1750,"á½¹Î½ÏīÎ½":1751,"ÏĦÎ¿á½»":1752,"Ġá½ĳÏĨ":1753,"Ġá¼ĳÎºÎ±":1754,"Ġá¼ĢÎ»Î»Î±Î½ÏĦÎ¿":1755,"ĠÎ´Î¹Î±Ïģ":1756,"Î¼ÎµÎ¸Î±":1757,"Î¼ÎµÏĦÏģ":1758,"ĠÎ±á¼°ÏĦá½·Î±ÏĤ":1759,"ĠÎłÎ»á½±ÏĦÏīÎ½":1760,"Ïģá¿¶Î½":1761,"ĠÏĦÏħÏģ":1762,"ÎºÎ¿Î½":1763,"á½¹ÏĢÎ¿Î½":1764,"ÏĥÎ¹Îº":1765,"Ġá½ħÏĢ":1766,"Î¶ÎµÏĦÎ±Î¹":1767,"ĠÏĢÎ¿ÏĦ":1768,"ĠÏĦÎ¹Î½á½°":1769,"Îł":1770,"ÏĦÎµÎ¹":1771,"ÎµÏīÎ½":1772,"ÎµÎ¾á¿ĨÏĤ":1773,"Ïģá½¹":1774,"Ïģá½»":1775,"ĠÎºÏģÎ¹Î½":1776,"á½³Î²":1777,"ÏĦÎ±á¿¦ÏĦÎ±":1778,"ĠÎ¼á½¹":1779,"ĠÎ´Î¹á½±Î½":1780,"Ġá½ħÏĥÎ±":1781,"Î¼á½³Î½Î·Î½":1782,"Ġá¼ĦÎº":1783,"Ġá¼ĦÎ³":1784,"ĠÏĩÎµá¿ĸ":1785,"Ïĥá½·á¾³":1786,"ĠÎ¶á¿·":1787,"ĠÎ¼Î·ÏģÎ¿á¿¦":1788,"ĠÎ±á½ĳ":1789,"Ġá¼±ÏĥÏĦ":1790,"Ġá½ĢÎ½Î¿Î¼á½±":1791,"ĠÎºÎµÏĨá½±Î»Î±Î¹Î±":1792,"á½µÏĥÎ±ÏĦÎ¿":1793,"Î¹á½±":1794,"Î»ÎµÎ¹":1795,"á½³ÏĢ":1796,"ÏīÏĥÎ¹Î½":1797,"Î¸ÎµÎ¹":1798,"Ġá¼ĢÏĦ":1799,"Ġá¼ĢÎ´Î¹Îº":1800,"ĠÎ¼á½±Ïĩ":1801,"ĠÏĨá½³Ïģ":1802,"Î¼á½³Î½Î¿Î¹":1803,"Î¶ÎµÎ¹Î½":1804,"ĠÏĦÎ±á½ĲÏĦ":1805,"ĠÏĢÎ¿Î´":1806,"á¼ĢÏĢ":1807,"Ġá¼µÏĢÏĢ":1808,"ĠÎ¿á½ĹÏĦÎ¿Î¹":1809,"ĠÎ¼Î·Î´á½²Î½":1810,"Ġá¼ĲÏģÎ¿á¿¦Î¼ÎµÎ½":1811,"ĠÎºÎµ":1812,"ĠÎºÏħ":1813,"á½·Ïĩ":1814,"ĠÎ´Ïī":1815,"ĠÎ´á½µ":1816,"Ġá¼ĢÎºÎ±":1817,"ÏĩÎ±":1818,"Î¿Î¹ÏĦÎ¿":1819,"á½µÎºÎ±":1820,"ĠÎµá¼°Ïĥ":1821,"ÏĦÎµá½·Î½":1822,"Î¼á½³Î½Î¿ÏħÏĤ":1823,"Ġá¼ĲÎºÏĢ":1824,"Ġá¼ķÎ½":1825,"Î¿Î¼á½³Î½Î¿ÏħÏĤ":1826,"ĠÎ»á½¹Î³Î¿Ïħ":1827,"ĠÎ´Î¹Î±ÏĨá½³ÏģÎµÎ¹":1828,"ĠÏĦÏģá½¹ÏĢÎ¿Î½":1829,"ĠÎ»Î±Î¼Î²á½±Î½":1830,"ĠÏĦÏģá½·Î±":1831,"ĠÏĢÏģÎ±Î³Î¼Î±ÏĦÎ¹Îº":1832,"ĠÎĴ":1833,"á½³ÏĦÎ¹":1834,"ĠÎ´Î¿":1835,"ĠÏĥÎ¿Î¹":1836,"Ġá¼ĶÏĨÎ·":1837,"Ġá½ģÎ´":1838,"á½½ÏĦÎ±":1839,"á¿¶ÏĥÎ¹Î½":1840,"ĠÎºÎµÏĨÎ±Î»á¿ĨÏĤ":1841,"Ġá¼ĲÏĨÎµÎ¾á¿ĨÏĤ":1842,"Î¿á½ķ":1843,"Ġá¼ĢÎ¼ÏĨÎ¹ÏĥÎ²á½µÏĦÎ·":1844,"Ġá¼ĢÎ»Î»Î±Î½ÏĦÎ¿ÏĢá½½":1845,"ĠÎ¤":1846,"á¿ĵ":1847,"á½·ÏģÎµ":1848,"Î¿Î½ÏĦÎ¹":1849,"á½µÎ¸Î·":1850,"ÏģÎ±ÏĦ":1851,"ĠÎ¸Î·Ïģá½·":1852,"ĠÎ¼ÎµÏĦá½³":1853,"Ïģá½±ÏĪ":1854,"Ġá¼ģÏģÎ¼":1855,"Î¸ÎµÏĥÎ¹ÏĤ":1856,"ĠÏĪÎµÏħ":1857,"ĠÏĢÎ¿Î¹á½¹ÏĦÎ·ÏĦÎ±":1858,"ĠÎļÎ»á½³ÏīÎ½Î¿ÏĤ":1859,"Ġá¼ĢÎ½Î¸Ïģá½½ÏĢÎ¿Ïħ":1860,"Ġá½ĳÎ³Î¹":1861,"Ġá½ĳÏĢÎ¿ÎºÎµÎ¹Î¼á½³Î½á¿³":1862,"ĠÎ´Î·Î»Î¿á¿ĸ":1863,"Î±Î²":1864,"Ïģá½½":1865,"á½·ÏĥÏĦÎ±":1866,"á½³ÏĤ":1867,"ĠÎ¼Î¹":1868,"ÏĩÎµÎ¹Î½":1869,"ĠÏĢÏģÎ¿ÏĥÎº":1870,"á¼ĢÎ½":1871,"Ġá¼ģÏĢ":1872,"ĠÏĢÏģÎ¿Ïĥá½³Î¸Î·":1873,"Ġá¼ĢÎ½ÏĦÎ¹Î»á½µÏĪ":1874,"ĠÏĢÎ¿Î»Î»á½°":1875,"ĠÏĦÎ±á½»ÏĦÎ·Î½":1876,"ÏĢá½·ÏĥÏī":1877,"ĠÎ¼Î·Î´á½²":1878,"ÏĢÎµÎ¹ÏĦÎ±":1879,"Ġá¼ģÎ³á½·ÏīÎ½":1880,"ĵÏĤ":1881,"Îºá½±Î¶":1882,"ĠÏĢÎ¹ÏĥÏĦ":1883,"ÏīÎ¼ÎµÎ½":1884,"ĠÎ¼á½·Î±Î½":1885,"Î´ÏīÎ½":1886,"ĠÎ³á½·Î³Î½":1887,"ĠÎ´Î¹Î±Î¹":1888,"Ġá¼ĶÎ¸":1889,"ĠÎµá¼°Ïģ":1890,"ĠÏĩÏīÏģ":1891,"Ġá¼ĳÎ¾á¿ĨÏĤ":1892,"Ġá½ĢÏģÎ¸":1893,"ĠÏĦÎµÎ»ÎµÏħ":1894,"Ġá¼´Ïĥ":1895,"ĠÎ¾á½»":1896,"ĠÎ»Î±Î²":1897,"ĠÎ¼ÎµÎ³á½±Î»":1898,"ĠÎ¸ÎµÏģÎ¼":1899,"á½³ÏģÎ±":1900,"ĠÎ´Ïħ":1901,"ÏģÎ±ÏĢ":1902,"ĠÎ»á½·":1903,"ĠÎµá¼°Ïĥá½¶":1904,"Ġá¼ĢÏĢÎ±":1905,"ĠÏĢÎ±ÏĦ":1906,"ĠÎ»á½³Î³Î¿Î½ÏĦÎµÏĤ":1907,"Î¿á½»Î½":1908,"ĠÎµá¼°ÏĢá½¼Î½":1909,"ĠÎ³ÎµÎ³ÏģÎ±Î¼":1910,"ĠÏĢá½¹Î»Î¹Î½":1911,"ĠÏĢÎ»Îµá½·Î¿Î½":1912,"ĠÎ´Î±ÎºÏĦ":1913,"ĠÎ¶á¿·Î¿Î½":1914,"ĠÎ´Î·":1915,"Î´á½»Î»":1916,"ĠÎ´Î¹ÎºÎ±Î¹":1917,"á¿ĥÏĤ":1918,"Ġá¼ĶÏĩÎ¿Î½ÏĦÎ±":1919,"ĠÏĢÏģá½¹ÏĥÎ¸ÎµÎ½":1920,"Ġá¼±ÎµÏģ":1921,"Î¸á½³Î½ÏĦÎ±":1922,"ĠÎ´ÎµÎ¾Î¹":1923,"Î´Î¿á½º":1924,"á¼ĲÏĢá½¶":1925,"ĠÎ´Î¹ÎºÎ±ÏĥÏĦ":1926,"ĠÏĩÏģÎ·ÏĥÎ¼":1927,"ĠÎ´Î¹Î´á½±Ïĥ":1928,"ĠÏĢÎ¿ÏĦá½²":1929,"Î½á½µÎ¼":1930,"ÏĢÎ½":1931,"Î»Î¿Ïħ":1932,"ĠÎºá½·Î½":1933,"ÎºÎ¿":1934,"ĠÏĢÎ¿Ïģ":1935,"ĠÏĢÎ»á½³":1936,"Î¿á¿¦Î¼ÎµÎ½":1937,"ĠÎ³Ïģá½±ÏĨ":1938,"ĠÏĢÏģÎµÏĥ":1939,"á½¹Î½ÏĦÎ¿ÏĤ":1940,"Î¿á¿¦Î½ÏĦÎ¿ÏĤ":1941,"ĠÏĦá½¹ÏĢ":1942,"ĠÏĢÎµÏĢÎ¿Î¹":1943,"ĠÎ´á½·ÎºÎ±Î¹":1944,"ĠÏĦá½³ÏĦÎ±":1945,"Ġá¼ĪÎ¸Î·Î½Î±á½·ÏīÎ½":1946,"ĠÎ´Îµá½·ÎºÎ½Ïħ":1947,"ĠÏĢÏģÎµÏĥÎ²":1948,"ĠÎºÏħÏģá½·":1949,"Î·Î¼á½±ÏĦÏīÎ½":1950,"Î¿ÏħÏĥÎ±Î½":1951,"Ġá½ģÏģÎ¹":1952,"Ġá½ħÎ»Î¿Î½":1953,"á½¹Î½ÏĦÎ±":1954,"ĠÎ¿á½ĵÏĤ":1955,"ĠÏĢÎ±á¿ĸ":1956,"Îµá½·Î¿Ïħ":1957,"Ġá¼ĪÎ¸":1958,"Ġá¼ĳÎ±ÏħÏĦÎ¿á¿¦":1959,"ĠÎ¾á½»Î»":1960,"ÏħÎ³Ïĩá½±Î½":1961,"Ġá¼ĲÎ¾Î¿ÏħÏĥá½·Î±Î½":1962,"Ġá¼¹ÏĢÏĢÎ¿Îº":1963,"á½¹Î¼ÎµÎ¸Î±":1964,"ÏĥÎµÎ¹ÏĤ":1965,"Î¿Î½Î´á½»Î»":1966,"ÏĩÎ¿ÏĤ":1967,"Î¿á¿¦ÏĥÎ±":1968,"á¿ĸÎ¿Î¹":1969,"á½µÏĥÎ¹":1970,"Î¼á½³Î½Î·":1971,"Ġá¼ĶÏĩÎ¿ÏħÏĥÎ¹":1972,"á¾¶ÏĦÎ±Î¹":1973,"ĠÎ´Î¹Î±á½·ÏģÎµ":1974,"ĠÎµá¼´ÏĢÏī":1975,"Ġá½ĦÎ½ÏĦÎ¿ÏĤ":1976,"Î´ÎµÎ¹Î³Î¼Î±":1977,"ĠÎ£ÏīÎº":1978,"ĠÎ´Î¿ÎºÎµá¿ĸ":1979,"á½½Î½ÏħÎ¼Î±":1980,"ĠÎ´á½»Î½Î±Î¼Î¹Î½":1981,"Ġá½ħÎ»ÏīÏĤ":1982,"Ġá½ĳÏĢÎ¿Î³ÏģÎ±ÏĨ":1983,"Ġá¼ģÏģÎ¼á½¹":1984,"á½¡":1985,"ÎµÏĥÎ¹Î½":1986,"ĠÎºÎ±Ïģ":1987,"Ġá¼ĲÎ»":1988,"Î¸Îµá½·":1989,"Î´Î¿Ïħ":1990,"ĠÏĥÎ¿ÏĨ":1991,"ÏĦÎ¹ÏĤ":1992,"Ġá½ħÏĥÎ¿Î½":1993,"á½¹Î½Î±":1994,"ĠÎ¼ÎµÎ¸":1995,"ĠÎ½Îµ":1996,"Î¿á½·Î±ÏĤ":1997,"ĠÏĢÎ¿Î»Î»á½±ÎºÎ¹ÏĤ":1998,"Ġá¼ĢÎ¼ÏĨá½¹":1999,"ĠÏĨÎ¹Î»Î¿Ïĥ":2000,"ĠÎµá¼°Î´á½³Î½Î±Î¹":2001,"Ġá½ĳÏĢá½±ÏģÏĩÎµÎ¹":2002,"ĠÏĦÎµÏĩÎ½Î¹Îº":2003,"ĠÎ³á½³Î³Î¿Î½":2004,"Î¿á½»Î½ÏĦÏīÎ½":2005,"á½Ķ":2006,"Î½Î±Î½":2007,"á¼Ī":2008,"Î¹Î¿ÏĤ":2009,"Î³ÏīÎ³":2010,"ĠÎ¼á½·Î±":2011,"ĠÏĥÎ±Ïģ":2012,"Ġá¼ĲÏĢÎ¿á½·Î·":2013,"Ïģá½·Î½":2014,"ĠÎ±á¼µ":2015,"ĠÎºÎ¿Î¹Î½á½¸Î½":2016,"ĠÏĢÎ½Îµá½»":2017,"ÏĢÎ±Î¹":2018,"Î»á¿ĨÏĤ":2019,"Î·Î´":2020,"ĠÎ´á½½":2021,"ĠÏĦÎ¿á¿¦ÏĦÎ¿Î½":2022,"Î¾á½º":2023,"ĠÎ¸á½³":2024,"ĠÎ½Î¹Îº":2025,"Ġá½ĢÏģÎ³":2026,"Î¿Î¼á½³Î½Î·ÏĤ":2027,"á½³ÏĥÏĥÎ±":2028,"ĠÎºÎ±Î»Îµá¿ĸ":2029,"ĠÎ²Î±ÏĥÎ¹Î»":2030,"ĠÎ¼Î¿Î¹Ïĩ":2031,"ĠÎ¼á½³Î³Î±":2032,"ĠÎ¼Î±ÏģÏĦ":2033,"ÎĶ":2034,"Ġá¼ĺ":2035,"ÏģÎ¿Ïħ":2036,"Î·ÏĥÎ±Î½":2037,"á½·Îº":2038,"á½³ÏīÏĤ":2039,"ĠÎºÎ±ÏĦá½³":2040,"Î¸ÏħÎ¼":2041,"Ġá¼ĢÎ´á½»":2042,"Î´Îµá¿ĸ":2043,"ĠÏĦÎ¿á¿¦ÏĦ":2044,"ÏĦÎ¹Î½":2045,"Î¾á¿ĥ":2046,"Ġá½ħÏģÎ¿Î½":2047,"ÏĦÎ¿á½ºÏĤ":2048,"ĠÏĩÎ¿Ïģ":2049,"ĠÎ²á½±":2050,"ÏĦÎ¹Îºá½´":2051,"Ġá¼ĢÏĢÎ¿ÏĥÏĦ":2052,"Ġá¼ĲÎ³Î³":2053,"ĠÏĥÏħÎ¼Î²Î¿Ïħ":2054,"Ġá½ħÏģá¿³":2055,"Ġá¼ĳÎ½á½¸ÏĤ":2056,"ĠÏĦÎ¿Î¹Î¿á¿¦ÏĦÎ¿Î½":2057,"ĠÎĶÎ·Î¼Î¿ÏĥÎ¸á½³Î½Î·ÏĤ":2058,"Î±Î¶":2059,"ĠÏĦá½³ÏĥÏĥÎ±":2060,"ÏĢÏģá½¸ÏĤ":2061,"ÎºÎ¿ÏĤ":2062,"ÏīÏĢ":2063,"Î¿á¿¦ÏĦÎ±Î¹":2064,"á½µÏĤ":2065,"ĠÎ¿á¼µ":2066,"á½±ÏĥÎ±Î¹":2067,"ĠÎºÎ±ÏĦÎ±ÏĨ":2068,"Î¸ÎµÏĥÎ¹Î½":2069,"Ġá¼ĳÎ±ÏħÏĦá½¸Î½":2070,"ĠÎ¼á½³ÏģÎ·":2071,"Ġá½łÎ½":2072,"ĠÎ±á¼°ÏĦá½·Î±Î½":2073,"ĠÎ²ÏģÎ±Ïĩá½·Î¿Î½":2074,"ĠÏĢÎ±Ïģá½±Î´ÎµÎ¹Î³Î¼Î±":2075,"ĠÎ´Î¹Î±ÏģÎ¸Ïģ":2076,"á¼¶":2077,"ĠÎºÎ¿":2078,"ĠÏĢÎ»Î±":2079,"á½³Îº":2080,"Î¿Î½ÏĦÎ¿":2081,"ĠÎ¼Îµá½·":2082,"ĠÎ´Î¹Î´Î±":2083,"Ġá¼ĲÏĢÎ±Î½":2084,"ĠÎ±á½ĲÏĦá½´":2085,"Ġá¼ĦÏĦÎ¿":2086,"Ġá¼ĢÏĢÎ¿Ïģ":2087,"ĠÏĢÎ±ÏĦÏģ":2088,"ĠÏĥÏħÎ³Î³":2089,"á¿ĨÎ»":2090,"Ġá¼ĲÏĢÎ¹Î´á½³Ïĩ":2091,"Ġá¼ħÏĢÎ±Î½":2092,"á¼ĶÏĥÏĦÎ¹":2093,"Ġá¼ĲÎ¼ÏĢá½·":2094,"Î¿á½Ĺ":2095,"ĠÎ»Î¿Î³Î¹Îº":2096,"ĠÎ²Î¿á½»Î»ÎµÏĦÎ±Î¹":2097,"Îºá½¸ÏĤ":2098,"Î¸Î¿ÏħÏĤ":2099,"Î¾ÎµÎ¹ÏĤ":2100,"ĠÎ±á½ĲÏĦá½¹Î½":2101,"ĠÎµá¼°Ïĥá½¶Î½":2102,"á½½ÏĥÎµÏīÏĤ":2103,"Ġá¼ĢÎ½Î¸":2104,"Ġá¼ĦÏģÏĩ":2105,"ĠÏĥÏħÎ½Î±":2106,"ĠÎ¸Î±Î»":2107,"Î¶ÏīÎ½":2108,"ĠÏĢÎ±Ïģá½³Ïĩ":2109,"á½±ÏĥÎ±":2110,"ÏĦÎµÏģÎ¿Î¹":2111,"ÏĦÎ¹ÎºÎ¿á¿¦":2112,"Ġá¼ĦÎ»Î»Î±":2113,"ĠÎµá½ĲÎ±Î³Î³ÎµÎ»":2114,"Ġá¾Ĺ":2115,"ĠÏĥÏĨÎ¿Î½Î´á½»Î»":2116,"á½³ÏĥÏĦÎ·Îº":2117,"·ÏĤ":2118,"ĠÎºÏģ":2119,"Ġá½¤":2120,"Ġá¼ĢÏģÎµ":2121,"Î²Î¿Ïħ":2122,"Ġá½ģÏĢ":2123,"ÎºÎ±ÏĤ":2124,"Î¿Î»á½¹Î³":2125,"Ġá¼°Ïĥ":2126,"Î´Î¹á½¸":2127,"ĠÎµá¼¶Î´Î¿Î½":2128,"Î¸á½³Î½ÏĦÏīÎ½":2129,"ĠÏĢÎµÏĢÎ¿Î½":2130,"ĠÎ½á½¹Î¼Î¿ÏĤ":2131,"Ġá¼ĢÎ»Î»á½µÎ»ÏīÎ½":2132,"Ġá¼ĲÎ³á½³Î½ÎµÏĦÎ¿":2133,"á½¡ÏĤ":2134,"ÏģÎ½":2135,"ÎºÎ¹":2136,"ĠÎºÎ±ÏĦÎ¿":2137,"ÏīÏģÎ¹Ïĥ":2138,"á½¹ÏĦÎµÏģÎ¿Î½":2139,"ÏĩÎµ":2140,"Î±Î¹Î¼Î¿Î½":2141,"Î¼á½³Î½Î·ÏĤ":2142,"Î»Î·ÏĨ":2143,"ĠÎ´Î¹Î±Îº":2144,"ĠÎĺÎµá½¸ÏĤ":2145,"á½ħÏĦÎ¹":2146,"ĠÏĦá½³Î»Î¿ÏħÏĤ":2147,"ĠÏĨÏħÏĥÎ¹Îº":2148,"á½µÏĥÎ±ÏĥÎ¸Î±Î¹":2149,"ĠÎ³ÏħÎ½Î±Î¹":2150,"ĠÏĨÎ¹Î»Î¿ÏĥÎ¿ÏĨ":2151,"á½ĳ":2152,"Î½á¿¶Î½":2153,"Î¹Î¿Î¹":2154,"ĠÏĦÏħÎ³Ïĩá½±Î½":2155,"ÏħÏĢ":2156,"ĠÏĢÎµá½·":2157,"ĠÎ´Ïģá½±":2158,"ÏĦÎ±Î¼":2159,"á½¹ÏĦÏīÎ½":2160,"ÏĨá½³Ïģ":2161,"Î¿ÏħÎ¼á½³Î½ÏīÎ½":2162,"Ġá¼ĢÎ½Î´Ïģ":2163,"ĠÏĩÏīÏģá½·":2164,"ĠÎ¸Î±Î½":2165,"ÏĦá½³ÏģÎ±ÏĤ":2166,"Ġá¼°Î´Î¿á½º":2167,"Î¿á¿¦Î½ÏĦÎ±ÏĤ":2168,"Î¿Î¼á½³Î½Î·Î½":2169,"ĠÏĢÎ¿Î»ÎµÎ¼":2170,"ĠÎ¿á½ĲÏĥá½·Î±Î¹":2171,"ĠÏĨÎ±Î¼ÎµÎ½":2172,"ĠÎºÎµÏĨÎ±Î»á½´Î½":2173,"Ġá¿¥Î·ÏĦÎ¿á¿¦":2174,"ĠÎ¶á½µÏĦÎ·ÏĥÎ¹ÏĤ":2175,"ĠÎĽÎ±Îº":2176,"ÏīÎ½á½»Î¼ÏīÏĤ":2177,"ĠÏĢÎ¿Î½Î·Ïģ":2178,"ĠÎ´Î±ÎºÏĦá½»Î»":2179,"Ġá½ģÏģÎ¹ÏĥÎ¼":2180,"Î½Î¿":2181,"Ïĥá½±":2182,"Î¿ÏħÏģÎ³":2183,"á½½ÏĤ":2184,"Ġá¼ĢÎ½ÏĦÎµ":2185,"Ġá¼ĲÏĢÎ¹ÏĦÎ·":2186,"ĠÏĥÏĦá½·Ïĩ":2187,"Î¸Î·ÏĥÎ±Î½":2188,"Ġá¿¥á½±Ïĩ":2189,"ĠÎ¶Î·":2190,"Ġá¼ķÎ¾Î¹ÏĤ":2191,"Ġá¼¤Îº":2192,"ĠÎºÎ±Î»á¿¶ÏĤ":2193,"ĠÏĢÎ±Î½ÏĦá½¸ÏĤ":2194,"Ġá¼ĳÏĦá½³ÏģÎ¿Ïħ":2195,"ĠÏĨÎ±Î½ÎµÏģ":2196,"ĠÎ±á¼°ÏĥÎ¸Î·ÏĦ":2197,"ĠÏĦÏħÏģÎ±Î½":2198,"ĠÎºÎµÎ»Îµá½»":2199,"ĠÏĪÎµÏħÎ´":2200,"ĠÏĢÎµÏĢÎ¿Î½Î¸":2201,"Îºá¿¶Î½":2202,"ĠÏĢá¿¦":2203,"Ġá¼ĢÏĥÏĦ":2204,"ĠÎ³ÏħÎ½Î±":2205,"Î¾Î±ÏĤ":2206,"Î²Î±Î»":2207,"Ġá½ħÏĢÎ¿Ïħ":2208,"ĠÏĨá½¹Î½":2209,"Îµá½·Î¼ÎµÎ½Î¿Î½":2210,"Ġá¼ĲÎ¾á½³":2211,"ĠÎµá¼´ÏģÎ·":2212,"ĠÏĢÎ¿ÏĦÎµ":2213,"ĠÏĨÎ·Ïĥá½·":2214,"ĠÎłÎ±":2215,"ĠÏĢá½±Î½ÏĦÎµÏĤ":2216,"á¼ĲÎº":2217,"ĠÏĦÎ¹Î½Î¿ÏĤ":2218,"ĠÏĢÎ»Îµá¿ĸ":2219,"ĠÎ±á½ĸ":2220,"ĠÏĦÏģÎµá¿ĸÏĤ":2221,"ĠÏĨÎ±á½·Î½ÎµÏĦÎ±Î¹":2222,"ĠÎ³Î½á½½Î¼":2223,"ĠÏĦá½³Î»Î¿ÏĤ":2224,"ĠÎ²Î¹Î²Î»á½·Î¿Î½":2225,"ÏĦÏĦÎµÏĦÎ±Î¹":2226,"ĠÎ³ÏħÎ½Î±á¿ĸ":2227,"ĠÎĵ":2228,"á½·ÏĥÏĦ":2229,"Ġá¼ĲÎ½Î±Î½":2230,"Ġá¼ĲÎ½á½½ÏĢ":2231,"Ġá¼ĢÎ½Ïī":2232,"Ġá¼ĢÏĢÎ¿Î»":2233,"Îµá½·ÏīÎ½":2234,"Î¹ÎºÎ¿á¿¦":2235,"Ġá½ĢÎ»Î¹":2236,"Ġá¼ĲÏĢÎ¹Ïĩ":2237,"Ġá¼ĪÏĦ":2238,"á½±Î³ÎµÎ¹":2239,"Î¿á½·á¾³":2240,"Î´á½·Îº":2241,"ĠÏĦá½¹Î´Îµ":2242,"ĠÏĦá½¹ÏĢÎ¿Î½":2243,"ĠÎ³á½³Î½Î·ÏĦÎ±Î¹":2244,"Ġá¼ĲÎ½Î±Î½ÏĦá½·ÏīÎ½":2245,"ĠÏĢÎµÏĢÏģÎ±Î³":2246,"ĠÎºÎ±ÏĦÎ·Î³Î¿Ïģá½·Î±ÏĤ":2247,"ĠÎ´Î¹á½±ÏĨÎ¿Ïģ":2248,"ĠÏĥÏħÎ¼ÏĨá½³Ïģ":2249,"ĠÏĢÎ»ÎµÏħÏģ":2250,"Ġá½ħÏĢÏīÏĤ":2251,"ĠÎĿ":2252,"ĠÏĦÎ¿á¿ĸÏĥÎ¹":2253,"Î¼Î·":2254,"ĠÎºÏī":2255,"Ġá¼ĲÎ»á½³Î³":2256,"ĠÎ´Î·Î¼Î¿":2257,"ÏĦÎ±á¿ĸÏĤ":2258,"Ġá¼ĶÎ´ÎµÎ¹":2259,"ĠÎ»á½±Î²":2260,"Ġá½ĢÏĢá½·ÏĥÏī":2261,"Î»Î±Ïĥ":2262,"ĠÎ¶á¿´":2263,"ĠÏĢÎ»á½´Î½":2264,"ĠÎĺÎµá¿·":2265,"ĠÎºÎµÏĨÎ±Î»á½´":2266,"Ġá¼ĲÏĩÎ¸Ïģ":2267,"ĠÏĦÏģá½·ÏĦÎ¿Î½":2268,"Ġá¼ĪÎ¸Î·Î½Î±á½·Î¿Î¹ÏĤ":2269,"ĠÏĢá½±Î¸Î¿ÏĤ":2270,"Ġá½ĢÎ»á½·Î³Î¿Î½":2271,"Î¿ÏģÎ¹á¿¶Î½":2272,"Ġá¼ĢÎ½Î±Î³ÎºÎ±á¿ĸÎ¿Î½":2273,"ĠÎ³á½·Î½Î¿Î½ÏĦÎ±Î¹":2274,"á½¶Î½":2275,"ĠÎ´Î·Î¼":2276,"ÏĥÎ¹Î¿Î½":2277,"ĠÎ³Î»":2278,"ÏĦÎµÏħ":2279,"Ġá¼ĦÎ¾Î¹":2280,"ĠÏĥÏĦá½³Ïģ":2281,"ĠÎµá¼´ÏĥÏī":2282,"Î´Îµá½»":2283,"Î¿Î¼á½³Î½Î¿Î¹ÏĤ":2284,"Ġá¼¡Î¼á½³Ïģ":2285,"Ġá¼¥ÏĦÎ¹ÏĤ":2286,"ĠÏĢá½±Ïĥá¿ĥ":2287,"Ġá¼§ÏĤ":2288,"ĠÏĢÏģÎ¿Ïĥá½½ÏĢÏīÎ½":2289,"ĠÏĦÎ¿ÏħÏĦá½³ÏĥÏĦÎ¹Î½":2290,"ĠÎºá¼ĢÎ½":2291,"á½½Î½ÏħÎ¼Î¿Î½":2292,"Ġá¿¥á½µÏĦÎ¿":2293,"ĠÎĳá¼°":2294,"Ġá¼ķÎºÎ±ÏĥÏĦÎ¿Î½":2295,"ĠÎ¼á½¹ÏģÎ¹Î±":2296,"ĠÎºÏħÏģá½·ÏīÏĤ":2297,"Ġá¼ĲÎ½á½½ÏĢÎ¹Î¿Î½":2298,"¢Î½":2299,"ĠÎºÎ»á½³":2300,"Î·Î»Î±":2301,"Î¿Î¹Î±":2302,"ĠÏĥÏĢ":2303,"ĠÎ±á½ĲÏĦá½°ÏĤ":2304,"ĠÎ¿á½ĲÏĥÎ¹":2305,"ÏĦÎµá½»":2306,"ĠÎ¸ÏħÎ¼":2307,"Î¼Î²Î±Î½":2308,"Î³Î½Ïī":2309,"ĠÎ¼ÎµÏĦÎ±Î¾á½º":2310,"ĠÏĥÏħÎ¼Î²Î±":2311,"Î¸á½³Î½ÏĦÎ¿ÏĤ":2312,"ĠÏĩÏģá½¹Î½Î¿Î½":2313,"Ġá¼ĢÏĢá½¹Î´ÎµÎ¹":2314,"ĠÎ¿á½ĲÏģÎ±Î½Î¿á¿¦":2315,"Ġá¼ĶÎ¾ÏīÎ¸ÎµÎ½":2316,"ÏĨÎ¸Î±Î»":2317,"Ġá¼ĢÎºÏģÎ¹Î²á¿¶ÏĤ":2318,"Ġá¼ĢÎ½ÏĦÎ¹ÏĥÏĦÏģá½³ÏĨ":2319,"ĠÎĽÎ±ÎºÎµÎ´":2320,"Î¹Î¶":2321,"Î»ÏĨ":2322,"ĠÎºÎ»":2323,"Ġá¼ĲÎ´á½¹":2324,"ĠÎ¼á½»":2325,"ÏĥÏĦÏģÎ¿ÏĨ":2326,"á½µÏģÎ¹Î¿Î½":2327,"Ġá¼ĲÏĢÎµ":2328,"ÏģÎ±ÏĪ":2329,"ĠÏĨá½·":2330,"á½½ÏĥÎº":2331,"Ġá¼ĢÎ½Î±Î¹":2332,"ĠÏĩÎ¹":2333,"Î¹Îºá½°":2334,"Î¿Î»Î¿Ïħ":2335,"ĠÎ²Î¿":2336,"Ġá¼ĲÏĥÏĦá½·Î½":2337,"ÏĦá½³ÏģÎ±Î½":2338,"ÏĦá½±Î»Î·Îº":2339,"ĠÏĦá½¹ÏĢÎ¿ÏĤ":2340,"Ġá¼±ÎºÎ±Î½":2341,"Ġá¼ĪÎ¸Î·Î½Î±á¿ĸÎ¿Î¹":2342,"Ġá¼ĦÎ½Î¸ÏģÏīÏĢÎ¿Î½":2343,"ĠÏĢá¾¶ÏĥÎ±Î½":2344,"ĠÏĢÎ¿ÏĥÎ¿á¿¦":2345,"Î¿ÏģÎ¹ÏĥÎ¼":2346,"ĠÎłÎµÏģá½¶":2347,"Ġá¼ĢÎ¼ÏĨÎ¿ÏĦá½³ÏģÏīÎ½":2348,"ĠÎºÎ±ÏĦÎ¿ÏģÎ¸":2349,"ĠÏĢá¿¦Ïģ":2350,"ÏĦÎ¿Î¹ÏĤ":2351,"Îµá¼¶":2352,"ÏģÏĦÎ¿Î½":2353,"Î¼á½·Î±":2354,"ĠÏĢÎµÎ¹":2355,"á½³ÏģÎ±ÏĤ":2356,"Î´ÎµÎ½":2357,"ĠÎ³Ïģá½±ÏĪ":2358,"ĠÏĢÏģá½±":2359,"ÎµÏģÎ±":2360,"Ġá½ģÏģ":2361,"ĠÏĨÏī":2362,"Ġá¼ĢÎ½ÏĦÎ¹Îº":2363,"á½¹Î½ÏĦÎµÏĤ":2364,"ĠÏĢÏģÎ¿ÎµÎ¹":2365,"ĠÏĢÏģÎ¿ÏĥÎµ":2366,"Ġá½ĳÏĢá½¹":2367,"Ġá½ĢÏĨÎ¸Î±Î»":2368,"ĠÏĢÎ±ÏģÎµ":2369,"Ġá¼ĶÏĩÎ¿Î½":2370,"ÏĥÎ±ÏĥÎ¸Î±Î¹":2371,"ÏĦÎ¹Îºá½¹Î½":2372,"ĠÎ¿á½ĲÎ´á½³":2373,"Ġá½ĦÏĪ":2374,"Ġá¼¤Î½":2375,"ĠÏĢÎ±ÏģÎ±Î´Îµá½·":2376,"Î»Î¿Î½á½¹ÏĦÎ¹":2377,"ĠÏĨá½»ÏĥÎµÏīÏĤ":2378,"ĠÎ¾ÏħÎ½":2379,"Ġá¼±ÏĢÏĢ":2380,"á½¹ÏģÎ¿Ïħ":2381,"ĠÏĦÎ±á½»ÏĦÎ·ÏĤ":2382,"Ġá¼ĢÏģÎ½":2383,"ĠÎ´á¿ĨÎ»Î¿Î½":2384,"ĠÏĢÎ»Î·Î³":2385,"ĠÏĩá½±ÏģÎ¹Î½":2386,"á½µÎºÎ±Î¼ÎµÎ½":2387,"ĠÎ´Î·Î»Î¿Î½á½¹ÏĦÎ¹":2388,"ÏĦá¿ĨÏĤ":2389,"ÎµÏĥÎ¹":2390,"ÏĢÎµÏĦÎ±Î¹":2391,"ÏĢÏģÎ¿":2392,"Î»á¿¶Î½":2393,"ÏīÎ¼Î±":2394,"Ġá½¢Î½":2395,"ÏĩÎ¿á¿¦":2396,"ÏĩÏīÏģ":2397,"ÏĥÏĦá½±ÏĥÎµÏīÏĤ":2398,"Î±Î½ÏĦÎ±":2399,"Îµá½·Î±":2400,"Ġá½ĳÎ¼":2401,"Ġá½ĳÏĪ":2402,"ĠÏĦÎ¿Ïĥ":2403,"ĠÎ¸Ïħ":2404,"Ġá½ĢÏĨ":2405,"ĠÎ´Î¹Î±Î²á½±Î»Î»":2406,"Ġá¼ĲÎ¾Î·Î³":2407,"ĠÏĢÎ¿ÏĦÎ±Î¼":2408,"ĠÎ¿á½ĲÎºá½³ÏĦÎ¹":2409,"Ġá¼¦ÏĥÎ±Î½":2410,"Î´Î¿Î¾":2411,"á½³ÏĥÏĦÎµÏģÎ¿Î½":2412,"ĠÏĥÎ·Î¼Îµá¿ĸÎ¿Î½":2413,"ĠÎ¼Ïħá¿¶Î½":2414,"Ġá½ĳÏĢÎ¿ÎºÎµÎ¹Î¼á½³Î½Î¿Ïħ":2415,"ĠÏĥá½½Î¼Î±ÏĦÎ¿ÏĤ":2416,"ĠÎ¿á½ĲÎ´Îµá½¶ÏĤ":2417,"ĠÎ¸Î±Î½á½±":2418,"ĠÏĦÏģÎ¿ÏĢ":2419,"Î»Î¿ÏħÏĤ":2420,"Î¼Î±Î¹":2421,"Î¼á½·Î±Î½":2422,"ĠÎºÎ½á½µÎ¼":2423,"ÏħÎ¸":2424,"ĠÏĢÎµÏĨ":2425,"á½·ÏīÏĤ":2426,"ĠÎºÎ±Î¹Î½":2427,"Ġá¼ĲÏĥ":2428,"Ġá¼ĲÎ»á½±":2429,"ÏĦÎ±ÏĥÎ¹ÏĤ":2430,"Î¿ÏħÎ¼á½³Î½Î¿Ïħ":2431,"ÏĥÏĦÎ¿Î»":2432,"ĠÎ±á½ĲÏĦá½¹":2433,"ĠÏĨÎ¿Î²":2434,"ĠÎ±á¼·":2435,"Ġá½ĢÏĢ":2436,"á½±ÏĥÎµÎ¹ÏĤ":2437,"á¾¶ÏĥÎ¸Î±Î¹":2438,"ĠÎ¿á½ĸÏĥÎ±":2439,"Ġá¼¡Î¼Îµá¿ĸÏĤ":2440,"ĠÏĦÎ¹Î½Î¹":2441,"ĠÏĥÏĩá¿ĨÎ¼Î±":2442,"ĠÎ»ÎµÏħÎºá½¸Î½":2443,"Ġá¼°Î±ÏĦ":2444,"ĠÎ¶Ïīá¿ĨÏĤ":2445,"ĠÏĢÎ»á½³Î¿Î½":2446,"Ġá¼ĢÎ½ÏĦÎµÎ³":2447,"ĹÏĦÎ±Î¹":2448,"ĠÎºÏīÎ¼":2449,"á½·Î¿":2450,"á½·Î±Î¹ÏĤ":2451,"ÏĨá½»":2452,"ĠÎµá½ĲÏĦ":2453,"á¿ĸÎ¿ÏĤ":2454,"Î²ÎµÎ²":2455,"á½´Î»":2456,"Ïģá½·ÏĥÎº":2457,"á½±Î½Î½":2458,"Ġá¼ĲÏĥÏĦá½·":2459,"ĠÎ½ÎµÎº":2460,"ĠÎ»á½³Î³Ïī":2461,"ĠÎ»á½³Î³Î¿Î½ÏĦÎ¿ÏĤ":2462,"ĠÏĢÎ¿Î¹á¿ĨÏĥÎ±Î¹":2463,"Î´ÎµÎºÎ±":2464,"ÎµÎ»Î¸":2465,"ÏĦÏīÏģ":2466,"ĠÎ»á½¹Î³Î¿ÏħÏĤ":2467,"ÏĥÏĩá½±":2468,"ĠÏĢÎ¿Î»Î»á¿¶Î½":2469,"ĠÎ³ÎµÎ½Î¹Îº":2470,"Ġá¼¥Î»Î¹":2471,"ĠÏĦÎ±á½»ÏĦá¿ĥ":2472,"ĠÎ½Î¿Î·ÏĦ":2473,"á¼ĲÏĢÎµÎ¹Î´á½´":2474,"Ġá¼ĳÎ½á½¶":2475,"á½µÎ³Î±Î³":2476,"ĠÏĦÎ¿Î¹Î¿á½»ÏĦÏīÎ½":2477,"ĠÎ´ÏħÎ½á½±Î¼ÎµÎ¹":2478,"ĠÏĥá½ºÎ½":2479,"Ġá¼ĢÎ¼ÏĨÎ¹ÏĥÎ²á½µÏĦÎ·ÏĥÎ¹Î½":2480,"ĠÎ¾á½»Î»Î¿Î½":2481,"ĠÏĦá½¹ÏĢá¿³":2482,"ĠÎ¸Î±Î»á½±Ïĥ":2483,"ĠÎ±á¼·Î¼Î±":2484,"ÏĦá¿Ĩ":2485,"ĠÏĦÏģÎ¿ÏĨ":2486,"Î¼ÏīÏĤ":2487,"Î¸ÏģÎ±":2488,"Î¸á¿ĩ":2489,"Ġá¼ĢÏĦÎµÎ»":2490,"Î´ÏģÎ±":2491,"Î´Î¿ÏħÏĤ":2492,"Î´ÎµÏħ":2493,"ĠÎµá¼·ÏĤ":2494,"Î¼Î±ÏĦá½·":2495,"ĠÎ¸á½³Î»":2496,"ĠÎ²Î»á½±":2497,"ĠÎ½á½³":2498,"ÏĦÎ¹Îºá½°":2499,"Ġá¼ĢÏĢÎ¿Î´Îµá½·":2500,"Ġá¼ĢÎºÎ¿á½»":2501,"Ġá¼ĢÏģÏĩá½´Î½":2502,"Î¸á½³ÏĥÎµÏīÏĤ":2503,"ĠÎ¿á½ĲÏģÎ±Î½á¿·":2504,"ĠÎ´ÏħÎ½á½±":2505,"Ġá¼ĢÎ³Î³á½³Î»ÏīÎ½":2506,"ĠÎ¼ÎµÏģá¿¶Î½":2507,"ĠÎ´á½»Î½Î±Î¼Î¹ÏĤ":2508,"Ġá¼ĶÎ»ÎµÎ³ÎµÎ½":2509,"ĠÎ³ÏģÎ±Î¼Î¼Î±ÏĦÎ¹Îº":2510,"ĠÎ½á½¹Î¼Î¿Î½":2511,"Î»Î¿Îº":2512,"ĠÎºÎ¿Ïģ":2513,"Ġá¼ĢÏĥÎ¸ÎµÎ½":2514,"ÏĩÎ±Î½":2515,"ĠÎ´Î¹ÏīÏģÎ¹Ïĥ":2516,"Ġá¼ĶÏģÏĩ":2517,"ĠÎ»ÎµÏĢ":2518,"á½½ÏĦÎµÏģÎ¿Î½":2519,"á¿¶ÏĥÎ±Î¹":2520,"ĠÏĥÏĦá½±":2521,"ĠÏĥÏĦá½¹":2522,"ĠÏĩÏģá½½":2523,"Î´Î¹Î±":2524,"ĠÎļÎ±":2525,"ÏĥÏĦÎ±ÏĥÎ¹Î½":2526,"Ġá¼ĢÏĢÎ¿Ïģá½·":2527,"ĠÏĥÎºá½³":2528,"Î´Î·Î»Î¿Î½":2529,"ĠÎ±á½Ķ":2530,"ĠÎ¼ÎµÏĦÎ±ÏĨÎ¿Ïģ":2531,"ĠÎºÏģá½·ÏĥÎ¹Î½":2532,"ĠÎºÎ±Îºá¿¶ÏĤ":2533,"ĠÏĩÏģá½¹Î½Î¿Ïħ":2534,"ĠÏĢá½¹Î»ÎµÎ¹":2535,"Ġá¼°Î±ÏĦÏģ":2536,"á½¹Î´ÏģÎ±":2537,"ĠÏĢá½³Î½ÏĦÎµ":2538,"ĠÎ¼ÎµÏĦá½±Î»Î·ÏĪÎ¹ÏĤ":2539,"ĠÏĢÏģÎ¿ÏĨá½µÏĦÎ·ÏĤ":2540,"ĠÏĦÎµÎ»ÎµÏħÏĦÎ±":2541,"Ġá¼ĢÎ´á½»Î½Î±ÏĦÎ¿Î½":2542,"ĠÎ²ÏģÎ±Ïĩá½·Î¿Î½Î¿ÏĤ":2543,"Îµá¼´":2544,"ĠÎ´á½³Ïģ":2545,"á½±ÏĢÎµÏģ":2546,"Î¸á¿¶Î½":2547,"Ġá¼ĢÎ´":2548,"Îµá½·á¿³":2549,"á¿ĨÏĦÎ±Î¹":2550,"á¿¦ÏĥÎ±Î¹":2551,"ĠÎ¸á½»":2552,"ĠÎ»á½³Î³Î¿Î½ÏĦÎ±Î¹":2553,"á½µÏĥÎ¿Î½ÏĦÎ±Î¹":2554,"Ïĥá½·ÏīÎ½":2555,"ĠÏĩÏģá½µÏĥÎ¹":2556,"ÏģÎ¿á½¶":2557,"ĠÎ±á¼°á¿¶Î½":2558,"ĠÎ±á¼°Î½á½·":2559,"Î»á½·Î±ÏĤ":2560,"ĠÎºÎ±Î»Îµá¿ĸÏĦÎ±Î¹":2561,"Ïģá½³ÏĥÎµÏīÏĤ":2562,"ĠÎ´ÎµÏĥÎ¼":2563,"ÎºÎµÎ¹ÏĦÎ±Î¹":2564,"ĠÎ³Î½á½±":2565,"Ġá¼¸Ïĥ":2566,"Î¿á½ĲÎ´":2567,"ĠÎ¼Î¹ÎºÏģá½¸Î½":2568,"Ġá¼ĢÏĥá½»":2569,"ĠÎ½Î±Ïħ":2570,"ĠÎ¼á½³ÏĥÎ¿Î½":2571,"Ġá¼ģÏĢÎ»á¿¶ÏĤ":2572,"ĠÎ´ÎµÎ¹ÎºÎ½":2573,"á¼ĢÏĢá½¸":2574,"ĠÏĢÎ±ÏĦá½´Ïģ":2575,"ÏĥÎ¿Î¹":2576,"ÏĥÎºÎ±":2577,"Î»á½¹Î³":2578,"Ġá¼ĲÎ´":2579,"Ġá¼ĲÎ¼Î½":2580,"ÏĩÏīÎ½":2581,"ĠÏĢÏģá½¶Î½":2582,"ĠÏĨÏģÎ¿Î½":2583,"ÏĦÎ·ÏĥÎ¹Î½":2584,"ĠÏĦÎµÎ»":2585,"á½±ÏĥÎ±ÏĤ":2586,"ĠÏĢÎ¿Î¹Î·ÏĦ":2587,"ĠÏĩÏģÏħÏĥ":2588,"ĠÎºÎ±ÏĦÎ±Î³":2589,"ĠÎµá¼¶ÏĦÎ±":2590,"á¼ĲÎ³":2591,"ĠÏĢÎµÏģÎ¹ÏĦÏĦ":2592,"Ġá¼ħÏĢÎµÏģ":2593,"Ġá¼ħÏĢÎ±":2594,"ĠÎ¿á½ĲÏĥá½·á¾³":2595,"ĠÎ´Î¹Î±ÏĨÎ¿ÏģÎ±":2596,"Ġá½ĥÏĤ":2597,"Ġá¼ĶÎ½Î¸Î±":2598,"ĠÎµá½ĸ":2599,"ĠÏĥÏĨÏģÎ±Î³":2600,"ĠÏĥÏĨá½¹Î´ÏģÎ±":2601,"ĠÏĢá½±ÏĥÎ·ÏĤ":2602,"ĠÏĨÏħÎ»á½±":2603,"Ġá½ĢÎ½á½¹Î¼Î±ÏĦÎ±":2604,"Ġá½ĢÎ½á½¹Î¼Î±ÏĦÎ¿ÏĤ":2605,"ĠÏĦá½³ÏĩÎ½Î·Î½":2606,"Ġá¼ĲÎ¸Î½á¿¶Î½":2607,"Ġá¼ģÎ¼Î±ÏģÏĦá½·":2608,"Ġá½ħÎ¼Î¿Î¹Î¿Î½":2609,"Ġá¼ĲÏĢÎ¹ÏĥÏĦá½µÎ¼Î·":2610,"ĠÎ´ÏīÏģÎµ":2611,"Ġá¼ĢÎºÎ±ÏĦá½±Î»Î·Îº":2612,"Î±á¿ĸÏĤ":2613,"Î¿ÏģÎ¹Îº":2614,"ĠÏĦá½·Î½":2615,"Î¼ÏīÎ½":2616,"Ġá¼ĲÎ»Î±":2617,"ÏīÏĦá½±":2618,"ĠÎ¼á½±Ïģ":2619,"ÏĩÏģ":2620,"ÎµÎ¹Î±":2621,"Î¿Î¹Îº":2622,"á½µÎ¼Î±ÏĦÎ¹":2623,"ĠÏĥá½±Ïģ":2624,"ÏĦÎ±Î¹ÏĤ":2625,"Ïģá½·ÏĥÏĦ":2626,"Î¿á¿ĸÏĥÎ¹Î½":2627,"ĠÎ²ÏħÏģ":2628,"ĠÎ²Î±Ïģ":2629,"ĠÎ¼ÎµÏĦÎµ":2630,"ĠÎµá¼´ÏĦÎµ":2631,"Îµá½»ÎµÎ¹Î½":2632,"ÏģÎ¿á½ºÏĤ":2633,"ÎµÎ»Îµá¿ĸÎ½":2634,"ĠÏĦÎ¿á½»ÏĦÎ¿Î¹":2635,"ĠÎºÎ±Î¸á½±ÏĢÎµÏģ":2636,"ĠÏĢÎµÏģÎ¹á½³Ïĩ":2637,"ĠÎ¿á½ĶÏĥÎ·ÏĤ":2638,"ÏģÎ¼Î·Î½":2639,"ÏĢÏĦÎµÎ¹Î½":2640,"ĠÏĨÏīÎ½á¿¶Î½":2641,"Ġá¼ĢÏĢá½¹ÏĥÏĦÎ¿Î»":2642,"ĠÏĪÏħÏĩá¿ĨÏĤ":2643,"Îµá¿¦Î¼Î±":2644,"ĠÎ´Î¹Î±ÏĨÎ¿Ïģá½°Î½":2645,"ĠÎºá¼ĢÎº":2646,"ĠÎºÎ±á½·ÏĦÎ¿Î¹":2647,"ĠÏĩÏīÏģá½¶ÏĤ":2648,"Ġá¼¹ÏĢÏĢÎ¿ÎºÏģá½±ÏĦÎ·ÏĤ":2649,"ÏĦÏģÎ±":2650,"Ïģá½°":2651,"ĠÎºá½³Ïĩ":2652,"ĠÎºÎ±Î½":2653,"Ġá¼ĢÎ´á½·Îº":2654,"ĠÎ¼Î¿Ïĩ":2655,"Î´á½¹Î½":2656,"ÏĥÏĦÎµÏģÎ¿Î½":2657,"ĠÎ³Î¿á¿¦Î½":2658,"ĠÏĥÏĢÎ¿Ïħ":2659,"Ġá¼ĶÏĨ":2660,"Ġá¼ĲÏĢÎ¹Îº":2661,"ĠÏĨÏħÎ³":2662,"á¿¶Î½ÏĦÎ±Î¹":2663,"á½½ÏĥÎµÎ¹":2664,"ĠÏĢÏģÎ¿ÏĥÎ¸":2665,"Î¹Îºá½¹Î½":2666,"ĠÎ²á½·":2667,"á½·Î½Î¿Ïħ":2668,"á½±ÏĥÎ±Î½":2669,"Ġá¼ĶÏĩÎ¿ÏħÏĥÎ¹Î½":2670,"ĠÏĦÎ±Ïĩ":2671,"Î¿á½»Î¼ÎµÎ½Î±":2672,"ĠÎ´Î¹Î±ÏĢ":2673,"Ġá¼ĲÏĢÎ¹Î³":2674,"ÏĥÎµÎ²":2675,"ĠÎºÎ±ÏĦÎ±Î»Î·Îº":2676,"Î¿á¿¦Î½Î±Î¹":2677,"Î´Î¹Î¿Î½":2678,"ĠÎ´á½»Î½Î±Î½":2679,"Ġá¼ĲÎ³á½¼":2680,"Ġá¼ħÎ³":2681,"Ġá¼ĢÎ½Î¸Ïģá½½ÏĢÎ¿ÏħÏĤ":2682,"ĠÎ´á½·Îº":2683,"Ġá½ħÏģÎ¿Ïħ":2684,"ÏĥÏĦá½³Î¿Î½":2685,"Ġá¼ĳÏĦá½³ÏģÏīÎ½":2686,"ĠÎ±á¼°ÏĦá½·Î±":2687,"ĠÏĢá¾¶ÏĥÎ¹":2688,"ĠÎ¸á½±Î½Î±ÏĦÎ¿Î½":2689,"Î¿Ïĥá½»Î½":2690,"Ġá¼ĲÎ¼Î²Î¿Î»":2691,"ĠÏĥÏħÎ³Îº":2692,"Ġá¼ĲÏģÎµá¿ĸ":2693,"Ġá¼ĲÏĩÏģá½µÏĥÎ±ÏĦÎ¿":2694,"ĠÏĥÎ·Î¼Î±á½·Î½ÎµÎ¹":2695,"Ġá¼©ÏĥÎ±":2696,"Ġá¼ĢÎ½á½±Î³ÎºÎ·":2697,"Ġá¼ģÏĢá½±Î½ÏĦÏīÎ½":2698,"ĠÏĢÏģÎ¿Ïĥá½³Î¸Î·ÎºÎµ":2699,"ĠÏĢÎ¿ÏģÎ½":2700,"Ġá¼¸ÏĥÏģÎ±":2701,"ÏĦÎµá¿ĸ":2702,"ÏĦá¿·":2703,"ÏĢÏģ":2704,"Î»Ïī":2705,"Î¼ÎµÎ»":2706,"ÎºÎ¿Î½ÏĦÎ±":2707,"ĠÏĢÏīÏĤ":2708,"Î¸á½µÏĥÎµÏĦÎ±Î¹":2709,"ĠÎ¼ÎµÎ¹":2710,"ĠÎ¼á¿Ĩ":2711,"Î´Ïħ":2712,"Î¿Î¹Î½":2713,"Î¿Î¹Ïĩ":2714,"ĠÏĦÎ¿á¿¦ÏĦá½¹":2715,"Ġá¼ĶÏĢÎµÎ¹ÏĦÎ±":2716,"ÏĥÎ¸á¿ĨÎ½Î±Î¹":2717,"Ġá½¡Î¼":2718,"Î¹Îºá½´Î½":2719,"Ïĥá½·ÏĤ":2720,"ÏĦÎµÏģá½¹Î½":2721,"ÏĦÎ¹Îºá¿ĨÏĤ":2722,"ÏĦÎ¹Îºá¿¶ÏĤ":2723,"ĠÏĥÏħÎ½ÏĦÎµÎ»":2724,"ÏĦá½³ÏģÎ¿Î¹ÏĤ":2725,"ĠÎłÎ½":2726,"ĠÎµá½ĲÏĨ":2727,"ĠÎ¼á½¹Î½á¿ĥ":2728,"ĠÎ¼á½³ÏģÎ¿ÏħÏĤ":2729,"Ġá½ķÎ´Î±":2730,"ĠÎ£Î±":2731,"ÏĦÏĦÎµÎ¹":2732,"ÏĦÏĦÎµÎ¹Î½":2733,"ĠÏĢÏģá½½ÏĦÎ·":2734,"ĠÏĥÎ·Î¼Î±Î¹Î½":2735,"Ġá¼ĶÎ»ÎµÎ³Î¿Î½":2736,"ĠÎµá½ĳÏģá½·ÏĥÎº":2737,"ĠÏĢá½·ÏĥÏĦ":2738,"ĠÎ³á½·Î½ÎµÏĥÎ¸Î±Î¹":2739,"ÎļÎ±á½¶":2740,"ĠÎ´á½·ÎºÎ±Î¹Î¿Î½":2741,"ĠÎ£ÏīÎºÏģá½±ÏĦÎ·ÏĤ":2742,"ĠÏĢÎ±ÏģÎ±Î´Îµá½·Î³":2743,"Ġá½ĢÏĢÏĦÎ±":2744,"ĠÎ¼á½±ÏģÏĦÏħ":2745,"ĠÎ´á½»Î½Î±Î½ÏĦÎ±Î¹":2746,"Î±á½":2747,"Î¹Î³Î½":2748,"Î¼ÏĪ":2749,"á½·Î´Î±":2750,"Ġá¼ĲÎ²":2751,"Ġá½ĤÎ½":2752,"ĠÎ´Î¹á½½":2753,"Ġá¼ĶÏĥÏĦ":2754,"á¿¶Î¼ÎµÎ½":2755,"ÏĦá½°ÏĤ":2756,"ĠÏĥÏħÎº":2757,"á¿ĨÎ¸Î¿ÏĤ":2758,"ÎĵÎĵÎĺ":2759,"ĠÎ¼ÎµÎ»Îµ":2760,"Ïģá½±Î³":2761,"Ġá¼°Î·ÏĦ":2762,"Ġá¼ģÏģ":2763,"ĠÎłá½»Î»":2764,"Î±ÏģÎ¸Ïģ":2765,"ĠÏĢÎ»Î¿á½»":2766,"ĠÎµá½ĲÎµÏģÎ³":2767,"Ġá¼ĦÎ½ÎµÏħ":2768,"á½±ÏģÏīÎ½":2769,"Ġá¼ĢÎ½ÏĦÎ¹Î¸Îµ":2770,"á½¹Î¼Î·Î½":2771,"á½±Î¶ÎµÎ¹Î½":2772,"ĠÎ´Î¹Î±ÏĨá½³Ïģ":2773,"ĠÎ´á½»Î½Î±ÏĥÎ¸Î±Î¹":2774,"ĠÎ´ÎµÏĥÏĢ":2775,"ĠÏĢÎ±Î½ÏĦÎ±":2776,"Ġá½łÏĨ":2777,"ĠÏĢÏģá½½ÏĦÎ·Î½":2778,"ĠÏĢá½¹Î»Î¹ÏĤ":2779,"Î»á½³Î³ÎµÎ¹":2780,"ĠÏĥÏħÎ¼ÏĢÎ»Î¿Îº":2781,"ĠÎ´á½¹Î¾Î±Î½":2782,"ĠÏĦÎ¿Î¹Î±á½»ÏĦÎ·Î½":2783,"ĠÎºá½¹ÏĥÎ¼":2784,"ĠÎ¸Ïģá½¹Î½Î¿Ïħ":2785,"ĠÎ»Î±Î²Îµá¿ĸÎ½":2786,"ĠÎ´Î¹Î±á½·ÏģÎµÏĥÎ¹Î½":2787,"Ġá¼ĢÎ½ÏīÏĦá½³ÏģÏī":2788,"Ġá¼ĲÏĢÎ¹ÏĩÎµÎ¹Ïģ":2789,"Ġá¼ĢÏĢá½¹Î´ÎµÎ¹Î¾Î¹Î½":2790,"Ġá¼©ÏĥÎ±á¿ĵ":2791,"Î±Ïĥ":2792,"ÎºÏħ":2793,"Ġá¼ĲÎ»Î»":2794,"ÏīÏĥÎ¹ÏĤ":2795,"Î³Î¿Ïģ":2796,"Î¸Îµá¿ĸ":2797,"ÏĥÏĦÎ¿ÏĤ":2798,"Î¿Î¹ÏĥÎ¹Î½":2799,"Ġá¼ĲÏĢÎ¹Î½":2800,"ĠÎ±á½ĲÏĦá½¹ÏĤ":2801,"ĠÎµá¼°Îº":2802,"ĠÏĨÎ¹":2803,"á½½Î»":2804,"ÏĦÎ¿Î¼":2805,"ĠÏĩÎµÎ¹":2806,"ĠÏĩÎ±Î»":2807,"Î±Î³Îµá¿ĸÎ½":2808,"Ġá¼°Î´Î¹":2809,"á½³ÏĥÎµÎ¹ÏĤ":2810,"ĠÏĢÎ¿Î»á½³Î¼":2811,"ĠÎ¸ÎµÏīÏģá½·":2812,"ÏĢÎµá½¶":2813,"ĠÏĢÎ±Î½Î·Î³":2814,"Î²Î±Î»Î»":2815,"Ġá¼¸Ïī":2816,"Ġá¼ĲÎ¼ÏĢÎµÏĥ":2817,"Î¾Î±ÏĥÎ¸Î±Î¹":2818,"ĠÏĩÏģá½¹Î½á¿³":2819,"ĠÏĥÏħÎ¼Î²ÎµÎ²Î·Îºá½¹ÏĦÎ±":2820,"ĠÏĥÏĦÎ¿ÏĩÎ±ÏĥÎ¼á¿·":2821,"ĠÏĢÎ¿Ïĥá½¸Î½":2822,"ĠÏĨÎµá½»Î³Î¿Î½ÏĦÎ¿ÏĤ":2823,"ĠÎ¼á½³Î»Î±Î½":2824,"ĠÏĢÎ¹Î¸Î±Î½":2825,"Ġá¼±ÏĥÏĦÎ¿Ïģá½·":2826,"ĠÏĢÏģÎ¿ÏĥÎºÏħÎ½":2827,"Ġá½łÎ½á½¹Î¼Î±":2828,"ĠÎ´Î¹Î´Î±ÏĥÎºÎ±":2829,"Ġá¼ĢÎ½Î¸Î¿ÏģÎ¹ÏĥÎ¼":2830,"Î¿Î»á½¹Î³Î·ÏĦÎ±Î¹":2831,"Ġá¼ĲÎ´á½¹Î¸Î·":2832,"Ġá½ĢÏĨÎ¸Î±Î»Î¼":2833,"ĠÏĦÎ¿ÏĥÎ¿á¿¦":2834,"Î¿Î´":2835,"ÏģÎµÎ¹":2836,"Ïģá¿·":2837,"ÏħÎ¼Î½":2838,"ÏħÏģÎ¹Îº":2839,"Î¸á½µÎº":2840,"Ġá¼ĢÎ¾":2841,"ÏĩÎµÏĦÎ±Î¹":2842,"á½½Î¼ÎµÎ¸Î±":2843,"ÏĦÎ¿á½·":2844,"á¿¦ÏĤ":2845,"Î»Î±Î³":2846,"ĠÏĥÏĦá½¹Î¼Î±":2847,"ĠÏĩÏģá¿ĨÏĥÎ¸Î±Î¹":2848,"á½³ÏĩÏģÎ¹":2849,"ĠÏĦÎ¹Î½á½¸ÏĤ":2850,"ĠÎĺÎµá½¹ÏĤ":2851,"Ġá¼ĳÎ±ÏħÏĦá¿¶Î½":2852,"ĠÏĢÏģá¿¶ÏĦÎ¿ÏĤ":2853,"á½¹ÏģÎ¿ÏħÏĤ":2854,"ĠÏĢá½³ÏģÎ±ÏĤ":2855,"ÎºÎ»Î·Î¼Î±":2856,"ĠÏĢá½±ÏĥÏĩÎµÎ¹Î½":2857,"Î¿á½ĲÎº":2858,"ĠÎ²Î¿ÏħÎ²":2859,"ÏĥÏĨÎ±Î»":2860,"Ġá¼ĢÎ½ÏĦá½·Î»Î·ÏĪÎ¹ÏĤ":2861,"ĠÏĢÎ»Îµá½·ÏĥÏĦ":2862,"Ġá¼ĲÎ¼Î²á½±Î»Î»":2863,"Ġá¼ĲÏĩÏģá¿ĨÎ½":2864,"ĠÏĥÏħÎ»Î»Î¿Î³Î¹ÏĥÎ¼á½¸ÏĤ":2865,"ĠÎĽÎ±ÎºÎµÎ´Î±Î¹Î¼Î¿Î½":2866,"Ġá¼ĢÏĥá½»ÏĥÏĦÎ±":2867,"ÏĦÎµá¿ĸÎ½":2868,"Î¿ÎµÎ¹Î´":2869,"ÏĢÎµÎ¹Î½":2870,"ÏĢÎ¿Ïģ":2871,"Îºá½·":2872,"Î·ÏĦÎ¿Î½":2873,"ĠÏĢá¾¶ÏĤ":2874,"ĠÏĢÏħÎº":2875,"á½³ÎµÎ¹Î½":2876,"ĠÎ´á½µÎ¼":2877,"ĠÎ´Î¿á½»Î»":2878,"ÏĨÏīÎ½":2879,"ĠÏĢÏģÎ¿ÏĤ":2880,"Ġá¼ĶÏĥÏī":2881,"Î¼á½³Î½Î±ÏĤ":2882,"ĠÏĢÎ±Ïĩ":2883,"Î¿á¿ĸÎ¿Î½":2884,"Ġá¼ĳÏģÎ¼Î·Î½":2885,"Î»Î±Îº":2886,"ÏĦá½³ÏĦÎ±":2887,"ĠÏĥÏĦÎ¿Î¹Ïĩ":2888,"ĠÎµá¼´ÏĢ":2889,"Î´ÎµÎ»ÏĨ":2890,"Ïģá½±ÏĦÎ¿ÏħÏĤ":2891,"ĠÏĥÏħÎ½ÎµÏĥÏĦ":2892,"Ġá¼ķÏĢÎµÏĦÎ±Î¹":2893,"ĠÎ»á½¹Î³Î¿Î¹ÏĤ":2894,"Ġá½¥ÏĤ":2895,"ĠÏĨá½»ÏĥÎ¹ÏĤ":2896,"ĠÎ¸ÎµÏīÏģ":2897,"ĠÎ¸ÎµÏĥÏĢ":2898,"ĠÎµá½ķ":2899,"ĠÏĢÎµÏĢÎ¿á½·":2900,"Ġá½ķÎ»Î·Î½":2901,"ĠÏĨÎ±ÏĥÎ¹Î½":2902,"á½·Î¶ÏīÎ½":2903,"ĠÏĥÏĩá½³":2904,"Î²Î¿Î»Î¿Î½":2905,"Î´Îµá½·ÎºÎ½Ïħ":2906,"ĠÏĨÏīÎ½á½´Î½":2907,"ĠÎ¸á½±Î»Î±Ïĥ":2908,"ĠÏĥÏĦÎ¿ÏĩÎ±ÏĥÎ¼á½¸ÏĤ":2909,"Ġá¼ĢÎ»Î»á½µÎ»Î¿Î¹ÏĤ":2910,"ĠÏĢá½·ÏĥÏĦÎ¹Î½":2911,"ĠÏĥÏĦá½±ÏĥÎµÎ¹ÏĤ":2912,"ĠÏĦá½³ÏĩÎ½Î·ÏĤ":2913,"ĠÎ´Î¹á½±Î½Î¿Î¹Î±Î½":2914,"Î¿á½ķÏĦÏī":2915,"Ġá¼ĢÎ½ÏĦÎ¹Î»á½µÏĪÎµÏīÏĤ":2916,"ĠÎ´Î¹ÎºÎ±Î¹Î¿Ïĥá½»Î½":2917,"ĠÎ£Î±ÏĦÎ±Î½":2918,"ĠÏĢÎ±Î½Î·Î³ÏħÏģÎ¹Îº":2919,"ÎµÏĦÎµ":2920,"á¿¬":2921,"á¿Ħ":2922,"ÏĥÏħ":2923,"ÏĥÏĥÎ±":2924,"á½³ÎµÏĥÎ¸Î±Î¹":2925,"Î³ÎµÎ½":2926,"Î¸ÎµÎ¹Î±Î½":2927,"ĠÎ¼Î¿Ïģá½·":2928,"ĠÎ±á½ĲÏĦÎ¿á½¶":2929,"Ġá½ģÏģá½·":2930,"Ġá¼¡Î³":2931,"ÏĦÎµÏĦÎ±":2932,"ÏĥÎ¸á¿ĩ":2933,"ÏĥÎ¸Î±á½·":2934,"ÎºÎ±á½·":2935,"Îµá½·Î·":2936,"á¿¶ÏĥÎ¹":2937,"ĠÏĦÎ¿á½Ĳ":2938,"ĠÎ²Î¿á½»":2939,"ĠÎ²ÎµÎ²":2940,"á½±Î½Î±Î¹":2941,"ÏĪÎ±":2942,"ÏĪÎ±Î¹":2943,"Î¿ÏģÎ¼":2944,"Î¿ÏģÏĨ":2945,"ĠÎ¶á¿¶Î½":2946,"Ġá¼ķÎ»Îº":2947,"ĠÏĢá½±Î½Ïħ":2948,"ÏĦÏģÎ¿Î½":2949,"Î·Îºá½³Î½Î±Î¹":2950,"Î³Î½á½»":2951,"ĠÏĢá½¹Î´Î±":2952,"Î¸á½³ÏĦÎ¿Ïħ":2953,"Î·Ïģá½»":2954,"ĠÏĢá½³Î¼ÏĢ":2955,"ĠÎ½á½¹Î¼Î¿Ïħ":2956,"ĠÎ³ÎµÎ³Î¿Î½":2957,"ĠÎ¸ÎµÏģÎ±ÏĢ":2958,"ĠÎµá¼°ÏģÎ·Î¼á½³Î½Î¿Î½":2959,"Î»Î·ÏĪÎ¹Î½":2960,"ĠÏĥÏīÏĦÎ·Ïģá½·":2961,"ĠÎ³ÏģÎ±Î¼Î¼":2962,"ĠÏĦá½»Ïĩ":2963,"Ġá¼ĻÎ»Î»":2964,"Ġá¼ĢÏĦá½¹Î¼":2965,"ĠÏĢÎ¿Î´á½¸ÏĤ":2966,"ĠÎ´á½µÏĢÎ¿ÏĦÎµ":2967,"Î¿á½ķÏĦÏīÏĤ":2968,"Ġá¼ĶÎ¸Î½Î·":2969,"ĠÏĢÎ»Îµá½·Î¿Î½Î±":2970,"ĠÏĦá½³ÏĦÎ±ÏģÏĦÎ¿Î½":2971,"ĠÎ³á½³Î³Î¿Î½ÎµÎ½":2972,"Ġá¼ĲÏĢÎ¹Î´á½³ÏĩÎµÏĦÎ±Î¹":2973,"ĠÎºÏīÎ»á½»":2974,"ĠÎ¿á½ĲÎ´á½³ÏĢÎ¿ÏĦÎµ":2975,"ĠÎºá½³ÏĩÏģÎ·ÏĦÎ±Î¹":2976,"Ġá¼ĢÎ´á½·ÎºÎ·Î¼Î±":2977,"ĠÎ¸ÎµÏĥÏĢá½³":2978,"ÏĦá¿ĩ":2979,"ÏĦÏĦÎ¿Ïħ":2980,"ÏĥÎ¿ÏĨ":2981,"ÎºÏĦÎ¿Î½":2982,"Î·ÏĥÎµÎ½":2983,"ĠÏĢÏĦá½³Ïģ":2984,"á½·Î»Î¹":2985,"ĠÎºÎ±Î¸Î·":2986,"Ġá¼ĲÎ¼ÏĨ":2987,"Î¸á½±":2988,"ĠÎ¼á½³ÏĩÏģÎ¹":2989,"Î´Î±á½·":2990,"Î´ÏīÏģ":2991,"Ġá¼ĲÎ½Î½":2992,"Ġá¼ĶÏĢÎµ":2993,"Ġá½ħÎ¸ÎµÎ½":2994,"Î½Î±ÏĦÎ¿":2995,"Î¹ÎºÎ¿á¿ĸÏĤ":2996,"Î¶ÎµÏĥÎ¸Î±Î¹":2997,"ÏĪÎµÎ¹":2998,"Î»ÎµÎº":2999,"Ġá½ĢÎ¾":3000,"ĠÏĢÎ±Ïģá½±Î³":3001,"Ġá¼ĲÎ¾Î±ÏģÎ¸Ïģ":3002,"ĠÏĥÏĦÎµÏģ":3003,"Î±Î³ÏīÎ³":3004,"ĠÎºÎ±ÏĦÎ±Îº":3005,"Ġá¼°Î´":3006,"ÏĢÎµÏģÎ¹":3007,"Î¸Î±Ïģ":3008,"ÏĦá½³Ïģá¿³":3009,"Î»á½³Î¿ÏħÏĤ":3010,"ÏģÎµÏĢ":3011,"ĠÎºÎ±Î¸Î¿Î»":3012,"ÏģÎ¹ÏĥÏĦÎ¿Î½":3013,"á¼ĲÏĢÎµá½¶":3014,"ĠÎ»á½¹Î³ÏīÎ½":3015,"ĠÏĦÎ¹Î½á½²ÏĤ":3016,"Î´á½·Î±ÏĤ":3017,"Ġá¼ĢÎºÏģÎ¿":3018,"Ġá¼ĢÎºá½¹Î»Î¿Ïħ":3019,"ÏģÎ±ÏĨÎ¿ÏĤ":3020,"ĠÎºÎ±ÏĦÎ·Î³Î¿ÏģÎ¹á¿¶Î½":3021,"Î¼Î¹Î¿Î½":3022,"Ġá½ķÎ´ÏīÏģ":3023,"ĠÎ¼á½³Î»Î»Î¿Î½":3024,"ĠÎ»Î±Î¼ÏĢ":3025,"Î²Î±á½·Î½":3026,"ĠÎ¶Î·ÏĦá½µÎ¼Î±ÏĦÎ¿ÏĤ":3027,"ĠÏĢá½³ÏĢ":3028,"ĠÎ²Î±ÏĥÎ¹Î»Îµá½·":3029,"ĠÎ³ÎµÎ³ÎµÎ½":3030,"ĠÏĥÏĦÎ¿ÏĩÎ±ÏĥÎ¼Î¿á¿¦":3031,"ÏĬÎº":3032,"Ġá¼´Î´Î¹Î±":3033,"á½µÎ³Î¿Ïģ":3034,"ĠÏĥÏĦá½±ÏĥÎµÏīÎ½":3035,"Ġá¼ĶÏģÎ³Î±":3036,"Î»Î±Î¼Î²á½±Î½ÎµÎ¹":3037,"Ġá½ĢÏĥÏĦá¿¶Î½":3038,"Ġá¼ĻÏģÎ¼":3039,"á¼ĦÎ»Î»":3040,"ĠÎ´Î¹á½±Î½Î¿Î¹Î±":3041,"ĠÎ³á½·Î³Î½ÎµÏĦÎ±Î¹":3042,"ĠÏĢÎ±ÏĦÏģá½¸ÏĤ":3043,"ĠÎ¶Î·ÏĦÎ·":3044,"Ġá¼¤ÎºÎ¿ÏħÏĥÎ±":3045,"Îķ":3046,"Ïĭ":3047,"Ġá¿¬":3048,"á½¥":3049,"ÎµÎºÎ±":3050,"ÏĥÎ¼á½³Î½Î¿Î½":3051,"ĠÎºá½»ÏģÎ¹":3052,"Îºá½³":3053,"ĠÏĢÎµÎ½":3054,"ĠÏĢÏĦÎµÏģ":3055,"Î¿á¿¤á¿¥":3056,"ĠÎ¼Îµá¿ĸ":3057,"ÏĩÎ¸Î·":3058,"ĠÏĢÏģÏī":3059,"ĠÎ´Î¹á½¹ÏĦÎ¹":3060,"ĠÎ»Îµá½·":3061,"Ġá¼ĢÎ½Î±Î»":3062,"á¾´":3063,"Ġá¼ĢÏĢÎµÎ¹":3064,"ĠÎ¿á¼´":3065,"á¿¶Î´ÎµÏĤ":3066,"ĠÏĢÏģÎ¿Î²Î¿Î»":3067,"ĠÎ¸Î±Ïħ":3068,"Ġá½ĳÏĢÎ¿Î¼":3069,"Ġá¼ĳÏĥÏĦ":3070,"Ġá¼ķÎ½Î±":3071,"Ġá¼ĢÎºÎ¿Î»Î¿Ïħ":3072,"ĠÎºÎ±ÏĦÎ·Î³á½¹ÏģÎ¿Ïħ":3073,"ĠÎ±á½ĹÏĦÎ±Î¹":3074,"Ġá¼ĳÎ±ÏħÏĦÎ¿á½ºÏĤ":3075,"ĠÎºÎ±ÏĦá½µÎ³Î¿Ïģ":3076,"ĠÎĶÎ¹á½±":3077,"á¿ĸÎ½Î¿ÏĤ":3078,"á½ħÏĦÎ±Î½":3079,"Ġá¼ĪÏģÎ¹ÏĥÏĦÎ¿ÏĦá½³Î»Î¿ÏħÏĤ":3080,"ĠÎºÎ±ÏĦÎ·Î³Î¿Ïģá½·Î±":3081,"ĠÎºÎ±ÏĦÎ·Î³Î¿Ïģá½·Î±Î½":3082,"Î»á½³Î³ÎµÏĦÎ±Î¹":3083,"Ġá½ĢÎ½á½¹Î¼Î±ÏĦÎ¹":3084,"ĠÎ´á½¹Î¾Î±":3085,"Ġá¼°Î±Î¼Î²":3086,"á½µÏĥÎ±Î½ÏĦÎµÏĤ":3087,"ĠÎºÎ±ÏĦÎ±ÏĥÎºÎµÏħá½±Î¶ÎµÎ¹":3088,"ĠÏĦÎ±á½ĲÏĦá½¸Î½":3089,"ĠÎµá¼´ÏĢÏīÎ¼ÎµÎ½":3090,"Ġá¼ĢÎ¼ÏĨá½¹ÏĦÎµÏģÎ±":3091,"ĠÏĦÎµÏĩÎ½Î¹Îºá½¸ÏĤ":3092,"á½³ÏĥÏĦÎ·ÎºÎµ":3093,"ĠÎ³ÏħÎ½Î±á¿ĸÎºÎ±":3094,"ĠÏĥÏħÎ¼ÏĨá½³ÏģÎ¿Î½":3095,"ĠÏĢÏģÎ¿ÎµÎ¹ÏģÎ·":3096,"Ġá½ĳÏĪÎ·Î»":3097,"ĠÎºÏīÎ¼á¿³":3098,"ĠÎ±á¼°Î½á½·ÏĦÏĦÎµÏĦÎ±Î¹":3099,"ĠÎ²ÏħÏģÏĥ":3100,"á¼ľ":3101,"Ïģá½±Î½":3102,"Ïģá½¹ÏĤ":3103,"ĠÏĦÏħÏĨ":3104,"ÎºÎµÎ¹Î½":3105,"ĠÏĢÏħ":3106,"ÏīÏĥÏĦ":3107,"Î¸Î¹":3108,"ĠÎ¼Î±Î½":3109,"Î´Î·Î½":3110,"á½»ÏĤ":3111,"ĠÏĢÏģÎ±":3112,"Îµá¿ĸÏĦÎ¿":3113,"Ġá¼Ķá¿ĥ":3114,"Ġá¼ĲÏĢÎ±Î¹Î½":3115,"ĠÎ»ÎµÎ¹":3116,"Ġá¼ĢÏĢá½³":3117,"ĠÏĢÎ±ÏĦá½³ÏģÎ±":3118,"Îµá½·Î¿Î¹ÏĤ":3119,"á½ºÎ½":3120,"ĠÏĢÏģÎ¿ÎºÎµÎ¹":3121,"Î¹Îºá½´":3122,"ĠÏĢÎµÏģá½·":3123,"Ġá¼ĳÏī":3124,"ĠÏĦÎµÎ»Îµá½·":3125,"á½±ÏĥÏĦÎ±ÏĥÎ¹Î½":3126,"Ġá¼ĶÏĩÎ¿ÏħÏĥÎ±":3127,"ĠÎ´Î¹Î±Î²Î¿Î»":3128,"ĠÏĩÏģÎµá½·Î±Î½":3129,"Îµá½»ÎµÎ¹":3130,"Ġá¼ĦÎ»Î»Î·Î»Î±":3131,"Î»á½³ÏīÏĤ":3132,"Ġá¼¡Î¼á½³ÏģÎ±ÏĤ":3133,"ĠÏĢÏģÎ¿ÏĥÎ·Î³":3134,"ĠÏĢÎ»á½±":3135,"Ġá¼¦Î»":3136,"á½³Ïĥá¿ĥ":3137,"Î¹ÏĥÏĦÎ¿Î½":3138,"Ġá¼¸Î¿Ïħ":3139,"Ġá¼¸Î·Ïĥ":3140,"ĠÏĦÏģÎ¹á¿¶Î½":3141,"Ġá¼ĲÎ¼Î¿á¿¦":3142,"ĠÏĥÏħÎ»Î»Î±Î²":3143,"ĠÏĥÏħÎ¼Î²ÎµÎ²Î·Îºá½¸ÏĤ":3144,"ĠÏĨÎ¹Î»á½¹":3145,"ĠÏĢá½¹Î»ÎµÎ¼Î¿Î½":3146,"ĠÎ±á½ĲÏĩ":3147,"ĠÏĦá½³ÏĩÎ½Î·":3148,"ĠÎ»Î¿Î¹ÏĢá½¸Î½":3149,"ĠÏĢÎ¿Î»Î¹ÏĦÎµ":3150,"Ġá¼ĢÎ³Î±Î¸á½¸Î½":3151,"ÏĦÏĦÎµÏĥÎ¸Î±Î¹":3152,"Ġá½ĢÏĥÏĦá½³Î¿Î½":3153,"ĠÎºá½»Îº":3154,"Ġá¼ĶÏģÎ³Î¿Î½":3155,"Ġá¼ĶÎ³ÏģÎ±ÏĪ":3156,"Ġá¼´ÏĥÏīÏĤ":3157,"Ġá¼ĪÎ¸Î·Î½":3158,"ĠÎ²Î±ÏĥÎ¹Î»Îµá¿ĸÏĤ":3159,"ĠÎµá½ĲÎ±Î³Î³ÎµÎ»Î¹ÏĥÏĦ":3160,"ĠÎºÎ»á½³ÏĢ":3161,"Ġá¼°Î±ÏĦÏģÎ¹Îº":3162,"ĠÎ¼á¿ĨÎºÎ¿ÏĤ":3163,"Ġá½¡Î¼Î¿Î»á½¹Î³Î·ÏĦÎ±Î¹":3164,"ĠÎ·":3165,"á¼¦":3166,"ÏģÎ·Î½":3167,"ĠÎºÎµÏģ":3168,"Î·ÏĥÎµ":3169,"Î¸á¿ĥ":3170,"ĠÎ¼á½±Î³":3171,"ĠÎ³Î¹Î³Î½":3172,"Î±Î¹Î¼":3173,"Ġá¼ĲÎ½á½·Î¿":3174,"Ġá¼ĶÏĥÏĩ":3175,"Ġá¼ĢÎ½Î±Îº":3176,"Ġá¼ĢÎ½Î±Î¹Ïģ":3177,"ÏĦÎµÏĦÎ±Î¹":3178,"ĠÏĥÏħÎ¼":3179,"Ġá¼ĲÎºÎº":3180,"Î¹Îºá¿ĨÏĤ":3181,"ĠÎ»á½³Î³Î¿ÏħÏĥÎ¹Î½":3182,"Ïĥá½·Î¿Î½":3183,"Ġá¼ĶÏĩÎ¿Î½ÏĦÎµÏĤ":3184,"Î¸Î·ÏĥÎ¹":3185,"ÏĥÎµÏīÎ½":3186,"ĠÎ´á½³Î¿Î½":3187,"ĠÎ¿á¼·á½¹Î½":3188,"ĠÎĺÎµá½¸Î½":3189,"ÏĦÏģá½³":3190,"ĠÏĪÎµá½»":3191,"á½½Î½ÏīÎ½":3192,"á½»Î½Î±Î¹":3193,"Î¿ÏĢÎ¿Î¹":3194,"ĠÎĶá¿Ĩ":3195,"Î¼Î¹ÏĥÏĦ":3196,"Î¾Î±ÏĦÎ¿":3197,"ĠÏĢÏģá½¹ÏĥÏīÏĢÎ±":3198,"á½µÏĥÏīÎ¼ÎµÎ½":3199,"ĠÎµá½ĳÏģ":3200,"ĠÎµá½ĲÎ¸Ïħ":3201,"Ġá¼ģÎ¼Î±ÏģÏĦÏī":3202,"Î´Î¿ÎºÎ¹Î¼":3203,"Ġá¼ĲÏĢÎ¹ÏĨá½±Î½":3204,"ĠÎ´ÏħÎ½á½±Î¼ÎµÏīÏĤ":3205,"Ġá¼ĦÎ³Î³ÎµÎ»Î¿ÏĤ":3206,"Ġá¼ĪÎ¸á½µÎ½":3207,"Ġá¼ĲÎ¼ÏĢá½·ÏĢÏĦÎµÎ¹":3208,"ĠÏĥÏĦá½·ÏĩÎ¿Î¹":3209,"Ġá¼ĢÏģÎ½á½·Î¿Ïħ":3210,"ĠÎ¸Î±Î½á½±ÏĦÎ¿Ïħ":3211,"Ġá¼ĢÎ´ÏħÎ½Î±":3212,"ĠÏĦÎ¿ÏĥÎ¿á¿¦ÏĦÎ¿Î½":3213,"Ġá¼ĲÎ½á½·Î¿ÏĦÎµ":3214,"ÏĦÏħÏĩ":3215,"Î½Î¿Î¼":3216,"Î±á½»":3217,"Î±á½ĲÏĦ":3218,"Î¿á¼":3219,"ĠÏĦá¼ĢÎ½":3220,"ÏĢÏĦÎ¿Î½":3221,"Î»á½½":3222,"ĠÎºÎ¹":3223,"ĠÎºÏģÎ±":3224,"ÎºÎ¿Î»":3225,"ÎºÎµÏĤ":3226,"Î·ÏĦÎ±":3227,"ĠÏĢÎµ":3228,"á½³ÏĦÎ±":3229,"ĠÎ´Îµá¿ĸÎ½":3230,"á½±Î´Î±ÏĤ":3231,"Î¸Ïħ":3232,"ĠÎ¼á½±":3233,"ÏĨÎ¸Î·":3234,"Î¿á¿¦ÏĥÎ¸Î±Î¹":3235,"á½»ÏīÎ½":3236,"ÏĦÎ¹Î±":3237,"Ġá¼ĶÎ¸Î¿ÏĤ":3238,"ĠÎ»Î¿Î¹":3239,"ĠÏĨÎ±Ïģ":3240,"á¿¶Î½Î±Î¹":3241,"Ġá¼ĲÎºÎ»Îµá½·":3242,"Î½Î±ÏĦÎ¿ÏĤ":3243,"Î¹ÎºÎ¿á½¶":3244,"Ġá¼ĳÏĦÎµÏģ":3245,"Î¸Î·ÏĥÎ¹Î½":3246,"ĠÎºÎ±ÏĦÎ±ÏĢ":3247,"ÏģÎ¿Ïĥ":3248,"Ġá¼ĦÎ»Î»Î·Î½":3249,"Î±Î½ÏĦá½·Î±":3250,"ĠÏĢÎ¿Î»Î»Î¿á½¶":3251,"ĠÎ³á½³Î½Î·":3252,"Î³Î½á½½Î¼":3253,"á½·Î¶ÎµÎ¹":3254,"ĠÎºÎ±Îºá½¸Î½":3255,"Î´ÏīÎºÎµÎ½":3256,"Îµá¿¦Î´Î¿ÏĤ":3257,"Ġá¼ĦÎ½ÏīÎ¸ÎµÎ½":3258,"ĠÎ½Î¿Î¼Î¿":3259,"Ġá¼ĲÎºÎµá½·Î½Î¿Ïħ":3260,"ĠÏĥá½½Î¼Î±ÏĦÎ¹":3261,"ÏīÎ½á½»Î¼ÏīÎ½":3262,"Ġá¼ĲÎ³á½³Î½Î¿Î½ÏĦÎ¿":3263,"ĠÏĨÎ¸Î¿Ïģ":3264,"ĠÎºÎµÏĨÎ±Î»Î±á½·ÏīÎ½":3265,"Î¼ÎµÏĦÏģÎ¿Î¹":3266,"ĠÎ¸Î·Ïģá½·Î¿Î½":3267,"Ġá¼ĢÎ½ÏĦÎ¹Î»á½µÏĪÎµÎ¹":3268,"ÏĢÎ±Î¹Î¾Îµ":3269,"ĠÎ¼Î±ÏģÏĦÏħÏģ":3270,"ĠÏĥÏĦá½³ÏģÎ·ÏĥÎ¹ÏĤ":3271,"ĠÎļÎ±ÏĦÎ·Î³":3272,"ĠÎ±á½ĶÎ¾":3273,"ĠÏĢÎ±Î½ÏĦÎ±ÏĩÎ¿á¿¦":3274,"Î¼Î¹ÏĥÏĦÎ¿Îº":3275,"ÎŁ":3276,"Î±Î¼":3277,"Î±á½·Î½":3278,"ĠÏĦÏģÎ¿":3279,"Ïĥá½»":3280,"Î¼á½·":3281,"ĠÎºÎ»Î·":3282,"ĠÎºÏģÎµ":3283,"ĠÏĢÎ·Î»":3284,"á½³ÏĦÏī":3285,"ÏīÏģÎ·":3286,"ĠÎ´Î·Î¼Î±":3287,"Ġá¼ĢÏĥÏĢ":3288,"ÏĨÏħ":3289,"ÏĨÎµÏģ":3290,"ÎµÎ¹Îº":3291,"Ġá¼ĲÎ½ÏĦÎµ":3292,"ĠÎ±á½ĲÏĦÎ¿á½»ÏĤ":3293,"ĠÎ»ÏħÏĩ":3294,"ĠÎµá¼°Ïĥá½·Î½":3295,"ÏģÎ¹Î¼":3296,"Ġá½¡ÏģÎ¹Ïĥ":3297,"ĠÏĢÏģÎ¿ÏĦÎµ":3298,"ĠÎ²Ïģ":3299,"ĠÎ½ÎµÏĨ":3300,"ĠÎ½á½·Îº":3301,"ÏĥÎ±ÏĦÎ¿":3302,"Ġá¼ĲÏĢÎ¹Î³ÏģÎ±ÏĨ":3303,"ĠÎºÎ±ÏĦÎ±ÏĥÏĦ":3304,"Ġá¼°ÏĩÎ¸":3305,"ÏĢÎµÏģá½¶":3306,"Ġá¼ĢÎ½ÏĦÎ¹Î½Î¿Î¼":3307,"Î±á½·ÏģÎµ":3308,"ĠÏĪÎµá¿¦Î´Î¿ÏĤ":3309,"ĠÎĶÎ¹Î±":3310,"ÏĢÎµÏĥ":3311,"Ġá½ĢÎ½Î¿Î¼Î±":3312,"ĠÎ¶Î·ÏĦÎ¿á¿¦Î¼ÎµÎ½":3313,"ĠÏĦá½³Î¼Î½":3314,"Ġá¼ĢÎ½Î±Î³Îºá½±Î¶":3315,"Ġá¼ĳÏĦá½³ÏģÎ±Î½":3316,"ĠÏĨÏīÎ½á¿ĨÏĤ":3317,"ĠÎ²Î±ÏĥÎ¹Î»Îµá½»":3318,"ĠÏĢá¾¶ÏĥÎ±":3319,"Ġá¼ĲÏĢÎ¹ÏĥÏĦÎ·ÏĦ":3320,"ÏĨÎ±ÏĥÎ¹ÏĤ":3321,"ÏĦá½µÏģÎ¹Î¿Î½":3322,"ĠÎ´Î¹ÎºÎ±á½·Î¿Ïħ":3323,"Î¤á½¸":3324,"Ġá¼ĢÎ³Î³á½³Î»Î¿ÏħÏĤ":3325,"ĠÏĥÏħÎ³Î³Î½á½½Î¼":3326,"ĠÎ´ÎµÏħÏĦá½³ÏģÎ±":3327,"ĠÎ¿á¼¶Î´ÎµÎ½":3328,"ĠÏĢÎ±Î¹Î´á½·":3329,"ĠÎ¼á½³Î»Î¹":3330,"ĠÏĩÎµÎ¹Ïģá½¶":3331,"Ġá¼ĢÏģÎ¹ÏĥÏĦÎµÏģ":3332,"Ġá¼ĲÎ¾ÎµÏĦá½±":3333,"ÏģÎ±ÏĢÏĦÎ±Î¹":3334,"ĠÎ³ÎµÎ³ÏģÎ±Î¼Î¼á½³Î½Î¿Î½":3335,"ĠÎ´Î¹Î´á½±ÏĥÎºÎµÎ¹":3336,"Ġá¼ģÏģÎ¼á½¹Î¶ÎµÎ¹":3337,"Ġá¼ĲÏĢÎ¿á½·Î·ÏĥÎµÎ½":3338,"ĠÎ´á½½Î´ÎµÎºÎ±":3339,"ĠÎ¼Î±ÏģÏĦÏħÏģá½·":3340,"ĠÏĨá½¹Î½Î¿Ïħ":3341,"ĠÎ¿á½ĲÏĥÎ¹á¿¶Î½":3342,"Ġá¼¥Î»Î¹Î¿ÏĤ":3343,"ĠÏĥÏĨÏģÎ±Î³á¿ĸ":3344,"ĠÎ¼Îµá¿ĸÎ¶Î¿Î½":3345,"ĠÎ¼á½±Î³ÎµÎ¹Ïģ":3346,"ĠÏĦá¼ĢÎ½Î±Î½ÏĦá½·Î±":3347,"ĠÎ´Î·Î¼Î±Î³ÏīÎ³":3348,"ĠÎĶÎ¹Î±Î²":3349,"Îľ":3350,"Î½Î¹":3351,"ÎµÎ¾":3352,"Ġá¼ī":3353,"Î»Î¿Î¹":3354,"Î¼ÎµÎ¹Î½":3355,"ĠÎºÎ¿Î¼":3356,"ĠÎºá½³ÏģÎ±":3357,"Îºá½³Î½Î±Î¹":3358,"ÏħÏĤ":3359,"ÏħÏĥÏĦ":3360,"Ġá½Ī":3361,"ĠÎ´Î¿á¿¦":3362,"ĠÎ´Î±á½·":3363,"ĠÎ´ÎµÎº":3364,"Î¸á½±Î½":3365,"Î¸Î¹ÏĤ":3366,"Î¸á½³ÏĥÎµÎ¹":3367,"Ġá¼ĢÏģÎ³":3368,"á½»Ïĥ":3369,"Î¼Î±Ïĩ":3370,"Î²Î¿Î½":3371,"á½½Î¸Î±":3372,"ÏĥÎ¸á½·":3373,"ÎºÎ±ÏĦá½°":3374,"Ġá¼ĢÏĢÎµÎº":3375,"ĠÏĢÎ±Î¸Î·":3376,"ĠÏĢÏģÎ¿ÏĥÎ±":3377,"Î¿Î»Î¹":3378,"ĠÏĢÎµÏģÎ¹Îº":3379,"Ġá¼ĳÎ»Îº":3380,"Î¿ÏģÎº":3381,"ÏĥÎ±ÏĨ":3382,"ĠÎ¿á½ĸÏĥÎ±Î½":3383,"Ġá¼ĲÏĢÎ¹ÏĢ":3384,"ÏĦÎ¹Îºá½´Î½":3385,"Ġá¿¥á½³":3386,"Ïģá½±Î¼":3387,"Ġá¼°Î³Î½á½»":3388,"ĠÏĥÏħÎ½á½³Ïĩ":3389,"ĠÏĢá½±Î½ÏĦÎ±ÏĤ":3390,"Î»á½·Î±Î½":3391,"Î´á½·ÏīÏĤ":3392,"Ġá¼´ÏĥÏĩ":3393,"Ġá¼ĢÏģÏĩá½´":3394,"Î»á½µÎ¸Î·":3395,"Ġá¼ĶÎ½Î¸ÎµÎ½":3396,"á½·Î¶ÎµÎ¹Î½":3397,"ĠÎ´á½·Î´Ïī":3398,"ĠÏĦÎ¿á½»ÏĦÎ¿ÏħÏĤ":3399,"Î²Î¿Î»Î¿ÏĤ":3400,"ÎºÎ»Î·Î¼Î±ÏĦÎ¹Îº":3401,"ĠÎ¶á½µÏĦÎ·ÏĥÎ¹Î½":3402,"ĠÏĥÏħÎ¼Î²ÎµÎ²Î·Îºá½¹ÏĤ":3403,"ĠÎ¼ÏħÏĥÏĦ":3404,"ÏĥÏĥá½±ÏģÏīÎ½":3405,"ĠÎ»ÎµÎ³á½¹Î¼ÎµÎ½Î±":3406,"ĠÎ¼Î±ÏĥÏĩá½±":3407,"ĠÏĨÎµá½»Î³ÏīÎ½":3408,"Ġá½ĢÏĥÏĦá½³Î±":3409,"ÏĥÎ¸Îµá½¶ÏĤ":3410,"Ġá¼ĲÎºÎµá¿ĸÎ½Î¿":3411,"Ġá¼ĲÎ½ÎµÏģÎ³Îµá½·á¾³":3412,"Ġá¿¥Î·ÏĦÎ¿ÏģÎ¹Îºá¿ĨÏĤ":3413,"ĠÏĩÎµá¿ĸÏģÎ±":3414,"Ġá½ģÎ´Î¿Î¹ÏĢ":3415,"á½·ÏĥÏĦÎ±ÏĦÎ±Î¹":3416,"ĠÏĥÎ±ÏģÎº":3417,"á¿ĨÎ»Î¸ÎµÎ½":3418,"ĠÏĢÎµá½·Î¸":3419,"ĠÏĦÏħÏģÎ±Î½Î½":3420,"ĠÎºÎµÎ»Îµá½»ÎµÎ¹":3421,"ĠÎ³Î»ÏħÎº":3422,"ĠÏĥÏĦá½±ÏĥÎ¹ÏĤ":3423,"ĠÏĥÏħÎºÎ¿ÏĨ":3424,"ĠÎ¸á½±Î»Î±ÏĥÏĥÎ±Î½":3425,"ĠÎ²Î¿á½»Î»Î·":3426,"ĠÎ¹":3427,"á¼©":3428,"Îµá½ºÏĤ":3429,"ÏĢÏĦÎ¿Ïħ":3430,"ĠÎºÎµÎ½":3431,"ÏħÎ¼ÏĨ":3432,"Ġá¼ĲÎ´á½·":3433,"Ġá¼Ģá½¹":3434,"Ġá¼ĢÎ»á½µ":3435,"Ïĩá¿¶ÏĤ":3436,"Î¿ÏħÏĥÎ±Î¹":3437,"ÏīÎ½á½·":3438,"ÏĥÎ¹Î±ÏĥÏĦ":3439,"á½µÎºÎµÎ¹":3440,"ĠÏĥÏĦÎ±":3441,"ÏĦÎ¹ÎºÎ±á½¶":3442,"á½³Î½Î±":3443,"ĠÎ´Î¹Î·Î³":3444,"ĠÎ»Ïħ":3445,"ĠÎµá¼°Ïĥá½·":3446,"Î½Î±Î³":3447,"ĠÎ¸Îµá¿ĸÎ¿Î½":3448,"Î¶á½µÏĦÎ·":3449,"ĠÎ½Îµá¿¦":3450,"Ġá½ĢÎ´":3451,"ĠÏĦÎµÏĥÏĥá½±ÏģÏīÎ½":3452,"ĠÏĢÎ±ÏģÎ¿Ïħ":3453,"ĠÏĦÎ±á¿¦":3454,"ÏĦÎµÏģÎ±Î¹":3455,"Ġá¼ĲÏĢÎ¹Î´á½³":3456,"ĠÎļÏģÎ±ÏĦ":3457,"ĠÎºÎ±Î¸á½¼ÏĤ":3458,"ÏĥÏĩÎ·":3459,"ĠÏĢÎ±ÏģÎ±ÏĢ":3460,"Ġá¼ĢÏĢÎ¿Î´":3461,"Ġá¼ĢÏĢÎ¿ÎºÎ±Î»":3462,"ĠÎĺÎµÎ¼Î¹ÏĥÏĦÎ¿Îº":3463,"Ġá¼µÎ½":3464,"Ġá¼ĢÏĨÎ±Î½":3465,"ĠÎ¼ÎµÏĦÎ±Î»á½µÏĪ":3466,"Ġá¼ĢÏģÏĩÎ±á½·":3467,"ĠÏĢÎ±Î½ÏĦÎµÎ»":3468,"ĠÎºÎµÏĨÎ±Î»á½°ÏĤ":3469,"Ġá¼ĦÏģÎ¸ÏģÎ±":3470,"á¼ĶÎ½":3471,"ÏĥÏĦá½³ÏģÎ±":3472,"ĠÎľÎ¹":3473,"Î½á½·ÎºÎ±":3474,"ĠĠĠ":3475,"Ġá¼ĦÎ½Î¸ÏģÏīÏĢÎ¿Î¹":3476,"ĠÎµá¼°ÏģÎ·Î¼á½³Î½Î±":3477,"ĠÎµá¼°Î´á¿¶Î½":3478,"ĠÎ»Î¿Î¹ÏĢá¿¶Î½":3479,"Ġá¼¹ÎµÏģ":3480,"ĠÏħá¼±á½¸Î½":3481,"ĠÏĥÎ±ÏĨá¿¶ÏĤ":3482,"Ġá¼ĲÎºÎºÎ»Î·Ïĥá½·Î±ÏĤ":3483,"ĠÎ²Î¿ÏħÎ»á½¹Î¼ÎµÎ½Î¿ÏĤ":3484,"Î±Î»Î»Î±Î³":3485,"ĠÎĳá¼´":3486,"Ġá¼ĲÎ¾ÎµÏĦÎ±":3487,"ĠÎ´Î¹Î±Î¹ÏģÎµ":3488,"ĠÎ´Î¹Î±Î¹Ïģá½³ÏĥÎµÏīÏĤ":3489,"ĠÎ´Îµá½·ÎºÎ½ÏħÏĥÎ¹Î½":3490,"ĠÎ¾á½»Î»Î¿Ïħ":3491,"ĠÎ¼Îµá½·Î¶Î¿Î½":3492,"Ġá¼ĲÎ½Î±Î½ÏĦÎ¹":3493,"ĠÎĿÎ¹Îº":3494,"ĠÏĥÏħÎ¼Î²Î±á½·Î½ÎµÎ¹":3495,"Ġá¼ĢÎ½ÏĦÎµÎ³ÎºÎ»Î·Î¼Î±ÏĦÎ¹Îº":3496,"ĠÎ¸Î±Î»á½±ÏĥÏĥÎ·ÏĤ":3497,"Î¿á½ĲÎ´á½²":3498,"ĠÏĢÎµÏģÎ¹ÏĦÏĦá½¸Î½":3499,"Ġá¼¸Ïīá½±Î½Î½":3500,"ĠÎ²Î¿ÏħÎ²á¿¶Î½Î±":3501,"Ġá¼ĢÎºÏģÎ¿Î±":3502,"á½¥ÏĥÏĢÎµÏģ":3503,"ĠÏĦÏħÏĨÎ»":3504,"Î½Î¿Î½":3505,"Î½á¿¦Î½":3506,"Î½Î¿Î¹Î±Î½":3507,"Ïģá¾³":3508,"Î»á¿ĥ":3509,"Î¼Î·Î½":3510,"ĠÎºÏĦá½·":3511,"ĠÎºÎ±ÏĦÎ¿Î¹":3512,"ÏīÎ¼á½³Î½Î¿Î½":3513,"Î³Î±Ïģ":3514,"á½±Î»Îµ":3515,"ÏīÎ½ÏĦÎ±Î¹":3516,"á½µÎ¼Î±ÏĥÎ¹":3517,"Ġá¼ĶÎ»Î±Î²":3518,"Î²á½±":3519,"ĠÎ»á½·Î±Î½":3520,"Ġá¼¡Î»á½·":3521,"ÏģÎ¹Î¿ÏĤ":3522,"ÏģÎ¹Î¶":3523,"á½¹Î½Ïħ":3524,"á½¹Î½ÏĦÎ±ÏĤ":3525,"ÎºÎ±á¿ĸÏĤ":3526,"ĠÏĩÎµÏģ":3527,"Ġá½ĳÎ¼á¿¶Î½":3528,"ĠÏĦÎ¿á½Ķ":3529,"ĠÏĢÏģÎ¿ÏĦ":3530,"ĠÏĢÏģÎ¿Îº":3531,"ĠÏĢÏģÎ¿ÏĥÏĦ":3532,"á½·Î½Î·ÏĤ":3533,"á½·Î½Î¿Î½ÏĦÎ±Î¹":3534,"ĠÎ½ÎµÎ½":3535,"ÏĪÎµÏīÏĤ":3536,"á½µÏĥÎ¿Î¼Î±Î¹":3537,"Î¿á½»Î¼ÎµÎ½Î¿Î¹":3538,"ĠÎµá¼´ÏĢÎ¿Î¹":3539,"Îµá½»ÎµÏĦÎ±Î¹":3540,"Ġá¼ĦÎ»Î»á¿³":3541,"Ġá¼ĦÎ»Î»Î¿Î¹ÏĤ":3542,"Ġá¼ĪÏģÏĩ":3543,"Î¿á¿¦Î½ÏĦÎ¿":3544,"Ġá¼ķÏĦÎµÏģÎ±":3545,"Ġá¼ķÏĦÎµÏģÎ¿ÏĤ":3546,"ÎµÎ»Î¸Îµá¿ĸÎ½":3547,"ĠÎµá½ĲÏĩ":3548,"Ġá¼ĢÎ½ÏĦÎ¹Î´Î¹":3549,"Ġá¼ĢÎºÎ¿Ïħ":3550,"ĠÎ¼Î·Î´Îµ":3551,"ĠÏĢÎ¿Î»Ïħ":3552,"á½±Î¶ÎµÎ¹":3553,"ĠÎºÎ¿Î¹Î»":3554,"Ġá¼ĢÎ¼ÏĨÎ¹":3555,"Ġá¼±Î¼":3556,"Ġá¼±Î¼á½±":3557,"Ġá½ķÏĥÏĦÎµÏģÎ¿Î½":3558,"ÏħÎºÎ»":3559,"Ġá¼ĢÎ½Î¸Ïģá½½ÏĢÎ¿Î¹ÏĤ":3560,"ĠÎľÎ±":3561,"Ġá¼°ÏĥÏĩÏħ":3562,"á½±ÎºÏģÎ¹":3563,"ĠÎ»Î¿Î³Î¹Îºá½¸Î½":3564,"Ġá¼ĲÎºÎµá½·Î½ÏīÎ½":3565,"Ġá¼ĢÎ³Î³á½³Î»Î¿Ïħ":3566,"ĠÎºÎ±ÏĦÎ·Î³Î¿ÏģÎµá¿ĸÏĦÎ±Î¹":3567,"ĠÏħá¼±á½¸ÏĤ":3568,"ĠÏĢÏħÏģá½¹ÏĤ":3569,"Ġá¼ĳÎ±ÏħÏĦá¿·":3570,"ĠÎ¼á½³Î»Î»ÎµÎ¹":3571,"Ġá¼ĲÏĢÎ¹ÏĥÏĦá½µÎ¼Î·ÏĤ":3572,"Ġá¼ĲÎºÎµá¿ĸÎ½Î¿ÏĤ":3573,"ĠÎ¼ÎµÎ³á½±Î»Î·Î½":3574,"Ġá¼ĶÎ³ÎºÎ»Î·Î¼Î±":3575,"ĠÎ´Î¹Î±Î½Î¿á½·á¾³":3576,"ĠÎ¼Î¹ÏĥÎ¸":3577,"ĠÎ³á½·Î³Î½ÎµÏĥÎ¸Î±Î¹":3578,"Ġá¼ĶÎ¸Î½":3579,"ĠÎ³á½³Î³Î¿Î½Îµ":3580,"ĠÏĥÏĨÎ¿Î½Î´á½»Î»ÏīÎ½":3581,"ĠÎ´Î±ÎºÏĦá½»Î»Î¿ÏħÏĤ":3582,"ĠÎ±á½ĸÎ¸Î¹ÏĤ":3583,"ĠÎ¶á¿´Î¿Ïħ":3584,"Ġá¼±ÎºÎ±Î½á¿¶ÏĤ":3585,"ĠÎµá½ĲÏĦÎµÎ»":3586,"ĠÏĥÎºá½³Î»Îµ":3587,"ĠÎ´á½·ÎºÎ·Î½":3588,"ĠÎ³ÎµÎ³ÎµÎ½Î·":3589,"µÎ½":3590,"ĠÏĥÎ¹Î½":3591,"á½Ģ":3592,"á½į":3593,"Î¿ÏĢÎ¿Î½":3594,"Î¹Î´":3595,"ĠÏĦÎ¼":3596,"ÏĥÎ¼Î±":3597,"ÏĥÏĥÎ¿Î½":3598,"ÏĢá¿¶ÏĤ":3599,"Î¼ÎµÏģ":3600,"ĠÎºÏģá½³":3601,"ĠÏĢÎ¹Îº":3602,"á½·ÏĥÎ±Î¹":3603,"á½·Î´ÏīÎ½":3604,"Ġá¼ĲÏĥÏĨ":3605,"ĠÎ¼Î±Î³":3606,"ĠÎ¼Î½Î·":3607,"Î¿á¿¦ÏĥÎ±Î½":3608,"ÏĥÏĦÎ¹ÏĤ":3609,"ĠÎ³á¿Ĩ":3610,"Ġá¼ĶÏĢ":3611,"ÏģÎ¹ÏĢá½·":3612,"Î¹Î½Î¿Î½":3613,"ĠÏĥÏħÏĥÏĦÎ±":3614,"ĠÏĢÏģÎ¿Î·Î³":3615,"á½³ÏģÎ³":3616,"á½·Î½ÏīÎ½":3617,"ĠÎ»á½³Î³Î¿ÏħÏĥÎ¹":3618,"ĠÏĦÎµÏĦÎ±Î³":3619,"Ïĥá½·á¿³":3620,"ÏĥÎµÏĥÎ¸Î±Î¹":3621,"ĠÎ¶á¿¶":3622,"Î±Î»Î¿Î½":3623,"ÏĥÎ±Î½ÏĦÎµÏĤ":3624,"ÎµÏĨá½±Î½":3625,"ĠÎµá¼¶ÏĩÎ¿Î½":3626,"ÏĦá½±Ïģ":3627,"ĠÎ±á¼°ÏĥÏĩ":3628,"Ġá¼ĢÎ³Î½Î¿":3629,"á½µÎ½Î·":3630,"Î·ÎºÎµÎ½":3631,"Î´Î·Î»":3632,"Ġá½ģÎ¼á½½Î½ÏħÎ¼Î±":3633,"ĠÎ¼á½³ÏģÎµÎ¹":3634,"Î¸á½³Î½Î±Î¹":3635,"Î¸á½³Î½ÏĦÎµÏĤ":3636,"ĠÏĢÎ±Î½ÏĦá½¶":3637,"ĠÎ¶Î·ÏĦá¿ĨÏĥÎ±Î¹":3638,"Ġá¿¥Î·ÏĦá¿·":3639,"Ġá¼ĵÎ¾":3640,"á½µÏĥÎ±Î½ÏĦÎ±":3641,"ĠÎ²Î¹Î²Î»á½·Î¿Ïħ":3642,"ĠÏĦÏģá½¹ÏĢá¿³":3643,"Ġá¼ĢÎ¼ÏĨÎ¿ÏĦá½³ÏģÎ¿Î¹ÏĤ":3644,"ĠÏĩÎµÎ¹Ïģá½¸ÏĤ":3645,"ĠÏĦÎµÏĦÏģá½±":3646,"Ġá¼ĢÏĢÎ¿Î»Î¿Î³á½·Î±":3647,"Î¼ÎµÏĦÏģÎ¿Î½":3648,"ĠÏĢÏģÎ¿Ïĥá½³Î¸Î·ÎºÎµÎ½":3649,"ĠÏĥÏħÎ¼Î²Î¿ÏħÎ»Îµá½»":3650,"Ġá¼ĦÏĦÎ¿ÏĢÎ¿Î½":3651,"ĠÎ³Î½á½½Î¼Î·Î½":3652,"Ġá¼ĪÏĦÏĦÎ¹Îº":3653,"ĠÎĳá¼°ÏĥÏĩ":3654,"ĠÎ²Î»á½±Î²":3655,"ÏĦÏĦÏīÎ½":3656,"Ïģá¾·":3657,"ĠÏĦÏħÏĩ":3658,"ĠÏĦÏģÎ±Ïĩ":3659,"Î»á¿³":3660,"Î¼á½³":3661,"Î¼Î·Ïģ":3662,"ĠÎºÏħÏģ":3663,"ĠÎºÎµÏĩ":3664,"ĠÎºÏģÎ±ÏĦ":3665,"ÎºÏģá½±":3666,"Î·ÏĥÎ¹":3667,"Î·ÏĦÎµ":3668,"ÏīÎ¸":3669,"Î¸Î±Î¹":3670,"Ġá¼ĢÎ´Î¹":3671,"Ġá¼ĢÏĥÎµÎ²":3672,"Ġá¼ĢÎ´ÎµÎ»ÏĨ":3673,"ĠÎ¼Î¿ÏħÏĥÎ¹":3674,"ĠÎ¼Î±Î¸":3675,"ÏĨÎ¿Î½":3676,"Î¿ÏħÎºÎ¹":3677,"ÏĥÏĦÏģÎ±":3678,"Î¿Î¹ÎµÎ½":3679,"á½µÏĥÎ¸Î·":3680,"ĠÏĢÏģÏħ":3681,"Ġá¼ĶÏĦÎ±":3682,"Ġá¼ĶÏĦÎ·":3683,"Ġá¼ĲÏĢÎ¿Î¹":3684,"Ġá½ħÎ¼ÏīÏĤ":3685,"Ġá¼¡Î½á½·ÎºÎ±":3686,"Ġá¼ĢÎ½á½±ÏĢ":3687,"á½¹Î½ÎµÏħ":3688,"Î¹Î½Î¿ÏħÎºÎ¹":3689,"Ġá¼ĢÏĢÎ±Î¹":3690,"Ïģá½·Î±Î½":3691,"Î»Î·ÏĢ":3692,"á¿¦Î¸ÎµÎ½":3693,"Ġá¼ĳÏĦá½³ÏģÎ±":3694,"ĠÏĢÎ±ÏģÎ¿Î¹":3695,"á½±Ïĥá¿ĥ":3696,"ĠÎ´Î¹Î±Î»Î±Î¼Î²á½±Î½ÎµÎ¹":3697,"Î¿Î³á½³Î½":3698,"Ġá¿¥á¾³":3699,"Î±Î»Î¹Î½":3700,"á½³Î»ÎµÎ¹":3701,"ÏĥÎ¼á½¸Î½":3702,"Ġá¼ķÏīÏĤ":3703,"Î¿Î¼á½³Î½á¿³":3704,"ĠÏĢÎ»á½±Î³":3705,"ĠÏĪÎ¹Î»":3706,"Ġá½ģÎ¼Î¿Î¹":3707,"Î¼Î½Î·":3708,"ĠÎºá½±Î¼ÏĢ":3709,"ĠÎľÎ¹Î½Î¿ÏħÎºÎ¹":3710,"ĠÏĢá¾¶ÏĥÎ¹Î½":3711,"ĠÎ´á¿ĨÎ¼Î¿Î½":3712,"ĠÎ´á¿ĨÎ¼Î¿ÏĤ":3713,"ĠÎłÎµÏģÎ¹Îº":3714,"Ġá¼ĢÎ¼ÏĨÎ¹ÏĥÎ²Î·ÏĦ":3715,"Ġá¼ĳÎºá½±ÏĥÏĦÎ¿Ïħ":3716,"Ġá¿¥á½µÏĦÏīÏģ":3717,"ĠÎ´Î¹ÏĢÎ»á¿Ĩ":3718,"ĠÎ¼ÎµÎ³á½±Î»Î·":3719,"ĠÏĢÎ±ÏģÎ±Î³ÏģÎ±ÏĨÎ¹Îºá½¸Î½":3720,"Ġá¼ķÎ½ÎµÎºÎ±":3721,"ĠÏĢÏģÎ±Î³Î¼Î±ÏĦÎ¹Îºá¿ĨÏĤ":3722,"ĠÎ´Î¿Î¸á¿ĨÎ½Î±Î¹":3723,"Ġá½ĢÏģÎ¸á¿¶ÏĤ":3724,"ĠÎ»á½·Î¸":3725,"ĠÏĢÎ±á¿ĸÎ´Î±":3726,"á½±ÏĥÎ±ÏĥÎ¸Î±Î¹":3727,"á½ĳÏĢ":3728,"ĠÏĦÏħÏģÎ±Î½Î½á½·":3729,"ĠÏĢÎ»Îµá¿ĸÏĥÏĦÎ¿Î½":3730,"Ġá½ĢÎ»Î¹ÏĥÎ¸":3731,"ĠÎºÎ±ÏĦÎ¿ÏģÎ¸á½½":3732,"ĠÏĢÎµÎ¹ÏģÎ±":3733,"Î´Î¿Î¾Î¿Î½":3734,"ĠÏĥÏĦá½¹Î¼Î±ÏĦÎ¿ÏĤ":3735,"ĠÏĦÎ¿á½»ÏĦÎ¿Î¹ÏĥÎ¹":3736,"Ġá¼ĢÏĢá½¹ÏĥÏĦÎ¿Î»Î¿ÏĤ":3737,"ĠÏĥÏĢÎ¿ÏħÎ´":3738,"ĠÏĢÏħÎºÎ½":3739,"Ġá¼ĻÏģÎ¼Î¿Î³á½³Î½":3740,"ĠÏĦÏģÎ¿ÏĩÎ±":3741,"ĠÎºá½³ÏģÎ±ÏĦÎ±":3742,"Ġá¼ĢÏĢÎ¿ÎºÎ±Î»á½»":3743,"ĠÎľÎ¹Î½Î¿ÏħÎºÎ¹Î±Î½":3744,"á½ī":3745,"ÏĦÏĦÎ·":3746,"ÏĦá½±Î½":3747,"Î¿Î¼á½±ÏĦÏīÎ½":3748,"Î¼Î±Î½":3749,"ĠÎºÏħÎ½":3750,"ĠÏĢá¿Ĩ":3751,"ĠÏĢÎ»Î·Î¸":3752,"ĠÏĢÎ·Î´":3753,"Î³Îº":3754,"ÏĦÎ±á¿ĸ":3755,"Î¸Î½":3756,"Ġá¼ĢÏĥÎº":3757,"Ġá¼ĢÏĥÏĨÎ±Î»":3758,"ĠÎ¼Î¿ÏģÏĨ":3759,"ÏĨÎ¿ÏĤ":3760,"á½»Î³":3761,"ÏīÎ½Î¿Î½":3762,"ĠÎ³Î»á½·":3763,"ĠÏĥÎµÎ»":3764,"Î»Î»Î±":3765,"Î¼Î±ÏĦÎµ":3766,"Î²Î´":3767,"ĠÏĨá½¹":3768,"ĠÏĨÎµÏģ":3769,"Îµá½·Î¼ÎµÎ½Î±":3770,"ĠÎ¿á¼³":3771,"ĠÎ¿á¼´Î½":3772,"Ġá¼ĲÎºÎ²":3773,"Ġá¼ĲÎºÏĢá½·":3774,"á½³ÏģÏīÎ½":3775,"á¿ĨÏĥÎ¹Î½":3776,"Î¶Î¿ÏħÏĥÎ¹":3777,"Ġá½ĳÏĢÎ¿ÏĢ":3778,"ĠÎ¼ÎµÏĥ":3779,"ĠÎ½Îµá½»":3780,"ĠÎ»á½³Î³ÎµÏĥÎ¸Î±Î¹":3781,"ĠÏĢÎ±Ïģá½³":3782,"ĠÏĢÎ±ÏģÎ¸á½³Î½":3783,"ÏĦá½·Î¸":3784,"á½±ÏĥÏĥ":3785,"Î¿á½»ÏĥÎ±ÏĤ":3786,"ĠÎ´Î¹Î±Ïĥ":3787,"ÏĥÎ±Ïģ":3788,"ĠÏĢÎ¿Î¹Î·":3789,"ĠÏĢÎ¿Î¹Îºá½·":3790,"ĠÏĩÏģÎµá½·Î±":3791,"ĠÏĩÏģá¿ĨÏĦÎ±Î¹":3792,"á½±Î³ÎµÏĦÎ±Î¹":3793,"á½¹ÏĦÎ·ÏĦÎ¹":3794,"ĠÎłÎ»Î±":3795,"ĠÎ±á¼°Î´":3796,"ĠÏĢÎ»á¿ĨÎ¸Î¿ÏĤ":3797,"ĠÎ¼á½¹Î½Î¿Ïħ":3798,"á½µÎ½ÎµÎ³":3799,"Î´á½·Î´Ïī":3800,"ĠÏĦá½¹ÏĢÎ¿Ïħ":3801,"Ġá½ģÎ¼á½½Î½ÏħÎ¼Î¿Î½":3802,"Ġá¼ĢÎ½Î±ÏĢ":3803,"ĠÎ³á½³Î½Î¿ÏħÏĤ":3804,"ĠÎ´Îµá¿ĸÎ¾Î±Î¹":3805,"ĠÏĢÏģá¿¶ÏĦÎ±":3806,"á½µÎ»Ïī":3807,"Î¸ÏģÏīÏĢ":3808,"ĠÏĢá½³ÏģÎ±":3809,"Ġá½łÎ´":3810,"ĠÎ½á½¹Î¼á¿³":3811,"ĠÎ¿á¼°ÎºÎµá½·Î±Î½":3812,"ĠÏĥÏĦÎ¿ÏĩÎ±ÏĥÏĦ":3813,"Î´ÏģÎ¿ÏĤ":3814,"ĠÎ²ÏģÎ±Ïĩá½»":3815,"Ġá¼ģÎ³á½·Î¿Î¹ÏĤ":3816,"Î»Î±Î²Îµá¿ĸÎ½":3817,"ĠÏĢÏħÏģá½¶":3818,"ĠÏĥÏīÎ¼á½±ÏĦÏīÎ½":3819,"ĠÏĢÎ±Î¹Î´":3820,"ĠÎºÎ±Î¹Ïģá½¸Î½":3821,"Ġá¼ĲÎ³ÎºÎ»á½µ":3822,"ĠÏĦá½»ÏģÎ±Î½":3823,"ĠÎķá½ĲÏģÎ¹ÏĢá½·":3824,"ĠÎ´ÏħÎ½Î±ÏĦá½¸Î½":3825,"Ġá¼ĦÎ³Î³ÎµÎ»Î¿Î¹":3826,"ĠÎ´ÏīÏģÎ¿":3827,"á½½ÏĦÎ±ÏĦÎ¿Î½":3828,"Ġá¼ĢÎ¼ÏĨÎ¹ÏĥÎ²á½µÏĦÎ·ÏĥÎ¹ÏĤ":3829,"Ġá¼ĢÎ»Î»Î±Î½ÏĦÎ¿ÏĢá½½Î»Î·ÏĤ":3830,"ĠÎ¸Î·Ïģá½·Î¿Ïħ":3831,"ĠÎµá¼°Ïģá½µÎºÎ±Î¼ÎµÎ½":3832,"ĠÎºÎ±ÏģÏĢ":3833,"á½³ÏĥÏĦÎ·ÎºÎµÎ½":3834,"ĠÏĢÎµÏĢÏģÎ±Î³Î¼á½³Î½Î¿Î½":3835,"Îµá¼´ÏģÎ·ÏĦÎ±Î¹":3836,"á¼ĲÎ³á½¼":3837,"Î±á½ķÏĦÎ·":3838,"ĠÏĢÎ»Î¿á½»ÏĥÎ¹Î¿ÏĤ":3839,"ĠÎµá½ĲÎµÏģÎ³Îµ":3840,"ĠÎ¸ÎµÏĥÏĢá½³ÏĥÎ¹Î¿ÏĤ":3841,"ĠÏĨÎ¹Î»á½¹ÏĥÎ¿ÏĨ":3842,"ĠÎµá½ĲÎ¸ÏħÎ´Î¹Îº":3843,"ĠÎĶÎ¹Î±Î²á½¹Î»Î¿Ïħ":3844,"ĠÎ½Îµá¿¦ÏģÎ±":3845,"ĠÏĢÎ±Î½ÏĦÎµÎ»á¿¶ÏĤ":3846,"ĠÎºÎ±ÏĦÎ¿Î¹Îº":3847,"ÏĦÎ¿á¿ĸÏĤ":3848,"Ġá¼Į":3849,"ÏģÎ¿ÏħÏĤ":3850,"Î»ÎµÎ½":3851,"Î¼á½¶":3852,"ĠÎºá½³":3853,"ĠÎºÏħÏĨ":3854,"Î·ÏĨ":3855,"ĠÏĢÏħÎ³":3856,"ĠÎºÎ±ÏĦÏī":3857,"ĠÎ´Î¿á¿¦Î½Î±Î¹":3858,"á½¹ÏĥÎ¹":3859,"ÏĩÎ·":3860,"ÏĩÎµÏĥÎ¸Î±Î¹":3861,"Î´á½±":3862,"á½»Î¸":3863,"Î±Î½Î¿Î½":3864,"ĠÏĥÎ¿á¿¦":3865,"ÏĦÎ¹Î¼":3866,"ÏĦÎ¹Î½Î±":3867,"Ġá¼ĶÎ³Î³":3868,"ĠÏĨÎ»Îµ":3869,"ÏĥÎ¸Ïī":3870,"Ġá¼ĢÏĢá½³Îº":3871,"ĠÏĢÎ±Î¸":3872,"ĠÏĩÎ±á½·":3873,"ĠÏĩÎ±Î»Î±":3874,"ĠÎ¸Î»á½·":3875,"ĠÎ²Î¹":3876,"ĠÎ²á½±Ïģ":3877,"ĠÎ½Î¿á¿¦Î½":3878,"ĠÎ½Î¹Îºá¿¶Î½":3879,"ĠÏĢÎ±ÏģÎ¿á¿¦ÏĥÎ±":3880,"ĠÏĢÎ¿Î¹Î¿á¿¦":3881,"ÏģÎ·Î¼Î±":3882,"ĠÎµá¼´Î´ÎµÎ¹":3883,"ĠÏĥÏħÎ½Î±Î½":3884,"Ġá¼ĦÎ»Î»Î¿ÏħÏĤ":3885,"á¼ĲÎ¾":3886,"Î»á½·Î±":3887,"Ġá¼ĢÎ³Î¿Ïģ":3888,"ĠÏĢÎ±ÏģÎ±Î³":3889,"ĠÏĦÎ¹Î½á½¶":3890,"ĠÎ¼á½¹Î½ÏīÎ½":3891,"Î·ÎºÎµ":3892,"ÏĢÎ±ÏģÎ±":3893,"á½±Î¶ÎµÏĦÎ±Î¹":3894,"ĠÎ³á½³Î½ÎµÎ¹":3895,"ĠÎ³á½³Î½Î¿Î¹ÏĦÎ¿":3896,"ÏħÎ¼Î½Î±":3897,"Ġá¼ĢÏģÎº":3898,"Î±ÏĨÎ»Î±Î³":3899,"ÏĨÎ±Î¼ÎµÎ½":3900,"ĠÎµá¼°ÏģÎ·Î¼á½³Î½ÏīÎ½":3901,"ĠÎ´Î¹Î±ÏĨÎ¿Ïģá½°":3902,"ÏĢÎ¹ÏĥÎ¸ÎµÎ½":3903,"ĠÏĢÎ½ÎµÏħ":3904,"Î´á½»Î½Î±ÏĦÎ¿":3905,"ĠÎ¼á½³Ïĥá¿³":3906,"Ġá¼ģÏĢÎ»á¿¶Î½":3907,"ĠÎ»á½»ÏĥÎ¹ÏĤ":3908,"ĠÏĦÏģá½¹ÏĢÎ¿ÏĤ":3909,"ĠÏĥÏħÎ½ÎµÏĩá¿¶ÏĤ":3910,"Ġá¼ĳÎºá½±ÏĥÏĦá¿³":3911,"ÏĩÎ¸Î±Î¹":3912,"ĠÏĦÎ¹Î¼ÏīÏģá½·":3913,"ĠÏĥÎºÎ¿ÏĢá½¸ÏĤ":3914,"ĠÏĢÎ»ÎµÎ¿Î½":3915,"Ġá¼ĢÏĢÎ¿Î»Î¿Î³á½·Î±Î½":3916,"Ġá¼ĢÎ¾Î¹Î¿á¿ĸ":3917,"ĠÏĦÎ±á½ĲÏĦá½¹Î½":3918,"ĠÎ´Î¹Î±á½·ÏģÎµÏĥÎ¹ÏĤ":3919,"Ġá¼ĢÎ¼ÏĨá½¹ÏĦÎµÏģÎ¿Î¹":3920,"ĠÏĢÎ½Îµá½»Î¼Î±ÏĦÎ±":3921,"ĠÎ±á¼°á¿¶Î½Î±ÏĤ":3922,"ĠÎ²á½·Î²":3923,"á½±ÏĥÎ±Î½ÏĦÎµÏĤ":3924,"Ġá¼¸ÏĥÏģÎ±á½´Î»":3925,"Ġá¼ĢÎºÎ¿Î»Î¿ÏħÎ¸":3926,"ĠÎĶÎ¹á½±Î²Î¿Î»Î¿ÏĤ":3927,"Ġá¼¸Î¿ÏħÎ´Î±á½·":3928,"ĠÏĢÎ·Î»Î¹Îº":3929,"ĠÎ´Î±á½·Î¼Î¿Î½":3930,"Î³Î±ÏģÎ¿á¿¦Î½":3931,"ĠÎ³Î»á½·ÏĥÏĩ":3932,"Ġá¼ĢÏĢá½³ÎºÏĦÎµÎ¹Î½":3933,"á¼ª":3934,"ÎµÎ¶":3935,"ĠÏĦÏģá½±":3936,"ĠÏĦÎ¿á¿ĸÏĥÎ¹Î½":3937,"Î¼Î¹Îº":3938,"ÎºÏīÏĤ":3939,"ĠÏĢÎ¿á¿¦":3940,"á½·ÎºÎ±":3941,"á½³Î»Î»":3942,"ĠÎºÎ±ÏĢÎ½":3943,"Ġá¼ĲÎ´Îµ":3944,"ÏīÎ¼á½³Î½ÏīÎ½":3945,"á½±Î´Î±":3946,"Ġá¼ĢÎ»Î·":3947,"Ġá¼ĢÎ¸Ïģ":3948,"ÏĩÏģá½·ÏĥÏĦ":3949,"Î´ÏģÎ¿Î½":3950,"ĠÎ³á½¹Î½Ïħ":3951,"Î¼Î±Îº":3952,"ĠÎµá¼°ÏĥÎ±":3953,"ĠÏĨÎ¿Ïģ":3954,"Ġá¼¡ÏĦÏĦÎ·":3955,"á½½Î´Î·":3956,"Ġá¼ĢÎ½Î´":3957,"Ïģá½·Î±ÏĤ":3958,"á¿¶ÏĦÎ±":3959,"ĠÎ¸á½½":3960,"ĠÎ½á½»":3961,"ĠÎ»á½³Î³á¿ĥ":3962,"Ïĥá½·Î¿Ïħ":3963,"ĠÎ¿á½ĸÏĤ":3964,"ĠÎ¶á½½":3965,"ĠÏĩÏģá¿¶Î¼Î±":3966,"Ġá¼ĦÎ»Î»Î¿ÏĤ":3967,"ĠÎµá½ĲÎ¸á½³":3968,"ÎµÏĢÎ»ÎµÎ³":3969,"ĠÎ¼á½¹Î½Î¿ÏĤ":3970,"Ġá¼ĢÎ½ÏĦÎ¹ÏĩÏģá½·ÏĥÏĦ":3971,"ĠÎ¿á½ĶÎº":3972,"ĠÎ¿á½ĶÏĢÏī":3973,"ĠÏĦÏģá½³ÏĨ":3974,"ĠÎ²Î±Î´á½·":3975,"ĠÏĢÎ±Î½ÏĦÎ¿":3976,"Ġá¼ĢÎ½Î¸ÏģÏīÏĢ":3977,"á¿ĸÎ½Î¿Î½":3978,"á¾·Î½":3979,"ÏĢÎ¿Î»Î»":3980,"Î´ÏīÎ¼ÎµÎ½":3981,"Ġá¼ĳÏĦá½³Ïģá¿³":3982,"ĠÏĩÏģá½¹Î½Î¿ÏĤ":3983,"ĠÎºÎ±ÏĦÎ·Î³Î¿Ïģá½·Î±Î¹":3984,"ĠÏĩÏģÎ·ÏĥÏĦ":3985,"Î²á½±Î»Î»ÎµÎ¹":3986,"Ġá¼ĥÏĤ":3987,"ÏĨÎ·Ïĥá½¶Î½":3988,"ĠÎ»ÎµÎ³á½¹Î¼ÎµÎ½Î¿Î½":3989,"Ġá¼ĢÎ»Î»á½µÎ»Î¿ÏħÏĤ":3990,"ĠÎ¼ÎµÏģÎ¹Îºá½¸Î½":3991,"á½³Î¼ÎµÎ¹Î½":3992,"ĠÎ´ÎµÏħÏĦá½³ÏģÎ±Î½":3993,"ĠÏĦÎ¿Î¹Î¿á¿¦ÏĦá½¹Î½":3994,"ĠÎ¿á¼¶Î´Î±":3995,"ĠÏĥá½»ÏĥÏĦÎ±ÏĥÎ¹Î½":3996,"ĠÎµá½ĲÎ¸á½ºÏĤ":3997,"Ġá¼ĢÏģÎ¹Î¸Î¼á½¸Î½":3998,"ĠÏĩÎ±Î»Îµ":3999,"ĠÎ´Î¹Î±Î½Î¿á½·Î±ÏĤ":4000,"ĠÎ´Î¿Î¾":4001,"ĠÏĢÏģÎµÏĥÎ²Ïħ":4002,"Î¸Îµá½·Î·":4003,"ĠÎ¼Î¿Î¹Ïĩá½¸Î½":4004,"Ġá¼ĢÏĢÎ¿ÏĥÏĦá½¹Î»":4005,"Î¿á½ĹÏĦÎ¿Î¹":4006,"Ġá½ģÏĢá½¹":4007,"ĠÎ´Ïģá½±ÎºÏīÎ½":4008,"ĠÎµá¼´ÏģÎ·ÎºÎµÎ½":4009,"Ġá¼ĦÎ¾Î¹Î¿Î½":4010,"ĠÎ¸ÏħÏĥÎ¹Î±ÏĥÏĦ":4011,"Ġá½ĢÏĨÎµá½·":4012,"Ġá¼°Î·ÏĦÏģ":4013,"ĠÏĥÏħÎ¼ÏĢÎ»Î¿Îºá¿ĨÏĤ":4014,"Ġá¼©ÏĥÎ±á¿ĵÎ±ÏĤ":4015,"ĠÎ´á½µÎ¼Î¿Ïħ":4016,"Ġá¼¸Î·ÏĥÎ¿á¿¦":4017,"á¼¦Î½":4018,"ĠÎ¼Î±ÏĥÏĩá½±Î»Î·Î½":4019,"Ġá¼¹ÎµÏģÎ¿ÏħÏĥÎ±":4020,"ĠÏĥÎ¹Î½Î±Ïģ":4021,"ĠÎ¼Î¿ÏħÏĥÎ¹Îº":4022,"ĠÏĢÏģÏħÏĦÎ±Î½":4023,"á½ĥ":4024,"á½ķ":4025,"Î¿Î»Î»":4026,"á¼ĳ":4027,"Îµá½Ĳ":4028,"Ïģá¿³":4029,"ÏĥÏħÎ½":4030,"Î¼Î¼Îµ":4031,"ĠÎºÏģá½±":4032,"ĠÏĢÎµÎ¹Ïģ":4033,"ĠÎ´á½±Îº":4034,"á½±ÏĦÏī":4035,"ÎµÎ¹Î¼á½³Î½ÏīÎ½":4036,"ĠÏĥá½·":4037,"Îµá¿ĸÏĥÎ±Î¹":4038,"Ġá¼ĲÎ½á½³ÏģÎ³":4039,"Î¼Î±ÏĦá½±":4040,"Î¼Î±ÏĩÎ¿ÏĤ":4041,"Ġá¼ĶÎ»Î±":4042,"Ġá¼ĲÏĢÎµÎ¹Î´":4043,"ĠÎµá¼°á½½Î¸Î±":4044,"ĠÏĨá½±Ïģ":4045,"ĠÏĨÎ»ÎµÎ³":4046,"Ġá¼ĢÎ½á½´Ïģ":4047,"ÎºÎ±Î¸":4048,"Ġá¼ĦÎ»Î¿Î³":4049,"ĠÏĢÎ±á¿ĸÏĤ":4050,"Îµá½·ÏĤ":4051,"Ïģá½·Î±":4052,"ĠÎ¿á¼¶Î½":4053,"Ġá¼ĲÎºÏĦá½¸ÏĤ":4054,"ĠÏĢÏģÎ¿ÏĬ":4055,"ĠÏĢÏģÎ¿ÏĦá½³ÏĦÎ±":4056,"Î»Î·Î»Ïħ":4057,"ĠÎ¼ÎµÎ»Î»":4058,"ĠÎ½ÏħÎº":4059,"Ġá¼ĳÎº":4060,"Ġá½ĢÏĩ":4061,"Ïĥá½·Î¿ÏħÏĤ":4062,"Ġá¼ĶÏĩÏī":4063,"Ġá¼ĶÏĩÎµÎ¹ÏĤ":4064,"Î»Î±ÏĥÏĦ":4065,"ĠÎ´Î¹Î±ÏĥÏĦ":4066,"ĠÏĢÎ¿Î¹á½µÏĥÎ±ÏĤ":4067,"Ġá¼ĲÎ¾á½³Ïĩ":4068,"ÏĦÎ¹Îºá½±":4069,"Ġá¼ķÎ¾Î¹Î½":4070,"Ġá¼ķÎ¾ÎµÏīÏĤ":4071,"Ġá½ĦÏĢÎ¹ÏĥÎ¸ÎµÎ½":4072,"ĠÎµá¼¶ÏĩÎµ":4073,"ĠÏĢÎ»Î¿Ïħ":4074,"ĠÎ¿á¼·ÏĥÎ¹Î½":4075,"ĠÎ±á¼±Î¼":4076,"ĠÎ¼á½¹Î½Î·":4077,"ĠÎ¼á½¹Î½á¿³":4078,"Ġá¼ĲÎ³á½½":4079,"Ġá¼ħÏĦÎµ":4080,"ĠÏĦá½¹Î½":4081,"á½½Î½ÏħÎ¼":4082,"Ġá¼ĢÎ½Î±ÏĥÏĦ":4083,"Ġá¼´Î±":4084,"Î¼Î½Î·ÏĦÎ±Î¹":4085,"Î·Î³Î³":4086,"Î²Î±á½·Î½ÎµÎ¹Î½":4087,"ĠÎºá½±Î¼Î½":4088,"ĠÏĨÏīÎ½á¿ĩ":4089,"ĠÎºÎ±ÏĦÎ±ÏĥÎºÎµÏħá½´Î½":4090,"ĠÎ§ÏģÎ¹ÏĥÏĦá¿·":4091,"ÏĦá½µÎ´ÎµÎ¹":4092,"Î²á½±Î»Î»ÎµÎ¹Î½":4093,"ĠÏĢá½±Î¸Î·":4094,"ĠÎļá½»ÏģÎ¹Î¿Î½":4095,"ĠÎ¼Î¹ÎºÏģ":4096,"ĠÎ´Î¹á½±Î¸ÎµÏĥÎ¹ÏĤ":4097,"ĠÎ¼Î±Î¸Î·":4098,"ĠÎµá½ĳÏģÎµ":4099,"Ġá½ĢÏĥÏĦá½³ÏīÎ½":4100,"ĠÎķá½ĲÎ±Î³Î³ÎµÎ»":4101,"ĠÎºÎ¿Î»Î±Îº":4102,"ĠÏĩÎ±ÏģÎ±Îº":4103,"ĠÎ³ÏħÎ½á½´":4104,"ĠÏĦá½³Î»ÎµÎ¹Î¿Î½":4105,"Ġá¼ĳÎºÎ±ÏĦá½³ÏģÎ¿Ïħ":4106,"Ġá¼ĲÎºÏĢÎµÏĢ":4107,"Ġá¼ĢÎ»Î»Î±Î½ÏĦÎ¿ÏĢá½½Î»Î·Î½":4108,"ĠÎ´Î¹ÎºÎ±ÏĥÏĦÎ·Ïģá½·":4109,"ĠÎºá½·Î½Î·ÏĥÎ¹Î½":4110,"ĠÏĥÏħÎ¼Î²Î¿ÏħÎ»ÎµÏħ":4111,"ĠÏĦá½³ÏĥÏĥÎ±ÏģÎ±ÏĤ":4112,"ĠÏĢÎ±Ïģá½³ÏĩÎµÎ¹":4113,"Ġá¼ĲÎ¾á½³ÏĦÎ±ÏĥÎ¹Î½":4114,"ĠÎ¼á½»ÎµÏĤ":4115,"Îµá¼¶ÏĦÎ±":4116,"Î²ÎµÎ²Î»Î·":4117,"Ġá¼ĲÎ¼Î½á½µÏĥÎ¸Î·":4118,"Ġá½ķÎ´Î±ÏĦÎ¿ÏĤ":4119,"Ġá½ĢÏĢÏĦÎ±Ïĥá½·Î±":4120,"Îķá¼°":4121,"Î¶á½µÏĦÎ·ÏĦÎ±Î¹":4122,"ĠÏĢÏģÎ¿ÏĦá½³ÏĦÎ±ÎºÏĦÎ±Î¹":4123,"ÏĦÏĦÎ¿":4124,"Î±ÏĢÎ±":4125,"ÏģÎ±Î¹":4126,"Ïģá¾¶":4127,"ĠÏĦÎµá½·":4128,"Ïĥá½±Î½":4129,"ÏĥÎ¼Î±ÏĦÎ±":4130,"ÏĥÎ¿Î½ÏĦÎ±Î¹":4131,"ÏĢÏĦÏīÎ½":4132,"Î»Î±Î½":4133,"ĠÎºÏģÎ¹":4134,"á½·Î±Î¹":4135,"ÏĦÎ±á½¶":4136,"á½±Î¼ÎµÎ½Î¿Î½":4137,"Î¸Î¿Ïħ":4138,"Î¸ÏħÎ½":4139,"Ġá¼ĢÎ»":4140,"ĠÎ¼Î±Î»":4141,"ĠÎ¼Î·ÏĦ":4142,"ĠÎ¼Î±Î»Î±":4143,"Î´ÎµÎ¹ÏĤ":4144,"Î´ÏģÎ±Î¼":4145,"á½»Î»Î¿Î½":4146,"ÏĥÎ¹Î±ÏĤ":4147,"ÎµÏģá¿¶ÏĤ":4148,"Ġá¼ĲÎ½Î¸ÏħÎ¼":4149,"Ġá¼ĶÎ¿Î¹":4150,"ĠÎµá¼°Î¼Î¹":4151,"Ġá½ħÏĥÏĦÎ¹ÏĤ":4152,"Ġá¼ĢÎ½ÏĦ":4153,"ÏĦÎµÏĩÎ½":4154,"Î¼á½³Î½á¿ĥ":4155,"Ġá¼ĢÏĢá½±":4156,"ĠÏĩá½·Î»Î¹":4157,"Î¿á¿ĸÎ½":4158,"ĠÏĢÏģÎ¿Î´Î¿":4159,"ĠÎ²Î¿á¿":4160,"á½·Î½ÎµÏĥÎ¸Î±Î¹":4161,"á½·Î½Î¿ÏħÏĥÎ¹":4162,"ĠÎ½Ïī":4163,"ĠÎ½ÎµÏħ":4164,"Ġá¼ĳÏĦá½³ÏģÎ±ÏĤ":4165,"ÏĪÎ¹Î½":4166,"ĠÎ»á½³Î³Î¿ÏħÏĥÎ±":4167,"Ġá½ĢÎ´ÏħÎ½":4168,"Î¿á½»Ïĥá¿ĥ":4169,"ÏĦÎ¹Îºá½µ":4170,"ĠÏĥÏĦá½³ÏĨ":4171,"á½±Î»ÏĢÎ¹":4172,"ĠÏĥÏħÎ½á½±":4173,"Ġá¼ķÎº":4174,"ÏĥÎ±Î½ÏĦÎ¿ÏĤ":4175,"ĠÎ¿á½ĲÎ´á½³Î½":4176,"Î»á½³Î±":4177,"ĠÎłÎ¿Ïĥ":4178,"Ġá¼¤Ïģ":4179,"ĠÏĢÎ±ÏģÎ±Îº":4180,"ĠÏĢÎ±ÏģÎ±Î²":4181,"Ġá¼ĢÏĢÎ¿ÏĨ":4182,"Ġá¼ĦÎ½Î´":4183,"ÎµÏĢÎ¹":4184,"Î·Î¼á½¹Î½ÎµÏħ":4185,"ĠÏĥÎºÎ»Î·":4186,"ĠÎ¼á½¹Î½Î±":4187,"á½»Î½Î·":4188,"ĠÏĢÎ¿Î»Î»Î¿á¿¦":4189,"ĠÏĢÎ¿Î»Î»Î¿á½ºÏĤ":4190,"ĠÎ³á½³Î½Ïħ":4191,"ĠÎ¾Î·":4192,"ĠÎ¾á½³Î½":4193,"ĠÎ¼ÎµÏĦÎ±ÏĥÏĦ":4194,"Ġá½ĢÎ½Î¿Î¼á½±ÏĦÏīÎ½":4195,"Ġá¼ĶÎ½Î´Î¿Î½":4196,"ĠÏĢÎ¿Î¹á½¹ÏĦÎ·ÏĦÎ¹":4197,"ĠÏĦá½±Î´Îµ":4198,"ĠÎ²Î±ÏĥÎ±Î½":4199,"ĠÎºÏģá½·ÏĥÎ¹ÏĤ":4200,"Ġá¼ĲÏĩá½¹Î½ÏĦÏīÎ½":4201,"Ġá½ĳÏĢÎ¿ÎºÎµá½·Î¼ÎµÎ½Î¿Î½":4202,"Ġá¼°ÏĥÏĩá½·Î¿Î½":4203,"ĠÎ¿á½ĲÏĩá½¶":4204,"Ġá½ĳÏĢÎ¿ÏĥÏĦ":4205,"ĠÏĢÏģÎ±Î³Î¼Î±ÏĦÎµ":4206,"ĠÏĢá¾¶ÏĥÎ±Î¹":4207,"Ġá¼ĢÎ½á½±Î³ÎµÏĦÎ±Î¹":4208,"ĠÎ½Î¿Î¼á½·":4209,"Ġá½ĳÎ³Ïģ":4210,"ÏĥÎ¸Î·ÏĥÎ±Î½":4211,"Ġá¼ĦÏģÎ¸ÏģÎ¿Ïħ":4212,"Ġá¼ĲÎºÎµá½·Î½á¿³":4213,"ĠÎ¼Î±Ïĩ":4214,"ĠÎ¼Î±ÎºÎ±":4215,"ĠÎ»á½³Î¾Î¹Î½":4216,"Ġá¼ĢÎ³Î±Î¸á¿¶Î½":4217,"ĠÏĢÏħÏģá½¸ÏĤ":4218,"Ġá¼ĲÏģÎµá½·":4219,"ĠÏĦÏģá½¹ÏĢÎ¿ÏħÏĤ":4220,"Ġá¼ĢÎ½Î±Î³ÎºÎ±á¿ĸ":4221,"ĠÏĥÏħÎ½ÎµÏĩÎ¿á¿¦ÏĤ":4222,"ĠÏĥÎ±ÏĨá¿Ĩ":4223,"Ġá¼ĳÎ±ÏħÏĦÎ¿á¿ĸÏĤ":4224,"ĠÎ´Î¹Î±Î¹ÏģÎµá¿ĸÏĦÎ±Î¹":4225,"ĠÎ±á¼´ÏĥÎ¸Î·":4226,"ĠÎ±á¼´ÏĦÎ¹Î¿Î½":4227,"ĠÎ±á¼´ÏĦÎ·ÏĥÎ¹Î½":4228,"á¼¢Î½":4229,"Ġá¼ĢÎ½á½±Î³ÎºÎ·ÏĤ":4230,"ĠÎºÏģÎ¹Î½á½¹Î¼ÎµÎ½Î¿Î½":4231,"ĠÎºá½·Î½Î´ÏħÎ½":4232,"ĠÏĢÎµÏĢÎ¿Î¹Î·Îºá½³Î½Î±Î¹":4233,"ĠÏĩÎ¿Ïģá½¸ÏĤ":4234,"ĠÎ´Î¹Î±ÏģÎ¸Ïģá½½ÏĥÎµÏīÏĤ":4235,"ĠÎºÎ¿ÏĦá½»":4236,"ĠÎ³ÏħÎ½Î±Î¹Îº":4237,"ĠÏĨÎ¹Î»Î¿ÏĥÎ¿ÏĨá½·Î±ÏĤ":4238,"ĠÏĦÏħÎ³Ïĩá½±Î½ÎµÎ¹":4239,"Ġá¼ĢÎ½Î´Ïģá¿¶Î½":4240,"ĠÎ´Î¹á½±ÏĨÎ¿ÏģÎ¿Î½":4241,"ĠÎ´Î¹ÏīÏģÎ¹ÏĥÎ¼á½³Î½Î¿Î½":4242,"ĠÎ¼ÎµÏĦÎ±ÏĨÎ¿Ïģá¾¶ÏĤ":4243,"ĠÎłÎ½Îµá½»":4244,"Ġá¼ĶÏĥÏĦÏī":4245,"ĠÏĩÎ±Î»Îº":4246,"ĠÎ¶Î·ÏĦÎ·Î¼á½±ÏĦÏīÎ½":4247,"Ġá½ĳÏĢÎ¿Î¼Î½":4248,"ĠÏĨÎ±ÏģÎ¼á½±":4249,"ĠÎ½Î¿Î¼Î¿Î¸á½³ÏĦÎ¿Ïħ":4250,"Ġá¼ĲÎ½ÏĦÎµá¿¦Î¸ÎµÎ½":4251,"Ġá¼¡Î»á½·Î¿Ïħ":4252,"ĠÎ½Îµá½»ÏģÏīÎ½":4253,"ĠÎ´ÏīÏģÎ¿Î´Î¿Îº":4254,"ĠÎµá½ĲÎ¸á½³ÏīÏĤ":4255,"Î½Ïī":4256,"ÏĥÎ·":4257,"Ïĥá¿³":4258,"ÏĥÎ¿Î¹ÏĥÎ¹":4259,"Î¼Î¿Ïħ":4260,"ĠÎºá¿¶":4261,"ĠÎºÎ·Ïģá½»":4262,"ÎºÎµÏĦÎ±Î¹":4263,"Î·Ïĩ":4264,"ĠÏĢÎ¿Ïħ":4265,"á½³Î¼ÏĢ":4266,"ĠÎºÎ±Î¼ÏĢ":4267,"ÏīÎ»":4268,"Ġá½Ļ":4269,"ĠÎ´Î±Î¹Î¼":4270,"ĠÏĦá½µÎ½":4271,"Ġá¼ĢÏĦÎµ":4272,"ĠÎ¼Î¹Ïĥ":4273,"Î´á½±ÏĦÏīÎ½":4274,"Î¿á¿¦ÏĥÎ±Î¹":4275,"á½»ÏĦÎ·":4276,"ĠÎ³á¿ĩ":4277,"ĠÏĦÎ¿á¿¦Î´Îµ":4278,"ÎµÏģÏĩ":4279,"ÎµÏģá¿¶Î½":4280,"Î»Î»ÏīÎ½":4281,"Ġá¼ĲÏĢá½±Î½":4282,"Ġá¼ĲÏĢá½±Î³ÎµÎ¹":4283,"ĠÎ»Îµ":4284,"Ġá½ģÏģÎ¼":4285,"Ġá½ħÎ»Î·Î½":4286,"ĠÏĨÏģ":4287,"Ġá¼ĢÎ½Îµ":4288,"Ġá¼ĢÎ½Î¿á½·":4289,"Ġá¼ĢÏĢÎµ":4290,"ĠÏĢÎ±Ïĥá¿¶Î½":4291,"ĠÏĩÎµá½·":4292,"ĠÏĩÏħÎ¼":4293,"Ġá½ĳÎ´á½±ÏĦÏīÎ½":4294,"Î¹Îºá½¸ÏĤ":4295,"Ġá½ĢÎº":4296,"Î»Î±ÏĥÏĨ":4297,"ĠÏĢÎ¿Î¹á½¸Î½":4298,"ĠÏĢÎ¿ÏĦá½³":4299,"Î¿Î³ÎµÎ½":4300,"Ġá¿¥Ïħ":4301,"Ġá¿¥á½·Î¶":4302,"ĠÏĥÏħÎ½á½½Î½ÏħÎ¼Î±":4303,"ĠÏĥÏħÎ½ÏīÎ½á½»Î¼ÏīÏĤ":4304,"Ġá¼ĪÏģ":4305,"á½±Î³ÎµÎ¹Î½":4306,"ĠÎ»á½¹Î³Î¿Î¹":4307,"Ġá¼ĢÎ³Îº":4308,"Ġá¼ĢÏĢÎ¿Î´ÎµÎ¹":4309,"ĠÏĦÎ¿Î¹Î³Î±ÏģÎ¿á¿¦Î½":4310,"á½±ÏģÎ¸ÏģÏī":4311,"Î±á½·Î¿Ïħ":4312,"á½µÎ½Î·ÏĤ":4313,"ĠÏĪá½µ":4314,"ĠÎ¼Î·ÏĩÎ±Î½":4315,"ĠÎºÎ±Î»Î¿ÏħÎ¼á½³Î½":4316,"Ġá¼ĢÏĨÎ¿ÏģÎ¼":4317,"ĠÎĶÎ±Ïħ":4318,"ĠÏĢá½¹ÏģÎ½":4319,"Ġá¼ĶÎ½ÏĦÎµÏģÎ±":4320,"ÎµÎ³Îº":4321,"Î»ÎµÏħÎ¸":4322,"ĠÏĢá½±ÏĥÎ±ÏĤ":4323,"Î´ÏīÎºÎµ":4324,"Ġá½łÎ¼":4325,"Îºá½¹ÏĦÎ±":4326,"á½ħÎ¸ÎµÎ½":4327,"ĠÏĨÏīÎ½á½´":4328,"ĠÎ½Î¿Î·Î¼á½±ÏĦÏīÎ½":4329,"Ġá¼ĢÎ½ÏĦá½·Î»Î·ÏĪÎ¹Î½":4330,"ĠÎ¼ÎµÏĦÏģá½·":4331,"ĠÏĢá½±Î¸Î¿ÏħÏĤ":4332,"ĠÎ¼á½³Î³Îµ":4333,"ĠÎ½Î¿Î¼á½·Î¶":4334,"ĠÏĢÏģá¾¶Î¾Î¹ÏĤ":4335,"ĠÏĢÎ½Îµá¿¦Î¼Î±":4336,"ĠÎ´Îµá½»ÏĦÎµÏģÎ¿ÏĤ":4337,"Ġá½¦Î¼Î¿Î½":4338,"á½µÏĥÎ±Î½ÏĦÎ¿ÏĤ":4339,"Ġá¼ĶÎ»ÎµÎ³Îµ":4340,"á¼ĺÏĢ":4341,"ĠÎºá½¹Î»Î±":4342,"ĠÎ³Î¹Î½á½½ÏĥÎº":4343,"Ġá¼µÏĢÏĢÎ¿ÏĤ":4344,"á½½ÏĦÎ±ÏĦÎ±":4345,"Ġá½ĳÎ³Î¹á½²ÏĤ":4346,"Î±Î²ÏħÎ»":4347,"ĠÎºá½·Î½Î·ÏĥÎ¹ÏĤ":4348,"ĠÏĦá½³ÏĦÎ±ÎºÏĦÎ±Î¹":4349,"ĠÎ¾á½»Î»á¿³":4350,"ĠÎ±á¼µÎ¼Î±ÏĦÎ¿ÏĤ":4351,"ĠÎ´á½½ÏĥÏī":4352,"Ġá½ĢÏģÎ³á¿ĨÏĤ":4353,"ÎĶÎ¹":4354,"ĠÏĩÎ¿ÏģÎ¿á¿¦":4355,"Ġá½¤Î½":4356,"ĠÎµá¼´ÏģÎ·ÎºÎµ":4357,"ĠÎ´Î¹Î±Î²á½±Î»Î»ÎµÎ¹":4358,"ĠÏĩÏģá½µÏĥÎ¹Î¼Î¿Î½":4359,"Ġá¼ħÏĢÎ±Î¾":4360,"Ġá¼ĶÏĨÎ·Î½":4361,"ĠÎ¼ÎµÎ»ÎµÏĦ":4362,"ĠÎ¼Î¿Ïģá½·ÏīÎ½":4363,"ĠÏĢÎ±Ïģá½±Î³ÏģÎ±ÏĨÎ¿ÏĤ":4364,"Î¼ÎµÎ¹Î½Î¿Î½":4365,"Ġá¼ĢÎ¼ÏĨÎ¹Î²Î¿Î»":4366,"ĠÎºá½³ÎºÎ»Î·":4367,"Î»Î·Î»ÏħÎ¸":4368,"ĠÎķá½ĲÎ±Î³Î³ÎµÎ»á½·Î¿Î¹ÏĤ":4369,"ÏĦÏģÎ¹":4370,"Î¿ÏĥÏĦ":4371,"Î¿ÏĦÎµÎ»":4372,"á¼ħ":4373,"á¼ķ":4374,"Î¹ÏĢ":4375,"Î¹á¿¶Î½":4376,"Î¹á½³Î½Î±Î¹":4377,"ĠÏĦÎµá¿ĸ":4378,"ÏĢÎ»Î±":4379,"Î»Î¼":4380,"Î»Î¸":4381,"Î»á½´":4382,"ĠÎºá½±Î»Î»":4383,"ÎºÎ¿Î½ÏĦÎ¿ÏĤ":4384,"Ïħá¿ĸ":4385,"á½·Î·":4386,"Ġá¼ĲÏĥÎ¸á½·":4387,"á½±ÏĨ":4388,"Î¿á¿Ĩ":4389,"á½¹ÏĨ":4390,"ĠÎ¼Î·Î½":4391,"ĠÎ¼Î½á½µÎ¼":4392,"Î¿Î¹ÏĦ":4393,"á½µÎ¼Î±ÏĥÎ¹Î½":4394,"ĠÏĢÏģÎ±Îº":4395,"Îµá¿ĸÎ¿ÏĤ":4396,"Ġá¼ĲÎ½Î´Îµ":4397,"ĠÎ´Î¹ÎµÎ»":4398,"ĠÎ´Î¹ÎºÎ±Î½":4399,"ĠÎ´Î¹á½±ÏģÎ¸ÏģÏī":4400,"Î¾Î·ÏĤ":4401,"Î²Î»Î·":4402,"ĠÎ±á½ĲÏĦá½µÎ½":4403,"ĠÎ»á½µ":4404,"Ġá½ħÏĥÎ¿Î¹":4405,"á½½Î¸Î·":4406,"á½½Ïĥá¿ĥ":4407,"Ġá¼ĢÎ½ÎµÎ»":4408,"Ġá¼ĢÎ½Î±á½·":4409,"Ġá¼ĢÎ½á½³Î¼":4410,"ÏĥÎ¸á½µÏĥÎµÏĦÎ±Î¹":4411,"Îµá½·ÏĥÎ·ÏĤ":4412,"Î¿á¿ĸÎ±":4413,"á¿¶ÏĦÎ¿Î½":4414,"Ġá¼ĲÎºÏĢÎµÏĥ":4415,"Ġá¼ĲÎºá½±Î»Îµ":4416,"á½·Î½á¿ĥ":4417,"ĠÎ¼ÎµÏĦÎ±Î½":4418,"Ġá¼ĳÎ¾":4419,"ÏĦá½·ÏĤ":4420,"á½±ÏĥÏĦÎ±ÏĥÎ¹ÏĤ":4421,"Ġá¼ĶÏĩá¿ĥ":4422,"Ġá¼ĶÏĩÎ¿Î½ÏĦÎ¿ÏĤ":4423,"Ġá¼ĶÏĩÎ¿Î½ÏĦÎ±ÏĤ":4424,"Ġá¼ĲÏĢÎ¹Î²Î¿Ïħ":4425,"ÏĦá½³ÏĤ":4426,"ĠÏĥÏĦÎµÎ½":4427,"ĠÎµá¼´ÏĤ":4428,"ĠÎµá¼´Î´Î¿ÏħÏĤ":4429,"Î¸Î·ÏĦÎ±Î¹":4430,"Ġá¿¥á½·":4431,"ĠÏĩÏģÏī":4432,"ĠÏĩÏģá¿¶Î½ÏĦÎ±Î¹":4433,"á½±Î»Î¿ÏħÎ½":4434,"Îµá½»ÏīÎ½":4435,"Ġá¼ĦÎ»Î»Î¿Î¹":4436,"ÎµÎ»á¿¶Î½":4437,"Î»á½³Î¾Î±Î½":4438,"ĠÎ±á¼°á½½Î½ÏīÎ½":4439,"Ġá¼ĢÎ³ÏīÎ½":4440,"ĠÏĢÎ»Î±Î½":4441,"ĠÎµá½ĲÎ½":4442,"ĠÏĥÎºÎµÏħ":4443,"Ġá½ĦÎ½ÏĦÎµÏĤ":4444,"Ġá½ĦÎ½ÏĦÎ±ÏĤ":4445,"Ġá¼´ÏĥÎ¿Î½":4446,"ĠÎ¾ÏħÎ¼ÏĨ":4447,"ĠÎ¼ÎµÏĦÎ±Î²Î¿Î»":4448,"Ġá¼ĢÏģÏĩá¿ĩ":4449,"Ġá¼ĶÎ½Î´Î¿Î¾Î¿Î½":4450,"ĠÏĦá½±Î¾ÎµÏīÏĤ":4451,"Î·Î³Î¿Ïģ":4452,"Î¿ÏĨá½±Î½":4453,"Ġá½ķÏĪ":4454,"ĠÎ¼á½³Î¸":4455,"Ġá¼łÎ´á½»Î½Î±ÏĦÎ¿":4456,"Ġá¼ĪÏģÎ¹ÏĥÏĦÎ¿ÏĦÎµÎ»":4457,"á½µÎ»Î¿Ïħ":4458,"Ġá½ĳÏĢÎ¿ÎºÏģÎ¹":4459,"ĠÏĦÎ±á½»ÏĦÎ±ÏĤ":4460,"Ġá¼ĪÎ¸Î·Î½Î±á½·Î¿ÏħÏĤ":4461,"ĠÎ½Î¿Ïĥ":4462,"Ġá¼ĢÏģÎ½á½·":4463,"á½±Î¼Î¿Ïħ":4464,"ĠÎ¿á½ĲÏģÎ±Î½á½¸Î½":4465,"Ġá¼ĢÎ½ÏĦá½·Î¸ÎµÏĥÎ¹ÏĤ":4466,"á¼ĲÏĢÎ¹":4467,"ÏĦá½µÏģ":4468,"Îµá¿¦ÏĥÎ±Î¹":4469,"Ġá¼ĳÏĢÏĦá½±":4470,"ĠÎ¸á½±Î½Î±ÏĦÎ¿ÏĤ":4471,"ĠÎ´Î¹ÎºÎ±ÏĥÏĦÎ±":4472,"ĠÏĥÏĦÎ¿ÏĩÎ±ÏĥÎ¼á½¸Î½":4473,"Î´á½¹Î¾":4474,"ĠÎ¸ÎµÏģÎ¼Î±":4475,"ÏĨÎ·Ïĥá½¶":4476,"ĠÎµá¼°Î´á½¼ÏĤ":4477,"Ġá¼ĦÏģÎ¸ÏģÏīÎ½":4478,"Ġá¼ĢÏĥÏħÏĥÏĦ":4479,"ĠÏĩá½½ÏģÎ±ÏĤ":4480,"ĠÎºÎ¹Î½á½µÏĥÎµÏīÏĤ":4481,"á½µÏĥÎ±Î½ÏĦÎ±ÏĤ":4482,"á¼ĺÎ½":4483,"ĠÎºá¼Ħ":4484,"Î¸Î±Î½Î¿Î½":4485,"Ġá¼ĳÎ±ÏħÏĦá½´Î½":4486,"Ġá¼ĲÎºÎºÎ»Î·Ïĥá½·":4487,"Î´á½³ÏĩÎµÏĦÎ±Î¹":4488,"ĠÏĥÎºÎ¿ÏĢá½¸Î½":4489,"Ġá¼ĦÎ³Î³ÎµÎ»Î¿Î½":4490,"Ġá¼°Î´á½·á¾³":4491,"ĠÎ¸Ïģá½¹Î½Î¿Î½":4492,"Ġá¼µÏĢÏĢÏīÎ½":4493,"ĠÎĴÎ±Î²ÏħÎ»":4494,"ĠÎ´Î¹ÎºÎ±Î¹Î¿Î»Î¿Î³":4495,"ĠÏĢÎ±á¿ĸÎ´Î±ÏĤ":4496,"Ġá¼¹ÏĢÏĢÎ¿ÎºÏģá½±ÏĦÎ¿ÏħÏĤ":4497,"Ġá¼ĢÏģÎµÏĦá¿ĨÏĤ":4498,"ĠÏĩÏīÏģá½·Î¿Î½":4499,"Ġá¼¡Î¼á½³ÏģÎ±Î½":4500,"Ġá¼ĢÎ½Î±Î¹ÏģÎµ":4501,"Ġá½ĳÎ¼á¿ĸÎ½":4502,"ĠÎºÎ½á½µÎ¼Î·ÏĤ":4503,"Ġá¼ĲÎ´á½µÎ»Ïī":4504,"ĠÏĢÎ¿Î¹Î·ÏĦá½´ÏĤ":4505,"ĠÏĢÎ±ÏģÎ±Î´Îµá½·Î³Î¼Î±ÏĦÎ±":4506,"Ġá¼ģÏģÏĢ":4507,"ĠÏĢÎ¿Î»á½³Î¼Î¿Ïħ":4508,"ĠÏĥÏħÎ½ÎµÏĥÏĦÎ·Îº":4509,"ĠÎ²Î±ÏĥÎ¹Î»Îµá½·Î±Î½":4510,"Î¿á¼·":4511,"Ġá¼īÎ³":4512,"Ġá¿¥á¾³Î´á½·ÏīÏĤ":4513,"Ġá¼ĻÏģÎ¼Î¿Î³á½³Î½Î·ÏĤ":4514,"ĠÏĦÏģÎ¿ÏĩÎ±ÏĬÎº":4515,"ĠÎµá½ĲÎ¸ÏħÎ´Î¹Îºá½·Î±ÏĤ":4516,"ĠÏĢÎ½ÎµÏħÎ¼Î±ÏĦÎ¹Îº":4517,"ĠÎ¼Î±Î»Î±Îº":4518,"ĠÏĩá½·Î»Î¹Î±":4519,"ĠÎłÎ¿ÏĥÎµÎ¹Î´":4520,"ĠÎ¼á½³Î³ÎµÎ¸Î¿ÏĤ":4521,"ÏĦá½´":4522,"ĠÎĸ":4523,"Î±á¼±":4524,"Î¿ÏĦá½±":4525,"Î¿Î¼ÏĨ":4526,"Ġá¼į":4527,"Ġá¼Ŀ":4528,"ĠÏĦá½³Î½":4529,"ĠÏĦá½¶ÏĤ":4530,"ÏĥÎ´Îµ":4531,"Î¼á½¹":4532,"ÎºÎ¿Ïħ":4533,"Îºá¿ĥ":4534,"Î·ÏĢ":4535,"ĠÏĢÏħÎ»":4536,"Ġá¼ĲÏģÏĩ":4537,"ÏīÎ¼Î¹":4538,"ĠÎ´ÎµÎ¹Î½":4539,"Ġá¼ĢÎµ":4540,"ÏĩÎµÎ½":4541,"ÏĩÏģÎ·":4542,"ÏĩÎ¸á¿ĨÎ½Î±Î¹":4543,"Î´á¿¶Î½":4544,"Î´ÎµÏĦÎ±Î¹":4545,"á½»Ïģ":4546,"Î±Î¹Î¿Î½":4547,"ÏĦÎ¹Î¸á½³":4548,"Îµá¿ĸÏĥÎ±":4549,"Î¾á½±Î¼ÎµÎ½Î¿ÏĤ":4550,"Ġá¼ĶÎ¼Î¼Îµ":4551,"Ġá¼ĲÏĢÎ±Î³":4552,"ĠÎµá¼°Î´Î¹Îº":4553,"ĠÏĨá¿¶ÏĤ":4554,"á¿¶Î½Î¿ÏĤ":4555,"á¿¶Î½ÏĦÎ¿":4556,"á½½Î¼ÎµÎ½Î¿ÏĤ":4557,"á½¹Î½Î¿Î¹Î±Î½":4558,"Î¼á½³Î½Î±Î¹":4559,"Îµá½·Î±Î¹ÏĤ":4560,"Ġá¼ĲÎºá½±Î»Î¿ÏħÎ½":4561,"Î¹ÎºÎ½":4562,"Î¹Îºá½±":4563,"ĠÎ²Î»á½³":4564,"ĠÎ²á½·Î¿Ïħ":4565,"ĠÎ²á½·á¿³":4566,"ĠÎ¼ÎµÏĦÏģ":4567,"ÏĪÎ¹ÏĤ":4568,"ĠÎ»á½³Î³Î¿Î½ÏĦÎ±":4569,"Ġá½ĢÎ¸Î¿Î½":4570,"á½±ÏĥÎµÏīÎ½":4571,"Î¿ÏģÎ¸":4572,"Î»Î±Î¼Î²Î±Î½":4573,"ÏĥÎ±á½·":4574,"ĠÏĢÎ¿Î¹Î¿á¿¦ÏĥÎ¹":4575,"Ġá¼ĲÏĢÎ¹Î¸ÏħÎ¼":4576,"Ġá¼ĲÎ¾á½µÎ³":4577,"ĠÏĥÏĦÎµÏĨá½±Î½":4578,"Ġá¿¥á¿ĨÎ¼Î±":4579,"Îµá½»ÏĥÎ±ÏĤ":4580,"Îµá½»Î¸ÏħÎ½":4581,"Ġá¼ĦÎ»Î»Î¿Ïħ":4582,"Ġá¼ĪÎ»á½³Î¾Î±Î½":4583,"ĠÎ¿á½ĲÎ´ÎµÎ½":4584,"ĠÎłÎ±ÏĨÎ»Î±Î³":4585,"ĠÎ±á¼°Ïĩ":4586,"ĠÎ±á¼°ÏĦÎ¹":4587,"ÏĦÎ¿ÏħÏģÎ³":4588,"á½³ÏĩÎµÎ¹":4589,"Ġá¼ĢÎ³á¿¶Î½Î±":4590,"ĠÏĢÎ»ÎµÎ¹":4591,"ĠÎµá½ĲÎ´Î¿ÎºÎ¹Î¼":4592,"ĠÎĺÎµá½¹Î½":4593,"ÏĦÏģÎ¿Ïħ":4594,"Ġá¼µÏĥÏĦÎ±":4595,"á½µÎ½Î·Î½":4596,"Ġá¼ĢÎ½Î±ÏĨá½³Ïģ":4597,"ĠÎºÎ±Î»Î¿á½»Î¼ÎµÎ½Î¿Î½":4598,"ĠÎ³á½³Î½ÏħÎ½":4599,"Î¼ÎµÎ»Î»":4600,"ĠÎ³ÎµÎ½á½¹Î¼ÎµÎ½Î¿ÏĤ":4601,"Î¿Ïģá½·Î±Î½":4602,"ĠÎĶÎ¹":4603,"ĠÏĢá½¹ÏĦÎµÏģÎ¿Î½":4604,"ĠÏĦá½±Î¾Î¹ÏĤ":4605,"Ïģá½³Î¸Î·":4606,"Ġá½ķÎ»Î·ÏĤ":4607,"ĠÎºÎ¿Î¹Î½á½°":4608,"ĠÏĢÏģá½±Î³Î¼Î±ÏĦÎ¹":4609,"Ġá¼¥Îº":4610,"ĠÎľÏī":4611,"Ġá½ĳÏĢÎ¿ÏĪ":4612,"Ġá¼ĲÎ¼ÏĢÎµÎ¹":4613,"ĠÎ½á½¹Î¼ÏīÎ½":4614,"ĠÎ¿á¼°ÎºÎµá¿ĸÎ¿Î½":4615,"ÏĦÏĦÎ¿Î½Î±":4616,"ĠÏĢÏģá½½ÏĦÎ¿Ïħ":4617,"ĠÏĪÏħÏĩá½´":4618,"ĠÏĥÏħÎ¼ÏĢÎµÏĢÎ»ÎµÎ³":4619,"ĠÏĥÏħÎ¼Î²ÎµÎ²Î·Îºá½¹ÏĦÏīÎ½":4620,"ĠÎļá½»ÏģÎ¹Îµ":4621,"ĠÎ±á½ĲÏĦÎ±á¿ĸÏĤ":4622,"ĠÎ½Î¿Î¼Î¹":4623,"ĠÎ´Îµá½·Î¾á¿ĥ":4624,"ĠÎ»ÎµÎ³Î¿Î¼á½³Î½ÏīÎ½":4625,"Ġá¼ĢÎ³Î±Î¸á½¹Î½":4626,"ĠÏħá¼±Î¿á¿¦":4627,"Ġá½ħÎ»Î¿Ïħ":4628,"ĠÎ¿á¼¶Î¼Î±Î¹":4629,"Ġá¼ĢÎ¼á½µÎ½":4630,"á½¹Î´Î¿Ïħ":4631,"Ġá¼ĳÎºá½±ÏĥÏĦÎ·ÏĤ":4632,"Ġá¼ĲÎ³ÎºÏīÎ¼Î¹":4633,"Ġá¼ĢÏģÎ¹Î¸Î¼á½¸ÏĤ":4634,"Ġá¼ĲÎºÎµá¿ĸÎ½Î±":4635,"Ġá¼ĲÎºÎµá¿ĸÎ½Î¿Î½":4636,"Ġá½ģÎ¼Î¿Î»Î¿Î³Î¿ÏħÎ¼á½³Î½":4637,"ĠÎºÎ¿Î¹Î½ÏīÎ½Îµá¿ĸ":4638,"Ġá¼ĲÎ½ÎµÏģÎ³Îµá½·Î±ÏĤ":4639,"Ġá¿¥Î·ÏĦÎ¿ÏģÎ¹Îºá½´":4640,"Ġá½ħÏĢÎ»Î±":4641,"ĠÎºÏģÎ¹Î½á½¹Î¼ÎµÎ½Î¿ÏĤ":4642,"ĠÏĩÎµá¿ĸÏģÎ±ÏĤ":4643,"Ġá½ĢÎ½Î¿Î¼á½±Î¶ÎµÎ¹":4644,"ĠÏĢÎ½Îµá½»Î¼Î±ÏĦÎ¹":4645,"ĠÎ¸á½³ÏĥÎ¹ÏĤ":4646,"Ġá¼ħÏĢÎ±Î½ÏĦÎ±":4647,"ĠÏĨÎ¹Î»Î¿ÏĥÎ¿ÏĨá½·Î±Î½":4648,"Ġá¿¥á½±ÏĩÎ¹Î½":4649,"Ġá½ĢÎ»Î¹Î³":4650,"ÎµÎ»Î¸á½¼Î½":4651,"á½µÎ³Î±Î³Îµ":4652,"á½µÎ³Î±Î³ÎµÎ½":4653,"ÏĦá¿ĨÏģÎ±":4654,"Ġá¼ĢÏĢÎ¿Ïģá½·Î±":4655,"ĠÏĨÏģÎ¿Î½ÏĦá½·":4656,"ĠÎºÎ±ÏĦÎ±Î»Î·ÎºÏĦÎ¹Îº":4657,"ĠÎłÎ½Îµá¿¦Î¼Î±":4658,"ĠÎµá½ĳÏģá½·ÏĥÎºÎµÏĦÎ±Î¹":4659,"ĠÏĨÎ¹Î»Î¿Î½":4660,"ĠÎ¸ÎµÏīÏģá½·Î±":4661,"Ġá½łÎ½á½¹Î¼Î±ÏĥÎµ":4662,"Ġá¼ĢÏĥá½»ÏĥÏĦÎ±ÏĦÎ¿Î½":4663,"ĠÏĢÎ±Î½Î·Î³ÏħÏģÎ¹Îºá½¸Î½":4664,"ĠÎ»Îµá½·ÏĢÎµÎ¹":4665,"ĠÎºÎ»Î·ÏģÎ¿Î½":4666,"ĠÏĦÎ±á¿¦ÏĦá½±":4667,"Ġá¼ĢÎ½á½±ÏĢÎ±Î»Î¹Î½":4668,"ĠÎ¿á¼´Î½Î¿Ïħ":4669,"ĠÎłÎ»Î±ÏĦÏīÎ½":4670,"ĠÎ¶á½½ÏīÎ½":4671,"ĠÎºÎ¿ÏĦá½»Î»Î·ÏĤ":4672,"ĠÏĦÎµá¿ĸÏĩÎ¿ÏĤ":4673,"Î£":4674,"á½§":4675,"ÏĦÏħÏģ":4676,"ÏĦá½´ÏĤ":4677,"Î±ÏĥÎ¹":4678,"Î¹Î¼Î¿Î½":4679,"ÏģÎ¿Î¹":4680,"ĠÏĦÏħ":4681,"ĠÏĦÎµá½·Î½":4682,"ĠÎºÏĦ":4683,"ĠÎºÎ»á½·":4684,"ĠÎºÎµá¿ĸÏĥÎ¸Î±Î¹":4685,"ĠÎºÏħÎºÎ»":4686,"ĠÏĢá½µ":4687,"á½·Î´":4688,"á½³ÎµÎ¹":4689,"á½³Î¶":4690,"Ġá¼ĲÎ»Îµ":4691,"Ġá¼ĲÎ´Îµá½·":4692,"Ġá¼ĲÏģÏī":4693,"Ġá¼ĲÏĥÏĩÎ·":4694,"ÏīÏĥÎ¹":4695,"ÏīÏĦá½¸Î½":4696,"Ġá½į":4697,"ĠÎ´á½¹Î³":4698,"ĠÎ´Îµá¿ĸÏĦÎ±Î¹":4699,"Î³Îµ":4700,"á½±Î´ÎµÏĤ":4701,"Î¸ÏīÎ½":4702,"ÏĩÎ¿ÏħÏĤ":4703,"Î´ÎµÎ¹Î½":4704,"ĠÎ³ÏħÎ¼Î½":4705,"Î±Î½ÏĦ":4706,"ĠÏĥÏĢÎ±":4707,"ÏĦÎ¹Î¸á½³Î½Î±Î¹":4708,"Ġá¼ĲÎ½Î±Ïģ":4709,"ĠÎ´Î¹ÏĦÏĦ":4710,"ĠÎ´Î¹ÎµÏĥÏĦ":4711,"Ġá¼ĶÏĦÏħÏĩ":4712,"Ġá¼ĲÏĢÎ±Î³Î³":4713,"Ġá¼ĢÎ½á½±":4714,"Ġá¼ĢÎ½ÎµÎ»Îµá¿ĸÎ½":4715,"ÏĦÎµÏĥÎ¸Î±Î¹":4716,"á½¹Î½ÏĦÎ¹":4717,"ĠÏĢÏģÎ¿ÏĦá½±":4718,"ĠÏĢÏģÎ¿Ïĭ":4719,"ĠÏĢÏģÎ¿á½³ÏĦÎ±":4720,"á½³ÏģÎ¿ÏĤ":4721,"ĠÎ¸Îµá½·Î±ÏĤ":4722,"á¿ĥÏģÎ·":4723,"ĠÏĦÎµÏĥÏĥÎ±":4724,"á½±ÏĥÎ·ÏĤ":4725,"ĠÎ´Î¹Î±Î¸á½µÎº":4726,"ĠÎ´Î¹Î±Î»á½³Î³ÎµÏĦÎ±Î¹":4727,"ĠÏĢÎ¿Î¹Îµá¿ĸÏĥÎ¸Î±Î¹":4728,"Ġá¼ĲÏĢÎ¹Î´":4729,"ÏĦÎ¹ÎºÎ¿á¿ĸÏĤ":4730,"ĠÏĥÏĦá½±ÏĥÎµÏīÏĤ":4731,"Ġá¿¥á½µÏĥÎµÏīÏĤ":4732,"ĠÏĩÏģá½µÏĥÎ±ÏĥÎ¸Î±Î¹":4733,"ÏģÎ¿Î¼":4734,"Ġá¼ĦÎ»Î»Î·":4735,"ÏĥÎ¼á½±ÏĦÏīÎ½":4736,"Î¸Î±Îº":4737,"ÏĥÎ±Î½ÏĦÎ±":4738,"ĠÎµá¼¶Î½Î±á½·":4739,"ÏģÎµÏĥÎ¹":4740,"ĠÎºÎ±Î¸á½µ":4741,"Î¸ÎµÏĤ":4742,"ĠÏĢÎµÏģÎ¹ÏĢÎ±":4743,"Î·Îºá½¹":4744,"ĠÎ¼Î·Ïģá½¸Î½":4745,"ĠÎ¸ÎµÏīÏģÎ·":4746,"Î´ÎµÎ¹Î³":4747,"ĠÏĢÎ¿Î»Î»á¿·":4748,"Ġá¾Ħ":4749,"ĠÏĢá½¹Î´Î±ÏĤ":4750,"ĠÏĥÏĨá½¹Î½":4751,"Ġá¼łÎ½":4752,"ÎµÎ¹ÏģÎ±Î¹":4753,"Ġá¼ĢÎ½Î¸Ïģá½½ÏĢá¿³":4754,"ĠÏĥÏĩÎµ":4755,"ĠÎºá½±Î¸Î·ÏĦÎ±Î¹":4756,"ĠÎ½á½¹Î¼Î¿ÏħÏĤ":4757,"ĠÏĢá½¹Î»ÎµÎ¹ÏĤ":4758,"Ġá¼ĢÎ½ÏĦá½·Ïĩ":4759,"ĠÎºÏģá½·Î½ÎµÏĥÎ¸Î±Î¹":4760,"Ġá¼ģÎ³á½·Î¿ÏħÏĤ":4761,"ĠÎ¼á½³Î³Î±ÏĤ":4762,"ĠÎ¼á½³Î³Î¹ÏĥÏĦÎ¿Î½":4763,"Ġá½ĢÎ»á½·Î³á¿³":4764,"ĠÎ»á½³Î¾ÎµÎ¹":4765,"ĠÏĥÏħÎ³ÏĩÏīÏģ":4766,"ĠÎ´Î¹Î´á½±":4767,"ĠÎ¿á¼¶Î´Îµ":4768,"ĠÎłÎµÏģÏĥá¿¶Î½":4769,"ĠÏĦÎ¿Î¹Î¿á½»ÏĦÎ¿Î¹ÏĤ":4770,"á½µÏĥá¿ĥÏĤ":4771,"ĠÏĥÏħÎ»Î»Î¿Î³Î¹ÏĥÎ¼á½¸Î½":4772,"ĠÏĦÎ¿Î¹Î±á½»ÏĦÎ·":4773,"Ġá½ħÎ¼Î¿Î¹Î¿Î¹":4774,"Ġá½ĢÏĥÏĦÎ¿á¿¦":4775,"Ġá¼ĲÏĢÎ¹ÏĨÎ±Î½":4776,"ĠÏĢá½³Î½Î·":4777,"Ġá½ĳÏĢÎ¿Î³Ïģá½±ÏĨ":4778,"ĠÎºÎ¿Î¹Î½ÏīÎ½á½·Î±Î½":4779,"ĠÎ±á½ĳÏĦá½¸":4780,"ĠÏĢÎ¿Î´á½¶":4781,"ĠÎ¼ÎµÎ³á½±Î»á¿ĥ":4782,"ĠÎ´Îµá½·ÎºÎ½ÏħÏĥÎ¹":4783,"ĠÏĢÏģÎµÏĥÎ²á½»":4784,"Ġá¼ĲÏĢÎ¿á½·Î·ÏĥÎµ":4785,"ĠÎ±á¼µÎ¼Î±ÏĦÎ¹":4786,"ĠÏĦá½³ÏĥÏĥÎ±ÏģÎ±":4787,"ĠÎºÎ±ÏĦÎ±ÏĨÎµá½»Î³":4788,"Ġá¼ĢÏĢÎ¿ÏģÎ¿á¿¦ÏĥÎ¹Î½":4789,"Î¿á½ĹÏĦÎ¿ÏĤ":4790,"ĠÎºÏģÎµá½·":4791,"Ġá¼°Ïĥá½±Î¶":4792,"ĠÏĢÎ¿Î»ÎµÎ¼á½·ÏīÎ½":4793,"Ġá¿¥á½±ÏĩÎµÏīÏĤ":4794,"ĠÏĪÎµÏħÎ´á¿Ĩ":4795,"ĠÎ´Î¹á½±ÏĨÎ¿ÏģÎ¿ÏĤ":4796,"ĠÏĢÎ»ÎµÏħÏģá½°ÏĤ":4797,"ĠÏĩÎ¹Î»Î¹":4798,"ĠÏĢÎµÏĨÏħÎº":4799,"ĠÏĨÎ¿Î²ÎµÏģ":4800,"Ġá¼ĲÎ¼Î½Î·Î¼á½¹Î½ÎµÏħ":4801,"ĠÎ´Î¹Î±ÏĨÎ¿ÏģÎ±á½¶":4802,"Ġá¼ģÎ¼Î±ÏģÏĦá½·Î±ÏĤ":4803,"ĠÎºá¼ĢÎºÎµá¿ĸÎ½":4804,"Ġá¼ħÎ³Î¹Î¿Î¹":4805,"ĠÎłá½»Î»á¿³":4806,"ĠÎ£Î±ÏĦÎ±Î½á¾¶":4807,"Ġá¼ĢÎºá½¹Î»Î¿ÏħÎ¸Î¿Î½":4808,"ĠÏĢÏģÎ¿Î²Î¿Î»á½´":4809,"ĠÎºÎ±ÏĦá½µÎ³Î¿ÏģÎ¿ÏĤ":4810,"Ġá¼ĲÏĢÎ¹ÏĨá½±Î½ÎµÎ¹Î±Î½":4811,"ĠÏĨÎ¸Î¿Ïģá¾¶ÏĤ":4812,"ĠÎ»ÏħÏĩÎ½":4813,"ĠÎ´Î¿á¿¦Î»Î¿ÏĤ":4814,"Ġá¼ĲÎ´á½·Î´Î±":4815,"Ġá¼ĢÎ»á½µÎ¸ÎµÎ¹Î±Î½":4816,"ĠÏĢÎ»Î·Î¸ÏħÎ½":4817,"á¼ªÎ½":4818,"ĠÎ´Î¹á½±ÏģÎ¸ÏģÏīÏĥÎ¹Î½":4819,"ĠÎºÎ»á½·Î¼Î±":4820,"á½¦":4821,"ÏĦÏĦÎ±":4822,"ÏĦÏģÎ±ÏĤ":4823,"Î¿ÏĦÎ¹":4824,"Î¹Î¼á½±":4825,"ÎµÏĦÎ±á½·":4826,"Ïģá¾´":4827,"ĠÏĦÎ·Ïģ":4828,"ÏĥÏĢÎµ":4829,"Ïĥá½±Î¼ÎµÎ½Î¿ÏĤ":4830,"ÏĢÏģá½¹":4831,"Î»ÏīÎ½":4832,"ĠÎºá½½Î»":4833,"ÎºÎ·ÏĤ":4834,"ÏħÏĥÎ¹Îº":4835,"á½·ÏĥÏĩ":4836,"á½³Î¼Î¹":4837,"ÏīÏģÎ¿Î½":4838,"ÏīÎ¸á¿ĨÎ½Î±Î¹":4839,"ĠÎ´ÏģÎ¹Î¼":4840,"Î³ÎµÎ¹Î½":4841,"ÏĦÎ±á½»":4842,"á½±Î´Î¿ÏĤ":4843,"Î¸ÏīÏĤ":4844,"ĠÎ¼Î·Îº":4845,"ÏīÎ½ÏħÎ¼":4846,"Î¿Î¹Î¼":4847,"ĠÎ³Î±":4848,"ĠÎ³Î±ÏĥÏĦ":4849,"Î±Î½Î¹":4850,"ĠÏĥÎµÎ¹":4851,"Ġá¼ĲÎ½Î±Î»Î»Î±Î³":4852,"Ġá¼ĶÎ¾Îµ":4853,"Ġá¼ĶÏĥÎµÏĥÎ¸Î±Î¹":4854,"Ġá¼ĲÏĢá½³":4855,"ĠÎ±á½ĲÏĦá½·ÎºÎ±":4856,"ĠÎ»Î±Î»":4857,"ĠÎµá¼°ÏĥÎµ":4858,"Ġá½ħÏģÎ±":4859,"Ġá½ħÎºÏīÏĤ":4860,"á½½ÏģÎ·":4861,"á½½Î¼Î±ÏĦÎ±":4862,"Ġá¼ĦÏĨ":4863,"ĠÏĢÏģÎ¿Î²á½±Î»Î»":4864,"Î¿Î»Î±":4865,"ĠÏĢÎµÏģá½·ÏĥÏĦÎ±":4866,"ĠÎ½á½µÏĥ":4867,"á½µÏĥÎµÎ¹Î½":4868,"ĠÏĦÎµÎ»á½³ÏīÏĤ":4869,"ĠÏĦÎµÏĦá½±Ïģ":4870,"ĠÏĦÎµÎ¸Î½":4871,"á½±ÏĥÏī":4872,"ĠÏĦÎ±Ïģá½±":4873,"Î»Î±á½·":4874,"ÏĥÎ±á½»":4875,"ÏĥÎ±ÏģÎ¹ÏĥÏĦ":4876,"ĠÏĢÎ¿Î¹á¿¶Î½":4877,"Ġá¼ĲÏĢÎ¹ÏĥÎº":4878,"ÏĦÎ¹Îºá¿·":4879,"ÎµÏħÎ¸":4880,"ĠÏĨÎ·Î¼á½¶":4881,"Ïģá½±Îº":4882,"á½¹Î¼ÎµÎ½Î±Î¹":4883,"ĠÏĩÏģÏħ":4884,"ĠÏĥÏħÎ½á½·ÏĥÏĦÎ±ÏĦÎ±Î¹":4885,"ÏĥÎ¼á½¸ÏĤ":4886,"ÎµÎ»á½·":4887,"ĠÎ´á½»Î½":4888,"ÏĦá½³ÏģÎ¿ÏħÏĤ":4889,"Î¿á½·ÏīÏĤ":4890,"ĠÎµá¼¶ÏĩÎµÎ½":4891,"ĠÎłÎµÎ»":4892,"ĠÎłÎµÎ¹ÏģÎ±Î¹":4893,"á¼Ĳá½°Î½":4894,"ĠÏĢÏģÎ¿ÏĥÎ´Î¹":4895,"á½½ÏĢÏĦÎµÎ¹":4896,"Ġá¼ĦÎ½Î´ÏģÎ±":4897,"ĠÏĥÎºÎ·Î½":4898,"Î¿Î¼ÎµÏģ":4899,"ĠÏĦá½·Î¸Î·ÏĥÎ¹":4900,"ĠÎ±á¼±Ïģ":4901,"Ġá¼ĢÎ½ÏĦÎ¹ÏĥÏĦÎ±":4902,"ĠÏĢÏģá½¹ÏĥÎº":4903,"Î´Î±Î¼":4904,"ĠÎ¼Î·Ïģá½¸ÏĤ":4905,"ÏĢÎ±á½¶":4906,"á½½Î½ÏĦÏīÎ½":4907,"Ġá½ģÎ¼Î¿á¿¦":4908,"á½»Î½Î·Î½":4909,"ĠÎ¸ÎµÏĥÏĢÎµ":4910,"ĠÏĢÎ¿Î»Î»Î¿á¿ĸÏĤ":4911,"ĠÎ³ÎµÎ½á½¹Î¼ÎµÎ½Î¿Î½":4912,"Ġá¼ĢÏĨÎµ":4913,"ĠÎĶá½µÎ¼":4914,"Î¸á½³ÏĤ":4915,"á½¹ÏģÏīÎ½":4916,"ĠÏĥÏĩá½µÎ¼Î±ÏĦÎ¿ÏĤ":4917,"ĠÎ¶Î·ÏĦÎµá¿ĸÎ½":4918,"ĠÎ¶Î·ÏĦá½µÎ¼Î±ÏĦÎ±":4919,"Î¿Î¼Î±á½·":4920,"ĠÏĢá½±ÏĥÏĩ":4921,"Ġá¼ĳÏĦá½³ÏģÎ¿Î¹ÏĤ":4922,"ĠÏĨÏħÏĥÎ¹":4923,"Ġá¼§ÏĥÏĥÎ¿Î½":4924,"ĠÏĦÏģÎ¹á½µÏģ":4925,"ĠÏĦÏģÎ¹ÏĥÎ±ÏģÎ¹ÏĥÏĦ":4926,"Î±Î»Î±Î¼":4927,"Ġá¼ĲÏĢÎ¹ÏĥÏĦÎ¿Î»":4928,"ÏĨÎ±ÏĥÎ¹Î½":4929,"ĠÎ´ÏħÎ½á½±Î¼ÎµÎ½Î¿ÏĤ":4930,"ĠÏĥÏħÎ¼Î²ÎµÎ²Î·Îºá½¹ÏĦÎ¿ÏĤ":4931,"Î¿á½Ķ":4932,"ĠÎ±á½ĲÎ¾":4933,"á½¹ÏĦÎ±ÏĦÎ¿Î½":4934,"Ġá¼ĳÎºá½±ÏĦÎµÏģÎ¿Î½":4935,"ÎºÎ±Î»á¿¶ÏĤ":4936,"ĠÎ´á½¹Î¾Î·ÏĤ":4937,"Ġá¼ĢÎ»Î·Î¸á¿¶ÏĤ":4938,"Ġá¼ĢÎ³Î³á½³Î»Î¿Î¹ÏĤ":4939,"Ïĥá¿ĥÏĤ":4940,"Ġá½ĳÏĢá½±ÏģÏĩÎ¿Î½":4941,"ĠÏĢÎ»Î·Ïĥá½·Î¿Î½":4942,"Ġá¼ĢÏĢÎ¿ÎºÏĦ":4943,"ĠÎ²Î¹Î²Î»á½·á¿³":4944,"Î¿ÏħÎ¼á½³Î½Î¿Î¹ÏĤ":4945,"Ġá¼ĢÎ½Î±Î³ÎºÎ±á½·ÏīÏĤ":4946,"ĠÏĥÏħÎ½ÎµÏĩá½²ÏĤ":4947,"ĠÏĦá½³ÏĩÎ½á¿ĥ":4948,"Ġá¼ĲÎ¾Î¿ÏħÏĥá½·Î±":4949,"Ġá¼ĢÏģÎ¹Î¸Î¼Î¿á¿¦":4950,"ĠÎ¼Î¿Î½Î¿Î¼ÎµÏģ":4951,"ĠÎ¦Î¹":4952,"ĠÏĥá½»Î½Î¸Îµ":4953,"ĠÎ¼ÎµÎ³á½±Î»Î±":4954,"Ġá¼ķÎºÎ±ÏĥÏĦÎ¿ÏĤ":4955,"ĠÎºÏģÎ¹Î½Î¿Î¼á½³Î½Î¿Ïħ":4956,"Ġá¼ĦÎ³Î±Î½":4957,"ĠÏĨá½³ÏģÎµ":4958,"ĠÏĢÏģÎ±Î³Î¼Î±ÏĦÎ¹Îºá½´":4959,"ĠÎ¼Î¹á¾¶ÏĤ":4960,"ĠÎ´ÎµÎ¾Î¹á½¸Î½":4961,"ÎºÎ¿ÏĥÎ¹":4962,"Ġá¼ĲÎ»Î¸":4963,"ÏĦÎ¹Î½ÎµÏĤ":4964,"ĠÎ²á½±Î¸Î¿ÏĤ":4965,"Ġá½ģÏĢÎ¿á¿ĸ":4966,"Ġá¼ĲÏĢÎ¹ÏĦÎ·Î´ÎµÎ¹":4967,"Ġá¼ĲÏĢÎ¹ÏĦÎ·Î´Îµá½·":4968,"Ġá¼ĲÎ½Î±Î½Î¸ÏģÏīÏĢ":4969,"Ġá¼ĲÎ»á½³Î³ÏĩÏīÎ½":4970,"ĠÎ¸ÏħÎ¼Î¿á¿¦":4971,"ĠÎ´Î¹Î±ÏĨÎ¿ÏģÎ±á½·":4972,"ĠÏĦá½·Î½Î¿ÏĤ":4973,"Ġá¼ĲÎ¼Î²Î¿Î»á¿ĨÏĤ":4974,"ĠÏĢÎ±ÏģÎ±Î´Îµá½·Î³Î¼Î±ÏĦÎ¿ÏĤ":4975,"ĠÎ¼á½±ÏģÏĦÏħÏĤ":4976,"ĠÎłá½»Î»Î¿Ïħ":4977,"ĠÎ´ÎµÏĥÏĢá½¹ÏĦÎ·ÏĤ":4978,"ĠÎĽÎ±ÎºÎµÎ´Î±Î¹Î¼Î¿Î½á½·ÏīÎ½":4979,"Ġá¼ĲÎ½Î½á½³Î±":4980,"ĠÏĥÏĦÎµÏģá½µÏĥÎµÏīÏĤ":4981,"ĠÏĢá½³ÏĢÏģÎ±Îº":4982,"Ġá¿¬ÏīÎ¼Î±":4983,"ĠÎ²ÏħÏģÏĥÎ¿":4984,"Ġá¼ĳÏīÏħ":4985,"Ġá¼¦Î»Î¸ÎµÎ½":4986,"ĠÎµá½ĲÎ±Î³Î³ÎµÎ»Î¹ÏĥÏĦá¿ĩ":4987,"Ġá¼ģÎ¼Î±ÏģÏĦÏīÎ»":4988,"ĠÎļÎ±ÏĦÎ·Î³Î¿Ïģá½·":4989,"Ġá¼ĢÏĥÏĢá½·Î´Î±":4990,"ĠÎ¼á½±Î³ÎµÎ¹ÏģÎ¿ÏĤ":4991,"ĠÎ²Î¿á½»Î»Î·ÏĥÎ¹ÏĤ":4992,"Ġá¼ĲÎ¾ÎµÏĦÎ±Î¶":4993,"Î¼Î·ÏģÎ¿ÏĤ":4994,"ĠÏĨá½¹Î²Î¿Î½":4995,"Ġá¼¸Î¿ÏħÎ´Î±á½·ÏīÎ½":4996,"á½³Î¼ÎµÎ¹Î½Îµ":4997,"Ġá¼ĲÎ½á½³ÏģÎ³ÎµÎ¹Î±Î½":4998,"Ġá¼ĦÎ»Î¿Î³Î¿Î½":4999,"ĠÎ¼Î±Î»Î¸Î±Îº":5000,"ĠÎ½ÎµÏħÏģá½½":5001,"ĠÎ¼ÎµÏĦÏģá½·ÏīÏĤ":5002,"Ġá¼ĿÎ»Î»":5003,"Ġá¼ĲÎ³ÎºÏīÎ¼Î¹Î±ÏĥÏĦ":5004,"Ġá½ģÎ¼Î¿Î»Î¿Î³Î¿ÏħÎ¼á½³Î½ÏīÏĤ":5005,"ÏĦÏģÎ¿ÏĢ":5006,"Î¹ÏĥÎ¸":5007,"ÎµÏĥÎ¹ÏĤ":5008,"ÏģÎ¿Î¹ÏĤ":5009,"ÏĥÏĢÎ±":5010,"Ïĥá½±Î½ÏĦÏīÎ½":5011,"ÏĢá½¹":5012,"ÏĢÏĢÎ¿Î½":5013,"Î»á½´Î½":5014,"Î¼Î¿":5015,"Î¼á½·Î±ÏĤ":5016,"ĠÎºÎ·Î¼":5017,"ÎºÏī":5018,"ÏħÏĦÎ±Î¹":5019,"á½³Î¿ÏĤ":5020,"á½³ÏĥÎ±Î¹":5021,"á½³ÏĥÎµÏīÏĤ":5022,"Ġá¼ĲÎ»ÎµÏħÎ¸":5023,"ĠÎ´Î±":5024,"Î³Î±":5025,"á½±Î¼ÎµÎ½Î¿Î¹":5026,"á½¹ÏĦ":5027,"á½¹ÏģÎ¿Î½":5028,"Ġá¼ĢÎ²":5029,"Ġá¼ĢÏĥÎ±ÏĨ":5030,"ĠÎ¼Î¹Î¼":5031,"ÏĨÏģÎ¿Î½":5032,"ÎµÎ¹ÏĦÎ±Î¹":5033,"Î¿ÏħÏĥá¿¶Î½":5034,"á½»ÎµÎ¹":5035,"ÎµÎ½á½¹":5036,"ĠÏĢÏģÎ¿Î½":5037,"ÏĦÎ¹Î¿ÏĤ":5038,"Îµá¿ĸÎ±Î½":5039,"Ġá¼ĲÎ½ÏĦá½¸ÏĤ":5040,"Ġá¼ĲÎ½Î´Îµá½·ÎºÎ½Ïħ":5041,"Î¼Î±ÏĦá½¹ÏĤ":5042,"ĠÎ´Î¹Îµ":5043,"Î¾ÎµÏĦÎ±Î¹":5044,"Ġá¼ĶÎ²Î±Î»":5045,"Ġá¼ĶÏĢÎ±Î¹Î¾Îµ":5046,"Ġá¼ĶÏĨÎ±Î¼ÎµÎ½":5047,"ÏģÎ±á½¶":5048,"ĠÎ»Î±Î³":5049,"ĠÎ»ÎµÏĩ":5050,"Ġá½ħÏĤ":5051,"á½½ÏĥÎµÎ¹ÏĤ":5052,"Ġá¼ĢÎ½Î¿Î¼":5053,"á½¹Î½Î¿ÏĤ":5054,"ÏĦÎ¿á½¶":5055,"Ġá¼ĦÎ³ÏģÎ±ÏĨ":5056,"Ġá¼ĢÏĢá½·":5057,"Îµá½·ÏīÏĤ":5058,"Îµá½·Î»Î±":5059,"ĠÏĥÏħÏĥÏĦ":5060,"Ġá¼ĲÎºÏĨ":5061,"Ġá¼ĲÎºÏĦÎµ":5062,"Ġá¼ĲÎºÎ¸á½³ÏĥÎµÎ¹":5063,"ĠÏĢÏģÎ¿ÏĦá½³ÏģÎ¿Ïħ":5064,"Î»Î·Ïģ":5065,"ĠÎ¸Î±":5066,"ĠÎ¸Îµá¿ĸÎ¿ÏĤ":5067,"ĠÎ²á½³Î»":5068,"Ġá½ĳÏĢá½±Ïģ":5069,"ÏĪÎ±ÏĤ":5070,"á½µÏĥÎ¿ÏħÏĥÎ¹Î½":5071,"Î»ÎµÎ¿Î½":5072,"ĠÏĦÎµÎ»Îµ":5073,"Ïĥá½·Î¿Î¹ÏĤ":5074,"ĠÏĢÎ±ÏģÎ±Î½":5075,"ÏĦá½·Î¸Î·ÏĥÎ¹Î½":5076,"ĠÏĦÎ±ÏĢÎµÎ¹Î½":5077,"Î»Î±á¿ĸÏĤ":5078,"ĠÎ´Î¹Î±ÏĥÏĦÏģÎ¿ÏĨ":5079,"ĠÎ´Î¹Î±Î»ÎµÎº":5080,"ĠÏĢÎ¿Î¹Î¿á¿¦Î½":5081,"Ġá¼ĲÎ¾Î·Ïģ":5082,"Ġá¼ĲÎ¾Îµá¿ĸÎ½Î±Î¹":5083,"ÏĦÎ¹Îºá½¸ÏĤ":5084,"ĠÎµá¼´ÏĢÎµÏģ":5085,"Î´ÎµÏĥÎ¼":5086,"Î¿Î³Î³":5087,"ĠÏĩÏģÎ¿Î½":5088,"á½±Î»Ïħ":5089,"Î±Î»Î¹":5090,"ĠÏĥÏħÎ½á½³ÏĥÏĦÎ·ÎºÎµ":5091,"ĠÏĥÏħÎ½á½³ÏĥÏĦÎ·ÎºÎµÎ½":5092,"Ġá¼ĦÎ»Î»Î¿Î½":5093,"Ġá¼ĦÎ»Î»Î±Î¹ÏĤ":5094,"Ġá¼ĪÎ½":5095,"ÏĦá½³Ïģá¾³":5096,"ĠÎ´á½³ÏĩÎµÏĦÎ±Î¹":5097,"ĠÎºÎ±Î¸á½¸":5098,"ĠÏĢá½±Î½ÏĦÎ·":5099,"ĠÎĺÏģá¾´":5100,"Ġá¼ĢÎ³Î½":5101,"ĠÏĢÎ±ÏģÎ±Î´á½·Î´Ïī":5102,"ĠÎ¿á¼·ÏĥÎ¹":5103,"Î±á½·Î±":5104,"ĠÏĢÎµÏģÎ¹ÏĥÏĦÎ±":5105,"Î·Îºá½¹ÏĦÎ¿ÏĤ":5106,"ĠÎ³ÎµÏī":5107,"ĠÎ¼Î·Î´á½³":5108,"á½½Î½Î·Î½":5109,"Î´ÎµÎ¹ÎºÏĦÎ±Î¹":5110,"Ġá¼ĢÎ½Î±ÏĦÎ¿Î¼":5111,"ĠÎºÎ±Î»Î¿á¿¦":5112,"ĠÎºÎ±Î»á½¸Î½":5113,"ĠÎºÎ±Î»Î¿á¿¦Î½ÏĦÎ±Î¹":5114,"ÎµÎºÎ»Î¹":5115,"Î¼ÎµÏĦÎ±":5116,"Î¼Î¹ÏĥÏħ":5117,"Î¼Î¹Î¼ÎµÏģ":5118,"ĠÏĢÎ¿Î¹á½¹ÏĦÎ·ÏĦÎµÏĤ":5119,"ĠÎµá½Ĺ":5120,"Ġá½ķÎ»á¿ĥ":5121,"ĠÏĢÎ±Î½Î¿ÏħÏģÎ³":5122,"ĠÎ¼á½³ÏĥÎ±":5123,"Ġá¼łÎ¸":5124,"á½·Î¶ÎµÏĦÎ±Î¹":5125,"Ġá¼ĪÏģÎ¹ÏĥÏĦÎ¿ÏĨá½±Î½":5126,"Ġá¼¥Î¼Î¹ÏĥÏħ":5127,"ĠÎºÎ±ÎºÎ¿á¿¦":5128,"ĠÎ¼ÎµÎ³á½³":5129,"ĠÏĦá½³Î¸ÎµÎ¹":5130,"ĠÎ²Î¿ÏħÎ»ÎµÏħ":5131,"Î¾Î±Î¼ÎµÎ½":5132,"ĠÎ½Î¿Îµá¿ĸÎ½":5133,"Î¾ÎµÏīÎ½":5134,"á½±Î¼Î·Î½":5135,"ĠÏĪÏħÏĩá½´Î½":5136,"ĠÎ§ÏģÎ¹ÏĥÏĦá½¹ÏĤ":5137,"ĠÎ¸á½±ÏĦÎµÏģÎ±":5138,"ĠÏĥÎ·Î¼Îµá¿ĸÎ±":5139,"ĠÏĢÎ»Îµá½·Î¿ÏħÏĤ":5140,"á¼ĲÎ½ÏĦÎ±á¿¦Î¸Î±":5141,"ĠÎ´Î¹Î±ÏĨÎ¿Ïģá½°ÏĤ":5142,"Ġá¼ĲÏĢá½·ÏĥÏĦÎ±":5143,"ÏģÏħÎ¸":5144,"Ġá¼ĢÏĥá½½":5145,"Î¤á½°":5146,"Ġá¼ĢÎ»Î·Î¸Î¹Î½":5147,"Ġá¼ĢÎ»Î·Î¸á¿Ĩ":5148,"ĠÏĢÎ¿Î»Î¹Î¿ÏģÎº":5149,"Ġá¼ģÏĢÎ»á¾¶":5150,"ĠÎ´ÎµÏħÏĦá½³ÏģÎ±ÏĤ":5151,"Î¿ÏħÎ¼á½³Î½Î·ÏĤ":5152,"á¼ĺÎ¶á½µÏĦÎ·ÏĦÎ±Î¹":5153,"ĠÏĥÎºá½³Î»ÎµÎ¹":5154,"ĠÎ¿á½ĲÎ´ÎµÎ¼á½·Î±Î½":5155,"ĠÏĥÏħÎ»Î»Î¿Î³Î¹ÏĥÎ¼Î¿á¿¦":5156,"ĠÏĦÎ¿Î¹Î±á½»ÏĦÎ·ÏĤ":5157,"ĠÏĨÎ¸á½±ÏĥÎ±":5158,"ĠÎ´Î¹Î±Î¹Ïģá½³ÏĥÎµÎ¹":5159,"Ġá½ħÎ¼Î¿Î¹Î±":5160,"ÏĥÎ¸ÎµÏĥÎ¹ÏĤ":5161,"ĠÎ¼ÎµÏĦá½±Î¸ÎµÏĥÎ¹ÏĤ":5162,"Ġá¼ĢÏģÎ¹ÏĥÏĦá½³Î±":5163,"ĠÎ¼Î±ÎºÏģá½¹":5164,"ĠÎºÎ±Î¸Î±Ïģ":5165,"Ġá¼°ÏĥÏĩÏħÏģá¿¶ÏĤ":5166,"ÏĦÎ¿á½»ÏĦÏīÎ½":5167,"ÏĦÎ¿á½»Î¼ÎµÎ½Î¿Î½":5168,"ĠÎłÎ»á½±ÏĦÏīÎ½Î¿ÏĤ":5169,"ĠÎ±á½ĳÏĦÎ¿á¿¦":5170,"á½³ÏĢÎµÎ¹Î½":5171,"Î¸ÎµÎ¹Î±":5172,"Ġá¼ĢÎ»Î»Î±Î½ÏĦÎ¿ÏĢá½½Î»Î¿Ïħ":5173,"ĠÎ¼ÎµÏĦá½³ÏĩÎµÎ¹":5174,"Îºá½±Î¶ÎµÎ¹Î½":5175,"ĠÎ´Îµá½·ÎºÎ½ÏħÏĦÎ±Î¹":5176,"Ġá¼ĦÏĦÎ¿Î¼Î¿Î½":5177,"ĠÏĥÏĨÎ¿Î½Î´á½»Î»Î¿ÏħÏĤ":5178,"ĠÎ´Î¹Î±ÎºÏģá½·Î½":5179,"Ġá¼¤ÎºÎ¿Ïħ":5180,"ĠÏĨÎ±Î½ÎµÏģá¿¶ÏĤ":5181,"Ġá¿¥á½µÏĦÎ¿ÏģÎµÏĤ":5182,"ĠÏĢÎ±ÏģÎµÎ»Î·Î»ÏħÎ¸":5183,"ĠÎ¸Î±Î½á½±ÏĦá¿³":5184,"Ġá¼¥Î»Î¹Î¿Î½":5185,"ĠÎ´ÏħÎ½á½±Î¼ÎµÎ½Î¿Î½":5186,"ĠÎ´Î¹ÏīÏģÎ¹ÏĥÎ¼á½³Î½Î¿Ïħ":5187,"ĠÏĥÏĦá½¹Î¼Î±ÏĦÎ¹":5188,"Ġá¼ĢÎºÎ±ÏĦá½±Î»Î·ÎºÏĦÎ¿Î¹":5189,"ĠÏĦÎ¿á½»ÏĦÎ¿Î¹ÏĥÎ¹Î½":5190,"Ġá¼¸ÏĥÏģÎ±á½µÎ»":5191,"ĠÎºá½¹ÏĥÎ¼Î¿Ïħ":5192,"ĠÎ´Î¹Î´Î±ÏĥÎºÎ±Î»á½·Î±ÏĤ":5193,"Ġá¼ĲÎ¼Î²á½±Î»Î»ÎµÎ¹Î½":5194,"ĠÏĥÏĩá½³ÏĥÎ¹ÏĤ":5195,"ÏĥÏħÎ¼Î²":5196,"ĠÏĦÎ¿á½ĲÏĢá½·ÏĥÏī":5197,"ĠÏĢÎ»á½±ÏĦÎ¿ÏĤ":5198,"Ġá¼ĶÎ³ÏģÎ±ÏĪÎµÎ½":5199,"ĠÏĦá½³Î¼Î½ÎµÏĦÎ±Î¹":5200,"ĠÏĥÏĨÏģÎ±Î³á¿ĸÎ´Î±":5201,"ĠÎ´á½·Î´ÏīÏĥÎ¹":5202,"Ġá¼±Î¼á½±ÏĦÎ¹Î¿Î½":5203,"ĠÏĦÎµÏĦÏģá½±Î¼ÎµÏĦÏģÎ¿Î¹":5204,"ĠÏĢÎ»á½±Î³Î¹Î¿Î½":5205,"ĠÏĢá¿ĨÏĩ":5206,"ĠÏĢá½³ÏģÎ±ÏĦÎ±":5207,"ĠÏĨÎ»ÎµÎ²":5208,"ĠÎ±á¼±Î¼Î¿á¿¤á¿¥":5209,"ĠÏĨÎ±ÏģÎ¼á½±ÎºÏīÎ½":5210,"Ġá¼ĲÎºÎºÎ»Î·Ïĥá½·Î±Î¹ÏĤ":5211,"ĠÎłÎµÎ»Î¿ÏĢÎ¿Î½":5212,"Î§":5213,"ÏĦÏĦÎ±Î½":5214,"ÏĦÏħÎ»":5215,"ÏĦá½´Ïģ":5216,"Î±ÏĥÎ¹Î½":5217,"Î¿Î¾":5218,"Î¹ÏĥÎµÎ½":5219,"ÎµÏĦá½°":5220,"ÎµÏĥÎ¸Î±á½·":5221,"ÏģÏĢ":5222,"ÏģÏīÏĤ":5223,"ÏĢÎ»á½±":5224,"ÏĢá½±Î»Î¹Î½":5225,"ÏĢÏĦÎµÏĦÎ±Î¹":5226,"Î»á½¹":5227,"Î»Î¹Îº":5228,"Î·ÏĥÎ±":5229,"á½³Î±ÏĤ":5230,"á½³Î»Î±Î²":5231,"ĠÎºÎ±Î»Î»":5232,"Ġá¼ĲÏĥÏĩá½±":5233,"ĠÎ´ÎµÎ»":5234,"Î¸ÏģÎ·":5235,"ÏĨÏģá½±":5236,"ÎµÎ¹á¿¶Î½":5237,"Î¿ÏħÎºÏħ":5238,"á½»ÎµÏĦÎ±Î¹":5239,"á½»ÎµÎ¹Î½":5240,"ÏĥÏĦÎ¿Î¹":5241,"ÏĥÏĦÎµÏģÎ±":5242,"ĠÎ³Î¿Î½":5243,"ĠÎ³ÏīÎ½":5244,"ĠÎ³Ïģá½±Î¼":5245,"Î±Î½ÏĦÎ¿ÏĤ":5246,"Î¼Î±Î³":5247,"Î¼Î±Î¸":5248,"ĠÎ´Î¹á½±ÎºÏģÎ¹":5249,"Ġá¼ĶÎ¸Î·":5250,"Ġá¼ĲÏĢÎ·Î³Î³":5251,"ĠÎ»Î¹":5252,"Ġá½ģÏĦÎ¹":5253,"Ġá½ģÏģá¿¶Î½":5254,"ĠÏĨÎ±Î¹Î½":5255,"á¿¶Î½Î±ÏĤ":5256,"á½½Î´Î·ÏĤ":5257,"ÏĦÎµá½·":5258,"ÏĦÎ¿ÏĢÎ¿Î¹":5259,"Î¹Î½á½½ÏĥÎº":5260,"ÎºÎ±ÏĥÎ¹Î½":5261,"Ġá¼ĦÎ´Î·Î»Î¿Î½":5262,"ĠÏĢÎ±Î¸Îµá¿ĸÎ½":5263,"ĠÏĢÎ±Î¸á¿¶Î½":5264,"ĠÏĩá½»":5265,"ĠÏĢÏģÎ¿ÏĥÏĦÎ¹":5266,"á¿ĨÎ»Î¿Î½":5267,"á¿¦ÏĦÎ±Î¹":5268,"ĠÎ¸Îµá½·Î¿Ïħ":5269,"Î¶Î¿Î½ÏĦÎ±Î¹":5270,"Î¿Î»Î¿Î½":5271,"Î¿Î»Î¿á½»":5272,"Ġá½ĳÏĢá¿Ĩ":5273,"á½·Î½Î·Î½":5274,"á½·Î½Î¿Î½ÏĦÎ±":5275,"ÏĪÎµ":5276,"ĠÏĢÎ±Ïģá½¹Î½ÏĦÎ¿ÏĤ":5277,"ĠÏĦÎ±Ïħ":5278,"ĠÏĦá¿ĩÏĥÎ¹":5279,"Î·Î½ÏĦÎ±Î¹":5280,"ĠÎ´Î¹Î±Î»Î±Î²Îµá¿ĸÎ½":5281,"ĠÏĢÎ¿Î¹Îµá¿ĸÏĦÎ±Î¹":5282,"ĠÏĢÎ¿Î¹Î¿á¿¦ÏĥÎ¹Î½":5283,"ĠÏĢÎ¿Î¹á½³ÎµÏĥÎ¸Î±Î¹":5284,"Ġá¼ĲÏĢÎ¹ÏĦá½µÎ´ÎµÎ¹":5285,"Ġá¼ĲÎ¾Î¹":5286,"Ġá¼ĲÎ¾á½·ÏĥÏĩ":5287,"ÏĦÎ¹Îºá½°ÏĤ":5288,"ÎµÏħÎ³":5289,"ĠÎµá¼´ÏĥÎ¸ÎµÏĥÎ¹ÏĤ":5290,"Ġá¿¥Î¿Î¼ÏĨ":5291,"ÏĥÎµÏĥÎ¹":5292,"ĠÏĩÏģá½µ":5293,"Îµá½»ÏĤ":5294,"ĠÏĥÏħÎ½á½µ":5295,"Ġá¼ĦÎ»Î»Î·ÏĤ":5296,"ÏĥÎ¼Î¿á¿¦":5297,"á½±Î³ÏīÎ½":5298,"Ġá½ĦÏģÎ½":5299,"ĠÎºÎ±Î¸á½³":5300,"ĠÎłÎ±Î½":5301,"ĠÏĢá½±Î½ÏĦá¿ĥ":5302,"Î»á½·á¾³":5303,"Ġá¼¡Î¼ÎµÏģá¿¶Î½":5304,"ĠÎĺÎ¿ÏħÎºÏħ":5305,"á½³ÏĩÎµÎ¹Î½":5306,"ĠÏĢÎ±ÏģÎ±Î»Î¿Î³":5307,"ĠÏĥÎºá½¹":5308,"Î¿Î¼Î¿Î»":5309,"ĠÏĦÎ¿Î¹á½¹Î½":5310,"ĠÏĢÎµÏģÎ¹ÏĦ":5311,"ĠÏĪá½»":5312,"ĠÎ³ÎµÎ»Î±ÏĥÏĦ":5313,"Ġá¼ĲÎ³Ïĩ":5314,"Ġá½ģÎ¼ÏīÎ½á½»Î¼ÏīÎ½":5315,"á½±Î¶ÎµÏĥÎ¸Î±Î¹":5316,"Ġá¼ĢÎ½Î±ÏĨá½»":5317,"Î¼ÎµÏĦÏģÎ±":5318,"ĠÎ³ÎµÎ½á¿¶Î½":5319,"ĠÎ³ÎµÎ½Î¿Î¼á½³Î½Î¿Ïħ":5320,"Î¿ÏĢá½½":5321,"Ġá¼ĢÏĨÎ¹ÎºÎ½":5322,"ĠÎµá¼°ÏĢá½½Î½":5323,"Î¼Î¹Î±":5324,"Ġá¼ĢÏģÏĩá½µ":5325,"Ġá¼ĶÎ½Î½Î¿Î¹Î±Î½":5326,"Ġá½ķÎ²":5327,"Ġá½ķÎ»Î·":5328,"ĠÎºÎ¿Î¹Î½á½¹Î½":5329,"ĠÏĨÎ±ÏĥÎ¹":5330,"ĠÏĨÎ±Ïĥá½¶":5331,"Î´Î¿ÏĦÎ±Î¹":5332,"ĠÎºÏģá½·ÏĥÎµÏīÏĤ":5333,"á½·Î¶ÎµÏĥÎ¸Î±Î¹":5334,"á¼ĶÏĢÎ±Î¹Î¾Îµ":5335,"ĠÎ³Î½á¿¶Î½Î±Î¹":5336,"ĠÎ¼ÎµÎ³á½·ÏĥÏĦ":5337,"Îµá¼°Ïĥá½¶":5338,"ĠÏĢá½±ÏĥÎ±Î¹ÏĤ":5339,"Ġá½ĳÏĢÎ¿Î´":5340,"ĠÎ½á½¹Î¼Î¿Î¹":5341,"ĠÎ¼á½µÏĢÏī":5342,"ĠÏĢÏģÎ¿ÏĨÎ·ÏĦÎµ":5343,"ÏĥÎ¸á½³Î½ÏĦÎ¿ÏĤ":5344,"ĠÎ§ÏģÎ¹ÏĥÏĦá½¸ÏĤ":5345,"Î·Ïģá½·Î¿Ïħ":5346,"ĠÎ¸á½±ÏĦÎµÏģÎ¿Î½":5347,"ĠÎ»Î¿Î³Î¹ÏĥÎ¼":5348,"ĠÏĥÏĦÏģÎ±ÏĦÎ¹":5349,"ĠÎ½Î¿Î¼Î¹Îºá¿¶Î½":5350,"ÏģÏħÏĤ":5351,"ĠÎ´á½¹Î¾á¿ĥ":5352,"Ġá¼ĦÏĩÏģÎ·":5353,"ĠÏħá¼±á½¹ÏĤ":5354,"ĠÏĢÎ»Î·Ïģ":5355,"ĠÎ´ÎµÏħÏĦá½³ÏģÎ¿Ïħ":5356,"ĠÏĨÎµá½»Î³Î¿Î½ÏĦÎ±":5357,"ĠÏĥÏĦá½±ÏĥÎµÎ¹":5358,"ĠÏĥÏĦá½±ÏĥÎµÏĥÎ¹Î½":5359,"á½¹Î´á¿³":5360,"Ġá¼ĳÎ±ÏħÏĦá¿ĨÏĤ":5361,"ĠÎºá½»ÏĨ":5362,"ĠÎĶÎ·Î¼Î¿ÏĥÎ¸á½³Î½Î¿ÏħÏĤ":5363,"Î»Î±Î¼Î²á½±Î½ÎµÏĦÎ±Î¹":5364,"Ġá¼ĢÏģÎ¹Î¸Î¼á¿·":5365,"ĠÏĩÎµÎ¹Ïģá¿¶Î½":5366,"ĠÏĥÎ¹ÏĦ":5367,"Ġá½ģÎ¼Î¿Î»Î¿Î³Îµá¿ĸ":5368,"ĠÎ³á½³Î³ÏģÎ±ÏĢÏĦÎ±Î¹":5369,"ĠÏĢÎ±ÏģÎ±Î³ÏģÎ±ÏĨÎ¹ÎºÎ¿á¿¦":5370,"Ġá¼°Î´á½·Î¿Ïħ":5371,"ĠÏĩÎµá¿ĸÏģÎ¿Î½":5372,"ĠÎ¼ÎµÏĦá½³Ïĩ":5373,"ĠÎ¸ÎµÏģÎ¼á½¸Î½":5374,"ĠÎ³Ïģá½±ÏĨÏīÎ½":5375,"ĠÏĢÎ±á¿ĸÎ´ÎµÏĤ":5376,"Ġá¼ĲÎ»ÏĢá½·":5377,"ĠÎ¸á½³ÏĥÎµÏīÏĤ":5378,"Ġá¼ĢÎ´á½»Î½Î±":5379,"ÏĦÎ¹Î½á½²ÏĤ":5380,"ĠÎ¿á¼µÏĦÎ¹Î½ÎµÏĤ":5381,"ĠÎºÎ±ÏĦÎ±ÏĨÏģÎ¿Î½":5382,"ĠÎ³ÏħÎ½Î±Î¹Îºá½¸ÏĤ":5383,"ĠÎ³ÏħÎ½Î±Î¹Îºá¿¶Î½":5384,"Ġá½ģÏģÎ¹ÏĥÎ¼á½¸ÏĤ":5385,"ĠÏĨÎ±Î½ÎµÏģá½¸Î½":5386,"ĠÏĢÎ»Îµá¿ĸÏĥÏĦÎ±":5387,"ĠÏĢÎ»ÎµÏħÏģá¿¶Î½":5388,"ĠÎ³Ïģá½±ÏĪÎ¿Î½":5389,"Ġá¼¤Î½Î¿Î¹":5390,"ĠÎ¸Î±Î»á½±ÏĥÏĥá¿ĥ":5391,"ĠÎºÎ¿ÏģÏīÎ½á½·":5392,"Ġá¼ĶÏģÏĩÎµÏĦÎ±Î¹":5393,"ĠÏĩÏģÏħÏĥÎ¿á¿¦Î½":5394,"Ġá¼ĢÎºÎ±ÏĦá½±Î»Î·ÎºÏĦÎ¿Î½":5395,"ĠÎ¼Î¿ÏĩÎ»":5396,"ĠÏĢá½·ÏĥÏĦÎµÎ¹ÏĤ":5397,"Ġá¼ģÏģÎ¼Î¿Î½":5398,"Ġá¼ĲÎ¼ÏĢÎµÏĥÎµá¿ĸÏĦÎ±Î¹":5399,"ĠÏĥÏĦÎ¿Î¹ÏĩÎµá¿ĸÎ±":5400,"ĠÏĢá½³Î¼ÏĢÏĦÎ¿Î½":5401,"ĠÎºá½»ÏģÎ¹Î¿Î½":5402,"ĠÎºÎ±ÏĦá½µÎ³Î¿ÏģÎ¿Î½":5403,"ĠÎ»ÎµÎ¹ÏĦÎ¿ÏħÏģÎ³":5404,"ÏģÎ·Î½ÏĦÎ±Î¹":5405,"Ġá¼ĶÏĥÏĩÎ±":5406,"ĠÎĶá¿ĨÎ¼Î¿Î½":5407,"ĠÎµá½ĳÏģÎµá¿ĸÎ½":5408,"Ġá¼ģÎ¼Î±ÏģÏĦÏīÎ»á¿¶Î½":5409,"Ġá¼ĲÎ¾ÎµÏĦá½±Î¶ÎµÏĦÎ±Î¹":5410,"ÏĢÏĦÎ¿ÏħÏĥÎ¹Î½":5411,"ĠÏĥÏĦÎ±ÏħÏģ":5412,"ĠÎ¼ÎµÏĦÎ±Î»á½µÏĪÎµÏīÏĤ":5413,"ĠÎºÏĦá½·ÏĥÎµÏīÏĤ":5414,"Î²á½±Î»Î»Î¿Î½":5415,"ĠÎµá½ĲÏĩÎµÏģá¿¶ÏĤ":5416,"ĠÏĦá½»ÏģÎ±Î½Î½Î¿Î½":5417,"Ġá¼ĲÎ´Îµá½µÎ¸Î·":5418,"ĠÎ¸á½½ÏģÎ±":5419,"Ġá¼ĢÎ½ÏĦÎ¹ÏĩÏģá½·ÏĥÏĦÎ¿Ïħ":5420,"ĠÏĢÎ±Î½ÏĦÎ¿ÎºÏģá½±":5421,"ĠÏĥÎ¹Î½Î±Ïģá½¸Î½":5422,"ĠÏĢÏģÏħÏĦÎ±Î½Îµá½·á¿³":5423,"ĠÏĨÎ»ÎµÎ³Î¼Î¿Î½":5424,"á½½Î½ÏħÎ¼Î¿ÏĤ":5425,"ĠÏĢÏģÎ¿Î´Î¿Ïĥá½·Î±ÏĤ":5426,"ĠÏĥÏħÎ½á½±ÏĢÏĦÎµÎ¹":5427,"Ġá¼ĢÎ½Î±Î³ÎºÎ±á¿ĸá½¹Î½":5428,"ĠÎ´Î±Î¹Î¼á½¹Î½ÏīÎ½":5429,"Ġá¼ĲÏĢá½±Î½Ïī":5430,"Î»Î±ÏĥÏĨÎ·Î¼":5431,"á¼ĺÏĢÎµÎ¹Î´á½´":5432,"Ġá¼ĢÏĥÏħÏĥÏĦá½±ÏĦÏīÎ½":5433,"ĠÎ±á¼°ÏĩÎ¼Î±":5434,"Ġá½įÎ¼Î·ÏģÎ¿ÏĤ":5435,"ĠÎºá½½Î»ÏīÎ½":5436,"ĠÏĢá½³ÏĢÏģÎ±ÎºÏĦÎ±Î¹":5437,"ĠÎĺÎ¿ÏħÎºÏħÎ´á½·":5438,"Î¦":5439,"Î½Î·ÏĤ":5440,"Î½ÏħÎ½":5441,"ĠÎŀ":5442,"Î¿Î´Î¿Î½":5443,"á¼¤":5444,"ÏĥÎµÏĦÎ±Î¹":5445,"Î»Î±Î½ÏĦÎ±":5446,"Î¼á½¹Î½":5447,"ĠÎºÏģÎ·":5448,"ĠÎºá½±Ïģ":5449,"ÏħÎ»Î»":5450,"á½·ÏĥÎº":5451,"á½³ÏĦ":5452,"ĠÎºÎ±Î»á½³":5453,"Ġá¼ĲÎ¶":5454,"Ġá¼Ĳá½±Î½":5455,"Î¸á½²Î½":5456,"Ġá¼Ģá½³ÏģÎ¿ÏĤ":5457,"ĠÎ¼Î¿Î»":5458,"ĠÎ¼á¿¦ÏĤ":5459,"ÏĩÎ¿Î¹":5460,"ÏĨÎµÎ¹":5461,"ÏĥÏĦÎµÏģ":5462,"ÏĥÏĦá½³Ïģ":5463,"Î±Î¹ÏģÎµ":5464,"á¿ĸÎ½Î±":5465,"Î±Î½á½¸ÏĤ":5466,"á½µÏģÏħ":5467,"ĠÏĥá¿¦":5468,"ĠÏĥá½±Î»ÏĢÎ¹":5469,"Ġá¼ĲÎ½Î¸":5470,"Î¾ÎµÎ¹Î½":5471,"Ġá¼ĶÏĥÎ¿Î½ÏĦÎ±Î¹":5472,"ĠÎ±á½ĲÏĦá½±":5473,"ÏģÎ±Î¸á¿¶Î½":5474,"ĠÎ»á¿ĥ":5475,"ĠÎ»ÎµÎº":5476,"ĠÎ»á½µÎ³":5477,"ĠÎ»Î¹Î¼":5478,"ĠÎµá¼°Îºá½¸ÏĤ":5479,"ĠÏĨÎ¿Î½":5480,"ĠÏĨá½±":5481,"ĠÏĨÎ±Î³Îµá¿ĸÎ½":5482,"Ġá¼¡Î´Î¿Î½":5483,"Ġá¼ĢÎ½ÏĦá½³":5484,"ÏĦÎµÏĦÎ±Î³":5485,"á½¹Î½Î¹":5486,"Ġá¼ĲÎºÏĦÎµá½·Î½":5487,"Î½Î±á½·":5488,"Î¹Îºá¿·":5489,"Î¶Î¿ÏħÏĥÎ¹Î½":5490,"ĠÎ²Î»Î±ÏĥÏĨÎ·Î¼":5491,"ĠÎ½á½µ":5492,"ĠÎ½Î¿á¿¦ÏĤ":5493,"Ġá¼ĳÏĦÎ¿á½·":5494,"Ġá¼ĳÏĨÎ¸Î·":5495,"ÏĪá½»":5496,"á½µÏĥÎµÏĥÎ¸Î±Î¹":5497,"á½µÏĥÎ¿ÏħÏĥÎ¹":5498,"á¿ĥÏĥÎ¹":5499,"ĠÏĢÎ±ÏģÏīÎ½á½»Î¼ÏīÏĤ":5500,"Ġá¼ĶÏĩÎ¿Î¼ÎµÎ½":5501,"Ġá¼ĶÏĩÎ¿Î½ÏĦÎ¹":5502,"ĠÎ´Î¹Î±Î³":5503,"ĠÏĢÎ¿Î¹Î·Ïĥ":5504,"Ġá¼ĲÏĢÎ¹Î²":5505,"Ġá¼ĲÏĢÎ¹Î¼ÎµÎ»":5506,"Ġá¼ĲÎ¾Î±á½·":5507,"Ġá¼ĲÎ¾Î±ÏĢÎ±":5508,"ĠÏĥÏĦÏģ":5509,"ĠÏĥÏĦá¿ĨÎ¸Î¿ÏĤ":5510,"ĠÎµá¼´Ïī":5511,"Î´ÎµÏĩ":5512,"Ġá¿¥Î¹Î½":5513,"Ġá¿¥á½±Î²":5514,"ĠÎºÎ±ÏĦÎ±Î³Î½":5515,"á½±Î»ÏīÎ½":5516,"ÏģÎ¿ÏĦá½±":5517,"Ġá¼ĪÎ»Îº":5518,"Ġá¼ķÎ´":5519,"Ġá¼ķÏĦÎµÏģá½¹Î½":5520,"Î¿Î¼á½³Î½Î±ÏĤ":5521,"ÏĦá½±ÏĢÎ±":5522,"Î¼ÏĨÏī":5523,"Ġá¼ĢÎ³Î¼á¿¶Î½":5524,"ĠÏĢÎ±ÏģÎ±ÏĥÎºÎµÏħ":5525,"ĠÏĦÎ¹Î½Î±ÏĤ":5526,"Ġá¼ĢÏĢÎ¿ÏĢ":5527,"Ġá¼ĢÏĢÎ¿Î´Î¹":5528,"Ġá¼ĢÏĢÎ¿Î¸Î±Î½":5529,"Ġá¼ĢÏĢÎ¿ÏĨá½»":5530,"ĠÎ¿á¼·Î±":5531,"ĠÏĦá½·Î¸":5532,"Ġá½ĦÎ½ÏĦÎ¹":5533,"Ġá½ĦÎ½ÏĦÏīÏĤ":5534,"ÏĦÏģÏīÎ½":5535,"ÏĦÏģá½¹ÏĢ":5536,"á½¹Î¼ÏīÎ½":5537,"Î±Î½ÏĦá½·Î¿Î½":5538,"ĠÏĢÎ¿Î»á½»":5539,"á½±Î¶ÏīÎ½":5540,"ĠÎ¸ÎµÎ¿á¿¦":5541,"ĠÎ¸Îµá¿¶Î½":5542,"ĠÎ¸Îµá¿·":5543,"Ġá¼ĢÎ½Î±Î²Î±":5544,"ĠÎºÎ±Î»Î¿á¿¦ÏĥÎ¹Î½":5545,"á¼°ÏĥÏĦá½³Î¿Î½":5546,"ÎµÎºÎµÎ½":5547,"Ġá¼ĢÎ¼ÏĨÎ¹Î²":5548,"ĠÎ³ÎµÎ½Î¿Î¼á½³Î½Î·ÏĤ":5549,"Î»á½±Î²":5550,"Ġá¼ĢÏĨÎ±Î¹Ïģ":5551,"Ġá¾Ķ":5552,"Ġá¼ĢÏģÏĩÎ±":5553,"Ġá¼ĢÏģÏĩá½°ÏĤ":5554,"ÏħÎ³Î±":5555,"ĠÏĦá½±Î¾ÎµÎ¹":5556,"Ġá½ķÏĢÎ±Ïģ":5557,"ĠÎ´ÎµÏĩ":5558,"á¿ĸÎ½Î±Î¹":5559,"ĠÎ¼á½³Î¼Î½Î·ÏĦÎ±Î¹":5560,"ĠÎ£Î±Î»Î±Î¼":5561,"ĠÎ»Î±Î¼Î²Î±Î½":5562,"Î·Î¼Î±ÏĦá½·":5563,"ĠÏĢÏģá½±Î³Î¼Î±ÏĥÎ¹Î½":5564,"Î´á½³ÏĪ":5565,"ÏĥÏĦá½³Î»Î»":5566,"Îµá¼°Îºá½¹ÏĦÏīÏĤ":5567,"Ġá½ĳÏĢÎ¿Î¼Î¿Î½":5568,"Ġá¼ĲÎ¼ÏĢá½³Ïĥá¿ĥ":5569,"ĠÏĢÏģá½½ÏĦÏīÎ½":5570,"ĠÎºÎ±ÏĦÎ·Î³Î¿Ïģá½·Î±Î¹ÏĤ":5571,"Ġá¼ĲÎ¼Î¿á½¶":5572,"ĠÎ¼ÎµÏĦá½½ÏĢ":5573,"Ġá½ĳÏĢÎµÏģÎ²Î¿Î»":5574,"Ġá¼ĢÎ½á½±Î³Î¿Î½ÏĦÎ±Î¹":5575,"Ġá¼ĲÏĢá½·Î´Îµ":5576,"ÏĥÏĥÎ¿Ïħ":5577,"Ġá¼ĢÏĥá½±ÏĨ":5578,"Ġá¼ĢÎ»Î·Î¸á½²ÏĤ":5579,"Î»Î±Î²á½¼Î½":5580,"ĠÎ½Î±á¿¦ÏĤ":5581,"ĠÏĥá½½Î¼Î±ÏĦÎ±":5582,"Ġá½ĳÏĢá½±ÏģÏĩÎµÎ¹Î½":5583,"ĠÎ¼á½³ÏĥÎ¿Ïħ":5584,"ĠÎ´ÎµÏħÏĦá½³Ïģá¿³":5585,"Î¸Îµá¿ĸÎ½Î±Î¹":5586,"Ġá¼ĢÎ¼Îµá½·":5587,"ĠÏĦÎ¿Î¹Î¿á½»ÏĦÎ¿Î¹":5588,"Ġá¼ĲÏĩÏģá¿¶Î½ÏĦÎ¿":5589,"ĠÎºÎ±Î¹Ïģá½¸ÏĤ":5590,"ĠÎºÎ±Î¹Ïģá¿·":5591,"Ġá¼ĲÎ¸á½³Î»":5592,"ĠÎºá½»ÏīÎ½":5593,"Ġá¼ĲÎºÎºÎ»Î·Ïĥá½·á¾³":5594,"ĠÎ´Î±ÎºÏģá½»":5595,"ĠÏĢá½³Î½Î·ÏĤ":5596,"ĠÎ¼á½³Î»Î»Î¿Î½ÏĦÎ±":5597,"ĠÏĥÎ¹Î´Î·":5598,"ĠÎ´Î¹ÏĢÎ»Î¿á¿¦Î½":5599,"ĠÎ³ÏģÎ±ÏĨá¿ĩ":5600,"Ġá¼°Î´á½·ÏīÎ½":5601,"Ġá¼°Î´á½·ÏīÏĤ":5602,"ĠÎºÎ±Î¸Î±Ïģá½¸Î½":5603,"Ġá¿¥Î·ÏĦÎ¿ÏģÎ¹Îºá½´Î½":5604,"ĠÎºÎµÏĨÎ±Î»Î±á½·Î¿Ïħ":5605,"ĠÎºÎµÏĨÎ±Î»Î±á½·Î¿Î¹ÏĤ":5606,"Ġá¼ĲÏģÎ³Î±":5607,"ĠÏĦÏħÏģá½±Î½Î½":5608,"Ġá¼ĦÎºÏģÎ±":5609,"ĠÎ¼á½±ÏĩÎ¿Î½ÏĦÎ±Î¹":5610,"ĠÏĢÎ¿Î´á¿¶Î½":5611,"ĠÎºÏħÏģÎ¹":5612,"ĠÎ»Î±Î¼Î²á½±Î½ÎµÎ¹":5613,"ĠÏĢÏģÎ±Î³Î¼Î±ÏĦÎ¹Îºá¿ĩ":5614,"á½½ÏĦÎ±ÏĦÎ¿ÏĤ":5615,"ĠÎ¸ÎµÏģÎ¼á½¹ÏĦÎ·ÏĤ":5616,"Ġá¼ĢÏĢÎ±ÏĦ":5617,"ĠÎ´Î¹ÎºÎ±ÏĥÏĦá½µÏģÎ¹Î¿Î½":5618,"ĠÎ½ÎµÏīÏĥÏĦ":5619,"ĠÏĥÎ±ÏģÎºá½¸ÏĤ":5620,"ĠÏĥÏħÎ³Î³ÏģÎ±ÏĨ":5621,"Ġá¼ĲÏĢÎ¹Î´á½³ÏĩÎµÏĥÎ¸Î±Î¹":5622,"ĠÏĥÏħÎ½Î±Î³":5623,"ĠÏĢÎ¿Î½Î·Ïģá½¸Î½":5624,"Ġá½ģÏģÎ¹ÏĥÎ¼á½¸Î½":5625,"Ġá¼ĲÏĢÎ¹ÏĦÎ·Î´Îµá½»":5626,"ĠÎłÎ±á¿¦":5627,"ĠÎłÎ±ÏĦÏģ":5628,"ĠÎ´Î·Î¼Î¿Ïĥá½·á¾³":5629,"ĠÏĥÏĦá½³ÏģÎ·ÏĥÎ¹Î½":5630,"Î¹Î¶á½¹Î¼ÎµÎ½Î¿ÏĤ":5631,"Ġá¼ĲÏĢÎµÎ¾":5632,"ĠÎ²Î¿Î·Î¸":5633,"Ġá¼±ÏĢÏĢá½³ÏīÎ½":5634,"ĠÏĦÏģÎ¿ÏĢá¿ĩ":5635,"Ġá¼°Î±ÏĦÏģá¿¶Î½":5636,"ĠÎ´á½³ÏģÎ¼Î±":5637,"ĠÏĥá½±ÏģÎºÎ±":5638,"ĠÎ²Î±ÏģÎ²":5639,"ĠÏĢÎ¿ÏģÎ½Îµá½·Î±ÏĤ":5640,"ÏĢÏģá¿¶ÏĦÎ¿Î½":5641,"Ġá½łÏĨá½³Î»":5642,"ĠÎµá¼°Îºá½¹Î½Î±":5643,"Ġá¼±ÏĥÏĦÎ¿Ïģá½·Î±ÏĤ":5644,"Ġá½ģÏģá½·Î¶ÎµÏĦÎ±Î¹":5645,"ÏĦÎµÏĦÎ±Î¼á½³Î½Î¿Î½":5646,"ĠÏĦÎ¿á½ĲÎ½":5647,"ĠÎºÏīÎ»á½»ÎµÎ¹":5648,"Ġá¼ĢÎ½Î±Î»Î¿Î³":5649,"ĠÏĢÏģÎ¿ÎµÎ¹ÏģÎ·Î¼á½³Î½ÏīÎ½":5650,"Ġá¼ĢÎ´ÏħÎ½Î±Î¼á½·Î±":5651,"Ġá¼ĲÎºÎ»Îµá½·ÏĢÎµÎ¹":5652,"ĠÎļÎ±ÏĦÎ·Î³Î¿ÏģÎ¹á¿¶Î½":5653,"Ġá½ģÎ´Î¿Î¹ÏĢÎ¿Ïģá½·":5654,"ĠÎļÏģÎ±ÏĦá½·Î½Î¿Ïħ":5655,"ĠÎĺÎµÎ¼Î¹ÏĥÏĦÎ¿ÎºÎ»á¿ĨÏĤ":5656,"ĠÎ¼Îµá½·Î¶Î¿Î½Î±":5657,"Ġá¼ĶÎ»Î±Î²Îµ":5658,"ĠÏĥÎºá½³Î»ÎµÎ¿ÏĤ":5659,"ĠÎ¼Î½Î·Î¼Î¿Î½":5660,"ĠÎłÎµÏģÎ¹ÎºÎ»á¿ĨÏĤ":5661,"Ġá¼ĢÏĢÎ¿ÎºÎ±Î»á½»ÏĪÎµÏīÏĤ":5662,"ÏĦá½·Î¸ÎµÏĦÎ±Î¹":5663,"á½µÎ½ÎµÎ³ÎºÎµ":5664,"ĠÏĥÏħÎ½Î±Î½Î±Î¹Ïģ":5665,"Ġá¼ĢÏĢá½³ÎºÏĦÎµÎ¹Î½Îµ":5666,"Ġá¼ĢÎ¸Ïģá½¹":5667,"Ġá¼ĲÏĢÎµÎ¹Î´á½°Î½":5668,"ĠÎµá¼°á½½Î¸Î±ÏĥÎ¹Î½":5669,"ĠÎ¿á¼¶Î½Î¿Î½":5670,"Ġá¼ĶÎ¿Î¹ÎºÎµ":5671,"ĠÎ³á½³Î½ÏħÎ¿ÏĤ":5672,"ĠÎłÎ½Îµá½»Î¼Î±ÏĦÎ¿ÏĤ":5673,"ĠÎ¼Î½á½µÎ¼Î·Î½":5674,"Ġá½ķÏĪÎ¿ÏĤ":5675,"Îµá½»Î¸ÏħÎ½Î¿Î½":5676,"Ġá¼ĪÎ»á½³Î¾Î±Î½Î´ÏģÎ¿ÏĤ":5677,"ĠÎ¼Î·Îºá½³ÏĦÎ¹":5678,"ĠÏĢÏģá½¹ÏĥÎºÎµÎ¹ÏĦÎ±Î¹":5679,"ĠÏĦÏģÎ¹á½µÏģÎµÎ¹ÏĤ":5680,"Ġá¼ĢÏĢá½·Î¸Î±Î½Î¿Î½":5681,"Îµá½·Î»Î±ÏĦÎ¿":5682,"ĠÎĺÏģá¾´ÎºÎ·ÏĤ":5683,"ĠÎłÎµÎ»Î¿ÏĢÎ¿Î½Î½Î·":5684,"Ġá¼ĢÎ½Î±ÏĨá½»ÎµÏĦÎ±Î¹":5685,"Ġá¼ĳÏĨÎ¸Î·Î¼Î¹Î¼ÎµÏģ":5686,"ĨÏģÎ±":5687,"ÏĦÏĦÏī":5688,"Î½ÏĦÎ¹Î½Î±":5689,"Î±á½·Î½ÎµÎ¹":5690,"Î±á½·Î½ÎµÎ¹Î½":5691,"Î¿Î´á½·":5692,"á¼µ":5693,"ÏģÎµá¿ĸÎ½":5694,"ÏģÎ¿á½»":5695,"Î¼Î¿á¿¦":5696,"Î¼á½³Î»":5697,"ĠÎºÎµÏģÎ±":5698,"ÎºÎ¿Î¹":5699,"ÏħÎ»á½±":5700,"ĠÏĢá½±Î»Î±Î¹":5701,"ĠÎºÎ±ÏĦÎµÏģ":5702,"Ġá¼ĲÏĦÎµ":5703,"Ġá¼ĲÏģÎ·":5704,"ÏīÏĦÎ±Î¹":5705,"Î³Î¼Î±ÏĦÎ±":5706,"Î¿Î½Î¿Î¼":5707,"Î¸á½µÏĥÎ¿Î½ÏĦÎ±Î¹":5708,"Î¸á½³ÏĥÎµÎ¹ÏĤ":5709,"á½¹ÏĦÎµÏģÎ¿ÏĤ":5710,"Î´á¿³":5711,"ÏĨá½·":5712,"Î¿ÏħÏģÎ±Î½":5713,"á½»ÏĥÏĥÎ¿Ïħ":5714,"ÏĥÏĦÏīÏĤ":5715,"ÏĥÏĦá½¹Î½":5716,"Î¿Î¹Î¼ÎµÎ½":5717,"ÏĥÎ¹ÎµÏĤ":5718,"Î±Î½ÏĦÎµÏĤ":5719,"ĠÏĥÏĢÎ±Î½":5720,"á½³Î½ÏĦÎ±":5721,"Ġá¼ĲÎ½Îµ":5722,"Î¾á½³":5723,"Ġá¼ĶÎ¾":5724,"Ġá¼ĲÏĢÎ¿á½·":5725,"Ġá¼ĲÏĢÎ±Î³ÏīÎ³":5726,"ĠÎ»Î·":5727,"Ġá½ģÎºá½¹":5728,"ĠÎµá¼°Î´Ïī":5729,"Ġá¼¡Î»Î¹Îº":5730,"Ġá¼ĢÎ½Î¿":5731,"Ġá¼ĢÎ½á½¹":5732,"Ġá¼ĢÎ½Î±Î½ÏĦá½·":5733,"Ġá¼ĦÎ¼ÎµÎ¹Î½Î¿Î½":5734,"Ġá¼ĦÎ¼ÏĨÏī":5735,"Ġá¼ĢÏĢÎ±Ïģ":5736,"Ġá¼ĢÏĢÎ±á½·":5737,"ĠÏĩÏī":5738,"ĠÏĩá½¹Î½":5739,"ĠÏĩÎ»Î¹":5740,"ĠÏĦÎ¿Î¼":5741,"ĠÏĦá¿·Î´Îµ":5742,"ĠÏĢÏģÎ¿Î´":5743,"ĠÏĢÏģÎ¿Î²":5744,"ĠÏĢÏģÎ¿ÎµÎ¹Ïģ":5745,"ĠÏĢÏģÎ¿Î¿Î¹Î¼":5746,"á¿³Î´":5747,"á½³ÏģÏĩÎµÏĦÎ±Î¹":5748,"ĠÎ¸Î½":5749,"Î¹Îºá¿ĩ":5750,"Î¹Îºá½°ÏĤ":5751,"Î¶Î¿Î½ÏĦÎ±":5752,"Î¶á½¹Î¼ÎµÎ½Î¿ÏĤ":5753,"ĠÎ»á½³Î³ÎµÎ¹ÏĤ":5754,"Î»ÎµÎºÏĦÎ±Î¹":5755,"ĠÏĢÎ±ÏģÎµÏĥÏĦ":5756,"ĠÏĢÎ±Ïģá½½Î½ÏħÎ¼Î±":5757,"Ġá¼ĶÏĩÎ¿ÏħÏĥÎ±Î½":5758,"Î¿á½»ÏģÎ³":5759,"ĠÏĢÎ¿Î¹á½¹Î½":5760,"ÏĦÎ¹ÎºÏģÏħÏĤ":5761,"ĠÏĥÏĦÎ·Ïģá½·":5762,"ĠÎµá¼´Î»Î·ÏĨ":5763,"ĠÏĢÎ¿á½ºÏĤ":5764,"ĠÏĢÎ¿ÏĦá½µÏģÎ¹Î¿Î½":5765,"Ġá¿¥Î¿ÏĢ":5766,"ĠÎºÎ±ÏĦÎ±Î²":5767,"ĠÎºÎ±ÏĦÎ±Î½Î±Î³":5768,"á½±Î»ÎµÎ¹":5769,"á½±Î»á¿³":5770,"Î±Î»Îµá¿ĸÎ½":5771,"Ġá¼°Î´á½³":5772,"Îµá½»Î¿ÏħÏĥÎ¹Î½":5773,"Îµá½»ÏĥÎµÎ¹":5774,"ĠÏĥÏħÎ½Î¸á½³":5775,"Î·ÏĦá¿¶Î½":5776,"á¿ĩÏĤ":5777,"Î´Î¹Î±ÏĨ":5778,"ĠÎļá½¹":5779,"ĠÎ´á½³Î¿Î½ÏĦÎ±Î¹":5780,"Î¿á½·Î¿Ïħ":5781,"Ġá½ĦÏĩ":5782,"ĠÎµá¼¶ÎµÎ½":5783,"ÏĥÏĦÎ±ÏĥÎ¹ÏĤ":5784,"ĠÎłÏħÎ¸":5785,"ĠÎłá½»Î»Î¿Î½":5786,"á¼ĲÏĨ":5787,"Ġá¼¤ÏĢÎµÏģ":5788,"Ġá¼ĢÏĢÎ¿Î²":5789,"Ġá¼ĢÏĢÎ¿ÏĥÏĦÎ±":5790,"Î·Î¼Î¹":5791,"á½¹Î»á¿³":5792,"ĠÏĥÎºÎ¿Ïģ":5793,"ĠÏĥÎºá½¹ÏĦÎ¿ÏĤ":5794,"Ġá½ĦÎ½Î¿Î¼á½±":5795,"ÏĦÏģá½³ÏĢ":5796,"Î¸ÎµÏĦÎ¿":5797,"Ġá¼ĲÎ³ÎºÎ±ÏĦÎ±":5798,"Ġá¼ĢÎºá½·Î½":5799,"Ġá¼ĢÎºÎ¿Î»Î¿á½»":5800,"ĠÎ¼Î·Î´Î±Î¼":5801,"Ġá½ģÎ¼ÏīÎ½á½»Î¼ÏīÏĤ":5802,"ĠÎ¸Îµá½¸ÏĤ":5803,"Î´ÎµÎ¹ÎºÎ½":5804,"ĠÏĢÎ¿Î»Î»á½±":5805,"á¿¦Î½Î±Î¹":5806,"ĠÎ´Î¹Î±ÏĨá½¹ÏģÎ¿ÏħÏĤ":5807,"Î¼ÎµÏĦÏģá½·":5808,"Ġá¼ĢÎ¼ÏĨá½¶":5809,"Ġá¾ł":5810,"ĠÎĶÎ±Î½Î¹":5811,"á½»Î»Î±ÏĤ":5812,"Î¼Î¹Î³":5813,"Ġá¼ĶÎ½Î¹Î¿Î¹":5814,"ĠÏĢÎ¿Î¹á½¹ÏĦÎ·ÏĦÎ±ÏĤ":5815,"ĠÏĢÎ±Î½ÏĦá½±ÏĢÎ±":5816,"Î´Î¿ÏĥÎ¹ÏĤ":5817,"ÏħÎºÎµÎ½":5818,"ĠÏĥÏĩá½µÎ¼Î±ÏĦÎ¹":5819,"ĠÏĦÏģá½·ÏĦÎ¿Ïħ":5820,"ĠÏĦÏģá½·Î¼ÎµÏĦÏģÎ¿Î¹":5821,"ÏĥÏĢÎ¹ÏĤ":5822,"ĠÎ¼á½³Î½ÎµÎ¹":5823,"Î¿ÏĦá½³ÏģÎ±ÏĤ":5824,"ĠÎ¶Î·ÏĦÎµá¿ĸÏĦÎ±Î¹":5825,"Ġá½ĳÏĢÎ¿Îºá½±ÏĦÏī":5826,"ĠÎ¼ÎµÎ³Î±Î»":5827,"ÏĥÏĦá½³ÏģÎ±ÏĤ":5828,"ĠÎ´Î¿Îºá¿ĩ":5829,"Ġá¼ĪÏģÎ¹ÏĥÏĦÎ¿ÏĦá½³Î»ÎµÎ¹":5830,"ĠÎ²Î±ÏĥÎ¹Î»Îµ":5831,"ĠÎ²Î±ÏĥÎ¹Î»á½³ÏīÎ½":5832,"ĠÎ²Î±ÏĥÎ¹Î»á½³ÏīÏĤ":5833,"ĠÏĢÏģá½½ÏĦÎ·ÏĤ":5834,"ĠÏĢÏģá½½ÏĦá¿³":5835,"ĠÎºÎ±ÏĦÎ±ÏĥÎºÎµÏħÎ±Î¶":5836,"Ġá¼ĲÎ¼ÏĢÎµÏģÎ¹":5837,"ĠÎ§ÏģÎ¹ÏĥÏĦá½¸Î½":5838,"ĠÎ¼ÎµÏĦá½±ÏĥÏĦÎ±ÏĥÎ¹Î½":5839,"ĠÏĥÎ·Î¼Îµá½·Î¿Ïħ":5840,"ĠÏĩÏģÎ·Î¼á½±ÏĦÏīÎ½":5841,"Ġá½ĢÎ½á½¹Î¼Î±ÏĥÎ¹Î½":5842,"ĠÎ¼ÏħÎ¾":5843,"ĠÎ¼á½³Î³Î±Î½":5844,"ĠÎ´Î¹Î±ÏĨÎ¿Ïģá¾¶ÏĤ":5845,"ĠÎ»ÎµÏħÎºÎ¿á¿¦":5846,"Ġá¼ĲÎºÎµá½·Î½Î·Î½":5847,"ĠÎºá¼ĢÎ³":5848,"ĠÎ»á½³Î¾Î¹ÏĤ":5849,"Ġá¼ĢÏĢÎ¿Îºá½±Î»Ïħ":5850,"ĠÎ²Î¹Î²Î»á½·Î±":5851,"Ġá½ħÎ»á¿³":5852,"á¼ĺÏĨ":5853,"ĠÏĥá½»Î¼ÏĢ":5854,"ĠÏĥÎ±ÏĨá½³ÏĥÏĦÎµÏģÎ¿Î½":5855,"ÏĦÎ·Ïģá½·á¿³":5856,"ĠÏĦÎ¿Î¹Î±á½»ÏĦÎ±ÏĤ":5857,"ĠÏĢÎ¿Î½Î·Ïģá½·":5858,"ĠÏĥÎ¹ÏĦá½·":5859,"ÏĦÏģá½·Î²":5860,"ĠÏĥá½»Î½ÏĦÎ±":5861,"ĠÏĢÎ±ÏģÎ±Î³ÏģÎ±ÏĨá½´":5862,"ĠÎºÎ±ÏĦÎ±ÏĥÎºÎµÏħá½±Î¶ÎµÏĦÎ±Î¹":5863,"ĠÏĢÏģÎ¿ÏĨá½µÏĦá¿ĥ":5864,"Ġá¼ĲÏģÎ³Î±Î¶":5865,"Ġá¼ĳÎºÎ±ÏĦá½³ÏģÏī":5866,"Ġá¼ĦÎºÏģÎ¿Î½":5867,"Ġá½ĢÎ½Î¿Î¼á½±Î¶ÎµÏĦÎ±Î¹":5868,"Ġá¼ĢÏĦá½°Ïģ":5869,"ĠÎ¼á½±ÏĩÎµÏĦÎ±Î¹":5870,"ĠÎ´á½µÏĢÎ¿Ïħ":5871,"Ġá¼ĲÎºÏĢÎ¿Ïģ":5872,"ĠÎ¼Î¹á¾·":5873,"Ġá¼´ÏĥÎ¿Ïħ":5874,"ĠÎ¼ÎµÎ³á½±Î»Î¿Ïħ":5875,"Ġá¼±ÎµÏģá½¸Î½":5876,"ĠÎ´á½·ÎºÎ±Î¹Î¿ÏĤ":5877,"ĠÎ£ÏīÎºÏģá½±":5878,"Ġá½ĳÏĢÎ¿Î³ÏģÎ±ÏĨá½´":5879,"Î¸Îµá½·ÏĥÎ·ÏĤ":5880,"ĠÎ²Î±ÏĥÎ¹Î»Îµá½·Î±ÏĤ":5881,"ĠÎ²á½±Î¸Ïģ":5882,"ĠÏĦá½³ÏĥÏĥÎ±ÏģÎµÏĤ":5883,"ĠÎ²ÏģÎ±Ïĩá½·Î¿Î½Î±":5884,"ĠÎ´Î¹Î±ÏģÎ¸Ïģá½½ÏĥÎµÎ¹":5885,"á¿ĨÎ»Î¸Îµ":5886,"ĠÎ´Ïģá½±ÎºÎ¿Î½ÏĦÎ±":5887,"Ïĥá½±ÏĦÏī":5888,"ĠÏĢÎµÏĢÎ¿Î½Î¸á½¸ÏĤ":5889,"ĠÏĢÎµÏĢÎ¿Î½Î¸á½¹ÏĦÎ¿ÏĤ":5890,"Ġá¼ĲÎ¾á½³ÏĢÎµ":5891,"ĠÏĥÏħÎ¼ÏĨá½³ÏģÎ¿Î½ÏĦÎ¿ÏĤ":5892,"ĠÎºá¼ĢÎ½ÏĦÎ±á¿¦Î¸Î±":5893,"Ġá¼ĢÎ½ÏĦÎ¹ÏĥÏĦÏģá½³ÏĨÎ¿Î½ÏĦÎ±":5894,"ÏĢÏģÎ¿Ïĥ":5895,"Ġá½ĳÎ¼á¾¶ÏĤ":5896,"ĠÎºÎ½á½µÎ¼Î·Î½":5897,"ĠÎ¸á½³Î»ÎµÎ¹":5898,"ĠÏĦÎµÎ»ÎµÏħÏĦÎ±á¿ĸÎ¿Î½":5899,"ĠÎ´á½³ÏģÎ¼Î±ÏĦÎ¿ÏĤ":5900,"ĠÎ±á¼°á¿¶Î½Î¿ÏĤ":5901,"Î¿á½ĲÎ´á½²Î½":5902,"ĠÎ´ÏīÏģÎµá¾¶ÏĤ":5903,"Î¿ÏģÎ¹Îºá¿¶ÏĤ":5904,"Î´á½¹Î½ÏĦÎ±ÏĤ":5905,"ĠÏĥÏĢÎ¿ÏħÎ´Î±":5906,"ĠÏĢÏģÎ¿ÏĥÎ¸á½µÎº":5907,"ĠÏĦÎ±Ïĩá½³ÏīÏĤ":5908,"Ġá¼ħÎ³Î¹Î¿ÏĤ":5909,"ĠÎ´ÎµÏĥÏĢá½¹":5910,"Ġá½łÏĨÎµÎ»":5911,"Ġá¼ĲÎ»Î»Îµá½·":5912,"ĠÏĥÏĦÎ¿Î¹ÏĩÎµá½·ÏīÎ½":5913,"ĠÎµá¼´ÏĢÎ¿Î¼ÎµÎ½":5914,"ĠÏĢÎµÏĢÎ¿á½·Î·ÎºÎµÎ½":5915,"ĠÎ´Î¹ÎºÎ±Î¹Î¿Ïĥá½»Î½Î·ÏĤ":5916,"Ġá¼ķÎ»ÎºÎ¿ÏĤ":5917,"ÏĦÏĦÎ¿ÏħÏĥÎ¹":5918,"ĠÎºÎ±Î¸Î¿Î»Î¹Îº":5919,"ĠÎ¸Î±ÏħÎ¼Î±":5920,"Ġá¼°Î±Î¼Î²Î¹ÎºÎ¿á½¶":5921,"ĠÎ±á½ĲÏĩá½³Î½":5922,"ÎºÎ¿Î»Î¿á½»":5923,"ĠÎ»Î¿Î¹Î´":5924,"ĠÎ²ÏģÎ¿Î½ÏĦÎ±":5925,"ĠÎ½á½·ÎºÎ·Î½":5926,"Ġá¼ĢÎ½ÏĦÎ¹Î½Î¿Î¼á½·Î±":5927,"Î±á½·ÏģÎµÏĥÎ¹Î½":5928,"ĠÎ¼á½±Î³ÎµÎ¹ÏģÎ¿Î¹":5929,"ĠÏĥÏħÎ½á½³ÏĩÎ¿Î½":5930,"Ġá½ģÎ´Î¿Î¹ÏĢÎ¿Ïģ":5931,"ĠÎĳá¼´Î±ÏĤ":5932,"ĠÏĦÏħÏĨÎ»á½¹ÏĦÎ·ÏĤ":5933,"ĠÎľÎ±ÏģÎ±Î¸á¿¶Î½":5934,"ĠÎºÏģá½³Î±":5935,"ĠÎĳá¼°ÏĥÏĩá½·Î½Î·ÏĤ":5936,"ĠÏĦÏħÏģÎ±Î½Î½á½·Î´Î¿ÏĤ":5937,"ĠÎºÎ±ÏĦÏīÏĦá½³ÏģÏī":5938,"Ġá¼ĶÎ³Î³ÏģÎ±ÏĨÎ¿ÏĤ":5939,"Ġá¼ĢÏģÎºÎµá¿ĸ":5940,"Ġá¼¹ÎµÏģÎ¿ÏħÏĥÎ±Î»á½´":5941,"Ġá¼ĶÎ»Î±ÏĦÏĦÎ¿Î½":5942,"ĠÎºá½·Î½Î´ÏħÎ½Î¿ÏĤ":5943,"Î¿á¿ĨÏĥÎ±Î¹":5944,"Ġá¼ĶÎ¼Î¼ÎµÏĥÎ±":5945,"ĠÎ¿á½ĲÎ´ÎµÎ½á½¸ÏĤ":5946,"ĠÏĢÎ»ÎµÎ¹á½¹Î½ÏīÎ½":5947,"ĠÏĦÏħÏĢÏĦ":5948,"Ġá¼ĲÏĥÏĩÎ·Î¼Î±ÏĦÎ¹":5949,"ĠÏĨÏħÏĥÎ¹Î¿Î»Î¿Î³":5950,"ĠÎ²ÏħÏģÏĥÎ¿Î´á½³ÏĪ":5951,"ĠÏĦÎ¿Î¹á½¹Î½Î´Îµ":5952,"ĠÎĺÎ¿ÏħÎºÏħÎ´á½·Î´Î·ÏĤ":5953,"ĠÏĢÏģÎ¿ÎµÎ¹Ïģá½µÎºÎ±Î¼ÎµÎ½":5954,"Ġá¼¹ÎµÏģÎ¿ÏħÏĥÎ±Î»á½´Î¼":5955,"ÏĦÏģá½±":5956,"ÏĦá½¼":5957,"Î½Î¿ÏħÏĤ":5958,"Î±á¼°":5959,"Î¿Î·":5960,"ÏģÎµÎ¹Î½":5961,"Ïģá¿¶ÏĤ":5962,"ĠÏĦÎ·Î½":5963,"ÏĢÏīÏĤ":5964,"ÏĢÎ¿Î»":5965,"ĠÎºÎ¿á¿¦":5966,"ĠÎºá½»Î½":5967,"ĠÎºá½¹ÏĢ":5968,"ÎºÎ»á½µ":5969,"ÏħÏĥÎ¹Î½":5970,"ĠÏĢá½¹Î½":5971,"ĠÏĢÎ·Î³":5972,"ĠÏĢÎµÏĥ":5973,"á½³ÏĥÎ¹":5974,"á½³ÎµÏĦÎ±Î¹":5975,"ĠÎ´á¿¶":5976,"ĠÎ´Î¿Î³":5977,"ĠÎ´Ïģá¾¶":5978,"Î³á½³Î½":5979,"Î³Î´Î¿":5980,"Î¿á¿ĵ":5981,"Î¸Î·Î½":5982,"ĠÎ¼á½·":5983,"Î´á½»Î½":5984,"ÏĨÏģÎ±":5985,"ÏĨÎµÎ»":5986,"ÏĥÏĦá½±":5987,"ÏĥÎ¹á¿¶Î½":5988,"ĠÎ³ÏħÎ¼Î½Î±":5989,"ĠÎµá¼±":5990,"á½µÎ¼Î¿Î½":5991,"ÎµÏģÎ¿ÏĤ":5992,"Î»Î»Î±Î³":5993,"ĠÎ´Î¹Î¿Î¹Îº":5994,"Î¾á½·":5995,"Î²ÏģÎ±":5996,"Ġá¼ĲÏĢÎµÎ¹":5997,"ĠÎ±á½ĲÏĦÎ¿Î¼Î¿Î»":5998,"ĠÎ»Î±Î½":5999,"ĠÎ¿á½ĲÏģá½±Î½":6000,"Ġá½ħÎ»Î·":6001,"á½½Î³":6002,"ÏĦÎµá½·Î½ÎµÎ¹Î½":6003,"ÏģÎ¹ÏĥÏĦÎ±":6004,"Î¼á½³Î½ÏīÏĤ":6005,"ÎºÎ±Ïģ":6006,"Î¼ÎµÎ½Î±Î¹":6007,"ĠÏĢÎ±á½»":6008,"ĠÏĢÎ±ÏĦá½µÏģ":6009,"Ïģá½·Î¸Î¼":6010,"Ġá½¡ÏģÎ±":6011,"á½³Î³ÏģÎ±ÏĢÏĦÎ±Î¹":6012,"ĠÏĢÏģÎ¿Î¿á½·":6013,"ĠÏĢÏģÎ¿ÏĥÏĦÎ±":6014,"á½³ÏģÎµÎ¹Î½":6015,"á¿¦Î¼Î±":6016,"ĠÎ¸Î±Ïģ":6017,"ĠÎ¸á½»Î½":6018,"ĠÎ²ÏģÎ±":6019,"ĠÎ²á½»Ïģ":6020,"Ġá¼ĳÏĦÎ±Î¹":6021,"á½µÏĥÎµÏīÎ½":6022,"Î»ÎµÏĦÎ¿":6023,"ĠÏĦÎµÎ»ÎµÎ¹":6024,"ÏĦá½·Î¸Î·ÏĥÎ¹":6025,"Î»Î±Î¶":6026,"Î¿á½»Î¼ÎµÎ¸Î±":6027,"ĠÏĢÎ¿Î¹á½µÏĥÎ±ÏĥÎ¸Î±Î¹":6028,"ÏĦÎ¹Îºá½¹ÏĤ":6029,"ĠÏĥÏĦÎ¿Î»":6030,"Î±Î³Îµ":6031,"Ġá¿¥Î±":6032,"ÏĥÎµÏĥÎ¹Î½":6033,"ĠÏĩÏģá½³ÎµÏĥÎ¸Î±Î¹":6034,"Î±Î»ÎºÎ¹":6035,"á½³Î»Ïī":6036,"ĠÏĥÏħÎ½ÏĦ":6037,"Ġá¼ĪÎ³":6038,"Ġá¼ķÎ»":6039,"Ġá¼ķÎ¾ÎµÎ¹":6040,"ĠÎļÎ»Îµ":6041,"ÏĥÎ±Î½ÏĦÎ¿":6042,"Î¼ÏĢÏģÎ¿ÏĥÎ¸ÎµÎ½":6043,"ĠÎ´á½³Î¾Î±ÏĥÎ¸Î±Î¹":6044,"ĠÎ´á½³Î´ÎµÎ¹ÎºÏĦÎ±Î¹":6045,"ĠÎµá¼¶Î¸":6046,"ĠÎµá¼¶ÏĢÎ¿Î½":6047,"ÏĦá½±ÏĦÏī":6048,"ÏĥÎ±Î¹ÏĤ":6049,"á¼ĢÎ½Î±":6050,"ĠÎ±á¼°Îµ":6051,"Ġá¼¡Î¼Îµ":6052,"Ġá¼¡Î¼á½³ÏģÎ±":6053,"ĠÏĢÎ±ÏģÎ±Î´ÎµÎ¹Î³":6054,"ĠÏĦÎ¹Î½á¿¶Î½":6055,"ĠÏĦÎ¹Î½á½°ÏĤ":6056,"Ġá¼ĢÏĢÎ¿ÏĨÎ±":6057,"ĠÎµá½ĲÏĢ":6058,"ĠÏĥÎºÎ¹":6059,"ĠÏĦá½·Î½Î±":6060,"ĠÎ¼á½¹Î½Î·Î½":6061,"Î¸ÎµÏĦÎ¿Î½":6062,"ĠÏĢÎµÏģÎ¹ÎµÏģÎ³":6063,"Î±ÎºÎ¿":6064,"á½µÎ½ÏīÎ½":6065,"Ġá¼ĲÎ³ÎºÎ±Î»":6066,"Î´á½·á¾³":6067,"á½»Î½ÏĦÏīÎ½":6068,"á½±Î¶Î¿Î½ÏĦÎ±Î¹":6069,"ĠÎ¸ÎµÎ¿á¿ĸÏĤ":6070,"ĠÎ¸ÎµÎ¿Î»Î¿Î³":6071,"ĠÎºÎ±Î»Îµá¿ĸÎ½":6072,"ĠÎºÎ±Î»Î¿á¿¦ÏĥÎ¹":6073,"Ġá¼´ÏĥÎ±":6074,"Î¼ÎµÏĦá½°":6075,"Î¿ÏĢÎ»á½±":6076,"ĠÏĦÏģá½¶ÏĤ":6077,"Ġá¼ĳÎ±ÏħÏĦá½¸":6078,"Ġá¼ĲÎ½Î±Î½ÏĦá½·Î¿Ïħ":6079,"Ġá¼ĲÎ½Î±Î½ÏĦá½·Î±Î½":6080,"Î³Î½á½¹":6081,"ĠÎºÎ±ÏĦÎµÎ¹":6082,"ÏħÏĩÎ¿Î½":6083,"Ġá¾Ĳ":6084,"á½»Î»ÏīÎ½":6085,"ĠÏĢá½¹Ïģ":6086,"ĠÏĦá½±Î»Î±Î½ÏĦÎ±":6087,"á½µÏĦÎ·Ïģ":6088,"ĠÎºÎ¿Î¹Î½Î¿á¿¦":6089,"ĠÏĥÏĨÎ¿":6090,"ĠÏĥÏĨÏħÏģ":6091,"ĠÎ¼á½³ÏĦÏģÎ¿Î½":6092,"Ġá¼łÏģÎµ":6093,"ÏĢÏĢÎ¿ÏĤ":6094,"á½¹ÏģÏħ":6095,"á½¹ÏģÎ¸":6096,"ĠÏĢÏģá½±Î³Î¼Î±ÏĥÎ¹":6097,"ĠÏĦÏģá½·ÏĦÎ¿ÏĤ":6098,"ĠÎ´á½·Î¼ÎµÏĦÏģÎ±":6099,"ĠÎºÎ±Îºá½°":6100,"ĠÎ¿á¼°ÎºÎµÎ¹":6101,"ĠÎ§á½±":6102,"ĠÎ¶Î·ÏĦá½µÏĥÏīÎ¼ÎµÎ½":6103,"ĠÎ³Î½á½µÏĥÎ¹":6104,"Î»Îµá½»ÏĦÎ·":6105,"ĠÎľÎ·":6106,"ĠÎ¿á¼°ÎºÎµá½·Î±ÏĤ":6107,"ĠÎ¿á¼°ÎºÎ¿Î½Î¿Î¼":6108,"ĠÎ³ÎµÎ³á½¹Î½Î±":6109,"Ġá¼ĢÏĢá½¹ÏĨÎ±ÏĥÎ¹ÏĤ":6110,"á½³ÏĥÏĦÎµÎ¹":6111,"ÏĦá½µÎ´ÎµÏħ":6112,"á½µÏĥÎµÎ¹ÎµÎ½":6113,"Ïģá½±ÏĨÎ¿Ïħ":6114,"ĠÏĩÏģÎ·Î¼Î±ÏĦá½·":6115,"Ġá¼ģÎ³á½·Î±Î½":6116,"ĠÎ±á½ĲÎ»":6117,"Ġá½ĢÎ»á½·Î³Î±":6118,"ĠÎ»ÎµÏħÎºá½¹ÏĦÎ·ÏĤ":6119,"Î¤Î¿á¿¦":6120,"Ġá¼ĦÎ»Î»Î¿ÏĦÎµ":6121,"ĠÎ»Î¿Î¹ÏĢá½°":6122,"ĠÎ½Î±Î¿á¿¦":6123,"Ġá¼ĢÎ³Î±Î¸Î¿á¿¦":6124,"ĠÏĢÎ»Î·ÏĥÎ¹":6125,"Ġá½¦ÏĥÎ¹Î½":6126,"Ġá¼ģÏĢÎ»Î¿á¿¦Î½":6127,"ĠÏĦÎ¿Î¹Î¿á¿¦ÏĦÎ¿Î¹":6128,"ĠÎļÏħÏģá½·á¿³":6129,"Î¿ÏħÎ¼á½³Î½Î·Î½":6130,"á½¹Î´ÏīÎ½":6131,"ĠÏĢÎ±Î¹ÏīÎ½":6132,"ĠÎ¿á½ĲÎ´ÎµÎ¼á½·Î±":6133,"ĠÎºÎ±Î¹ÏģÎ¿á¿¦":6134,"ĠÏĥÏĦÏģÎ±ÏĦÎ·Î³á½¸ÏĤ":6135,"ĠÏĥÏħÎ»Î»Î¿Î³Î¹ÏĥÎ¼á¿·":6136,"Ġá¼ĲÎºÎºÎ»Î·Ïĥá½·Î±Î½":6137,"ĠÏĨÎ¸á½±ÏĥÎ±Î½ÏĦÎµÏĤ":6138,"ĠÏĦÎ¹Î¼á¿ĨÏĤ":6139,"ĠÏĩÎ±Ïģá½·":6140,"ĠÎ¼ÎµÏĦá½±Î»Î·ÏĪÎ¹Î½":6141,"ĠÎºÎµÎºÎ»":6142,"ÏĢÎ±Ïģá½°":6143,"ĠÎ³ÏģÎ±ÏĨá¿ĨÏĤ":6144,"ĠÏĥá½»Î½Î´ÎµÏĥÎ¼":6145,"ĠÎ¼ÎµÎ³á½±Î»Î·ÏĤ":6146,"ÎµÎ´á½¸Î½":6147,"Ġá¼ĢÎ½á½±Î³ÎºÎ·Î½":6148,"á½³Î²Î·":6149,"Ġá¼ĦÎºÏģÏīÎ½":6150,"Ġá¼ķÎ½ÎµÎºÎµÎ½":6151,"ĠÎ¤ÏģÎ¹":6152,"á½µÎ¸Î·ÏĥÎ±Î½":6153,"ĠÎ¾á½»Î»Î±":6154,"ĠÎ´ÏħÏĥÎº":6155,"ĠÎ´ÏħÏĥÏĩ":6156,"ĠÏĢÎ»Îµá½·Î¿Î½ÎµÏĤ":6157,"ĠÎ´Î±ÎºÏĦÏħÎ»":6158,"ĠÎ³Ïģá½±ÏĨÎµÎ¹":6159,"Ġá½ĳÏĢÎ¿Î³ÏģÎ±ÏĨá½´Î½":6160,"Ġá¼ĲÎ»Î¸Îµá¿ĸÎ½":6161,"Ġá½ĢÏģÎ³á½´Î½":6162,"Ġá¼ĲÎ³Î³á½»ÏĤ":6163,"ĠÏĢÎ»Î±ÏĦ":6164,"ĠÏĢÎ±ÏĦÏģá½¹ÏĤ":6165,"Ġá¼ĦÏģÏĩÎµÏĥÎ¸Î±Î¹":6166,"ĠÎ¶Î·ÏĦÎ¿á½»Î¼ÎµÎ½Î¿Î½":6167,"ĠÏĨá½¹Î½Î¿Î½":6168,"ĠÎ³Î½á½½Î¼Î·ÏĤ":6169,"ĠÎ¶á¿´ÏīÎ½":6170,"Î´Îµá½»ÏĦÎµÏģÎ¿Î½":6171,"Ġá¼¡Î¼á½³ÏģÎ±Î¹ÏĤ":6172,"Ġá½ģÏģá¾·":6173,"ĠÏĨÏīÏĦá½¸ÏĤ":6174,"Ġá¼ĢÎ½ÏĦÎ¹ÎºÎµÎ¹Î¼á½³Î½ÏīÎ½":6175,"Ġá½ĦÏĪÎ¹Î½":6176,"Ġá¼±ÏĢÏĢÎµá¿ĸÏĤ":6177,"Ġá½ĢÏĨÏģ":6178,"ĠÏĦÏģÎ¿ÏĢÎ¹Îºá¿¶ÏĤ":6179,"Ġá¼ĢÎ½ÏĦÎµÎ³ÎºÎ»á½µ":6180,"ĠÏĥÏĦá½±ÏĥÎ¹Î½":6181,"Î´Î¹Î±Î²á½±Î»Î»ÎµÎ¹":6182,"Ġá¼ĢÏĢÎ¿Ïģá½·Î±Î½":6183,"ĠÎ³Î½á½±Î¸Î¿Î½":6184,"Î»á½¹Î³ÏīÎ½":6185,"ĠÏĥá½±ÏģÎºÎµÏĤ":6186,"ĠÎºá¼ĢÎºÎµá¿ĸ":6187,"ĠÎºÎ±Î½á½¹Î½Î±":6188,"ĠÏĥÏħÎ½ÏĦÎµÎ»Îµá¿ĸ":6189,"ĠÏĥÎ·Î¼Î±Î¹Î½á½¹Î¼ÎµÎ½Î¿Î½":6190,"ĠÏĢá½·ÏĥÏĦÎµÏīÏĤ":6191,"Î±á½ĹÏĦÎ±Î¹":6192,"ĠÎ´Î¹Î±ÏĨá½³ÏģÎ¿ÏħÏĥÎ¹":6193,"ĠÏĥÏħÎ¼ÏĢÎ»Î¿Îºá½´Î½":6194,"Ġá¼±ÏĥÏĦÎ¿Ïģá½·Î±":6195,"Ġá¼ĢÎ½Î¸Î¿ÏģÎ¹ÏĥÎ¼á½¸ÏĤ":6196,"Î¿ÎµÎ¹Î´á¿Ĩ":6197,"ĠÎµá¼´ÏĢá¿ĥ":6198,"ĠÎ¸ÎµÏīÏģÎµá¿ĸÏĦÎ±Î¹":6199,"ĠÏĥÏĩá½³ÏĥÎ¹Î½":6200,"ĠÏĦá½»ÏĩÎ·ÏĤ":6201,"Ġá¼ĢÏĦá½¹Î¼ÏīÎ½":6202,"ĠÎ¼á½³Î»Î»Î¿Î½ÏĦÎ¹":6203,"ĠÎºá½»ÎºÎ»á¿³":6204,"Ġá¼ĶÎ³ÏģÎ±ÏĪÎµ":6205,"ĠÎ¼Î±ÏģÏĦÏħÏģÎµá¿ĸ":6206,"ĠÏĥÏħÎ³Î³Î½á½½Î¼Î·Î½":6207,"ĠÎ¼á½³Î»Î¹ÏĦÎ¿ÏĤ":6208,"ĠÎ¼Î±ÏģÏĦÏħÏģá½·Î±Î½":6209,"ĠÎ³Î»ÏħÎºá½»":6210,"ĠÎ¼ÎµÏĦÎ±Î»á½µÏĪÎµÎ¹":6211,"Ġá¼¸Ïīá½±Î½Î½Î·ÏĤ":6212,"Î´Î·Î»Î¿á¿ĸ":6213,"Ġá¼ĢÏĥÎµÎ²á¿¶Î½":6214,"Ġá¼ĶÏĦÎ±Î¾Îµ":6215,"Ġá½ģÎ¼Î¿Î¹á½¹ÏĦÎ·ÏĦÎ±":6216,"Ġá¼ĲÎºÎ²Î·Ïĥ":6217,"ĠÎ²Î¹Î±á½·":6218,"ĠÎ½á½»Îº":6219,"ĠÏĩÎ±Î»ÎµÏĢ":6220,"ĠÏĢÏģÎµÏĥÎ²ÏħÏĦá½³ÏģÏīÎ½":6221,"ĠÏĥá½·ÏĦÎ·ÏĥÎ¹Î½":6222,"ĠÎ¼ÎµÎ»Î»á½¹Î½ÏĦÏīÎ½":6223,"ĠÎ±á¼´ÏĥÎ¸Î·ÏĥÎ¹ÏĤ":6224,"ĠÎºá¿¶Î»Î¿Î½":6225,"Ġá½łÎ¼Î¿ÏĢÎ»á½±":6226,"Ġá¼ĢÏģÎ½á½·Î¿Î½":6227,"ĠÎºá¼ĦÏĢÎµÎ¹ÏĦÎ±":6228,"Î¼ÎµÎ»Î»ÎµÎ½":6229,"á½§Î½":6230,"ĠÏĢÏģÎ¿á½³ÏĦÎ±Î¾Îµ":6231,"Ġá½ĳÏĢÎ¿Î³Ïģá½±ÏĨÎµÎ¹":6232,"ÎµÏħÎ¸á½»Î½":6233,"Ġá¼ĢÎ²á½»ÏĥÏĥÎ¿Ïħ":6234,"ĠÎ±á¼±Î¼Î¿á¿¤á¿¥Î±Î³":6235,"ÏĢÎ»á½±ÏĥÎ¹Î¿Î½":6236,"ĠÎºÎ¿ÏģÏīÎ½á½·ÏĤ":6237,"ĠÎºá½±ÏģÏĦÎ±":6238,"ĠÏĥá¿¦ÎºÎ±":6239,"ĠÏĥá½±Î»ÏĢÎ¹Î³Î³":6240,"ĠÎ½ÎµÏīÏĥÏĦá½¶":6241,"ĠÎłÎ±á¿¦Î»Î¿ÏĤ":6242,"Ġá¼ĢÎ½Î±Î½ÏĦá½·á¿¤á¿¥":6243,"Ġá½łÎ¼Î¿ÏĢÎ»á½±ÏĦÎ·ÏĤ":6244,"¥á¼±":6245,"Î½Î¿ÏĤ":6246,"Î½á¿ĥ":6247,"Î½Î¿Î¼Î±":6248,"ĠÎ¥á¼±":6249,"Îµá½Ķ":6250,"ÎµÏĥÏĦá½³ÏģÎ±":6251,"ĠÏĦá¼Ģ":6252,"ÏĥÎ¿":6253,"ÏĥÎ¿ÏĤ":6254,"ÏĥÎ²":6255,"ÏĥÎ¿á¿¦Î½":6256,"ÏĥÎ·Î¼Î±":6257,"ÏĢá½³Ïģ":6258,"ÏĢÎµá¿ĸÎ½":6259,"Î»Î¸Îµá¿ĸÎ½":6260,"Î¼á½´":6261,"ĠÎºÎ»Î¹":6262,"ÎºÏģÎ¹":6263,"ÏħÏĦá½¹Î½":6264,"ĠÏĢÏĦ":6265,"ĠÏĢÏħÏģá½·":6266,"ĠÏĢÎ»ÎµÏħ":6267,"ĠÏĢÎ¿á¿ĸÎ¿Î½":6268,"á½·ÏĥÎ±ÏĥÎ¸Î±Î¹":6269,"ĠÎºÎ±ÏĦÎ¹":6270,"Ġá¼ĲÎºÎ±Î»":6271,"ÏīÎ¼á½³Î½Î¿Ïħ":6272,"ÏīÏĦá½¹Î½":6273,"ĠÎ´ÏħÏĥ":6274,"ÏĦÎ±Ïģá½±":6275,"á½±Î¼Î²":6276,"á½¹ÏĦÎµÏĤ":6277,"á½¹Î¸ÎµÎ½":6278,"Ġá¼ĢÎ¸á½±":6279,"ĠÎ¼á½¹Î»":6280,"Ïĩá¿³":6281,"ÏĩÎµá¿ĸÎ½":6282,"Î´á¿¶ÏĤ":6283,"Î´Î¿Î½ÏĦÎ±Î¹":6284,"Î´ÏħÎ»":6285,"ÏĨÎ¿ÏģÎ±":6286,"ÎµÎ¹Î¿Î½":6287,"ÎµÎ¹ÏģÎ¹Îº":6288,"á½»Î¸Î·":6289,"ÏĥÎ¹Î±":6290,"ÏĥÎ¹Î¿Î¹":6291,"ĠÏĥÎ±":6292,"ĠÏĥÎ±Î½":6293,"ÏĦÎ¹Î¼Î¿Î½":6294,"Ġá¼ĲÎ½ÏĦ":6295,"Ġá¼ĲÎ½á½·Îº":6296,"Ġá¼ĲÎ½Î´á½¹Î¾":6297,"Î¼Î±ÎºÎ¿Î½":6298,"Ġá¼ĶÏģÎ·":6299,"Ġá¼ĶÎ³Î½Ïī":6300,"Ġá¼ĲÏĢÎ±":6301,"ĠÎ»á½±":6302,"ĠÎ»Î·Î½":6303,"ĠÎ¿á½ĲÎ±á½¶":6304,"ĠÎµá¼°Î»Î·ÏĨ":6305,"Ġá½ħÎ»Î·ÏĤ":6306,"ĠÏĨá½¹ÏģÎ¿ÏħÏĤ":6307,"Ġá¼ĢÎ½Î±Î½":6308,"Ġá¼ĢÎ½Î±Ïħ":6309,"ÏģÎ¹Î¿Î¹":6310,"ÏĥÎ¸á½³ÏĥÎµÎ¹":6311,"Î¼á½³Î½ÎµÎ¹Î½":6312,"ÏĦÎ¿á½»Î½ÏĦÏīÎ½":6313,"Ġá¼ĦÏĢ":6314,"Ġá¼ĦÏĥÏī":6315,"Ġá¼ĢÏĢÎ¿Î½":6316,"Ġá¼ĢÏĢÎµÏģ":6317,"ĠÏĢÎ±á½·Î¶ÏīÎ½":6318,"Îµá½·Î·Î½":6319,"Ïģá½·Î¿Î¹ÏĤ":6320,"Î¿á¿ĸÎ¾Î±Î¹":6321,"á¿¶ÏĥÎ¸Î±Î¹":6322,"á½ºÎ¾":6323,"Ġá¼ĲÎºÏĦ":6324,"ĠÏĢÏģÎ¿Îµá½·":6325,"Î»Î·ÏģÏī":6326,"Î¶ÏħÎ³":6327,"á½±Î½ÏĦÎ¿ÏĤ":6328,"á½±Î½Î´Ïģ":6329,"á½·Î½Î¿ÏħÏĥÎ¹Î½":6330,"ĠÎ¼ÎµÎ¼Î½Î·":6331,"ĠÎ½Î·":6332,"Ġá¼ĳÏĦÎ±á½·":6333,"Ġá¼ĳÎ²Î´":6334,"ÏĪÎµÎ¹ÏĤ":6335,"Ġá¼ĢÎ»Î»Î±":6336,"ĠÏĢÎ±ÏģÎ¿Î¾":6337,"Î¿ÏģÎµá¿ĸ":6338,"ĠÏĦÎ¹ÏĥÎ¹":6339,"Î»Î±á¿ĸ":6340,"ĠÎ´Î¹Î±Î»ÎµÎ³":6341,"ĠÎ´Î¹Î±Î»Î¿Î³":6342,"ÏĥÎ±Î»":6343,"Ġá¼ĲÏĢÎ¹Î³Î½":6344,"Ġá¼ĲÎ¾Î±Î½":6345,"ÏĦá½³ÏĩÎ½":6346,"Î´ÎµÎ´Îµ":6347,"Ïģá½±ÏĦÎ¿Ïħ":6348,"Ïģá½±ÎºÎ¿Î½ÏĦÎ±":6349,"ĠÏĩÏģá¿ĨÏĥÎ¹Î½":6350,"ĠÎºÎ±ÏĦÎ±ÏĦ":6351,"ĠÎºÎ±ÏĦÎ±Î´":6352,"á½³Î»Î³":6353,"ĠÏĥÏħÎ½á½½Î½ÏħÎ¼Î¿Î½":6354,"ĠÏĥÏħÎ½Î¸á½³ÏĦÎ¿Ïħ":6355,"Ġá¼ĪÏģá½·":6356,"Ġá¼ĪÎ³Î¿Ïģ":6357,"Ġá¼ķÎ¾":6358,"Î¼á½±Ïģ":6359,"ÏĦá½³ÏģÏīÏĤ":6360,"ĠÎ´á½³Î´ÏīÎºÎµÎ½":6361,"Ġá½ĦÏģÎ³":6362,"Ġá½ĦÏģÎ¿ÏĤ":6363,"ĠÎµá¼¶Î´ÎµÎ½":6364,"ÏĦá½±ÏĤ":6365,"á¼ĢÏĢÎ¿":6366,"ÏģÎ¹ÏĥÏĦÎ¿ÏĤ":6367,"ĠÎ±á¼°ÏĦ":6368,"ÏħÏģÏĥá½·Î½":6369,"ĠÏĢÎ±ÏģÎ±ÏĥÏĦ":6370,"Ġá¼ĢÏĢÎ¿Ïĥ":6371,"ĠÏĢÎ»á½µ":6372,"ĠÎµá½ĲÎ»á½¹Î³":6373,"ĠÎ¼á½¹Î½Î¿Î¹ÏĤ":6374,"ĠÏĢÏģá½¹ÏĥÏĨ":6375,"ĠÏĢÏģá½¹ÎºÎµÎ¹ÏĦÎ±Î¹":6376,"ĠÏĢÎµÏģÎ¹ÎµÏĩ":6377,"ĠÏĢÎµÏģÎ¹ÏĥÏĦá½±ÏĥÎµÏīÏĤ":6378,"ĠÏĢÎµÏģÎ¹Î²ÎµÎ²Î»Î·":6379,"ÏģÎ³Î¿Î½":6380,"Ġá¼ĢÎºÏģá½·":6381,"ĠÏĢÎ¿Î»á½³Î¼Î¹":6382,"ÏĢÎ±ÏĦÎ·":6383,"á½»Î½Î·ÏĤ":6384,"á½±Î¶ÎµÎ¹ÏĤ":6385,"Ġá¼ĢÎ½Î±ÏĥÏĢ":6386,"Ġá¼ĢÎ½Î±ÏĨÎ¿Ïģ":6387,"Ġá¼ĢÎ½Î±ÏĢÎ±Î¹":6388,"ĠÎºÎ¿Î¹Î»á½·":6389,"ĠÎºÎ¿Î¹Î»á½·Î±ÏĤ":6390,"Ġá¼´Î´ÏīÎ¼ÎµÎ½":6391,"ĠÎ³ÎµÎ½Î½":6392,"ĠÎ³ÎµÎ½Îµ":6393,"ĠÎ³ÎµÎ½á½³ÏĥÎµÏīÏĤ":6394,"Î¿ÏĢÏģÎµÏĢ":6395,"ĠÎ¾ÎµÎ½":6396,"ĠÎ¾ÏħÎ³":6397,"ĠÎ¾Î·Ïģ":6398,"ĠÎ¾ÏħÎ½Î±":6399,"ĠÏĦá½±Ïĩ":6400,"ĠÎ´Îµá¿ĸÎ³Î¼Î±":6401,"ĠÎ´ÎµÎ´Îµ":6402,"ĠÏĨÎ±á½·Î½":6403,"ĠÎļÎ»á½³ÏīÎ½Î¹":6404,"Î´Î¿Î¾Î±":6405,"ĠÎ£Î¿ÏĨ":6406,"Ġá¼łÎ³":6407,"Ġá¼łÎ³Î½á½¹":6408,"ĠÎºÎµÏĨÎ±Î»á¿ĩ":6409,"á½¹ÏģÎ¿ÏĤ":6410,"á½¹Ïģá¿³":6411,"ÎµÎ³ÏģÎ±Î¼":6412,"ĠÏĥÏĩÎ¿Î»":6413,"ĠÏĥÏĩÎµÎ´á½¸Î½":6414,"Ġá¼ĲÏĩÎ¿á½»ÏĥÎ·ÏĤ":6415,"ĠÏĦÏģá½·ÏĦÎ·Î½":6416,"ĠÎ´á½·Î¼ÎµÏĦÏģÎ¿Î½":6417,"ĠÎ§Î±Î»ÎºÎ¹":6418,"á¼ĶÏĩÎµÎ¹":6419,"Î»Î·Î¸á¿ĨÎ½Î±Î¹":6420,"ĠÏĢá½³ÏĢÎ¿Î½":6421,"Ġá¼°ÏĥÏĩá½·Î¿Ïħ":6422,"Ġá¿¥Î·ÏĦá¿¶Î½":6423,"Ġá¼ĢÎ½Î±Î³Î¹Î½á½½ÏĥÎº":6424,"á½ģÎ¼":6425,"Î´Î¹ÎºÎ¿ÏĤ":6426,"Î¹Î²Î¹á½±":6427,"ĠÏĨÏħÎ»Î±Îº":6428,"Ġá¼ĲÎ¼ÏĢÎ¿Î¹":6429,"Ġá¼ĢÏĢá½¹Î´Î¿ÏĥÎ¹ÏĤ":6430,"á½±Î¼ÏīÎ½":6431,"ĠÏĢÏģá½½ÏĦá¿ĥ":6432,"ĠÎ¿á½ĲÏģÎ±Î½Î¿á¿ĸÏĤ":6433,"Ġá¼ĢÎ½ÏĦá½·Î¸ÎµÏĥÎ¹Î½":6434,"Î¹ÏĥÎ¼á½¸ÏĤ":6435,"ĠÎºÏģá½·Î½ÎµÎ¹":6436,"ĠÎºÏģá½·Î½Î¿Î¹ÏĦÎ¿":6437,"ÏģÎ¿ÏĨá¿ĨÏĤ":6438,"ĠÎ²ÏģÎ±ÏĩÏħ":6439,"ĠÎ¸á½±Î»Î±":6440,"ĠÎ»Î¿Î³Î¹Îºá¿¶Î½":6441,"Ġá¼ĢÎ³Î³ÎµÎ»":6442,"ÏĬÎ±":6443,"Ġá½ĢÎ½á½¹Î¼Î±ÏĥÎ¹":6444,"ĠÎ¼ÏħÏģÎ¹":6445,"Ġá¼ĲÎ¼Î²Î±Î»Î»":6446,"ĠÎ´Î¹Î±ÏĨÎ¿Ïģá½±Î½":6447,"á½¹ÏĦÎ±ÏĦÎ±":6448,"ĠÏĢÎ¿Ïĥá¿·":6449,"ÏĥÏĥá¿¶Î½":6450,"ĠÎ´Î¹á½±ÏĨÎ¿ÏģÎ±":6451,"Ġá¼ĢÎ»Î·Î¸Îµá½»":6452,"Ġá¼ĢÎ»Î·Î¸á½´ÏĤ":6453,"ĠÎ»Î¿Î¹ÏĢÎ¿á½¶":6454,"ĠÎºá¼ĢÏĢ":6455,"ĠÎ»á½³Î¾ÎµÏīÏĤ":6456,"ĠÏĢÎ¿Î»Î¹ÏĦÎµÏħ":6457,"ĠÎ´Îµá½»ÏĦÎµÏģÎ±Î¹":6458,"ĠÎºÎ¹Î½á½µÏĥÎµÎ¹":6459,"ĠÎºÎ±ÏĦÎ·Î³Î¿ÏģÎµá¿ĸÏĥÎ¸Î±Î¹":6460,"Ġá¼ĢÏĢÎ¿ÎºÏĦÎµá½·Î½":6461,"Ġá¼ĢÏĢÎ¿ÎºÎ·Ïģá½»":6462,"ĠÏĦÎ¿Î¹Î¿á¿¦ÏĦÎ¿ÏĤ":6463,"Î¿ÏħÎ¼á½³Î½Î·":6464,"Î¿ÏħÎ¼á½³Î½Î¿ÏħÏĤ":6465,"ĠÏĥÏīÎ¼Î±ÏĦÎ¹Îº":6466,"ĠÏĥá½»Î¼Î²":6467,"ĠÏĥá½»Î¼ÏĨ":6468,"ĠÏĥÎºá½³Î»Î¿ÏħÏĤ":6469,"ĠÏĦÏģá½¹ÏĢÎ¿Ïħ":6470,"á½µÎºÎ¿Î½ÏĦÎ±":6471,"Ġá¼ĳÎºá½±ÏĥÏĦÎ·Î½":6472,"Ġá½ĢÏĥÏĦá½³Î¿Ïħ":6473,"ĠÏĥÏħÎ¼ÏĨÏīÎ½":6474,"Ġá¼ĲÎºÎºÎ»Î·ÏĥÎ¹á¿¶Î½":6475,"ÎļÎ±":6476,"Î»Î±Î¼Î²á½±Î½ÎµÎ¹Î½":6477,"ĠÏĦÎµÏĦÏģá½±Î³":6478,"Ġá¼ĶÎºÏģÎ±":6479,"ĠÎ¦á½·Î»Î¹":6480,"ĠÎºÎ±ÏĦÎµÎ±Î³":6481,"ĠÏĥÎ·Î¼Î±á½·Î½ÎµÎ¹Î½":6482,"ĠÏĨÎ±Î½ÏĦÎ±":6483,"Ġá¼©ÏģÎ±Îº":6484,"ĠÏĩá½±ÏģÎ¹":6485,"ĠÎµá½ĶÎ·":6486,"ÏĦÎ¿á½»ÏĦÎ¿Ïħ":6487,"Ġá¼ĳÎºÎ±ÏĦá½¸Î½":6488,"Ġá½ĢÎ½Î¿Î¼á½±Î¶ÎµÎ¹Î½":6489,"ĠÎºÏħÎ»Î»":6490,"Ġá¼ķÎ½Î´ÎµÎºÎ±":6491,"ĠÏĢÏģÎ±Î³Î¼Î±ÏĦÎ¹Îºá½´Î½":6492,"Ġá½ģÎ´á½¸Î½":6493,"ĠÎ¼ÎµÏĦá½³ÏīÏģÎ¿Î½":6494,"ĠÎ»á½·Î¼Î½":6495,"Ġá¼ĢÏĢÎ±ÏģÎ¹Î¸Î¼":6496,"ĠÏĩÏģÎ·ÏĥÎ¼á¿¶Î½":6497,"ĠÎ³Ïģá½±ÏĨÎµÏĦÎ±Î¹":6498,"ĠÎ½ÎµÏī":6499,"á¼ĪÏĢÎ¿Ïģ":6500,"ĠÏĥÎ±ÏģÎºá¿¶Î½":6501,"ĠÎ¸á½³ÏĥÎ¹Î½":6502,"ĠÎ¼Î¿Î¹ÏĩÎµá½·Î±ÏĤ":6503,"Ġá¼ĺÏĨ":6504,"ĠÎ²á½±Î¸Î¿ÏħÏĤ":6505,"ĠÎ¼Îµá½·Î¶":6506,"á¿ĨÎ»Î¸Î¿Î½":6507,"Ġá¼ħÏĢÎ±Î½ÏĦÎ±ÏĤ":6508,"ĠÎ»Î¿Î³Î¹Îºá½´":6509,"ĠÎ»Î¿Î³Î¹Îºá¿ĨÏĤ":6510,"ÏĨá½³ÏģÎµÎ¹Î½":6511,"ĠÏĥÏĦá½·ÏĩÏīÎ½":6512,"ĠÎ±á¼°ÏĥÎ¸Î·ÏĦÎ¿á¿¦":6513,"ĠÎłÎ±á½»Î»":6514,"ĠÎ³ÏħÎ½Î±á¿ĸÎºÎµÏĤ":6515,"ĠÎ»á½±Î²á¿ĥ":6516,"ĠÎ´Î·Î¼Î¹":6517,"Ġá¿¥á½µÏĦÎ¿ÏģÎ±ÏĤ":6518,"ĠÎºÎ»á½³ÏĢÏĦÎµÎ¹Î½":6519,"ĠÏĥÏĢá½³Ïģ":6520,"ĠÏĨá½·Î»Î¿ÏĤ":6521,"Ġá¼ĢÎ½ÏĦÎ¹ÎºÎµá½·Î¼ÎµÎ½Î±":6522,"Ġá½ĦÏĪÎµÏīÏĤ":6523,"Ġá½ĳÎ¼Îµá¿ĸÏĤ":6524,"Ġá¼°Î±ÏĦÏģÎ¿á½¶":6525,"ÏĦá¿ĨÏģÎ¿ÏĤ":6526,"ĠÏĦÏģÎ¿ÏĨá½´Î½":6527,"Ġá¼ĢÏĦÎµÎ»á½²ÏĤ":6528,"Î´ÎµÏħÏĦá½³ÏģÎ±":6529,"Ġá¼ĢÏĢÎ¿Î´Îµá½·Î¾ÎµÎ¹ÏĤ":6530,"ĠÎ´ÏħÎ½á½±Î¼Îµ":6531,"ĠÎ³ÏģÎ±Î¼Î¼Î±ÏĦÎ¹Îºá½´":6532,"ĠÏĦÎµÎ»ÎµÏħÏĦÎ±á¿ĸÎ¿ÏĤ":6533,"ĠÏĨÏħÎ»á½±ÏĦÏĦÎµÏĥÎ¸Î±Î¹":6534,"Ġá¼ģÎ¼Î±ÏģÏĦá½·Î±Î¹ÏĤ":6535,"ĠÏĦá½·Î½Î¹":6536,"ĠÎ¼Î¿ÏĩÎ¸Î·":6537,"ĠÎ¼ÎµÎ¹Ïģá½±Îº":6538,"ĠÎµá½ĲÎµÏģÎ³á½³":6539,"Ġá¼°Î´Î¹á½½":6540,"Ġá½łÎ½á½¹Î¼Î±ÏĥÎµÎ½":6541,"Ġá¼ĢÎ¾á½·":6542,"ĠÎ´á½µÎ¼á¿³":6543,"ĠÏĢÎµÏĢÎ¿á½·Î·ÏĦÎ±Î¹":6544,"Ġá¼ĻÎ»Î»Î·Î½":6545,"Ġá¼°Î´Î¿á½»":6546,"Ġá¼°Î´á½·Î±Î½":6547,"ĠÎ¼á½³Î»Î»Î¿Î½ÏĦÎ¿ÏĤ":6548,"ĠÎ²Î±ÏĥÎ¹Î»Îµá½·Î±":6549,"ÏĭÏĥ":6550,"Îºá½³ÎµÎ¹":6551,"ĠÏĢÎ¿Î»Î¹ÏĦÎµá½·Î±ÏĤ":6552,"Ġá¼ĢÎ½Î±Î¹ÏģÎµá¿ĸ":6553,"ÏĦÏģá½³ÏĪÎ±Î¹":6554,"ĠÎĶá¿ĨÎ¼Î¿ÏĤ":6555,"Ġá¼ĲÏĢÎ¹ÏĨá½±Î½ÎµÎ¹Î±":6556,"ĠÎ±á½ĶÎ¾Î·ÏĥÎ¹ÏĤ":6557,"ĠÎºÏģÎµá¿¶Î½":6558,"ĠÎ½ÎµÏĨá½³":6559,"Ġá¼°ÏĩÎ¸á½»":6560,"Ġá½ĢÎ½Î¿Î¼Î±Î¶":6561,"Ġá¼ĲÏĢÎ¹ÏĥÏĦÎ·ÏĦÎ¿á¿¦":6562,"ĠÏĢÎ±Î¹Î´á½·Î¿Î½":6563,"ÎľÎµÏĦá½°":6564,"ĠÏĢÏģÎ¿ÏĥÎ±Î³Î¿Ïģ":6565,"Ġá¼°Î³Î½á½»Î±Î½":6566,"ĠÏĢÏģÎ¿ÏĥÏĦá½·":6567,"Ġá¼ĢÎºÎ¿ÏħÏĥá½±ÏĦÏī":6568,"ĠÎ³ÎµÎ³ÎµÎ½Î·Î¼á½³Î½Î¿Î½":6569,"ĠÏĥÎµÎ»á½µÎ½Î·":6570,"Ġá¼ĲÎºÏĢá½·ÏĢÏĦÎµÎ¹":6571,"ĠÏĥÏĦÎ¿ÏĩÎ±ÏĥÏĦÎ¹Îºá¿¶ÏĤ":6572,"ĠÏĢÎ±Î¹Î´á½¸ÏĤ":6573,"ĠÎķá½ĲÏģÎ¹ÏĢá½·Î´Î¿Ïħ":6574,"ĠÏĢÎ·Î»Î¹Îºá½¹ÏĦÎ·ÏĤ":6575,"ĠÎºÎ±ÏĢÎ½á½¸ÏĤ":6576,"Ġá¼ĢÎ»Î·Î¸á½³ÏĤ":6577,"Ġá½ģÏĢá½¹ÏĦÎµ":6578,"ĠÎ¸ÏħÏĥÎ¹Î±ÏĥÏĦÎ·Ïģá½·Î¿Ïħ":6579,"á½ķÏģÎ·ÏĦÎ±Î¹":6580,"ĠÎ´á½±ÎºÏģÏħ":6581,"Ġá¼ĲÎºÏĢÎµÏĢÏĦÏī":6582,"ĠÎĶÎ±Ïħá½·Î´":6583,"ĠÎ´Î¹ÎºÎ±ÏĥÏĦÎ±á½¶":6584,"Ġá¼¥ÎºÎ¹ÏĥÏĦÎ±":6585,"Ġá¼ĢÎ½ÏĦá½·ÏĩÏģÎ¹ÏĥÏĦÎ¿Î½":6586,"Ġá¼ĲÎ¼Î½Î·Î¼á½¹Î½ÎµÏħÏĥÎµÎ½":6587,"Ġá¼ĲÎ½Î´Îµá½·ÎºÎ½ÏħÏĦÎ±Î¹":6588,"Ġá¼ĶÎ²Î±Î»ÎµÎ½":6589,"Ġá¼ĲÏĢÎ·Î³Î³Îµá½·Î»Î±ÏĦÎ¿":6590,"ĠÏĢÏģÎ¿ÏĨÎ·ÏĦÎµá½·Î±ÏĤ":6591,"ĠÎ¸á½½ÏģÎ±ÎºÎ±":6592,"Ġá¼ĲÎ½Î¸á½»Î¼":6593,"ĠÎ»ÎµÎºÏĦá½³Î¿Î½":6594,"Ġá¼ĢÎ¼Îµá½·Î²":6595,"ĠÏĦÎ¿á½ĲÎ½Î±Î½ÏĦá½·Î¿Î½":6596,"Ġá¼ĢÎ¸Ïģá½¹ÏīÏĤ":6597,"ĠÏĩÎ»Î¹Î±Ïģ":6598,"Î´Î¹Î±ÏĨá½³ÏģÎµÎ¹":6599,"Ġá¼ĳÎºÎ±ÏĦá½³ÏģÏīÎ¸ÎµÎ½":6600,"ĠÎľÎ±ÏģÎ±Î¸á¿¶Î½Î¹":6601,"ĠÏĢÎ±ÏģÎ±Î´ÎµÎ¹Î³Î¼á½±ÏĦÏīÎ½":6602,"ĠÏĥÏĨÎ¿Î´Ïģ":6603,"ĠÎºÎ»Î¹Î¼Î±Îº":6604,"Ġá¼ĦÏĥÏīÏĦÎ¿ÏĤ":6605,"Ġá¼ĪÎ³Î¿Ïģá½±ÎºÏģÎ¹":6606,"Ġá¼ĢÎ½Î±ÏĢÎ±Î¹ÏĥÏĦ":6607,"ÎĽ":6608,"á½ĸ":6609,"ÏĦá½°Ïģ":6610,"ÏĦá½µÎ½":6611,"Î½ÎµÏħ":6612,"Î¿ÏĥÎ¹Î½":6613,"Î¿ÏĥÎº":6614,"á¼Į":6615,"ÎµÏĥÎ¸Îµ":6616,"á¿Ĵ":6617,"Ïģá½°Î½":6618,"ÏĥÎ¿Ïħ":6619,"ÏĥÏĥÎ±Î½":6620,"ÏĥÎ¿ÏħÏĥÎ¹":6621,"ÏĢÏĢÎ±":6622,"Î»Î¹Î½":6623,"Î»á¿ĨÏĥÎ¸Î±Î¹":6624,"ĠÎºá½³Î½":6625,"ĠÎºá½½":6626,"ĠÎºá½¹Î¼":6627,"ĠÎºÎ»á½±":6628,"ĠÎºÎ·Ïģ":6629,"Îºá¿³":6630,"ÎºÎ¹Î½Î¿Î½":6631,"Î·Î¸Îµá¿ĸÎ½":6632,"ĠÏĢÎµá¿ĸ":6633,"ĠÏĢá½³Ïģ":6634,"ĠÏĢÏĦá½½":6635,"á½·Î´Î±ÏĤ":6636,"á½³á¿ĥ":6637,"ĠÎ´Î¿Ïħ":6638,"ĠÎ´ÎµÏģ":6639,"ĠÎ´á½³Î½":6640,"ĠÎ´Î¿Ïģ":6641,"ĠÎ´Ïģá½³":6642,"Î³ÏħÏĢ":6643,"á½¹ÏĥÎ¹Î½":6644,"á½¹ÏĦÎµÏģÎ±":6645,"Ġá¼ĢÎ¼Î¿Î¹":6646,"Ġá¼Ģá½³ÏģÎ±":6647,"ĠÎ¼á½±Î½":6648,"ĠÎ¼ÏħÏģá½·":6649,"ĠÎ¼á½±Î³ÎµÎ¹":6650,"ÏĩÎ¹":6651,"ÏĩÎ¿Ïħ":6652,"Î´á¿ĥ":6653,"Î´á½·Î±Î½":6654,"ÏĨÎ±Î½":6655,"ÏĥÏĦÎ·Î¼Î±":6656,"ĠÎ³Î»Î¿Ïħ":6657,"Î±Î¹ÏĦÎ¿":6658,"Î±Î½á½¹Î½":6659,"á½µÏĦÏīÎ½":6660,"ĠÏĢÏģÏīÎº":6661,"ĠÏĥá½²":6662,"ĠÏĥá½°Ïģ":6663,"ĠÏĥÎ±Î»":6664,"ĠÏĥÎ¿á½¶":6665,"ÏĦÎ±Î¹ÏģÎ·":6666,"Îµá¿ĸÏĥÎ±Î½":6667,"Îµá¿ĸÎ»ÎµÎ½":6668,"Ġá¼ĲÎ½ÎµÏĥÏĦ":6669,"Î¼Î±á½·":6670,"Î¼Î±ÏĦÎ¿Î½":6671,"ĠÎ´Î¹ÎµÎ½":6672,"ĠÎ´Î¹ÎµÎ²":6673,"ĠÎ´Î¹Î´á½¹":6674,"ĠÎ´Î¹ÎµÎ»Îµá¿ĸÎ½":6675,"Ġá¼ĶÎ¶":6676,"Ġá¼ĲÏĢÎ±Î³Î³ÎµÎ»":6677,"ĠÎ»á½µÎ¼":6678,"ĠÏĨÎ¹á½±":6679,"ĠÏĨá½±Î½Î±Î¹":6680,"Ġá¼¡ÏĦÏĦ":6681,"Ġá¼¡ÏĦÎ±Î¹ÏģÎ·":6682,"á½½Î´Îµ":6683,"á½½Î¼Î±ÏĦÎ¿ÏĤ":6684,"á½½Î²Î¿Î»Î¿Î½":6685,"á½½Î´ÎµÎ¹ÏĤ":6686,"ÏĦÎ·ÏĥÎ¹ÏĤ":6687,"Ġá¼ĢÎ½Î¿á¿ĸÎ¾Î±Î¹":6688,"Ġá¼ĦÏĢÎ¿Î¹":6689,"Ġá¼ĢÏĢÎ±Î»Î»Î±Î³":6690,"Îµá½·Î¼ÎµÎ½Î¿ÏĤ":6691,"Ïģá½·Î¿Ïħ":6692,"Ïģá½·ÏĦÎ¿Ïħ":6693,"ĠÏĩÎµá½¶":6694,"á¿¶ÏĦÎ¿ÏĤ":6695,"á¿¶ÏĥÎ¹ÏĤ":6696,"á½³Î³ÏģÎ±ÏĪ":6697,"Ġá¼ĲÎºÏĥÏĦ":6698,"ĠÏĦÎ¿Î»Î¼":6699,"ĠÏĢÏģÎ¿ÎºÎ±ÏĦÎ±":6700,"Î»Î·Î¼":6701,"á½³ÏģÎ¾":6702,"ĠÎ¸Ïģ":6703,"ĠÎ¸ÏħÎ³Î±":6704,"Î¹Îºá½µ":6705,"Î¶Î¿Î½ÏĦÎµÏĤ":6706,"Î¿Î»á½»":6707,"ĠÎ²ÏģÎ¿Î½":6708,"ĠÎ²á½±Î»Î»":6709,"ĠÎ²Î¿á¿¦ÏĤ":6710,"ĠÎ²á½·Î¿Î½":6711,"á½±Î½ÏĦÎ±":6712,"Ġá½ĳÏĢá½¹Î½Î¿Î¹Î±Î½":6713,"Ġá¼ĳÎ¿Ïģ":6714,"Ġá¼ĳÏĦÎ¿Î¹":6715,"ÏĪÎ±Î½":6716,"ÏĪÎµÏħ":6717,"ÏĪÏħÏĩ":6718,"ĠÎ»á½³Î³Î¿Î½ÏĦÎ±ÏĤ":6719,"á½µÏĥÎ¿Î¼ÎµÎ½":6720,"Ġá¼ĢÎ»Î»Î¿á½·":6721,"ĠÏĦÎµÎº":6722,"ĠÏĦÎµÏĩ":6723,"ĠÏĢÎ±ÏģÎµÎ¹":6724,"ĠÏĢÎ±Ïģá¿Ĩ":6725,"Ġá¼ĶÏĩÎ¿Î¹":6726,"ĠÏĦÎ¹Î¼Î¹":6727,"ĠÎ´Î¹Î±Î¸á½³ÏĥÎµÏīÏĤ":6728,"ÏģÎ·ÏĦÎ¿":6729,"ÏģÎ·ÏĥÎµ":6730,"Ġá¼ĲÏĢÎ¹Ïģ":6731,"Ġá¼ĲÎ¾Î±Î¹":6732,"Î´ÎµÎ»":6733,"Î¿Î³Î¿Î½":6734,"Ġá¿¥á¾´":6735,"ĠÎ¶ÏħÎ³":6736,"ĠÎºÎ±ÏĦÎ±Ïĥ":6737,"ĠÎºÎ±ÏĦÎ±Î½Î±":6738,"Ġá¼°Î¸Ïħ":6739,"Îµá½»Î¼Î±ÏĦÎ±":6740,"ĠÏĥÏħÎ½ÎµÏĢ":6741,"ÏĥÎ¼á¿¶Î½":6742,"á½¹Î³Î¿ÏĤ":6743,"Ġá¼ķÏĢ":6744,"Î´Î¹á½±":6745,"ÏģÏĩÎ¿Î½":6746,"ÎµÎ»Î¹Î´":6747,"Î¼á½±ÏĦÎ¹":6748,"ÎµÏĨÏħÎº":6749,"Î¿Î¼á½³Î½Î¿Î¹ÏĥÎ¹":6750,"ĠÎ´á½³ÏĩÎµÏĥÎ¸Î±Î¹":6751,"ĠÎµá¼¶Î´ÎµÏĤ":6752,"ĠÎ±á¼°ÏĥÎ¸Î·":6753,"ĠÎ±á¼°á¿¶Î½Î±":6754,"ĠÎ±á¼°Î½Î¹":6755,"ÏħÏģÎ¿Î½":6756,"Ġá¼ĢÎ³Î¿ÏģÎ±":6757,"Ġá¼ĢÎ³á½±ÏĢ":6758,"ĠÏĢÎ±ÏģÎ±ÏĦá½³":6759,"Ġá¼ĢÏĢÎ¿ÏĦÎµÎ»":6760,"ĠÏĢÎ»á½µÏģ":6761,"ĠÎµá½ĲÎº":6762,"ĠÎµá½ĲÏī":6763,"Ġá¼ĦÎ½ÏĦÎ¹ÎºÏģÏħÏĤ":6764,"á½¹Î»ÏīÏĤ":6765,"ÏĦÏģÎ±Î½":6766,"Î±á½·á¾³":6767,"ÏĥÏīÎ¼ÎµÎ½":6768,"Ġá½¥ÏģÎ±Î½":6769,"ÏĢÎ¿Î½ÏĦÎµÏĤ":6770,"Î´á½·Î±":6771,"Î´Î·Î¼Î±":6772,"ĠÎ¿á½ĶÏĦ":6773,"á½»Î½Î±ÏĤ":6774,"á½»Î½ÎµÏĦÎ±Î¹":6775,"Î»Î¹Î±":6776,"Î»Î¹ÏĥÎ¹ÏĤ":6777,"Ġá¼ĢÎ½Î±Î²":6778,"ĠÎºÎ±Î»á¿¶Î½":6779,"ĠÏĢÎ¿Î»Î»á½°ÏĤ":6780,"ĠÎ³ÎµÎ½Î¿Î¼á½³Î½Î·":6781,"ĠÏĦÏģÏħÏĨ":6782,"Ġá¼ĢÏĨÎ¿Ïģ":6783,"ĠÎ¼ÎµÏĦÎ±ÏĥÏĦá½±ÏĥÎµÏīÏĤ":6784,"Î¿ÏĩÏīÏģ":6785,"ĠÎºÎ±ÏĦá½±Î³":6786,"ÏħÎ³Î³":6787,"ÏĢÎµÎ¶":6788,"Î»á½µÎ¼":6789,"ĠÏĢá½¹Î´ÎµÏĤ":6790,"ĠÎºÎ¿Î¹Î½á½´Î½":6791,"ĠÏĢÎ±Î½Î¿á¿¦":6792,"ÏĢÎ»á¿Ĩ":6793,"Ġá½§Î´Îµ":6794,"ĠÎ£Î¹":6795,"ĠÎ£á½·":6796,"ĠÎºÎµÏĨÎ±Î»á½µ":6797,"Î²Î±ÏĥÎ¹Î½":6798,"ĠÎºÎ±Îºá¿¶Î½":6799,"ĠÎºÎ±Îºá½¹Î½":6800,"ĠÎľÎ±Îº":6801,"ĠÏĦÎ±á½»ÏĦÎ±Î¹ÏĤ":6802,"Ġá½łÏĩ":6803,"ĠÏĨÏħÎ»Î±":6804,"ĠÎ¿á¼°ÎºÎµá½·Î¿Ïħ":6805,"ĠÎ¿á¼°ÎºÎµá½·á¿³":6806,"Ġá¼ĪÏģÎ¹ÏĥÏĦÎ¿ÏĦá½³Î»Î·Î½":6807,"ĠÎ²Î¿ÏħÎ»Îµá½»":6808,"ĠÏĢÏģÎ¿ÏĨÎ·":6809,"ĠÏĢÏģÎ¿ÏĨÎ·ÏĦá¿¶Î½":6810,"ĠÎ½Î¿á½µÏĥÎµÎ¹ÏĤ":6811,"Î±Î¹Î½Î¿Î½":6812,"ĠÎ¿á½ĲÏģÎ±Î½á½¸ÏĤ":6813,"ĠÏĢÏģÎ¿Ïĥá½½ÏĢÎ¿Î¹ÏĤ":6814,"ĠÎºÎ±ÏĦÎ±ÏĥÎºÎµÏħá¿ĨÏĤ":6815,"ÏĥÎ¸á½³Î½ÏĦÎ±":6816,"Ġá¼ĲÎ¼Î¼":6817,"Ġá¼ĲÎ¼á½²":6818,"Î¹ÏĥÎ¼Î¿á¿¦":6819,"ĠÏĨÎ¹Î»Î¿":6820,"á½»Î¼Î¼Î±ÏĩÎ¿ÏĤ":6821,"ĠÎ±á½ĲÏĦÎ±á½¶":6822,"ĠÎ´á¿ĨÎ¸ÎµÎ½":6823,"Î¼Î±ÏģÏĦá½»":6824,"ÏģÎ±ÎºÎ¹":6825,"ÏģÎ±ÎºÎ¿ÏĤ":6826,"ĠÎ´á½¹Î¾ÎµÎ¹":6827,"ĠÏĢÎ¿Ïĥá½¹Î½":6828,"Î´á½»Î¿":6829,"ĠÎ»ÎµÏħÎºá½¹Î½":6830,"ĠÏĥÎµÎ±Ïħ":6831,"ĠÎ»ÎµÎ³á½¹Î½ÏĦÏīÎ½":6832,"ĠÎ´Î·Î»Î¿á¿¦Î½":6833,"ĠÏĩá½½ÏģÎ±":6834,"ĠÏĢÎ¿Î»Î¹ÏĦÎ¹ÎºÎ¿á¿¦":6835,"ĠÏħá¼±á¿·":6836,"ĠÎ¼á½³ÏĥÎ·Î½":6837,"Î¾Î±Î½ÏĦÎ¿ÏĤ":6838,"ĠÏĦÎ¿Î¹Î¿á½»ÏĦÎ¿Ïħ":6839,"ĠÏĦÎ¿Î¹Î¿á½»ÏĦá¿³":6840,"ĠÏĢÎ±Î¹Î´Îµá½»":6841,"á½µÏģÏħÎº":6842,"ÏĩÎ¸á½µÏĥÎµÏĦÎ±Î¹":6843,"ĠÏĥÏĦÏģÎ±ÏĦÎ·Î³Î¿á½¶":6844,"ÏĦÎ·Ïģá½·Î±Î½":6845,"Ġá¼ĶÏģÎ³á¿³":6846,"ĠÎºÎ¿Î»á½±ÏĥÎµÏīÏĤ":6847,"ĠÎ¼Î¿Î½á½¹Î¼Îµ":6848,"Î·Î¸á¿ĩ":6849,"ĠÎ´ÏħÎ½Î±ÏĦá½¹Î½":6850,"Ġá½ĢÏĥÏĦá¾¶":6851,"Ġá¼ĲÏĢÎ¹ÏĨÎµÏģ":6852,"ĠÎ¼á½³Î»Î»ÏīÎ½":6853,"ĠÏĥÎ¹ÏīÏĢ":6854,"Î±Î»Î»á½±":6855,"ĠÎºÎ±ÏĦÎµÏĢ":6856,"ĠÎ³ÏģÎ±ÏĨá½´":6857,"ĠÏĢÎ±ÏģÎ±Î³ÏģÎ±ÏĨá¿ĨÏĤ":6858,"ĠÏĦá½³Î»ÎµÎ¹Î¿ÏĤ":6859,"ĠÎµá½ĶÎ½Î¿Î¹Î±Î½":6860,"Ġá¼ĲÏģÎ³á½±Î¶ÎµÏĦÎ±Î¹":6861,"ĠÎłÎ»á½±ÏĦÏīÎ½Î¹":6862,"Ġá½ĢÎ½Î¿Î¼á½±Î¶Î¿ÏħÏĥÎ¹":6863,"ĠÎµá¼°Ïģá¿ĨÏĥÎ¸Î±Î¹":6864,"ĠÎ¼ÎµÎ³á½±Î»ÏīÎ½":6865,"ĠÎ³ÎµÎ³ÏģÎ±Î¼Î¼á½³Î½ÏīÎ½":6866,"ĠÏĢÎ»Îµá½·Î¿Î½Î±ÏĤ":6867,"ĠÎºÏħÏģá½·ÏīÎ½":6868,"Ġá½ĳÏĢÎ¿Î³ÏģÎ±ÏĨá¿ĩ":6869,"Î¸Îµá½·ÏĤ":6870,"ĠÏĥÎ¿ÏĨÏīÏĦá½±":6871,"ĠÏĥÏħÎ³Î³Ïģá½±Î¼":6872,"Ġá¼ĲÎ¼ÏĢá½·ÏĢÏĦÎ¿ÏħÏĥÎ¹Î½":6873,"ĠÎ»Î¿Î³Î¹Îºá½´Î½":6874,"Ġá½¤ÏĨÎµÎ¹":6875,"ĠÏĨÎ¹Î»Î¿ÏĥÎ¿ÏĨá½·Î±":6876,"Ïĥá½±Î¼ÎµÎ½Î¿Î¹":6877,"Ġá¼ĲÏĢÎ¹ÏĩÎµá½·":6878,"ĠÎ´Î·Î¼Î¿Ïĥá½·ÏīÎ½":6879,"Ġá¿¥á½µÏĦÎ¿ÏģÎ¿ÏĤ":6880,"ĠÎ¸ÏħÎ¼á½¸ÏĤ":6881,"Î³Î½ÏīÏĥ":6882,"Ġá¼ĢÎ½ÏĦÎ¹ÏĥÏĦÏģá½³ÏĨÎ¿Î½":6883,"ĠÎ¼á½»Î±ÏĤ":6884,"ĠÎ²Î¿Î·Î¸Îµá¿ĸÎ½":6885,"ĠÎ³Ïģá½±ÏĪÎ±ÏĤ":6886,"Ġá½ĢÏĨÎ¸Î±Î»Î¼á¿¶Î½":6887,"ĠÎºÎ½á½µÎ¼Î·":6888,"ĠÎ³ÏģÎ±Î¼Î¼Î±ÏĦÎ¹Îºá¿ĨÏĤ":6889,"ĠÏĩÏģá½½Î¼Î±ÏĦÎ±":6890,"ĠÎ³Î½á½±Î¸Î¿Ïħ":6891,"ĠÎ½Î±ÏħÎ¼Î±Ïĩ":6892,"ĠÎ´ÎµÎ¹ÎºÎ½á½»Î½Î±Î¹":6893,"ĠÎ²Î±Ïģá½»":6894,"ĠÎ¼ÎµÏĦÎµÏĩ":6895,"ĠÏĨÏħÎ³á½´Î½":6896,"ĠÏĢÏģÎ¿ÏĥÎ¸Îµá¿ĸÎ½Î±Î¹":6897,"ĠÎ´Î¹Î±ÏĢÏģÎ±":6898,"ĠÎµá½ĲÏĨÎ·Î¼":6899,"ĠÎµá½ĲÏĨÏģÎ¿Ïĥ":6900,"Ġá½ķÎ´Î±ÏĦÎ¹":6901,"ĠÎ¼á½±ÏģÏĦÏħÏģÎµÏĤ":6902,"ĠÎ¼ÎµÎ»ÎµÏĦá¿¶Î½":6903,"Ġá¼©ÏĥÎ±á¿ĵá¾³":6904,"Î¸á½µÎºÎ·Î½":6905,"ĠÏĢÎ»Îµá½·ÏĥÏĦÎ·":6906,"Ġá¼ĢÏĥá½»ÏĥÏĦÎ±ÏĦÎ±":6907,"ĠÎ´Î¿á½»Î»ÏīÎ½":6908,"ĠÎ´Î¿á½»Î»Î¿ÏħÏĤ":6909,"ĠÎ³ÎµÎ³Î¿Î½á½³Î½Î±Î¹":6910,"ĠÏĥÏīÏĦÎ·Ïģá½·Î±Î½":6911,"ĠÎ³ÏģÎ±Î¼Î¼á½´Î½":6912,"ÏĦÏĦÎ¿ÏħÏĥÎ¹Î½":6913,"ĠÏĢÏĦá½³ÏģÎ½Î±Î½":6914,"Î²Î±á½·Î½Î¿Î½ÏĦÎ±":6915,"ĠÎ¶Î·ÏĦÎ·ÏĦá½³Î¿Î½":6916,"ĠÎºá½»ÏģÎ¹Î±":6917,"ĠÎ¸Î±ÏħÎ¼":6918,"ĠÎºÏīÎ¼á¿³Î´":6919,"ÎºÎµÎ¹Î½ÏĦÎ±Î¹":6920,"ĠÏĢÏħÏģÎµ":6921,"ĠÎ»ÎµÎ¹ÏĢÎ¿":6922,"Ġá¼ĪÎ¸Î·Î½á¿¶Î½":6923,"ĠÏĪÎµá½»Î´ÎµÏĦÎ±Î¹":6924,"Ġá½¡ÏģÎ¹ÏĥÎ¼á½³Î½Î¿Î½":6925,"ĠÏĢÏģÎ¿ÏĦÎµÎ¸á½³Î½ÏĦÏīÎ½":6926,"ĠÎ½ÎµÏĨá½³Î»":6927,"Ġá¼ĲÏĢÎ¹ÏĥÏĦÎ·ÏĦá½¸Î½":6928,"ĠÏĥÏħÎ³Î³Î½á½½Î¼Î·ÏĤ":6929,"Ġá¼°Î³Î½á½»Î·Î½":6930,"ĠÏĦÏħÏģÎ±Î½Î½Î¿Îº":6931,"ĠÎ²Î¿á½»Î»Î·ÏĥÎ¹Î½":6932,"Ġá¼Ģá½¹ÏģÎ¹ÏĥÏĦÎ¿Î½":6933,"ĠÎĺÎµÎ¼Î¹ÏĥÏĦÎ¿ÎºÎ»á½³Î¿ÏħÏĤ":6934,"Ġá¼ĢÏĨÎ±Î½á½²ÏĤ":6935,"ĠÏĦÎ¿á½ĶÎ¼ÏĢÏģÎ¿ÏĥÎ¸ÎµÎ½":6936,"ĠÏĦÎ¿á½ĶÎ½Î¿Î¼Î±":6937,"ĠÎ¼Î·Î´Îµá½¶ÏĤ":6938,"ĠÎ¼Î·Î´ÎµÎ¼á½·Î±Î½":6939,"Ġá¼±Î¼á½±ÏĦÎ¹Î±":6940,"Ġá¼ĲÏĥÏĨÎ±Î³":6941,"ĠÏĥÏħÏĥÏĦÎ±ÏĦÎ¹ÎºÎ±á½¶":6942,"ĠÏĢÏģÎ¿Î·Î³Îµá¿ĸÏĦÎ±Î¹":6943,"ĠÎ¶á¿¶Î¿Î½":6944,"ĠÎ¼Î±Î¸Îµá¿ĸÎ½":6945,"Ġá¼ĶÏĦÎ±Î¾ÎµÎ½":6946,"Î»Î·ÏĢÏĦÎ±Î¹":6947,"Ġá¼ĢÎ³Î¿Ïģá¾·":6948,"ĠÏĢÎ·Î»Î¹Îºá½¹ÏĦÎ·ÏĦÎ±":6949,"ĠÎ³Î»á½·ÏĥÏĩÏģÎ¿Î½":6950,"Ġá¼ĢÏĢÎ¿ÏĥÏĦá½¹Î»Î¿ÏħÏĤ":6951,"Ġá¼´Î±Î¼Î²":6952,"ĠÎ´Î¹ÎºÎ±ÏĥÏĦÎ·Ïģá½·Î¿Î¹ÏĤ":6953,"ĠÎ²Î¿á¿¶Î½":6954,"ĠÏĥÏĦá½³ÏĨÎ±Î½Î¿Î½":6955,"Ġá¼¤ÏģÎ¾Î±ÏĦÎ¿":6956,"Ġá¼ĦÎ½Î´ÏģÎ±ÏĤ":6957,"Ġá¼ĦÎ½Î´ÏģÎµÏĤ":6958,"ĠÎ¾Î·ÏģÎ±":6959,"ĠÎ³ÏħÎ½Î±Î¹Îºá½¶":6960,"Ġá½ĢÎºÏĦá½¼":6961,"Ġá¼ĢÏĢÎ¿Î´ÎµÎ¹Îº":6962,"ĠÏĪá½µÏĨ":6963,"Ïħá¿ĸÎ±":6964,"á½¹ÏĨÎ¿Ïħ":6965,"Ġá¼ĲÎºá½±Î»ÎµÏĥÎµÎ½":6966,"Î¿á¼·Î¿Î½":6967,"Ġá¼ĲÎ¾á½µÎ³Î·ÏĥÎ¹ÏĤ":6968,"ĠÎľÏīÏĭÏĥ":6969,"ĠÏĨÎ¹Î»Î¿Î½ÎµÎ¹Îº":6970,"ĠÏĢá½µÏĩÎµ":6971,"Ġá¼ĲÎ½Î±ÏģÎ³":6972,"Ġá¼ĶÏĦÏħÏĩÎµ":6973,"ĠÎºÎ±Î¸á½µÎ¼ÎµÎ½Î¿ÏĤ":6974,"ĠÏĥÏĨá½¹Î½Î´ÏħÎ»":6975,"Ġá¼ĲÏĢÎ¹ÏĨÎ±Î½Îµá½·Î±ÏĤ":6976,"ĠÏĨÎ¿Î²ÎµÏģá½¸Î½":6977,"ĠÎºÎ»á½·Î¼Î±ÎºÎ±":6978,"ĠÎ³Î±ÏĥÏĦÏģ":6979,"ĠÏĢÏģÎ¿Î²á½±Î»Î»ÎµÏĦÎ±Î¹":6980,"Î¿á½ĶÏĦÎµ":6981,"Ġá¼ĢÏĢÎ¿ÎºÏĦÎµá¿ĸÎ½Î±Î¹":6982,"Ġá¼ĦÎ³ÏģÎ±ÏĨÎ¿ÏĤ":6983,"Ġá½ĳÏĢá½±ÏģÎ¾ÎµÏīÏĤ":6984,"ĠÏĢÎ±ÏģÎ±Î´á½·Î´ÏīÏĥÎ¹":6985,"ĠÎ³ÎµÏīÏģÎ³":6986,"ĠÎ¼ÎµÎ³á½³Î¸Î¿ÏħÏĤ":6987,"ĠÎ´ÎµÎ»ÏĨ":6988,"ĠÎ±á¼°ÏĩÎ¼Î±Î»á½½":6989,"ĠÏĥÏĦÏģÎ¿Î³Î³":6990,"Ġá¿¥á½±Î²Î´á¿³":6991,"Ġá¼ĪÎ»ÎºÎ¹Î²Î¹á½±":6992,"Ġá¼ĢÎ¼ÏĨÎ¹Î²á½±Î»Î»":6993,"Ġá½ķÏĢÎ±ÏģÎ¾Î¹Î½":6994,"Ġá¼ĳÏĨÎ¸Î·Î¼Î¹Î¼ÎµÏģá½³ÏĤ":6995,"ĠÎ¸Î½Î·ÏĦ":6996,"Ġá¼ĢÎºÎ¿Î»Î¿á½»Î¸ÏīÏĤ":6997,"ĠÏĢÎ±Î½ÏĦá½±ÏĢÎ±ÏĥÎ¹Î½":6998,"Ġá¼ĢÏĢÎ¿Îºá½±Î»ÏħÏĪÎ¹ÏĤ":6999,"ĠÎ²ÏģÎ¿Î½ÏĦÎ±á½¶":7000,"ĠÎ»Î±Î½Î¸á½±Î½":7001,"Î¤Î¿á¿¦ÏĦÎ¿":7002,"ĠÎ¸á½±Î»Î±ÏĦÏĦÎ±Î½":7003,"ĠÎ¼á½±Î³ÎµÎ¹ÏģÎ¿Î½":7004,"ĠÏĥá½°ÏģÎ¾":7005,"ĠÏĩÎµá½¶Ïģ":7006,"Îĳ":7007,"ÎĴ":7008,"ÏĦÏĦÎ·ÏĤ":7009,"Î½Îµ":7010,"ĠÎŁ":7011,"Î¿ÏĥÎ¹":7012,"Î¿ÏĦÎµ":7013,"Î¿ÏĦÎµÏģ":7014,"Î¿ÏĦÏģá½·":7015,"Î¿á¼¶":7016,"á¼ĵ":7017,"á¼Ŀ":7018,"Î¹Î¼Î±":7019,"Î¹ÎºÎ±":7020,"Î¹ÏĢÎ±ÏĦÎ·":7021,"Îµá½¶ÏĤ":7022,"Ġá¼¨":7023,"ÏģÎº":7024,"ÏģÎµÎ½":7025,"ÏģÏģÏħÎ¸":7026,"ĠÏĦÏģÎ±Î³":7027,"ÏĥÎ¿ÏħÏĥÎ¹Î½":7028,"Î»á½±Ïĥ":7029,"Î¼á½±Î»":7030,"ĠÎºá½½ÏĢ":7031,"ĠÎºÎ¹Î²":7032,"ĠÎºÏģá½»":7033,"Îºá½¼ÏĤ":7034,"Ïħá½·Î±ÏĤ":7035,"Î·ÏĥÎ±ÏĤ":7036,"Î·ÏĦá½³Î¿Î½":7037,"Î·ÏģÎ¹Î¶":7038,"á½·ÏĦÎ·ÏĤ":7039,"á½³ÏĥÏĩ":7040,"Ġá¼ĲÏĦ":7041,"Ġá¼ĲÏĦá½·":7042,"Ġá¼ĲÎ¸Îµ":7043,"Ġá¼ĲÎ²Î±":7044,"Î³á½¸Î½":7045,"Î³Î¼Î±ÏĦÎ¹":7046,"á½±ÏĥÎ¸Î±Î¹":7047,"á½±ÏĥÎ¹Î±ÏĤ":7048,"Î¸Î¿Î¹":7049,"Î¸á½±Ïģ":7050,"Ġá¼ĢÏĥÎ¹Î½":7051,"Ġá¼ĢÏĥÎ¸á½³Î½":7052,"ĠÎ¼á¿¦":7053,"ĠÎ¼á½µÏĦÎ·Ïģ":7054,"ÏĩÎ¸Î·ÏĥÎ±Î½":7055,"Î´á½¸Î½":7056,"Î´á½³Î½Î±Î¹":7057,"ÏĨÎ»":7058,"ÏĨÎ¿ÏģÎ¹Îºá¿¶ÏĤ":7059,"Î¿á¿¦ÏĦÎ¿ÏĤ":7060,"ĠÏĦá¿Ĩ":7061,"ÏĥÏĦÎ¿Ïħ":7062,"ÏĥÏĦÎ¿ÏħÏĤ":7063,"Î¿Î¹Ïī":7064,"ĠÎ³á½³":7065,"ĠÎ³á½±":7066,"ĠÎ³á½³Ïģ":7067,"ĠÏĥÏĢÎ¿Î½":7068,"á½³Î½Î·ÏĦÎ±Î¹":7069,"Ġá¼ĲÎ½á½³":7070,"Ġá¼ĲÎ½ÏĦá½³ÏģÏīÎ½":7071,"ĠÎ´Î¹Î¿ÏģÎ¸":7072,"Î¾Î¿Î½":7073,"Ġá¼ĶÎ²":7074,"Ġá¼ĶÎ¼ÏĪ":7075,"Î²ÎµÏĦÎ±Î¹":7076,"Î²Î±Ïģ":7077,"Î²Î¿á½»Î»":7078,"Ġá¼ĲÏĢÎµÎ½":7079,"ĠÎ±á½ĲÏĦÎ¿á½·":7080,"ÏģÎ±Î³Î¼Î±":7081,"ĠÎ»Î¿Ïģ":7082,"ĠÎ»ÎµÎ»":7083,"Ġá½ģÏģÎ¹Îº":7084,"Ġá½ģÏĢÏī":7085,"ĠÎµá¼°ÏĥÎ¸á½³ÏĥÎµÎ¹":7086,"ĠÏĨÎ»á½³":7087,"ĠÏĨá½³ÏģÎµÎ¹":7088,"á¿¶Î½ÎµÏĤ":7089,"á½½Î¼ÎµÎ½Î±":7090,"Ġá¼ĢÎ½á½³":7091,"Ġá¼ĢÎ½ÏĦÏī":7092,"Ġá¼ĢÎ½á½±Îº":7093,"Ġá¼ĢÎ½á½µÏģ":7094,"ÏĦÎµÎ»Îµ":7095,"á½¹Î½Î±Î¹":7096,"á½¹Î½ÏĦÏīÏĤ":7097,"ÏĦÎ¿ÏĢ":7098,"ÎºÎ±ÏĥÎ¹":7099,"Ġá¼ĦÏĢÎ¿Ïģ":7100,"Ġá¼ĢÏĢá½½Î»":7101,"Î¼ÎµÎ½á½¹ÏĤ":7102,"ĠÏĢÎ±ÏĦÏģá½·":7103,"Îµá½·ÏģÎ±Î½":7104,"ĠÏĩÎ»":7105,"ĠÏĩá½±Ïĥ":7106,"ĠÏĩá½¹Ïģ":7107,"Ġá½¡ÏĥÎµ":7108,"á½³Î³ÎºÎ»Î·Î¼Î±":7109,"Ġá¼ĲÎºÏĦÎ±Î½":7110,"Ġá¼ĲÎºÏĨÏīÎ½":7111,"ĠÏĢÏģÎ¿ÏĢÎµ":7112,"Î»Î·ÏĥÎµÎ½":7113,"á¿¦Î»Î¿Î½":7114,"ĠÎ¸Îµá½·á¾³":7115,"Î¹ÎºÎ¿á½·":7116,"Î¶Îµ":7117,"ĠÎ²á½¹":7118,"ĠÎ²Í´":7119,"ÏĪÎµÎ½":7120,"ĠÎ»á½³Î³Î¿Î½ÏĦÎ¹":7121,"Ġá¼ĢÎ»Î»Î¿ÏĦÏģá½·":7122,"Ġá½ĢÏģÎ½":7123,"Ġá½ĢÎ´á½¹Î½ÏĦÎ±ÏĤ":7124,"ĠÏĦÎµÎ¼Î½":7125,"Ïĥá½·Î»ÎµÏħ":7126,"ĠÏĢÎ±ÏģÏģÎ·":7127,"ĠÏĢÎ±ÏģÎµÏħ":7128,"ĠÏĢÎ±ÏģÎµÏĩ":7129,"ĠÏĢÎ±ÏģÎ±Î¹Î½":7130,"ĠÏĢÎ±ÏģÎµá¿ĸÎ½Î±Î¹":7131,"ĠÏĦÎ¹Î¸á½³":7132,"Î¿á½»Î´Î±":7133,"á¾¶ÏĥÎ¹Î½":7134,"ĠÎ´Î¹Î±ÏĦá½·":7135,"ĠÏĢÎ¿Î¹á½µÏĥá¿ĥ":7136,"ĠÎ¿á½ĸÏĥÎ±Î¹":7137,"Ġá¼ĲÏĢÎ¹ÎµÎ¹Îº":7138,"Ġá¼ĲÏĢÎ¹Î¿ÏģÎº":7139,"Ġá¼ĲÎ¾Î¿Ïĩ":7140,"Ġá¼ĲÎ¾Î¹Ïĥ":7141,"Ġá¼ĲÎ¾Î±ÏĢ":7142,"ÏĦá½³ÏĥÏĥÎ±":7143,"Î¸Ïģá½½ÏĢ":7144,"Ġá¿¥á½»":7145,"Ġá¿¥á½³ÏĢÎµÎ¹Î½":7146,"ĠÎ¶ÏīÎ¼":7147,"ĠÏĩÏģÎµá½·Î±ÏĤ":7148,"ĠÎºÎ±ÏĦÎ±ÏĥÎº":7149,"ĠÎºÎ±ÏĦÎ±ÏĨÎ±":7150,"ĠÎºÎ±ÏĦÎ±ÏĦÎµá½·Î½":7151,"á½±Î»Î¿Ïħ":7152,"Î±Î»Îµá½·":7153,"ÏģÎ¿á½·":7154,"ĠÏĥÏħÎ½Îµ":7155,"ĠÏĥÏħÎ½ÎµÎ¹":7156,"ĠÏĥÏħÎ½á½·Î¶":7157,"ĠÏĥÏħÎ½Î´á½³":7158,"ĠÏĥÏħÎ½ÎµÏģÎ³":7159,"ĠÏĥÏħÎ½á½±ÏĢ":7160,"ÏĥÎ¼á½¹Î½":7161,"Ġá¼ķÏĦÎµÏģÎ¿Î¹":7162,"Î´Î¹á½¹":7163,"Î´Î¹Î´":7164,"Î¼á½±ÏĦÎ¹Î¿Î½":7165,"ÎµÏĨÎ±Î½":7166,"ĠÎ¿á½ĲÎ´Î±Î¼":7167,"á½¹ÏĦÎ·Î½":7168,"Ġá½ĦÏĨ":7169,"Ġá½ĦÏģÎ¸":7170,"ÏĦÏīÏĥÎ¹Î½":7171,"Î»á½³Îº":7172,"á¼ĢÎº":7173,"ĠÎºÎ±Î¸á½·":7174,"ĠÎºÎ±Î¸á½¹":7175,"Ġá¼ģÎ»":7176,"ĠÎłá½³":7177,"ĠÎłÏģÏī":7178,"Î»á½·ÏĥÎº":7179,"ÏĦÎ¿Î¹Î¼Î±":7180,"ĠÏĢÏģÎ¿ÏĥÎ´":7181,"ĠÏĢÏģÎ¿Ïĥá½³Ïĩ":7182,"ĠÏĢÏģÎ¿Ïĥá½µÎºÎµÎ¹":7183,"ĠÏĢÎ±ÏģÎ±ÏĥÏĩ":7184,"ĠÏĢÎ±ÏģÎ±ÏĩÏģ":7185,"Ġá¼ĢÏĢÎ¿Î´Îµ":7186,"Ġá¼ĢÏĢÎ¿ÏĥÏĨ":7187,"ĠÏĢÎ»á½±Î½":7188,"ĠÎµá½ĲÎ´Î¿Îº":7189,"ĠÏĥÎºÎµá½»":7190,"ĠÏĥÎºÎ¿Î»Î¹":7191,"á½¹Î¼Î¿Î¹":7192,"Ġá¼ħÏĢÏĦÎµÏĦÎ±Î¹":7193,"á½³ÏĥÎ¿Î¹":7194,"á½³ÏĥÎ²":7195,"ÏģÎ±ÏĨÎ¿Î½":7196,"á½½Î½Î¿Ïħ":7197,"Ġá½ģÎ¼ÏīÎ½ÏħÎ¼":7198,"ĠÎ¿á½ĲÏĥá½·Î±Î¹ÏĤ":7199,"ĠÎ¸ÎµÎ¿":7200,"ĠÎ¸ÎµÎ¿á½ºÏĤ":7201,"ĠÎ¸ÎµÎ¼á½³Î»":7202,"Î´ÎµÎ¹Î±Î½":7203,"Ġá¼ĢÎ½Î±ÏĦÎ¿":7204,"á¼°Î´Î¿á½º":7205,"ĠÎ³á½³Î½ÎµÏĥÎ¹Î½":7206,"ĠÎ³á½³Î½ÎµÏĥÎ¹ÏĤ":7207,"Ġá¼´Î¾Î¹Î½":7208,"Ġá¼ĢÎ¼ÏĨá½·":7209,"Ġá¼ĢÏĨÎ¹":7210,"Ġá¼ĲÎ½Î±Î½ÏĦá½·Î¿ÏĤ":7211,"á½»Î»á¿ĥ":7212,"ÏħÎ³Î¼Î±":7213,"Î»á½µÎ¸Î·ÏĥÎ±Î½":7214,"Ġá½ķÏĢ":7215,"ĠÎºÎ¿Î¹Î½á¿ĩ":7216,"ĠÎ´ÎµÎ´Ïī":7217,"ÏĢÎ»á½´Î½":7218,"ĠÏĨÎ±Ïĥá½·":7219,"ĠÎ£Ïħ":7220,"Ġá¼łÎºÎ¿Î»Î¿á½»":7221,"á½¹ÏģÏīÏĤ":7222,"á½¹ÏģÎµÏħ":7223,"ĠÏĥÏĩá½µÎ¼Î±ÏĦÎ±":7224,"Ġá¼¥Î¾ÎµÎ¹":7225,"ĠÎ´á½·Ïī":7226,"Ġá½ħÏģÎ¿Î¹":7227,"á¼ĶÎ´ÎµÎ¹":7228,"ĠÎ³Î½á¿¶ÏĥÎ¹Î½":7229,"ĠÏĦá½³ÏīÏĤ":7230,"ĠÏĦá½³ÏĦÏĦÎ±":7231,"ĠÎľá½µ":7232,"ĠÎľÎ±Î³":7233,"ĠÏĢá½³ÏĨ":7234,"ĠÏĢá½³Î¼ÏĪ":7235,"Ġá¼°ÏĥÏĩá½»":7236,"Îµá¼°ÏĤ":7237,"Ġá¿¥Î·ÏĦá½¹Î½":7238,"á¾¶Î½Î±Î¹":7239,"Ġá½ĳÏĢÎ¿Î´Îµ":7240,"á½»ÏģÎ¹Î¿Î½":7241,"ĠÏĨÏħÎ»á¿ĨÏĤ":7242,"ĠÎ½á½¹Î¼Î¹Î¼Î¿Î½":7243,"ĠÎ¿á¼°Îºá½³":7244,"Îºá½±Î¼ÏĢ":7245,"ĠÏĨÏīÎ½Î±á½¶":7246,"ĠÎ´Î¿ÎºÎ¿á¿¦ÏĥÎ¹":7247,"ĠÎ²Î¿ÏħÎ»Î±á¿ĸÏĤ":7248,"ĠÏĢÏģÎ¿ÏĨÎµÏģ":7249,"ĠÏĦÏģÎ¹á½½Î²Î¿Î»Î¿Î½":7250,"ĠÎ¼Î·Î´ÎµÎ½":7251,"ĠÎ¼Î·Î´á½³Î½Î±":7252,"Ġá¼ĢÏģÎºá½³ÎµÎ¹":7253,"Ġá¼ĲÏĢÎ¹ÏĥÏĦá½µÎ¼Î¿Î½":7254,"ĠÏĪÏħÏĩÏģ":7255,"á½±ÏģÏĩÎ¿Ïħ":7256,"á½µÏĥÎµÎ¹Îµ":7257,"ĠÎ²ÏģÎ±Ïĩá½º":7258,"ÎµÏĥÏĦá½³Ïģ":7259,"ĠÎ»Î¿Î³Î¹":7260,"ĠÏĢÎ»Îµá½·Ïī":7261,"ĠÎ±á½ĲÎ»Î·":7262,"ĠÎ¼Î¹ÎºÏģÎ¿á¿¦":7263,"Î±Î³Î³á½³Î»":7264,"ĠÎ´Î¹Î±ÏĨÎ¿Ïģá½±":7265,"Ġá¼ĳÎ½Î¹Îºá¿¶ÏĤ":7266,"ĠÏĢÎ¿Ïĥá½°":7267,"ĠÎ´Îµá½·Î¾Ïī":7268,"ĠÎ´Î¹á½±Î¸ÎµÏĥÎ¹Î½":7269,"ĠÎ¼Î±Ïĥ":7270,"ĠÏĢÎ¿Î»Î¹ÏĦÎ¹Îºá¿¶Î½":7271,"ĠÎºÎ¹Î½Îµá¿ĸÎ½":7272,"ĠÎºÎ¹Î½Î´ÏħÎ½":7273,"ĠÎ¼ÎµÏģÎ¹Îºá½´Î½":7274,"ĠÎºÎ±ÏĦÎ·Î³Î¿ÏģÎ¿á¿¦Î½ÏĦÎ±Î¹":7275,"ĠÎ´Î¹Î´á½¹Î½Î±Î¹":7276,"á½µÏĥÎ±Î½ÏĦÎ¿":7277,"á¿¤á¿¥Î¿ÏĢÎ¿Î½":7278,"á¼ĺÏĢÎ¹":7279,"ĠÎ»á½»ÎµÎ¹":7280,"ĠÎ»á½»ÏĥÎ¹Î½":7281,"ÏīÎ½á½»Î¼Î¿Ïħ":7282,"Ġá¼ĳÎ±ÏħÏĦá½µÎ½":7283,"Ġá¼ĲÎ³ÎºÎµÏĨ":7284,"ĠÏĥÏĦÏģÎ±ÏĦÎ·Î³á¿¶Î½":7285,"Ġá¼ĲÎ¸á¿¶Î½":7286,"Ġá¼ĶÏģÎ³ÏīÎ½":7287,"ĠÎĶÎ·Î¼Î¿ÏĥÎ¸á½³Î½Î·Î½":7288,"á½³Î¸Î·ÎºÎµ":7289,"ĠÏĢÎ¿Î»á½ºÎ½":7290,"ĠÎ¼á½³Î»Î±ÏĤ":7291,"ĠÎ²Î¿ÏħÎ»á¿ĩ":7292,"ĠÎ¼Î¿Î½Î¿Î³ÎµÎ½":7293,"ĠÏĦÎ¹Î¼á½´Î½":7294,"ĠÎºÎ±ÏĦá½±ÏĨÎ±ÏĥÎ¹ÏĤ":7295,"Ġá½ħÎ¼Î¿Î¹Î¿ÏĤ":7296,"Ġá½ĢÏĥÏĦÎ¿á¿¦Î½":7297,"Ġá¼ĲÏĢÎ¹ÏĨÎ¿Î¹ÏĦ":7298,"ĠÏĥÎºÎ¿ÏĢá½¹Î½":7299,"ĠÏĢÎ¿Î½Î·":7300,"Ġá¼ĲÏĢÎ¹ÏĥÏĦá½µÎ¼Î·Î½":7301,"ÏĦÏģá½·ÏĦÎ¿Î½":7302,"Ġá½ģÎ¼Î¿Î»Î¿Î³Î¿á½»Î¼ÎµÎ½Î¿Î½":7303,"ĠÎ³ÏģÎ±ÏĨá½´Î½":7304,"ĠÏĥá½»Î½ÏĦÎ¿":7305,"ĠÎ¼Î±ÎºÏģá½°":7306,"Ġá¼°ÏĥÏĩÏħÏģá½°":7307,"Ġá¼ĢÎ¾Î¹á¿¶Î½":7308,"ĠÎºÎµÏĨÎ±Î»Î±á½·á¿³":7309,"ĠÎ³Î¹Î½á½¹Î¼ÎµÎ½Î¿Î½":7310,"ÎłÎµÏģ":7311,"á½³Î²Î»Î·":7312,"Ġá¼ĦÎ³ÎµÎ¹Î½":7313,"Ġá¼ĢÎ´Î¹ÎºÎ·Î¼á½±ÏĦÏīÎ½":7314,"á¼ĢÏĢÎ¿Ïģ":7315,"Ġá¼µÏĢÏĢÎ¿Î¹ÏĤ":7316,"ÏĩÎ±ÏģÎ¹ÏĥÏĦ":7317,"á½µÎºÎ±ÏĥÎ¹Î½":7318,"ĠÎ»Î±Î¼Î²á½±Î½ÎµÎ¹Î½":7319,"ĠÎ¤Î¹Î¼á½±":7320,"ĠÎ¸Î·Ïģá½·á¿³":7321,"ĠÎ¼ÎµÏĦá½³ÏĩÎµÎ¹Î½":7322,"Ġá½ĳÎ³Î¹á¿¶ÏĤ":7323,"á¼ĢÎ½ÏĦá½¶":7324,"Ġá½ĢÏģÎ¸á½¸Î½":7325,"Ġá¼´ÏĥÎ¼ÎµÎ½":7326,"ĠÎºÎ±ÏģÎ´á½·Î±ÏĤ":7327,"ĠÎ½Îµá¿¶Î½":7328,"ĠÏĢÎ½Îµá½»Î¼Î¿Î½":7329,"ĠÎ²Î±ÏĥÎ¹Î»Îµá¿ĸ":7330,"Ġá½łÎ½Î¿Î¼á½±":7331,"ĠÎ´Î¹Î±ÏģÎ¸Ïģá½½ÏĥÎµÎ¹ÏĤ":7332,"ĠÎºÎ¿ÏĥÎ¼":7333,"ĠÏĢÎ»Î±Îº":7334,"ĠÏĢÎ»Î±Î³":7335,"ĠÎ¼Îµá½·Î¶ÏīÎ½":7336,"ĠÎ´Î¹Î´Î±ÏĥÎº":7337,"ĠÏĥÏħÎ³Î³ÎµÎ½":7338,"Ġá¼ĦÏģÏĩÎµÏĦÎ±Î¹":7339,"ĠÏĥÏĨÎ¿Î½Î´á½»Î»Î¿Î¹ÏĤ":7340,"Ġá¼ĢÏģÎµÏĦá½´Î½":7341,"Ġá¼ĢÏģÎµÏĦá½´":7342,"ĠÏĢÎ¿Î»ÎµÎ¼á½·Î¿ÏħÏĤ":7343,"Ġá¿¥á½±ÏĩÎ¹ÏĤ":7344,"ĠÎ±á¼°ÏĥÎ¸Î·ÏĦá¿¶ÏĤ":7345,"ĠÏĢÎ»Îµá¿ĸÏĥÏĦÎ¿Î¹":7346,"ĠÎ³Î½á½½Î¼Î·":7347,"Ġá¼ĪÏĦÏĦÎ¹Îºá¿ĨÏĤ":7348,"ĠÏĢÎµÏĢÏģÎ±Î³Î¼á½³Î½Î±":7349,"ĠÎºÏīÎ»Ïħ":7350,"Ġá¼ĲÎ»á½³Î³ÎµÏĦÎ¿":7351,"ĠÎ´Î·Î¼Î¿Îº":7352,"ĠÎ³Î»á½½":7353,"Ġá¼ĦÎ¾Î¹Î¿ÏĤ":7354,"Ġá¼¡Î¼á½³Ïģá¾³":7355,"Ġá¼ĢÎ½ÏĦÎ¹ÏĥÏĦÏģá½³ÏĨÎµÎ¹":7356,"Ġá¼ĲÏĢÎµÏĦá½µÎ´ÎµÏħ":7357,"ĠÏĢÏģÎ¿ÏĥÎµÎº":7358,"Ġá¼ĢÏģÎ½Îµá¿ĸÏĦÎ±Î¹":7359,"ĠÎ´Î¹Î±Î²á½±Î»Î»ÏīÎ½":7360,"ĠÎ´Î¹Î±Î²á½±Î»Î»ÎµÎ¹Î½":7361,"Ġá¼ĲÎ»á½±Î¼Î²Î±Î½":7362,"ĠÎµá½ĲÏĦÏħÏĩ":7363,"ĠÎ½ÎµÎºÏģá½¸ÏĤ":7364,"ĠÎ½ÎµÎºÏģá¿¶Î½":7365,"ĠÎ½ÎµÎºÏģÎ¿á½ºÏĤ":7366,"ĠÎ½Î¿Î·ÏĦá¿¶ÏĤ":7367,"ĠÏĦÏģÎ¿ÏĨá¿ĨÏĤ":7368,"Ġá¼ĶÏģÏĩÎ¿Ïħ":7369,"Ġá¼ĢÏĢÎ¿Ïģá½·Î±ÏĤ":7370,"ĠÎ¼ÎµÏĦÎ±ÏĨÎ¿Ïģá½°":7371,"ĠÎ´á½³ÏģÎ¼Î±ÏĦÎ±":7372,"ĠÎ¸á½»ÏģÎ±ÏĤ":7373,"ĠÎ³Î½á½±Î¸Î¿ÏĤ":7374,"ĠÏĦÎµÎ»Îµá¿ĸ":7375,"ĠÎ´ÏīÏģÎµá½±Î½":7376,"ĠÎ´ÏīÏģÎµá½°Î½":7377,"ĠÏĦá½·Î½ÎµÏĤ":7378,"ĠÏĥá½±ÏģÎºÎ±ÏĤ":7379,"ĠÏĢÎµÏģÎ¹á½³ÏĩÎµÎ¹":7380,"Ġá¼ĢÏĢá½¹ÏĥÏĦÎ¿Î»Î¿Î½":7381,"ĠÎºÎ±Î½á½¼Î½":7382,"á½±ÏĥÎ±Î½ÏĦÎ¿ÏĤ":7383,"ĠÏĦÎ±Ïĩá½»":7384,"ĠÏĥÏħÎ½ÏĦÎµÎ»Îµá½·Î±ÏĤ":7385,"ĠÎµá½ĳÏģá½·ÏĥÎºÎ¿Î½ÏĦÎ±Î¹":7386,"Ġá¼ĲÎ²Î»á½µÎ¸Î·":7387,"ĠÎ´Î¹Î±ÏĨá½³ÏģÎ¿ÏħÏĥÎ¹Î½":7388,"ĠÎºá½¹ÏĥÎ¼Î¿ÏĤ":7389,"ĠÎĽÎ±ÎºÎµÎ´Î±Î¹Î¼Î¿Î½á½·Î¿Î¹ÏĤ":7390,"ĠÎĽÎ±ÎºÎµÎ´Î±Î¹Î¼Î¿Î½á½·Î¿ÏħÏĤ":7391,"ĠÏĢÏģÎ¿ÏĤÎ´Î¹":7392,"ĠÎµá½ķÏģÎ·ÏĦÎ±Î¹":7393,"Ġá¼ĢÏĦá½¹Î¼Î¿Ïħ":7394,"ĠÏĢÏĦá½³ÏģÎ½á¿ĥ":7395,"Ġá¼ĲÎ¾Î±ÏģÎ¸Ïģá½µÏĥá¿ĥ":7396,"á¼ĦÎ»Î»Î¿Î¹":7397,"ĠÎºÏīÎ¼á¿³Î´á½·Î±ÏĤ":7398,"á¼ľÏĢÎµÎ¹ÏĦÎ±":7399,"ĠÏĢÏģÎ±Ïĩ":7400,"Ġá¼ĢÏĢá½³Î¸Î±Î½":7401,"ĠÏĦÎµÎ»Îµá½·ÏīÏĤ":7402,"ĠÏĢÏģÎ¿ÏĥÎ·Î³Î¿ÏģÎ¹Îº":7403,"ĠÎ±á½ĲÏĩá½³Î½Î±":7404,"Ġá¼°Î±ÏĦÏģÎ¹Îºá¿ĨÏĤ":7405,"Î±Î¹Î¼á½¹Î½":7406,"Ġá¼ĪÎ¸á½µÎ½Î±Î¹ÏĤ":7407,"ÎŁá¼±":7408,"Ġá½¡ÏģÎ¹ÏĥÎ¼á½³Î½Î±":7409,"Ġá¼°ÏĩÎ¸á½»ÏīÎ½":7410,"Ġá¼´ÏĥÏĩÏħ":7411,"ĠÎ´á½·Î´ÏīÏĥÎ¹Î½":7412,"ĠÎºÎµÎ½Îµ":7413,"ĠÎļÏģÎ±ÏĦá¿ĸÎ½Î¿ÏĤ":7414,"á¼ĶÎ½Î¹Î¿Î¹":7415,"Ġá¼ĢÎ½ÏĦÎ¹Î´Î¹Î±Î¹Ïģ":7416,"Ġá¼°ÏĥÏĩÏħÏģÎ¿":7417,"ĠÎ¶á¿¶Î±":7418,"Ġá¼ĢÏĢÎ±Î¹ÏĦ":7419,"ĠÏĢÎ±ÏģÎ¿Î¹Î¼Î¹":7420,"ĠÎľÎ¹Î½Î¿ÏħÎºÎ¹Î±Î½á½¸ÏĤ":7421,"ÏĦá½·Î¸ÎµÏĥÎ¸Î±Î¹":7422,"Ġá½łÎ´á½´Î½":7423,"Ġá¼ĲÎ³ÎºÎ»á½µÎ¼Î±ÏĦÎ¿ÏĤ":7424,"ĠÏĦá½»ÏģÎ±Î½Î½Î¿ÏĤ":7425,"ĠÏĦÎ¹Î¼ÏīÏģá½·Î±ÏĤ":7426,"ĠÎ½á½»Î¼ÏĨ":7427,"ĠÎ¸ÏħÏĥÎ¹Î±ÏĥÏĦá½µÏģÎ¹Î¿Î½":7428,"Ġá¼¹ÎµÏģÎ¿ÏħÏĥÎ±Î»á½µÎ¼":7429,"Ġá¼ĲÎºÏĢÎµÏĢÏĦá½½":7430,"ĠÏĦÎµá½·ÏĩÎ·":7431,"Î´ÏģÎ±Î¼á½¼Î½":7432,"Ġá¼ĢÎ½ÏĦá½³Î³ÎºÎ»Î·Î¼Î±":7433,"ĠÎ½ÏīÏĦÎ¹":7434,"Ġá½ĻÏĢá½³Ïģ":7435,"á½»ÏĦÎ·ÏĦÎ±":7436,"Ġá¼ĢÎ½Î¿á½·Î³":7437,"Ġá¼ĢÎ³Îºá¿¶Î½Î±":7438,"ĠÏĪá½µÏĨÏīÎ½":7439,"Ġá¼ĢÏĨÎ¿ÏģÎ¼á½´Î½":7440,"ĠÎºá½¹Î»Î±ÏĥÎ¹Î½":7441,"Ġá¼ĢÎ½á½³Î¼ÏīÎ½":7442,"Ġá¼ĲÎ´á½µÎ»ÏīÏĥÎµÎ½":7443,"ĠÏĦÏģÎ¿ÏĩÎ±ÏĬÎºÎ¿á½¶":7444,"Ġá¼ĲÎ´Îµá½·ÏĩÎ¸Î·":7445,"ĠÏĦÎµÏĥÏĥÎ±ÏģÎ±Îº":7446,"ÏĥÎ±á½»ÏĦÏīÏĤ":7447,"ĠÎ´á½»Î½Î±Î¹ÏĦÎ¿":7448,"ĠÎ¸ÎµÏĥÏĢÎµÏĥá½·á¿³":7449,"Ġá¼ĲÎ½Î±Î½Î¸ÏģÏīÏĢá½µÏĥÎµÏīÏĤ":7450,"ĠÏĢÎµÏģÎ¹ÏĥÏĦÎ±ÏĦÎ¹Îºá¿¶Î½":7451,"ĠÏĨÎ¸á½±ÏĥÎ±ÏĥÎ¹Î½":7452,"ĠÎ´Î¹á½±ÎºÏģÎ¹ÏĥÎ¹Î½":7453,"Î¿ÏĢá½½Î»Î·ÏĤ":7454,"ĠÏĢÎ±Î½ÏĦÎ¿ÎºÏģá½±ÏĦÏīÏģ":7455,"ĠÎµá¼´ÏīÎ¸Îµ":7456,"á¼µÎ½Î±":7457,"ĠÎºÎ±ÏĦÎµÏģÎ³":7458,"ĠÎ»Î·ÏĨÎ¸":7459,"ĠÎµá¼°Î´ÏīÎ»":7460,"Ġá¼ĢÏĢÎ±á½·ÏĦÎ·ÏĥÎ¹ÏĤ":7461,"ĠÎ´ÎµÏĥÏĢá½¹ÏĦÎ¿Ïħ":7462,"ĠÎ²ÏħÏģÏĥÎ¿Î´á½³ÏĪÎ·Î½":7463,"ĠÎºá½»Î½ÎµÏĤ":7464,"ĠÎ´Î¿Î³Î¼á½±ÏĦÏīÎ½":7465,"ĠÎ´Ïģá¾¶Î¼Î±":7466,"ĠÎľÎ·Î´Î¹Îº":7467,"ĠÎ½á½»ÎºÏĦÏīÏģ":7468,"ÏħÏĦá½¹Î½ÏīÏĤ":7469,"ĠÎµá½ĲÎ»á½¹Î³ÏīÏĤ":7470,"ĠÏĢÎ¿Î»á½³Î¼Î¹Î¿Î¹":7471,"ĠÎ»á½·Î¼Î½Î·Î½":7472,"ĠÎ´Î·Î¼Î¹Î¿ÏħÏģÎ³":7473,"Ġá¼ĲÎ½Î¸á½»Î¼Î·Î¼Î±":7474,"ĠÎ´Î¿ÏģÏħÏĨ":7475,"ĠÏĥÏĨá½¹Î½Î´ÏħÎ»Î¿Î¹":7476,"Ġá¼ĢÏĥÎ¸á½³Î½ÎµÎ¹Î±Î½":7477,"Ġá½ģÏĢÏīÏĥÎ¿á¿¦Î½":7478,"Ġá¼ĢÎ½á½±ÎºÎ»Î¹ÏĥÎ¹ÏĤ":7479,"Ġá¼ĢÏĢá½½Î»ÎµÎ¹Î±Î½":7480,"Ġá½¡ÏĥÎµá½¶":7481,"ĠÏĢÎ±ÏģÎµÏħÎ´Î¿ÎºÎ¹Î¼":7482,"ĠÏĢÎ±ÏģÎ±ÏĩÏģá¿ĨÎ¼Î±":7483,"ĠÎ¤Î¹Î¼á½±ÏģÏĩ":7484,"ÏĦá¾¶Î½":7485,"Î½ÏĦÎ±Î¹":7486,"Î¿Î´Î¿ÏĤ":7487,"Î¿ÏĦá½µ":7488,"á¼¥":7489,"á¼¸":7490,"Î¹Î³Î³":7491,"ÎµÏĪ":7492,"ÎµÎ¼Î¿Î½":7493,"Ġá¼¶":7494,"Ïģá½¹ÏĢ":7495,"ĠÏĦÏģÎ±ÏĢ":7496,"ÏĥÎ·Î¼":7497,"ÏĢÏĦÎ±Î¹":7498,"ÏĢá½³Î½":7499,"Î»Î¸á¿ĥ":7500,"Î¼Ïħ":7501,"Î¼á¿³":7502,"Î¼Î¿ÏħÏĤ":7503,"Î¼á½µÎ½":7504,"Î¼Î¿Ïĩ":7505,"ĠÎºÎµÎ¹":7506,"ĠÎºÎµá¿ĸÎ½":7507,"ĠÎºÎ¿á½·":7508,"ĠÎºÎ»Îµá½·":7509,"ÎºÎ¿ÏħÏĤ":7510,"ÎºÏĦá½³Î¿Î½":7511,"ÏħÎ²":7512,"ÏħÎ»á½·Î±Î½":7513,"á½¶Î´":7514,"Î·ÏģÎµ":7515,"Î·Î»Î¿Î½":7516,"Î·ÏĥÎ¿Î½":7517,"Î·Î¸á¿ĨÎ½Î±Î¹":7518,"ĠÏĢÎµá¿ĸÏĥÎ±Î¹":7519,"ĠÏĢÎ¿á¿ĸÎ±":7520,"á½·ÏĢ":7521,"á½·Î·Î½":7522,"á½·ÏĥÎ¸Î·":7523,"á½·Î¿Î¹ÏĥÎ¹":7524,"á½·Î¿Î¹ÏĥÎ¹Î½":7525,"Ġá¼ĲÎ¼Î±":7526,"Ġá¼ĲÏģÎ±":7527,"ÏīÎ¼á½±ÏĦÏīÎ½":7528,"Ġá½ī":7529,"ĠÎ´Ïģ":7530,"ĠÎ´á½±":7531,"ĠÎ´Í´":7532,"ĠÎ´á½¹ÏģÏħ":7533,"Î¿Î½ÏĦá½³ÏĤ":7534,"á½±Î´ÏīÎ½":7535,"Î¿á¿¶Î½":7536,"Î¸á½¹Î½":7537,"á½¹ÏĥÎ¹Î¿Î½":7538,"Ġá¼ĢÏĩ":7539,"Ġá¼ĢÎ¼Î²":7540,"Ġá¼ĢÎ¼ÏĢ":7541,"Ġá¼ĢÎ¼Îµ":7542,"Ġá¼Ģá¿¤á¿¥":7543,"Ġá¼ĢÏĩÏģ":7544,"ĠÎ¼Î¹Î½":7545,"ĠÎ¼ÏħÎº":7546,"ÏĩÎ¿ÏħÏĥÎ¹":7547,"Î´á½¼Î½":7548,"á½°Î¼":7549,"ÎµÎ¹Î»á½±":7550,"á½»ÏĥÎµÎ¹":7551,"ÏĥÏĦá¿³":7552,"ĠÎµÍ´":7553,"ĠÎ³á½³ÏģÎ±ÏĤ":7554,"Î±Î¹Î±":7555,"ĠÎµá¼·":7556,"á¿ĸÏĦÎ±Î¹":7557,"á½µÏģÎ¹":7558,"ÎµÎ½á½¹Î½ÏĦÏīÎ½":7559,"ĠÏĥÎ¿á½·":7560,"ÎµÏģÎ½":7561,"ÏĦÎ¹ÎºÎ±á¿ĸÏĤ":7562,"Îµá¿ĸÎ±Î¹":7563,"Îµá¿ĸÎ»Îµ":7564,"Ġá¼ĲÎ½Î±á½·":7565,"Ġá¼ĲÎ½á½¹Î¼":7566,"Ġá¼ĲÎ½ÎµÏĩ":7567,"ĠÎ´Î¹ÏĢÎ»Î±":7568,"Ġá¼ĶÎ³Î½":7569,"Ġá¼ĶÎ´ÏīÎºÎµÎ½":7570,"Ġá¼ĶÎ»Î¸á¿ĥ":7571,"Î²ÎµÏģÎ½":7572,"Ġá¼ĲÏĢá½±":7573,"Ġá¼ĲÏĢÎµá½·":7574,"Ġá¼ĲÏĢá½µÎ½ÎµÎ³ÎºÎµ":7575,"ÏģÎ±á¿ĸÏĤ":7576,"ĠÎ»á½±Ïĩ":7577,"Ġá½ģÏģÎ±":7578,"ĠÎµá¼°Î´á½¹":7579,"ĠÏĨá½±Î³":7580,"ĠÏĨÏħÏģ":7581,"ĠÏĨÎ¸Î±Ïģ":7582,"á½½ÏĦÎµÏģÎ±":7583,"ÏĦÎ·Î¼Î±":7584,"Ġá¼ĢÎ½á½°":7585,"Ġá¼ĢÎ½ÎµÏĢÎ¹":7586,"Ġá¼ĢÎ½Î±á½·ÏģÎµÏĥÎ¹Î½":7587,"ÏģÎ¹ÏĥÏĦÎ±Î¹":7588,"ÏĥÎ¸á½µÏĥÎ¿Î½ÏĦÎ±Î¹":7589,"ÎºÎ±Î¼ÏĢ":7590,"Ġá¼ĦÏĦ":7591,"Ġá¼ĦÏĢÎµ":7592,"Ġá¼ĦÏĦÎµÏĩÎ½":7593,"Ġá¼ĢÏĢÎ·Î½":7594,"Ġá¼ĢÏĢÎµÏĩ":7595,"Ġá¼ĢÏĢÎ±Î³ÏīÎ³":7596,"ĠÏĢÎ±Ïģá½·":7597,"ĠÏĢÎ±á½·Î´ÏīÎ½":7598,"Îµá½·Î·ÏĤ":7599,"Ïģá½·ÏīÎ½":7600,"Ïģá½·Î¶ÎµÎ¹Î½":7601,"ĠÏĩÎµÎ»Î¹Î´":7602,"Ġá½ĳÎ²":7603,"ĠÏĥÏħÎ¶ÏħÎ³":7604,"Ġá¼ĲÎºÎ´á½³":7605,"Ġá¼ĲÎºÏĢÏĦ":7606,"ĠÏĦÎ¿ÏĢ":7607,"ĠÏĢÏģÎ¿á½Ķ":7608,"Î»Î·Î½Î±":7609,"á¿ĨÏĥÎ¹ÏĤ":7610,"á¿ĨÏĨÎ¿Î½":7611,"ĠÎ¸ÎµÎ¹":7612,"ĠÎ¸ÎµÎ»":7613,"ĠÎ¸Ïģá½³":7614,"ĠÎ¸Î·Î»":7615,"ĠÎ¸Î±Î»Î±":7616,"Î¶Î¿Î¼ÎµÎ½":7617,"Î¿Î»á½·":7618,"Î¿Î»á¿ĨÏĤ":7619,"ĠÎ²Ïģá½³":7620,"Ġá¼ĲÏĥÏĦÏģÎ±":7621,"Ġá½ĳÏĢá½±Î»Î»":7622,"Ġá½ĳÏĢá½±Î³ÎµÏĦÎ±Î¹":7623,"ĠÏĢÎµÏģá½·Î¿":7624,"ĠÎ½á½´":7625,"ĠÎ½ÏħÎ½":7626,"ÏĪÎ¿Î½":7627,"ÏĪá¿ĥ":7628,"ĠÎ»á½³Î³ÏīÎ¼ÎµÎ½":7629,"á½µÏĥÎ±Î¹":7630,"Ġá¼ĢÎ»Î»Î·Î»":7631,"Ġá¼ĢÎ»Î»á½¹ÏĦ":7632,"ĠÎ±á¼·ÏĤ":7633,"Ġá½ĢÏģ":7634,"Ġá½ĢÏģÏĩ":7635,"Ġá½ĢÏĥÏĨ":7636,"Ïĥá½·ÏīÏĤ":7637,"ĠÏĢÎ±ÏģÎ±Î¹":7638,"ÏĦá½·Î¿Ïħ":7639,"ĠÏĦÎ±Ïģ":7640,"ĠÏĦÎ±Î»Î±Î¹":7641,"Î¿á½»ÏĬÎ±":7642,"ÏĥÎ±ÏĦÎµ":7643,"ÏĥÎ±Î¼ÎµÎ½":7644,"ĠÏĢÎ¿Î¹á½µÏĥÎµÎ¹":7645,"ĠÏĢÎ¿Î¹Î¼Î±Î½":7646,"ÏĦÎµÏģá½±":7647,"ÏģÎ·Î¼á½±ÏĦÏīÎ½":7648,"ÏģÎ·ÏĥÎµÎ½":7649,"Ġá¼ĲÏĢÎ¹ÏĦ":7650,"Ġá¼ĲÏĢÎ¹ÏĦÎµ":7651,"Ġá¼ĲÏĢÎ¹ÎºÎ±Î»":7652,"Ġá¼ĲÏĢÎ¹ÏĩÎµÎ¹":7653,"ÏĦÎ¹Îºá¿ĩ":7654,"ÏĦÎ¹ÎºÎ¿á½ºÏĤ":7655,"ÎµÏħá½¹Î¼ÎµÎ½Î¿Î½":7656,"Î´ÎµÏĥÎ¸Î±Î¹":7657,"Ġá¿¥á½¹":7658,"ĠÎ¶ÏīÎ³":7659,"ĠÏĩÏģá½µÎ¼Î±ÏĦÎ±":7660,"ĠÎºÎ±ÏĦÎ±ÏĦÎµÎ¹Î½":7661,"Î±Î»Î¿ÏĤ":7662,"á½³Î»Î¸á¿ĥ":7663,"ĠÏĥÏħÎ½Î·Î¸":7664,"Î·ÏĦá¿Ĩ":7665,"Ġá¼ĪÏģÎ¹":7666,"ÏĢÎµÏģÎ±Ïĥ":7667,"Ġá¼ķÎºÏĦÎ¿Î½":7668,"ÏģÏĩÎ¿ÏĤ":7669,"á½±Î³á¿ĥ":7670,"ÎµÎ»Î¿Î½":7671,"ĠÎ´á½³Î´ÏīÎºÎµ":7672,"ÏĦÏīÎºÎµ":7673,"ĠÎµá¼¶Î´á½¹Î½":7674,"ÏĥÏĦÎ±Î»":7675,"ÏĥÎºá½½ÏĢÏĦÎµÎ¹":7676,"ÏģÎµÎ±":7677,"ĠÎºÎ±Î¸á½·ÏĥÎ±Î¹":7678,"ĠÎłÎ¿ÏģÏĨ":7679,"ĠÎ±á¼°ÏĦÎµá¿ĸ":7680,"ÏĥÏĩÏħÎ½":7681,"ĠÏĢÏģÎ¿ÏĥÏĨ":7682,"ĠÏĢÏģÎ¿ÏĥÎ·Î½":7683,"Ġá¼ĢÎ³Ïģ":7684,"Ġá¼ĢÎ³Î±ÏĢ":7685,"ĠÏĢÎ±ÏģÎ±Î¼":7686,"ĠÏĢÎ±ÏģÎ±Î²Î±Î»Î»":7687,"ĠÏĢÎ±ÏģÎ±ÏĦÎµÏĦÎ±":7688,"ĠÏĦÎ¹Î½á½³ÏĤ":7689,"ĠÎµá½ĲÏĥÎµÎ²":7690,"ÎµÏĢÏĦ":7691,"ĠÏĥÎºá½»":7692,"ĠÏĥÎºÎµÎ»á¿¶Î½":7693,"ĠÏĦá½·Î¸Î·ÏĥÎ¹Î½":7694,"á½¼Î²":7695,"Ġá¼ĢÎ½ÏĦÎ¹Î»Î·ÏĢ":7696,"á¿ĨÎ½Î±ÏĤ":7697,"Î±á½·Ïģ":7698,"ĠÏĢÏģá½¹ÏĦÎ±ÏĥÎ¹Î½":7699,"ĠÏĢÏģá½¹Î´Î·Î»Î¿Î½":7700,"ĠÏĢÎµÏģÎ¹ÏĨÎµÏģ":7701,"Î±ÎºÎ¿Î½":7702,"Î·Îºá½¹ÏĦÏīÎ½":7703,"ĠÏĪÎ·ÏĨ":7704,"ĠÏĪá¿ĨÏĨÎ¿Î½":7705,"Ġá½¥ÏĥÎµÎ¹":7706,"ĠÏĢÎ¿Î»á½ºÏĤ":7707,"ÏĢÎ±ÏĦ":7708,"ĠÏĦá½¹ÏĢÎ¿Î¹":7709,"á½½Î½Î¹Î¿Î½":7710,"Ġá½ģÎ¼Î¿":7711,"á½»Î½Î¿Î½ÏĦÎ±Î¹":7712,"á½±Î¶Î¿Î½ÏĦÎ¿ÏĤ":7713,"ĠÎ¸ÎµÎ¼ÎµÎ»":7714,"Î»Î¹Î²":7715,"Î»Î¹ÏĥÎ¸":7716,"ÏģÎ¿Î½ÏĦÎµÏĤ":7717,"ĠÏĢÎ¿Î»Î»á½´Î½":7718,"ĠÎ³ÎµÎ½á½µÏĥÎµÏĦÎ±Î¹":7719,"Î¿ÏĢÏģÎ¿ÏĨ":7720,"ĠÎ¾á½·":7721,"ĠÎ¼ÎµÏĦÎ±ÏĥÏĦÎ±":7722,"ĠÎ¼ÎµÏĦÎ±Î²á½±Î»Î»ÎµÎ¹Î½":7723,"Î¼Î½Î¿Î½":7724,"Î¼Î½á¿ĨÏĥÎ¸Î±Î¹":7725,"Ġá½ĢÎ½ÎµÎ¹Î´":7726,"Ġá¼ĶÎ½Î¹Î±":7727,"Î·Î³á½º":7728,"Î¿ÏĨÏīÎ½":7729,"ĠÎºÎ¿Î¹Î½á¿¶Î½":7730,"ĠÎºÎ¿Î¹Î½á½¸ÏĤ":7731,"á½±Î»Î»ÎµÏĦÎ¿":7732,"ĠÎ´Îµá¿¦":7733,"ĠÏĢÏģá¿¶ÏĦá½¹Î½":7734,"ĠÏĨÎ±á½»Î»":7735,"ĠÏĨÎ±á½·Î½Î¿Î½ÏĦÎ±Î¹":7736,"ĠÏĥÏĨá½·":7737,"ĠÎ¼á½³Î¼ÏĨ":7738,"Ġá¼łÏĢ":7739,"Ġá¼łÎ¾Î¹":7740,"ĠÎ»Î±Ïĩá½±Î½":7741,"ÏĢÏĢÎ¿Ïħ":7742,"Î·Î»Î¿ÏĤ":7743,"ĠÏĥÏĩÎ·Î¼á½±ÏĦÏīÎ½":7744,"Î²Î±Î»Îµ":7745,"Î²Î±Î»Î»Î¿Î½":7746,"ÏĦÏĦá¿ĥ":7747,"ÏĦÏĦá½¹Î¼ÎµÎ½Î¿ÏĤ":7748,"ĠÎºÎ±Îºá½·Î±Î½":7749,"ĠÎºÎ±Îºá½·Î±":7750,"Î¹ÏĥÎ¿Î½":7751,"á¼ĶÏĦÎ¹":7752,"ĠÎ³Î½á½½":7753,"ĠÎ³Î½ÏīÏģá½·":7754,"Î»Îµá½»ÎµÎ¹Î½":7755,"ĠÏĦá½³Îº":7756,"Î´á½³ÎºÎ±":7757,"Î´á½³Î¾Î±ÏĦÎ¿":7758,"ÏģÎ±Ïĩá¿¶ÏĤ":7759,"ĠÎľÎ±Ïģ":7760,"ĠÎľÎµÎ³":7761,"Ġá¼°ÏĥÏĩá½ºÎ½":7762,"Ġá¼°ÏĥÏĩá½±Î´Î±ÏĤ":7763,"Îºá½¹ÏĦÏīÎ½":7764,"á½ħÏĢÎµÏģ":7765,"Î½á½·Î±Î¹":7766,"Î½á½·ÏĦÎ·ÏĤ":7767,"ĠÎ´Î¿ÎºÎµá¿ĸÎ½":7768,"ĠÏĢÏģÎ¿ÏĨÎ¿ÏģÎ¹Îº":7769,"ÏīÏģá½·Î±Î½":7770,"ĠÎ½Î¿á½µÎ¼Î±ÏĦÎ±":7771,"ĠÎ¶á½µÏĦÎ·Ïĥá½·ÏĤ":7772,"ĠÏĢÏģá½½ÏĦÏīÏĤ":7773,"ĠÏĪÏħÏĩá½°ÏĤ":7774,"ĠÏĥÏħÎ¼ÏĢá½³ÏģÎ±":7775,"ĠÏĥÏħÎ»Î»Î±":7776,"Ïģá½±ÏĨÎ¸Î±Î¹":7777,"ĠÏĢÎ»Îµá½·Î¿ÏĥÎ¹Î½":7778,"ÏĬÎ½":7779,"ÏĬÏĥÏĦ":7780,"ĠÏĢá½±ÏģÎµ":7781,"ĠÎ¼Ïħá½¸ÏĤ":7782,"Ġá¼ĲÎ¼Î²Î±Î»Îµá¿ĸÎ½":7783,"ĠÎ¼Î¹ÎºÏģá½°":7784,"ĠÎ´á¿ĨÎ»Î±":7785,"ÏģÏħÏĨ":7786,"á½µÏĥÏīÏĥÎ¹":7787,"Î´á½»Î½Î±":7788,"Ġá¼ĲÎºÎµá½·Î½Î¿ÏħÏĤ":7789,"Î¤á¿¶Î½":7790,"ĠÏĥÎµÎ¼Î½":7791,"ĠÎ²Î¹Î²Î»Î¹":7792,"ÏīÎ¼Î¿":7793,"ĠÎ»á½³ÏīÎ½":7794,"ĠÏĢÎ»Î·ÏģÏī":7795,"ĠÏĢÎ»Î·Ïģá½½":7796,"Î»Î±Î¹Î¿Î½":7797,"Ġá½ħÎ»ÏīÎ½":7798,"Î¾Î±Î½ÏĦÎµÏĤ":7799,"ĠÎķá½Ķ":7800,"ĠÎłÎµÏģÎ¹ÏĢÎ±ÏĦÎ·":7801,"ĠÏĥá½»Î³":7802,"ĠÎ»á½»ÏĩÎ½":7803,"ĠÎ»á½»ÏĥÎµÎ¹ÏĤ":7804,"ĠÏĥÎ±ÏĨÎ·Î½":7805,"ĠÎ¿á½ĲÎ´ÎµÎ¼Î¹":7806,"ĠÏĥÏħÎ¼ÏĨÎ¿Ïģ":7807,"ĠÏĥÏĦÏģÎ±ÏĦÎ·Î³á½¸Î½":7808,"ĠÏĥÏĦÏģÎ±ÏĦÎ·Î³Î¿á¿¦Î½ÏĦÎ¿ÏĤ":7809,"Ġá¼ĲÎ¸ÎµÎ»":7810,"ÏĦÎ·Ïģá½·ÏīÎ½":7811,"ĠÎĶÎ·Î¼Î¿ÏĥÎ¸á½³Î½ÎµÎ¹":7812,"ĠÎ½á½¹ÏĥÎ¿Ïħ":7813,"ĠÎ´Î¹Î±Î¹ÏģÎµá¿ĸ":7814,"ĠÎ´Î¹Î±Î¹ÏģÎµá¿ĸÏĥÎ¸Î±Î¹":7815,"ĠÏĥÎºÎ¿ÏĢÎ¿á¿¦":7816,"ÏĦÏģá½·ÏĦÎ·":7817,"ĠÎ¦ÏħÏĥÎ¹Îº":7818,"ĠÎºÎ±ÏĦÎµÏĥÎ¸á½·":7819,"ĠÎ´Î¹ÏĢÎ»á¿¶Î½":7820,"ĠÎ¶Ïīá½´Î½":7821,"á½³ÏĨÎ±Î»Î¿Î½":7822,"Ġá¼ķÎºÎ±ÏĥÏĦÎ±":7823,"ÏĦÏħÎ»Î¿Î½":7824,"á½±ÏĢÏĦÎµÏĦÎ±Î¹":7825,"ĠÏĢÎ±Î»Î±Î¹á½¸Î½":7826,"ĠÏĢÎ±Î»Î±Î¹á¾¶ÏĤ":7827,"ĠÏĩá½±Î»Î±Î¶":7828,"Ġá¼ĲÎ¾ÎµÏĦ":7829,"ĠÎ±á¼°ÏĥÎ¸á½µÏĥÎµÏīÏĤ":7830,"Ġá¼ĳÎºÎ±ÏĦá½³ÏģÏīÎ½":7831,"ĠÎłÎ»á½±ÏĦÏīÎ½Î±":7832,"ĠÎ¼á½¹ÏģÎ¹Î¿Î½":7833,"ĠÎ¼á½±ÏĩÎ·Î½":7834,"ĠÎ¼á½±ÏĩÎµÏĥÎ¸Î±Î¹":7835,"ĠÎºÎµÎºÎ±":7836,"á½µÎºÎ±ÏĥÎ¹":7837,"ĠÎµá¼°Ïĥá½±Î³":7838,"ĠÎµá¼°ÏĥÎ·Î³":7839,"ĠÎĴÎ¿Î¹Ïī":7840,"Ġá¼ĢÎ»Î»Î±Î½ÏĦÎ¿ÏĢá½½Î»á¿ĥ":7841,"á½·ÏĥÏĦÎ±ÏĥÎ¸Î±Î¹":7842,"Ġá¼ģÏĢÎ±Î»":7843,"Ġá¼ģÏĢÎ»Î±á¿ĸ":7844,"ĠÏĢÎ¹ÏĥÏĦÎµá½»":7845,"ĠÏĢÎ¹ÏĥÏĦÎ¿á¿¦ÏĦÎ±Î¹":7846,"ĠÏĢÎ¹ÏĥÏĦÎµá½»ÎµÎ¹Î½":7847,"ĠÎ»á½·ÏĢÎ¿ÏĤ":7848,"ĠÎ»á½·Î¸Î¿Î½":7849,"ĠÏĢÎ»Îµá½·Î¿Î½Î¿ÏĤ":7850,"ĠÏĩÏģÎ·ÏĥÎ¼á½¸ÏĤ":7851,"ĠÏĢÏģÎµÏĥÎ²ÎµÏħ":7852,"ĠÎ£ÏīÎºÏģá½±ÏĦÎ¿ÏħÏĤ":7853,"ĠÎºÎ±ÏģÎ´á½·Î±Î½":7854,"ĠÏĥÎ¿ÏĨá½¸ÏĤ":7855,"ĠÏĦÎµÏĩÎ½Î¹Îºá½¹ÏĤ":7856,"Î³ÏīÎ³á¿ĨÏĤ":7857,"Î³ÏīÎ³á½´Î½":7858,"ĠÏĢÎ½Îµá½»Î¼Î±ÏĦÎ¿ÏĤ":7859,"ÏĢÎ±Î¹Î¾ÎµÎ½":7860,"ÎĶÎµá¿ĸ":7861,"ÎĶÎµá½»":7862,"Ġá¼ĢÏĢÎ¿ÏĥÏĦá½±":7863,"Ġá¼ĦÏĦÎ¿Î¼Î¿ÏĤ":7864,"ĠÏĢÎ±ÏĦÏģá½¶":7865,"Ġá¼ĦÏģÏĩÏīÎ½":7866,"Ġá½¤ÏĨÎ¸Î·":7867,"ĠÎ´Î±ÎºÏĦá½»Î»ÏīÎ½":7868,"ĠÎ±á¼°ÏĥÎ¸Î·ÏĦá½¸Î½":7869,"ĠÏĢÎµÏĢÏģÎ±Î³Î¼á½³Î½ÏīÎ½":7870,"Ġá¼ĶÎ´ÎµÎ¹Î¾ÎµÎ½":7871,"ĠÎ¶á¿´á¿³":7872,"ĠÎ³Î»á¿¶":7873,"Ġá¼ĢÏĢá½¹Î´ÎµÎ¹Î¾Î¹ÏĤ":7874,"ĠÎĽÎ±ÎºÎµÎ´Î±Î¹Î¼á½¹Î½":7875,"Î¹Î¶Î¿Î¼á½³Î½ÏīÎ½":7876,"ĠÎºÎ»Î¿ÏĢ":7877,"ĠÏĩÎ¹Î»á½·":7878,"ĠÏĢÏģá½±ÏĦÏĦÎµÎ¹Î½":7879,"Ġá½ģÏģá¾¶Î½":7880,"ĠÏĨÏīÏĦÎ¹":7881,"ĠÏĢÎ»Î·Î³á½°ÏĤ":7882,"ĠÏĦÎ¿ÏĥÎ¿á½»":7883,"Ġá¼ĲÎ¾Î·Î³Î·ÏĦ":7884,"ĠÏĢÎ¿ÏĦÎ±Î¼Î¿á¿¦":7885,"ĠÏĢÎ¿ÏĦÎ±Î¼á½¸Î½":7886,"ĠÏĢÎµÏĨá½»":7887,"ĠÎ¸á½³Î»ÏīÎ½":7888,"Ġá¼ĢÎºÎ¿á½»ÎµÎ¹Î½":7889,"ĠÎºÎ¿ÏģÏīÎ½":7890,"ĠÏĩÏģá½½Î¼ÎµÎ½Î¿ÏĤ":7891,"ĠÎ¸á½»ÏģÎ±Î½":7892,"ĠÏĢÎ¿Î¹Î·ÏĦá½µÏĤ":7893,"Ġá¼ĢÎºÎ±ÏĦá½±Î»Î·ÎºÏĦÎ±":7894,"ĠÏĢÎµÏģÎ¹á½³ÏĩÎµÏĦÎ±Î¹":7895,"Ġá¼ĲÏĢÎ¹Î³Ïģá½±ÏĨ":7896,"Ġá¼ĲÎ¼Î²Î¿Î»á½´":7897,"Î»ÏīÏĦ":7898,"Î¿Î¹Î½ÏīÎ½":7899,"ĠÎ¼á½±ÏģÏĦÏħÏģÎ±ÏĤ":7900,"ĠÎ´Î¹á½½ÎºÏīÎ½":7901,"ĠÎ´Î¹á½½ÎºÎ¿Î½ÏĦÎ¿ÏĤ":7902,"Ġá¼ĢÎ½ÏĦÎ¹Î¸ÎµÏĦÎ¹Îºá¿¶Î½":7903,"Ġá¼ĲÏĢÎ¹Î½ÎµÎ½á½¹":7904,"Ġá¼ĲÎ¼ÏĢÎµÏĥÎµá¿ĸÎ½":7905,"Ġá¼ĢÎ½Î¸Î¿ÏģÎ¹ÏĥÎ¼Î¿á¿¦":7906,"Ġá¼ĳÏģÎ¼Î·Î½Îµá½·Î±ÏĤ":7907,"ĠÏĢÎµÏĢÎ¿á½·Î·ÎºÎµ":7908,"ĠÎ´Î¹ÎºÎ±Î¹Î¿Ïĥá½»Î½Î·Î½":7909,"ĠÎ£Î±ÏĦÎ±Î½á¾¶Î½":7910,"ĠÎ¸ÎµÏģÎ±ÏĢÎµá½·Î±Î½":7911,"Ġá¼ĻÎ»Î»á½µÎ½ÏīÎ½":7912,"ĠÎºÎ±Î¸Î·Î¼á½³Î½Î¿Ïħ":7913,"Ġá¼ĶÏĢÎµÏĥÎ±Î½":7914,"ĠÏĥÏĦÎµÏģÎ·":7915,"ĠÎ»Î±Î¼ÏĢÏģ":7916,"á¼ĦÎ»Î»ÏīÏĤ":7917,"ĠÎ¸Î±ÏħÎ¼á½±":7918,"Ġá¼ĳÏĥÏĦá¿¶":7919,"ĠÎĶÎ¹á½±Î²Î¿Î»Î¿Î½":7920,"Ġá¼°Î±Î¼Î²Î¹Îºá½¸Î½":7921,"ĠÏĢÏģÎ¿ÎºÎµÎ¹Î¼á½³Î½Î¿Ïħ":7922,"Ġá¼ĳÏīÏģÎ±":7923,"ĠÏĥÏħÎ»Î»Î±Î²á¿¶Î½":7924,"ĠÏĢÎ¿Î»Î¹ÏĦÎµá½·Î±Î½":7925,"ĠÎºá½»ÎºÎ»Î¿Ïħ":7926,"Ġá¼ĪÎ¸Î·Î½á¾¶ÏĤ":7927,"ĠÎºÎ»á½³ÏĢÏĦÎ·Î½":7928,"ĠÎ·á½ķÏģÎ·ÏĦÎ±Î¹":7929,"Ġá¼ĲÏĢÎ¹Î³ÏģÎ±ÏĨá¿ĨÏĤ":7930,"Ġá¼ĢÎ½ÏĦÎ¹Î½Î¿Î¼á½·Î±Î½":7931,"ĠÏĥÏĨÏģÎ±Î³á¿ĸÎ´Î¿ÏĤ":7932,"ĠÎ¼ÏħÏĥÏĦá½µÏģÎ¹Î¿Î½":7933,"ĠÏĥÎ±ÏģÎºá½¶":7934,"ĠÏĦÏħÏģÎ±Î½Î½á¿ĨÏĥÎ±Î¹":7935,"ĠÏĥÏħÎºÎ¿ÏĨá½±Î½":7936,"Ġá¼Ģá½¹ÏģÎ±":7937,"ĠÏĢÎ±ÏģÎ¿ÏħÏĥá½·Î±ÏĤ":7938,"ĠÏĦÎ±á¿¦ÏĦ":7939,"Ġá¼ĢÏĢÎ¿Î´Î¿á¿¦Î½Î±Î¹":7940,"á¼ĶÎ½Î¸Î±":7941,"Ġá¼ĢÎºÏģÎ¿Î±Î¼Î±ÏĦÎ¹Îº":7942,"ĠÏĩÎµÏģÏĥÎ±":7943,"ĠÏĩÎµÏģÏĥá½¶":7944,"ĠÎ¼Î¹ÏĥÎ¸á½¸Î½":7945,"Ġá¼ĶÎ¸Î½Î¿ÏĤ":7946,"ĠÎºÏģá½³Î±ÏĤ":7947,"ĠÎ¼Î±Î³ÎµÎ¹ÏģÎ¹Îº":7948,"ĠÏĥÏħÎ¼Î²Î¿ÏħÎ»Îµá½»ÎµÎ¹":7949,"ĠÏĢÎ±ÏģÎ¿Î¹Î¼á½·Î±":7950,"ĠÎ»á½·Î¸á¿³":7951,"á½»Î³ÏīÎ½":7952,"ĠÏĥÎµÎ»á½µÎ½Î·Î½":7953,"Ġá½ĳÏĢÎ¿ÏĢá½·":7954,"ĠÎ¼ÎµÏĥÎ·Î³á½º":7955,"ĠÏĨÎ¹Î»á½¹ÏĥÎ¿ÏĨÎ¿ÏĤ":7956,"á½¹ÏĥÎ¹Î±":7957,"Ġá¼ĢÎ½Î´Ïģá½±":7958,"Ġá½ĢÏĨÎµá½·Î»ÏīÎ½":7959,"Ġá¼´Î±ÏĥÏĢÎ¹ÏĤ":7960,"Ġá¼ĲÎ½Î¸ÏħÎ¼Î·Î¼á½±ÏĦÏīÎ½":7961,"ĠÏĥÏĦá½³ÏĨÎ±Î½":7962,"Ġá¼ĢÏĢÎ¿ÏĨá½±ÏĥÎµÏīÏĤ":7963,"ĠÎ±á¼´ÏĥÎ¸Î·ÏĥÎ¹Î½":7964,"Î·ÏĩÏħ":7965,"ĠÏĨÏģÎµÎ½":7966,"ĠÏĩÎµá½·ÏģÏīÎ½":7967,"ĠÎĶÎ±Ïħá½¶Î´":7968,"Ġá¼ĢÎ¼ÏĨÎ¹Î²Î¿Î»á½·Î±":7969,"á¼ħÎ¼Î±":7970,"ĠÎºá½±Î»Î»Î¹ÏĥÏĦÎ±":7971,"Ġá¼ĲÏĥÎ¸á½·ÎµÎ¹Î½":7972,"Î²Î»Î·Î¼Î±":7973,"á¼ĺÎ½ÏĦÎ±á¿¦Î¸Î±":7974,"Ġá¼īÎ³á½·Î¿Ïħ":7975,"Ġá¼ĢÎ½Î±ÏĨá½³ÏģÎµÏĦÎ±Î¹":7976,"ĠÎºÎ±ÏĦÎ±Î»Î·ÎºÏĦÎ¹ÎºÎ¿á½¶":7977,"ĠÎ´Î¹ÏĦÏĦá½¹Î½":7978,"ĠÏĢÏģÎ¿ÏĦá½±ÏĦÏĦÎµÎ¹":7979,"ĠÏĢÏģÎ¿ÏĭÏĢ":7980,"ĠÏĢá½³Î½Î·ÏĦÎ¿ÏĤ":7981,"ĠÎºá¼ĢÎºÎµá¿ĸÎ½Î¿ÏĤ":7982,"ÏĦÎ±á½»ÏĦÎ·Î½":7983,"ĠÎ³Î±ÏĥÏĦá½³ÏģÎ±":7984,"Ġá¼ĲÏĢá½³ÎºÎµÎ¹":7985,"ĠÎµá¼°ÏĥÎµÎ»Î¸Îµá¿ĸÎ½":7986,"ĠÏĢÎµÏģá½·ÏĥÏĦÎ±ÏĥÎ¹ÏĤ":7987,"ĠÏĩÏģÏħÏĥá½·Î¿Î½":7988,"Ġá¼ĢÎ½ÏĦÎ¹ÏĥÏĦÎ±ÏĦÎ¹Îºá½´":7989,"ĠÎ¼Î¿Î½Î¿Î¼ÎµÏģá½²ÏĤ":7990,"Ġá¼ĲÎ»ÎµÏħÎ¸ÎµÏģ":7991,"ĠÏĥÏħÏĥÏĦá¿ĨÎ½Î±Î¹":7992,"ĠÎ¸Î±ÏĦá½³ÏģÎ¿Ïħ":7993,"ĠÎ²á½³Î»ÏĦÎ¹Î¿Î½":7994,"ĠÎ¼Î±ÎºÏģá½¹ÏĦÎµÏģÎ¿Î½":7995,"ĠÏĢá¿ĨÏĩÏħÏĤ":7996,"Î§Ïģ":7997,"ĠÎ³Ïģá½±Î¼Î¼Î±ÏĦÎ±":7998,"Ġá½ģÏĦÎ¹Î¿á¿¦Î½":7999,"ĠÎ¼ÎµÎ³á½·ÏĥÏĦÎ·Î½":8000,"Ġá¼ĢÎ´á½»Î½Î±ÏĦá½¹Î½":8001,"ĠÏĨÎ»ÎµÎ³Î¼Î¿Î½á¿ĨÏĤ":8002,"Î½ÏħÎ½á½¶":8003,"ĠÎ»á¿ĥÏĥÏĦ":8004,"ÏĪá½»ÏĩÏīÎ½":8005,"Ġá¼ĢÎ½Î±Î²Î±á¿ĸÎ½Î¿Î½":8006,"Ġá¼ĢÏĥá½±ÏĨÎµÎ¹Î±Î½":8007,"ĠÎ²Î±ÏģÎ²á½±Ïģ":8008,"ĠÎłÏħÎ¸Î±Î³":8009,"ĠÎĶÎ±Î½Î¹á½´Î»":8010,"ĠÎ£ÏīÎºÏģá½±ÏĦÎ·Î½":8011,"Ġá¼ĲÏĥÏĩÎ·Î¼Î±ÏĦÎ¹ÏĥÎ¼á½³Î½Î¿Î½":8012,"ĠÎ´á¿¶ÏģÎ±":8013,"Ġá¼ĳÏĦÎ±Î¹Ïģ":8014,"ĠÎ´ÏħÏĥÏĩÎµÏģ":8015,"ĠÎ¥á¼±Î¿á¿¦":8016,"Ġá¼ĢÎ½Î±ÏħÎ¾":8017,"Ġá¼ĳÎ²Î´á½¹Î¼":8018,"Ġá¼ĢÎ»Î»Î±ÏĩÎ¿á¿¦":8019,"ĠÏĥá½»Î¼Î²Î¿Î»Î¿Î½":8020,"ĠÏĦÎµÏĦÏģá½±Î³ÏīÎ½Î¿Î½":8021,"ĠÎ¼ÎµÎ¹Ïģá½±ÎºÎ¹Î¿Î½":8022,"Ġá¼ĢÎ¾á½·ÏīÏĥÎ¹Î½":8023,"ĠÎ´Ïģá½³ÏĢÎ±Î½":8024,"ĠÏĢÎ»á½µÏģÎ·ÏĤ":8025,"Ġá½¤ÏĨÎµÎ¹Î»ÎµÎ½":8026,"Î¹ÎºÎ±á¿¦ÏĦÎ±":8027,"Ġá¼ĶÎ¼ÏĪÏħÏĩÎ¿Î½":8028,"ĠÏĥÏħÎ½á½·Î¶Î·ÏĥÎ¹ÏĤ":8029,"ĠÏĥÏħÎ½Î´á½³ÏĥÎ¼":8030,"ĠÎłÏģÏīÏĦÎ±Î³":8031,"á¼ĢÏĢÎ¿ÏģÎ¿á¿¦ÏĥÎ¹":8032,"Î¿ÏĦá½µÏĦÏīÎ½":8033,"ĠÎ´á½±ÎºÎ½":8034,"Ġá¼ĢÎ»Î»Î·Î»Î¿á½»ÏĬÎ±":8035,"ĠÏĦÎ±Î»Î±Î¹ÏĢ":8036,"Î½á½»Î½Î±Î¹":8037,"Î±ÏģÏĩ":8038,"Î¿ÏĥÎ¼":8039,"Î¿Î´Î¹":8040,"Î¿á½µÎ¸Î·":8041,"á¼·":8042,"á¼ģ":8043,"á¼ł":8044,"Î¹ÏĥÎ±":8045,"Î¹Î¸Î¿ÏĤ":8046,"ÎµÎ»Îµ":8047,"ÎµÏĥÎ±Î½":8048,"ÏģÎµÏĨ":8049,"Ïģá½°ÏĤ":8050,"Ïģá¾¶ÏĤ":8051,"ÏģÎ±Î¹Î½":8052,"ÏĥÏīÎ½":8053,"Ïĥá½½Î¼ÎµÎ¸Î±":8054,"ÏĢÎ±á½·":8055,"Î»á½¹Î½":8056,"Î»Î±ÏĤ":8057,"Î»á½°ÏĤ":8058,"ĠÎºÏģÎ¿":8059,"ĠÎºÎµá¿ĸÏĦÎ±Î¹":8060,"ĠÎºá½¹Ïģ":8061,"ÎºÎ¿ÏħÏĥÎ¹":8062,"ÏħÎ¹":8063,"ÏħÎ¾":8064,"ÏħÎ´ÏģÎ¿Î½":8065,"Î·ÏģÎ±":8066,"Î·ÏģÎ¹":8067,"Î·Î»á½±":8068,"Î·Î¼á½³Î½Î¿Î½":8069,"ĠÏĢÎ·Ïģ":8070,"ĠÏĢÏĦÎ±á½·":8071,"ĠÏĢÏĦÎ±á¿ĸ":8072,"á½³ÏĥÏĦÎ±":8073,"á½³Î¿ÏħÏĥÎ¹":8074,"Ġá¼ĲÎ¸Î±":8075,"Ġá¼ĲÏĥÎº":8076,"Ġá¼ĲÏģÎµ":8077,"Ġá¼ĲÏĥÏĩ":8078,"Ġá¼ĲÏĥÏī":8079,"Ġá¼ĲÎ´Îµá½·ÎºÎ½Ïħ":8080,"ÏīÏĥÎº":8081,"ÏīÎ´á½³":8082,"ÏīÏĦá½³ÏģÎ±":8083,"Î³Î¼Î±ÏĦÎ¿ÏĤ":8084,"ÏĦÎ±Î¾":8085,"ÏĦÎ±ÏĦÎ¿Î½":8086,"á½±Î´Îµ":8087,"Î¿á¿ĩ":8088,"Î¸Î±ÏĤ":8089,"Î¸Î»Î±":8090,"Î¸Î·ÏĤ":8091,"á½¹ÏĦÎµÏģá½¹Î½":8092,"Ġá¼ĢÏĦÎ¹Î¼":8093,"ÏĩÎ¿Î½ÏĦÎ±Î¹":8094,"Ïĩá½¹Î¸ÎµÎ½":8095,"Î´Î¿Î¹":8096,"Î´Îµá¿ĸÏĤ":8097,"ÏĨÏħÏģ":8098,"ÏĨÎ±Îº":8099,"ÏĨÎ½Î·ÏĤ":8100,"ÎµÎ¹Ïī":8101,"Î¿ÏħÎ¼á½³Î½á¿³":8102,"Î¿ÏħÏĥá½·Î±ÏĤ":8103,"Î¿ÏħÏģá½±Î½":8104,"á½»Îº":8105,"ĠÎ³á½±Î¼":8106,"Î±Î¹Î½á½·":8107,"Î±Î½Î±":8108,"á½µÏĦÏī":8109,"á½µÏĬ":8110,"á½µÏģÎ¹Î±":8111,"ÎµÎ½á½¹Î¼Î·Î½":8112,"ĠÏĥÏĢÎ»":8113,"ĠÏĥÏĦÎ±á¿ĸÏĤ":8114,"ĠÏĥÎ¼Î¹Îº":8115,"ÏĦÎ¹á¿¶Î½":8116,"á½³Î½ÏĦÎµÏĤ":8117,"á½³Î½ÎµÏĦÎ¿":8118,"Îµá¿ĸÎ¿Î¹":8119,"Î»Î»ÎµÎ¹":8120,"Î»Î»Î¿ÏĤ":8121,"Ġá¼ĲÎ½Î¹":8122,"Ġá¼ĲÎ½ÏĦÎ¿":8123,"Ġá¼ĲÎ½Î´á½³ÏĩÎµÏĦÎ±Î¹":8124,"Î¼Î±á½¶":8125,"ĠÎ´Î¹ÏĪ":8126,"ĠÎ´Î¹ÏĢÎ»á½±ÏĥÎ¹Î¿Î½":8127,"Î¾á½»":8128,"Ġá¼ĶÏĦÎµ":8129,"Ġá¼ĶÎ´Î¿":8130,"Ġá¼ĶÎ´Ïī":8131,"Ġá¼ĶÎ»Î±Ïĥ":8132,"Ġá¼ĶÎ»Î±Î¹Î¿Î½":8133,"Ġá¼ĶÏĢÎ±Î¹Î¾ÎµÎ½":8134,"Î²Í´":8135,"Î²Î¿á½·Î±ÏĤ":8136,"Ġá¼ĲÏĢÎ¿Ïĩ":8137,"Ġá¼ĲÏĢá½µÎ³Î±Î³Îµ":8138,"ĠÎ»ÎµÏħ":8139,"ĠÎ»Î¹Î²":8140,"Ġá½ģÏģÎ¹ÏĥÏĦ":8141,"ĠÎ¿á½ĲÏĥá¿¶Î½":8142,"ĠÏĨÎ±Î¹":8143,"ĠÏĨÎ±á½·":8144,"ĠÏĨÏģá½¹Î½":8145,"á¿¶Î½ÏĦÎ±":8146,"á¿¶Î½ÏĦÎµÏĤ":8147,"Ġá¼¡ÏģÎ¼":8148,"Ġá¼¡ÏĦÎ¿Î¹Î¼Î±":8149,"á½½ÏĦÏīÎ½":8150,"á½½ÏĥÎ±ÏĤ":8151,"á½½Î´Î¿ÏħÏĤ":8152,"á½½Î¼Î¹Î¿Î½":8153,"ÏĦÎ·ÏĦÎ±Î¹":8154,"ÏĦÎ·ÏĥÎµÎ½":8155,"ÏģÎ¹á¿¶Î½":8156,"ÏĥÎ¸Îµá¿ĸÏĥÎ±":8157,"ÏĦÎ¿ÏĢá½½":8158,"Ġá¼ĦÎ³Î½":8159,"Ġá¼ĦÏĦÎ¹Î¼Î¿Î½":8160,"Ġá¼ĢÏĢá½½":8161,"Ġá¼ĢÏĢÎ¿Î³":8162,"Ġá¼ĢÏĢá¿ĨÎ»Î¸ÎµÎ½":8163,"ĠÏĢÎ±á½·Î¶ÎµÎ¹":8164,"ĠÏĢÎ±á½»Ïĥ":8165,"ĠÏĢÎ±ÏĨÎ»":8166,"Ġá½¡ÏĥÎ±á½»ÏĦÏīÏĤ":8167,"Ġá¼ĲÎºÏĨá½³Ïģ":8168,"ĠÏĦÎ¿ÏĥÎ±":8169,"ĠÏĢÏģÎ¿Îµ":8170,"ĠÏĢÏģÎ¿ÎºÎ±":8171,"ĠÏĢÏģÎ¿Î²Î±":8172,"ĠÏĢÏģÎ¿ÏĥÏĦÎµ":8173,"Î»Î·ÏĥÎµ":8174,"ĠÎ¸Í´":8175,"ĠÎ¸Îµá¿ĸÎ½Î±Î¹":8176,"ĠÎ¸Îµá½·ÏīÎ½":8177,"ĠÎ¸ÏģÎ·Î½":8178,"Î¶Î·ÏĦÎ±Î¹":8179,"Î¶Î¿Î¼á½³Î½ÏīÎ½":8180,"Î¿Î»á½´Î½":8181,"ĠÎ²Î»á½·":8182,"ĠÎ²Î´ÎµÎ»":8183,"Ġá½ĳÏĢÎ±ÏģÏĩ":8184,"á½·Î½Î·":8185,"á½·Î½á¿³":8186,"á½·Î½Î¿Î½ÏĦÎµÏĤ":8187,"ĠÎ¼ÎµÎ»Î¹":8188,"ĠÎ¼ÎµÎ»Î±Î½":8189,"ĠÏĢÎµÏģÎ¹Î½":8190,"ĠÎ½á½³ÏīÎ½":8191,"ĠÎ½Î¿á¿ĨÏĥÎ±Î¹":8192,"Ġá¼ĳÎ»":8193,"ÏĪÎ¹":8194,"ÏĪÎµÏĦÎ±Î¹":8195,"Î»ÎµÎ¸":8196,"Î»ÎµÎ¾":8197,"Ġá¼ĢÎ»Î»Î¿Î¹":8198,"Ġá½ĢÎ¾á½º":8199,"ĠÏĦÎµÎ¸":8200,"ĠÏĦÎµÎºÏĦÎ¿Î½":8201,"ÏĦÎ¿Î½Î¿Î¼á½±":8202,"ĠÏĢÎ±Ïģá½¸Î½":8203,"ĠÏĢÎ±ÏģÎ¿á½»ÏĥÎ·ÏĤ":8204,"ĠÏĢÎ±Ïģá½¹Î½ÏĦÎ±":8205,"ĠÏĢÎ±ÏģÎµÏĢÎ¹":8206,"ĠÏĢÎ±Ïģá½¹Î½ÏĦÎ¹":8207,"ÏĦá½·ÏīÎ½":8208,"Ġá¼ĶÏĩÎ¿ÏħÏĥÎ±Î¹":8209,"Î¿ÏģÎ¿Î½":8210,"ĠÏĦÎ¹ÏĥÎ¹Î½":8211,"ĠÏĦÎ±Î³":8212,"ÏģÎ·ÏĦÎ¿Î½":8213,"Ġá¼ĲÏĢÎ¹ÏĦÎ¹":8214,"Ġá¼ĲÏĢÎ¹ÏĥÏĢ":8215,"Ġá¼ĲÏĢÎ¹ÏĥÏĨ":8216,"Ġá¼ĲÎ¾ÎµÏĥÏĦ":8217,"ÏĦá½³Î¸Î·":8218,"ĠÏĥÏĦÏģÏī":8219,"ĠÎµá¼´ÎºÎ¿ÏĥÎ¹":8220,"ĠÏĢÎ¿á½·":8221,"ĠÏĢÎ¿á½·Î±":8222,"ĠÎ¿á½ĲÎºÎ¿á¿¦Î½":8223,"Ġá¿¥Î¿Î¹":8224,"Ġá¿¥á¿ĸÎ½Î±":8225,"ĠÏĩÏģÎµ":8226,"ĠÏĩÏģá½³":8227,"ĠÎºÎ±ÏĦÎ±ÏĦá½±":8228,"ĠÎºÎ±ÏĦÎ±Î¼ÎµÏĦÏģ":8229,"ĠÎºÎ±ÏĦÎ±Î½Î¿":8230,"á½±Î»Î¿Î¹ÏĤ":8231,"á½³Î»Î¹":8232,"á½³Î»Î¸":8233,"ÏģÎ¿ÏĦÎ¿Î½":8234,"Ġá¼ĦÎ»Î»á¿ĥ":8235,"Î¿á¿¦Î½ÏĦÎ¹":8236,"á½¹Î³Î¿Î½":8237,"ĠÎļÎ¿":8238,"ĠÎļÎ±Î»Î»":8239,"ÎµÏĨá½½Î½":8240,"ÏĦá½³ÏģÎ±Î¹ÏĤ":8241,"ĠÎ´á½³Î´Î¿ÏĦÎ±Î¹":8242,"ÏĥÎºÎµá½»":8243,"ĠÎ±á¼°ÏĦÎµá¿ĸÎ½":8244,"ÏĦÎ¿ÏħÏĥÎ¹":8245,"Ġá¼¡Î¼Î¹":8246,"Ġá¼¡Î¼á½·":8247,"Ġá¼¤Î¼ÎµÎ»Î»ÎµÎ½":8248,"ĠÎĺÎ·Ïĥ":8249,"ĠÏĢÏģÎ¿ÏĥÎ³":8250,"ĠÏĢÏģÎ¿ÏĥÎ´Î¿Îº":8251,"Î±ÏģÏĢ":8252,"Ġá¼ĢÎ³Î±":8253,"ĠÏĢÎ±ÏģÎ±Î²ÎµÎ²":8254,"ĠÏĦÎ¹Î½ÏīÎ½":8255,"Ġá¼ĢÏĢÎ¿ÏĥÏĢ":8256,"ĠÏĢÎ»Î¿á½·Î¿Ïħ":8257,"ĠÏĥÎºÏħ":8258,"ĠÏĥÎºá½½ÏĢÏĦÎµÎ¹":8259,"ĠÏĦá½·ÏĦ":8260,"ĠÎ¼á½¹Î½Î·ÏĤ":8261,"ÏĦÏģÏħ":8262,"ÏĦÏģá½½":8263,"Ġá¼ĢÎ½ÏĦÎ¹Î´á½¹":8264,"Ġá¼ĢÎ½ÏĦÎ¹Î¸á½³ÏĥÎµÏīÏĤ":8265,"Ġá¼ĢÎ½ÏĦÎ¹Î»á½³Î³ÎµÎ¹":8266,"Î±á½·Î±ÏĤ":8267,"Ġá¼µÏĢÏĢÎ¿Î½":8268,"ĠÏĢÎµÏģÎ¹ÎµÎº":8269,"ĠÏĢÎµÏģÎ¹Î²ÎµÎ²":8270,"Î±ÎºÎµÎ»á½·":8271,"á½¹Î¼Î¿ÏħÏĤ":8272,"á½µÎ½Ïħ":8273,"Î·Îºá½¹ÏĦÎ±":8274,"ĠÏĪÎ±á½»":8275,"ÏģÎ³Î¿ÏĤ":8276,"Î´á½·ÏīÎ½":8277,"á½³ÏĥÏīÎ½":8278,"á½½Î½Î·ÏĦÎ¿Î½":8279,"á½±Î¶Î¿Î½ÏĦÎ±":8280,"ĠÎ¸ÎµÎ±":8281,"ĠÎ¸ÎµÏĦá½¸Î½":8282,"ĠÎ¸ÎµÎ¿ÏĥÏĦ":8283,"Î»Î¹Î¿Î½":8284,"Ġá¼ĢÎ½Î±ÏĦÎµá½·Î½":8285,"ĠÎºÎ±Î»Î¿á½»Î¼ÎµÎ½Î¿ÏĤ":8286,"á¼°Î´á½·ÏīÏĤ":8287,"ĠÎ³á½³Î½ÏīÎ½ÏĦÎ±Î¹":8288,"ĠÎ¿á½ĹÏĦá½¹ÏĤ":8289,"Î¿ÏĢÎ¹ÏĥÏĦ":8290,"Ġá¼ĳÎ±ÏħÏĦá½°":8291,"Î¿Ïģá½·Î±ÏĤ":8292,"Ġá¼±Î¼Î±ÏĦá½·":8293,"ĠÎµá¼°ÏĢá½¹Î½ÏĦÎ¿ÏĤ":8294,"ĠÎ¼ÎµÏĦÎ±Î²á½±Î»Î»ÎµÎ¹":8295,"ĠÎ¼á½³ÏģÎµÏĥÎ¹Î½":8296,"ĠÎ¼á½³ÏģÎµÏĥÎ¹":8297,"ĠÎĶÎ·Î¼":8298,"ÏħÎ³Îµá¿ĸÎ½":8299,"ĠÏĢá½¹Î¸ÎµÎ½":8300,"Ġá¼ĶÎ½ÏħÎ´ÏģÎ¿Î½":8301,"ĠÏĦá½±ÏĩÎµÎ¹":8302,"ĠÏĦá½±ÏĦÏĦÎµÏĥÎ¸Î±Î¹":8303,"ĠÏĦá½±Î³Î¼Î±ÏĦÎ±":8304,"Î¸á½³Î½ÏĦÎ¹":8305,"ĠÏĢÎµÏĢÎ»Î·ÏģÏī":8306,"ĠÎºÎ¿Î¹Î½á½±":8307,"ĠÎ´ÎµÎ´":8308,"ĠÏĢÎ±Î½Î¿á½»ÏģÎ³":8309,"Î¿Î»Î¿Î³á½·Î±Î½":8310,"Î¸á½³ÏĥÎµÏīÎ½":8311,"ÏħÏģá½·Î¿Ïħ":8312,"ĠÎ£Î¹Îº":8313,"ĠÎ£ÏĨÎ±Îº":8314,"Ġá¼łÎ´ÏħÎ½":8315,"Ġá¼łÎ²Î¿Ïħ":8316,"ĠÎºÎµÏĨÎ±Î»á½µÎ½":8317,"Ġá¼ĦÏģÏĦÎ¹":8318,"Ġá¼ĦÏģÏĦÎ¹Î¿Î½":8319,"Ġá¼ĪÏģÎ¹ÏĥÏĦÎµá½·":8320,"ĠÎºá½±Îº":8321,"ÏĦÏĦÎµÎ¹ÏĤ":8322,"ĠÏĦÏģá½·Ïĩ":8323,"ÏģÎ±Î¼Î¼á½±ÏĦÏīÎ½":8324,"ÏĥÏĢá½±":8325,"ĠÎ´á½·ÏģÏģÏħÎ¸":8326,"Î»ÎµÏħÏĦÎ¿Î½":8327,"ĠÎ³Î½á¿¶ÏĥÎ¹ÏĤ":8328,"ÏĥÎºÎµÏħÎ±Ïĥ":8329,"Î»Î·Î¸á¿ĩ":8330,"Ġá¼¸á½½":8331,"Ġá¼¸Î±Îº":8332,"Îºá½¹ÏĦÎ¿ÏĤ":8333,"Îºá½¹ÏĥÎ¿Î¹ÏĥÎ¹":8334,"ĠÎ±á¼°ÏĦá½·á¾³":8335,"á½ħÏĢÏīÏĤ":8336,"ĠÏĦÎ¿Î¹Î±á¿¦ÏĦÎ±Î¹":8337,"ĠÎ¿á¼°Îºá½·Î±Î½":8338,"ĠÎ¼á½µÏĦ":8339,"ĠÎ´Î¿ÎºÎ¿á¿¦Î½":8340,"ĠÎ´Î¿ÎºÎ¿á¿¦Î½ÏĦÎ±":8341,"ĠÎ´Î¿Îºá½³á¿ĥ":8342,"ĠÎ´Î¿ÎºÎ¹Î¼Î±":8343,"ĠÏĢÏģÎ¿ÏĨá½±ÏĥÎ¹Î±ÏĤ":8344,"ĠÏĦÏģÎ¹Ïĥá½¶":8345,"ÏģÎ¹Î½Îµ":8346,"Î±Î¹Î½á½¹Î½ÏĦÏīÎ½":8347,"á½µÏĥÎ±ÏĦÎµ":8348,"Ġá¼ĢÎ½ÏĦá½·ÏĥÏĦÏģÎ¿ÏĨ":8349,"Ġá¼ĢÎ½ÏĦá½·ÎºÎµÎ¹ÏĦÎ±Î¹":8350,"ÏĦá½µÎºÎ¿Î½ÏĦÎ±":8351,"Î»Îµá½·ÏĢÎµÎ¹":8352,"ÏģÎ¿ÏĨá½´Î½":8353,"Ïģá½±ÏĨá¿³":8354,"ĠÎ´Î¹ÎºÎ±á½·ÏīÎ½":8355,"ĠÏĥÎ·Î¼Î±Î½":8356,"ĠÏĥÎ·Î¼Îµá½·Î¿Î¹ÏĤ":8357,"ÎµÏĥÏĦá½±Î½Î±Î¹":8358,"Î´á½¹ÏĥÎ¸Î±Î¹":8359,"ĠÏĨÎ¹Î»Î±Î½":8360,"Ġá½ĳÏĢÎµÏģÎ¿ÎµÎ¹Î´":8361,"Ġá¼ĢÎ½á½±Î³ÎµÏĥÎ¸Î±Î¹":8362,"ĠÏĥÏĦÏģÎ±ÏĦÎµá½»":8363,"ĠÎ±á½ĲÏĦÎ±á½·":8364,"ĠÎµá¼°ÏģÎ·Î¼á½³Î½Î¿Î¹ÏĤ":8365,"Î¼Î±ÏģÏĦÏħÏģ":8366,"ĠÏĢÏģá¾¶Î¾Î±Î¹":8367,"ĠÎĽÏħÏĥÎ¹Îº":8368,"ÏģÏħÎ¹":8369,"ÏģÏħÏĢÎ½":8370,"ĠÎµá¼°Î´Î¿ÏĢÎ¿Î¹":8371,"Ġá¼ĲÎºÎµá½·Î½Î¿Î¹ÏĤ":8372,"Ġá¼ĢÎ»Î·Î¸Îµá¿ĸÏĤ":8373,"Ġá¼ĢÎ»Î·Î¸Îµá½·á¾³":8374,"Ġá¼ĢÎ³Î³á½³Î»á¿³":8375,"ĠÎ»ÎµÎ³Î¿Î¼á½³Î½Î¿Î¹ÏĤ":8376,"ĠÎ»Î¿Î¹ÏĢÎ¿á¿¦":8377,"ĠÎ´Î·Î»á¿¶Î½":8378,"ĠÎ½Î±á½¸Î½":8379,"ĠÎ»á½³Î¾Îµ":8380,"ĠÎ»á½³Î»ÎµÎºÏĦÎ±Î¹":8381,"ĠÎ¼ÎµÏģÎ¹ÏĥÏĦ":8382,"ĠÎ¼ÎµÏģÎ¹Îºá¿¶Î½":8383,"ĠÏĥÏħÎ³Î³Î½Ïī":8384,"ĠÏħá¼±á½¹Î½":8385,"Ġá¼ĢÏĢÎ¿ÎºÏĦÎ¹Î½":8386,"Ġá¿¥Î·Î¼á½±ÏĦÏīÎ½":8387,"Ġá¼ģÏĢÎ»á¿Ĩ":8388,"ĠÎµá½ĳÏģá½³Î¸Î·":8389,"ĠÎ´ÎµÏħÏĦá½³Ïģá¾³":8390,"ĠÏĨÎµá½»Î³ÎµÎ¹":8391,"ĠÏĥÏīÏĨÏģÎ¿Î½":8392,"Ġá¼ĢÎ¼ÎµÎ»":8393,"ĠÏĦÏģá½¹ÏĢÎ¿Î¹":8394,"ĠÏĥÏħÎ½ÎµÏĩá½³ÏĤ":8395,"ĠÏĦá½³ÏĩÎ½Î±Î¹":8396,"ĠÎµá½ĲÎ¸á½º":8397,"ĠÎµá½ĲÎ¸Îµá¿ĸÎ±Î½":8398,"Ġá¼ĳÎºá½±ÏĥÏĦá¿ĥ":8399,"Î»ÏħÎ¼ÏĢ":8400,"ÏĩÎ¸á½²Î½":8401,"Ġá¼ĲÎ³Îºá½½Î¼Î¹Î¿Î½":8402,"ĠÏĦÎµÏĩÎ½Î¹Îºá¿¶Î½":8403,"ĠÎºá½»ÎºÎ½":8404,"Ġá¼ĶÏģÎ³Î¿Î¹ÏĤ":8405,"á½³Î¸Î·ÎºÎµÎ½":8406,"ĠÎ½á½¹Î·Î¼Î±":8407,"ĠÎķá½ĲÎ²Î¿á½·Î±ÏĤ":8408,"ĠÎ²Î¿ÏħÎ»á½µÏĥÎµÏīÏĤ":8409,"ĠÎºÎ¿Î»Î±Î¶":8410,"Î·Î¸á½µÏĥÎµÏĦÎ±Î¹":8411,"ĠÎ´ÏħÎ½Î±Î¼á½³Î½ÏīÎ½":8412,"ĠÏĦÎµÏĦÏģÎ±Ïĩá¿¶ÏĤ":8413,"Ġá¼ĢÏĢÎ¿Î»Î¿Î³á½·Î±ÏĤ":8414,"ĠÎºÎµÎºÏī":8415,"Ġá¼ĶÎºÏĦÎ±ÏĥÎ¹Î½":8416,"ĠÎºÎ¿Î¹Î½ÏīÎ½á½·Î±ÏĤ":8417,"ĠÎ¼Î±Îºá½±":8418,"ĠÎ¼Î±ÎºÏģÎ¿":8419,"ĠÎ²Î¿á½»Î»Î¿Î½ÏĦÎ±Î¹":8420,"ĠÏĢÎ±Î»Î±Î¹Î¿á½¶":8421,"ĠÏĢÎ±Î»Î±Î¹á¾·":8422,"Ġá¼°ÏĥÏĩÏħÏģá½¸Î½":8423,"Ġá¼ĢÎ¾Î¹Î¿ÏĢÎ¹ÏĥÏĦ":8424,"ĠÎ³Î¹Î½Î¿Î¼á½³Î½Î·":8425,"ĠÎ´Î¹Î±Î½Î¿":8426,"á½³ÏĢÏĦÏīÎºÎµ":8427,"Ġá¼ĢÏĦÏģÎµ":8428,"Ġá¼ĢÎ´Î¹Îºá½·Î±":8429,"ĠÎ¼á½±ÏĩÎ±Î¹":8430,"ĠÏĨá½³ÏģÎµÏĦÎ±Î¹":8431,"ĠÏĨá½³ÏģÎ¿Î½ÏĦÎµÏĤ":8432,"ĠÎºÏħÎ²ÎµÏģÎ½":8433,"Ġá¼ĲÎºÏĢá½³Ïĥá¿ĥ":8434,"Ġá½ĳÎ³Î¹ÎµÎ¹Î½":8435,"ĠÏĦÎµÎ»ÎµÏħÏĦ":8436,"ĠÎ¸ÎµÏģÎ¼á½¹Î½":8437,"Ġá¼ĢÏĢÎ±Ïģá½·Î¸Î¼":8438,"ĠÎ´ÎµÎ¾Î¹á½°":8439,"ĠÎ´ÎµÎ¾Î¹á¾·":8440,"ĠÎ´Î¹Î´á½±ÏĥÎºÎ±Î»":8441,"ÏĢÎ½Î¿Î½":8442,"ĠÎ³Ïģá½±ÏĨÎµÎ¹Î½":8443,"ĠÏĦá½¹ÏĢÎ¿Î¹ÏĤ":8444,"ĠÏĥÎ¿ÏĨá½·Î±ÏĤ":8445,"ĠÎ¼ÎµÎ¸á½»":8446,"á¼ĪÏĦá½°Ïģ":8447,"Ïģá½·Î½ÎµÏĦÎ±Î¹":8448,"Ġá¼ĲÎ³Î³Ïħ":8449,"Ġá¼ĲÎ³Î³á½ºÏĤ":8450,"ĠÎ¿á¼µÎ·":8451,"ĠÏĢÎ»Î±ÏĦÎµ":8452,"ĠÏĥÏħÎ³Î³ÏģÎ±Î¼Î¼á½±ÏĦÏīÎ½":8453,"Ġá¼ĲÏĢÎ¹Î´á½³ÏĩÎ¿Î½ÏĦÎ±Î¹":8454,"Ġá¼ħÏĢÎ±Î½ÏĦÎµÏĤ":8455,"Ġá¼ĦÏģÏĩÎµÎ¹Î½":8456,"ĠÎ¸Î±Î»á½±":8457,"Ġá¼°Ïĥá½¹":8458,"Î»Î·ÏĨÎ¸á½³Î½ÏĦÎ±":8459,"ĠÏĨÏħÏĥÎ¹Îºá½°":8460,"ĠÏĨÏħÏĥÎ¹Îºá¿¶Î½":8461,"á½ĳÏĢÎµÏģ":8462,"ĠÏĦÏħÎ³Ïĩá½±Î½ÎµÎ¹Î½":8463,"ĠÏĦÏħÎ³Ïĩá½±Î½Î¿ÏħÏĥÎ¹":8464,"ĠÎ´Ïģá½±ÎºÎ¿Î½ÏĦÎ¿ÏĤ":8465,"ĠÏĩÏīÏģá½·á¿³":8466,"ĠÏĢÎ¿Î½Î·ÏģÎ¿á¿¦":8467,"ĠÏĢÎ¿Î½Î·Ïģá½¹Î½":8468,"Ïĥá½±Î¼ÎµÎ½Î¿Î½":8469,"ĠÎºÎµÎ»Îµá½»ÏīÎ½":8470,"ĠÏĢÎµÏĢÎ¿Î½Î¸á½¹ÏĦÎ±":8471,"Ġá¼ĢÏĥÏĦÏģÎ±":8472,"Ġá¼ĢÏĥÏĦÏģá½±Î³":8473,"Ġá¼ĲÎ¾á½³ÏĦÎ±ÏĥÎ¹ÏĤ":8474,"Ġá¼ĢÎ½ÏīÏĨÎµÎ»":8475,"Ġá¼ĢÏĢÎ¿Î»Î±á½»":8476,"Ġá½ĢÎ»Î¹ÏĥÎ¸á¿ĩ":8477,"ĠÎ´Î¹á½±ÏĨÎ¿ÏģÎ¿Î¹":8478,"Ġá¼ĲÏĩÎ¸Ïģá¿¶Î½":8479,"Ġá¿¥á½µÏĦÎ¿ÏģÎ±":8480,"ĠÏĥÏĢÎµá½»":8481,"ĠÎ¸ÏħÎ¼á½¸Î½":8482,"Ġá¼ĢÎ½ÏĦÎ¹ÏĥÏĦÏģá½³ÏĨÎµÎ¹Î½":8483,"Ġá¼ĲÎ´á½¹ÎºÎµÎ¹":8484,"Î¿Î»Î¿ÏħÎ¸Îµá¿ĸÎ½":8485,"ĠÏĢÎµÎ¹Î¸":8486,"ĠÎ³Ïģá½±ÏĪÎ±Î¹":8487,"Ġá¼ĢÎ½ÏĦÎ¹ÎºÎµÎ¹":8488,"Ġá½ĳÏĢá½¹Î´Î·Î¼Î±":8489,"Ġá¼±ÏĢÏĢá½³Î±ÏĤ":8490,"ĠÏĢÎ¿ÏĦÎ±Î¼á½¸ÏĤ":8491,"ĠÎºÎ±Î¹Î½á½°":8492,"Ġá¼ĲÎ»á½±ÏĦÏĦÎ¿Î½Î±":8493,"ĠÎ³ÎµÎ½Î¹ÎºÏīÏĦá½±":8494,"ĠÎ³ÎµÎ½Î¹Îºá½½ÏĦÎ±ÏĦÎ¿Î½":8495,"ĠÎ½Î¿Î·ÏĦá½´Î½":8496,"Ġá¼ĢÏĦÎµÎ»Îµá¿ĸÏĤ":8497,"Ġá¼ĢÏĦÎµÎ»á½´ÏĤ":8498,"Ġá¼ĢÏĢÎ¿Î´Îµá½·Î¾ÎµÏīÏĤ":8499,"Ġá¼ĢÎºÎ¿á½»ÏīÎ½":8500,"ĠÎ»ÎµÏĢÏĦá¿¶Î½":8501,"ĠÎļÎ±ÏģÏĩ":8502,"ĠÏĥÎºá½³Î»Î·":8503,"ĠÏĩÏģá½µÏĥÎ¹Î¼Î¿Î¹":8504,"ĠÎ´ÎµÎ¹ÎºÎ½á½»":8505,"ĠÎ´ÎµÎ¹ÎºÎ½á½ºÏĤ":8506,"ĠÎºÎ±ÏĦÎ±Î³á¿ĩ":8507,"á¼ĲÎ³á½½":8508,"Ġá¼ħÏĢÎ±ÏĥÎ¹":8509,"ĠÎ´Î¹Î±ÏĨÎ¿ÏģÎ±á¿ĸÏĤ":8510,"Ġá¼ģÎ¼Î±ÏģÏĦá½·Î±Î½":8511,"ÏĩÏģá½´":8512,"ĠÎ¼ÎµÎ¹ÏģÎ±Îº":8513,"Î´ÏħÎ»Î¿Î½":8514,"Î¿Î¹Î½ÏĦÎ¿":8515,"ĠÏĥÎ·Î¼Î±Î¹Î½Î¿Î¼á½³Î½ÏīÎ½":8516,"ĠÏĢá½·ÏĥÏĦÎµÎ¹":8517,"Ġá½ĢÏĢÏĦÎ±Ïĥá½·á¾³":8518,"ĠÏĢÎ¿Î»á½³Î¼á¿³":8519,"ĠÏĢÏģÎ¿ÏĥÎºÏħÎ½á¿ĨÏĥÎ±Î¹":8520,"ĠÎ´Î¹Î´Î±ÏĥÎºÎ±Î»á½·Î±Î½":8521,"Ġá½ĢÏĨÎ¸Î±Î»Î¼Î¿á¿ĸÏĤ":8522,"Ġá¼ĢÎ¾á½·Î±ÏĤ":8523,"ĠÏĢÎ»Îµá½·ÏĥÏĦÎ·Î½":8524,"Ġá¼ĶÏĥÏīÎ¸ÎµÎ½":8525,"ĠÎ´Î¹ÎºÎ±Î¹Î¿Ïĥá½»Î½Î·":8526,"ĠÏĢÎ±Î½Î·Î³ÏħÏģÎ¹ÎºÎ¿á¿¦":8527,"ĠÎ¶á¿¶Î½ÏĦÎ¿ÏĤ":8528,"ĠÏĢá½³Î¼ÏĢÏĦÎ¿ÏĤ":8529,"ĠÏĥÏīÏĦÎ·Ïģá½·Î±":8530,"Ġá¼ĲÎ½Î½Î¿á½·Î±ÏĤ":8531,"Ġá½ĢÎ¾á½»":8532,"Ġá¼°Î´Îµá¿ĸÎ½":8533,"ĠÎ»Î±Î¼ÏĢÏģá½¸Î½":8534,"Ġá¿¬á½½Î¼":8535,"ĠÏĢÎµÎ½ÏĦá½µÎºÎ¿Î½ÏĦÎ±":8536,"Ġá¼ĢÏĢÎµÎ¹Î»":8537,"á¼ľÏĥÏĦÎ¹":8538,"ĠÎ¼Î±Î½Î¸á½±Î½":8539,"ĠÏĦÎµÎ»Îµá½·Î±":8540,"ĠÏĢÏģÎ¿ÏĥÎ·Î³Î¿Ïģá½·Î±Î½":8541,"ĠÏĢÎ¿Î»Î¹ÏĦÎµá½·á¾³":8542,"Ġá¼ĪÎ¸Î·Î½á¾¶":8543,"ĠÎ³Î¹Î³Î½á½½ÏĥÎº":8544,"ĠÏĥÏħÎ¼Î¼Î±Ïĩ":8545,"Ġá¼ĪÎ¸á½µÎ½Î·ÏĥÎ¹Î½":8546,"Î±á½ĲÏĦá½¸ÏĤ":8547,"ĠÎ¼á½±Î»Î±":8548,"ĠÎ¼á½±ÏĦÎ·Î½":8549,"ÎŁá½Ĳ":8550,"ÎŁá¼·":8551,"ĠÏĢÏģÎ¿ÏĦÎµá½·Î½ÎµÏĦÎ±Î¹":8552,"ĠÎ½á½·ÎºÎ·ÏĤ":8553,"Ġá¼ĢÎ½Î±Î³Îºá½±Î¶Î¿Î½ÏĦÎ±Î¹":8554,"ĠÏĢÎ±Î¸Î·ÏĦÎ¹Îºá½´":8555,"ĠÏĥÏħÎºÎ¿ÏĨÎ±Î½":8556,"ĠÏĢÎ±ÏģÎ¿ÏħÏĥá½·á¾³":8557,"Ġá¼ĢÏģÏĩÎ±á½·ÏīÎ½":8558,"ĠÎľÎ¹ÏĦÏħÎ»":8559,"ĠÎĳá¼´Î³ÏħÏĢ":8560,"ĠÎ´Î¹Î±Î¹ÏģÎµÏĦÎ¹ÎºÎ±á½¶":8561,"Ġá¼ĲÎ½Î±Î½ÏĦÎ¹á½¹ÏĦÎ·ÏĤ":8562,"Ġá¼¸Ïīá½±Î½Î½Î¿Ïħ":8563,"ĠÏĢÏģÎ¿ÏĦá½±ÏĥÎµÎ¹ÏĤ":8564,"Ġá¼ĪÏģÏĩÎµÏĢ":8565,"Ġá¼±Î¼á¾¶Î½":8566,"ÏħÎºÎ»Î¿Î²":8567,"Ġá¼ĶÎ¸Î½ÎµÏĥÎ¹":8568,"á½įÏĦÎ±Î½":8569,"á½įÏĥÎ¿Î¹ÏĥÎ¹":8570,"ĠÏĦÎ¼á¿ĨÎ¼Î±":8571,"ĠÎ²Î»á½±Î²Î·ÏĤ":8572,"ĠÎºÎµÏĩÎ·Î½":8573,"ĠÎºá½±Î¼ÏĢÏĦÎµÎ¹Î½":8574,"ĠÎľÎ¹Î½Î¿ÏħÎºÎ¹Î±Î½á½¸Î½":8575,"ĠÏĢÎ·Î´á½±Î»":8576,"ÏĦÎ±á¿ĸÏĥÎ¹":8577,"ĠÏĢÎ±ÏģÎ¸á½³Î½Î¿ÏĤ":8578,"ÏĩÎ·Î»Î¿Î½":8579,"ĠÎ²á½±ÏģÎ¿ÏĤ":8580,"ĠÏĦÏģá½±ÏĢÎµÎ¶":8581,"Ġá¼ĢÎ½ÏĦÎ¹ÏĩÏģá½·ÏĥÏĦá¿³":8582,"ĠÎ²Î±Î´á½·Î¶ÎµÎ¹Î½":8583,"ÏĢÎ¿Î»Î»á½°":8584,"á¼ĳÎ¾á¿ĨÏĤ":8585,"ĠÏĢÎµÎ¹Ïģá¾¶ÏĦÎ±Î¹":8586,"Ġá¼ĲÏĢÎµÎ¹Î´á½µ":8587,"ĠÎµá¼°á½½Î¸Î±ÏĥÎ¹":8588,"ĠÎ¿á¼¶Î½Î¿ÏĤ":8589,"ĠÎ¼Î±Î¸Î·Î¼Î±ÏĦÎ¹Îº":8590,"ĠÏĩÎ±ÏģÎ±ÎºÏĦÎ·Ïģá½·":8591,"ĠÏĥÏħÎ¼Î²Î¿ÏħÎ»ÎµÏħÏĦÎ¹Îºá½¸Î½":8592,"ĠÎ¼Î·ÏĦÏģÏħÎ¹":8593,"Ġá¼ĢÏĢá½±ÏĦÎ·ÏĤ":8594,"ĠÎ¾Î·ÏģÎ±Î½":8595,"ĠÎ¼ÎµÏĦÎ±ÏĥÏĦá½±ÏĥÎµÎ¹":8596,"ĠÏĢÏģÎ±Î³Î¼Î±ÏĦÎµá½·á¾³":8597,"ĠÎ¼Î±ÎºÎ±ÏģÎ¹":8598,"ĠÎ¼Î±ÎºÎ±Ïģá½·Î±Î½":8599,"ĠÎºá¿¶Î»Î±":8600,"á½»ÏĦÎ·ÏĦÎ¿ÏĤ":8601,"ĠÎºá½³ÎºÎ»Î·ÏĦÎ±Î¹":8602,"ĠÎºá½³ÎºÎ»Î·ÎºÎµÎ½":8603,"Ġá¼ĢÎ½ÎµÎ»á½¼Î½":8604,"Ġá½ĳÏĢÎ¿ÎºÏģÎ¹ÏĦá¿¶Î½":8605,"ĠÎĴÎ±Î²ÏħÎ»á½¼Î½":8606,"Ġá¼ĲÎ´á½µÎ»ÏīÏĥÎµ":8607,"ĠÎłÎ¿ÏĥÎµÎ¹Î´á¿¶Î½Î±":8608,"Ġá¼ĢÎµÏĦÎ¿á¿¦":8609,"ĠÎºÎ»Î·ÏģÎ¿Î½Î¿Î¼":8610,"ĠÎºÏħÎºÎ»Î¿ÏĦÎµÏģ":8611,"Ġá¼ĲÏĢÎ±Î³Î³ÎµÎ¹Î»á½±":8612,"ĠÏĦÎµÏĥÏĥÎ±Ïģá½±ÎºÎ¿Î½ÏĦÎ±":8613,"Î·Îºá½¹ÏĦÎ±ÏĤ":8614,"Ġá¼ĲÎ´á½·Î´Î±Î¾Îµ":8615,"ĠÏĢÎ»Î·Î¸ÏħÎ½ÏĦÎ¹Îºá¿¶ÏĤ":8616,"ĠÏĦÎµÏĦá½±ÏģÏĦÎ·Î½":8617,"ĠÎĶá½µÎ¼á¿³":8618,"ĠÎ½ÎµÏħÏģá½½Î´ÎµÎ¹ÏĤ":8619,"Ġá¼ĢÎ½Î¿Î¼Î¿Î¹":8620,"ĠÏĢÎ±ÏģÎ±Î½á½¹Î¼ÏīÎ½":8621,"Ġá¼ĲÎ¾Î·ÏģÎ¸ÏģÎ·":8622,"ĠÎ¼Î·Î´á½³ÏĢÏī":8623,"Ġá¼ĪÏģÎ¹ÏĥÏĦÎ¿ÏĨá½±Î½Î·ÏĤ":8624,"ĠÎ´Î¹Î±ÎºÏģá½·Î½ÎµÎ¹":8625,"á½³Î»Î±Î²Îµ":8626,"ĠÏĩá½»ÏĦÏģÎ±ÏĤ":8627,"ĠÏĦÎ±ÏħÏĦ":8628,"Ġá½ķÎ²ÏīÎ¼Î±":8629,"ĠÏĥÎ¹ÏĦá½µÏĥÎµÏīÏĤ":8630,"Î²á½±Î»Î»Î¿Î½ÏĦÎµÏĤ":8631,"ĠÎ»á½µÎ³ÎµÎ¹":8632,"Ġá¼ĲÎ¾Î±á½·ÏĨÎ½Î·ÏĤ":8633,"Ġá¼ķÎ´ÏģÎ±Î½":8634,"Ġá¼ĢÏĢÎ¿Î¸Î±Î½Îµá¿ĸÎ½":8635,"ĠÎ¼ÎµÏĦá½½ÏĢÏīÎ½":8636,"ĠÏĥÎ¹Î´Î·Ïģá¾·":8637,"Ġá¼ĲÏģÎ³Î±Ïĥá½·Î±Î½":8638,"Ġá½łÏĨá½³Î»ÎµÎ¹Î±Î½":8639,"ĠÏĩá½¹Î½Î´Ïģ":8640,"ĠÎ¼Î·Î´Î±Î¼á¿¶ÏĤ":8641,"ĠÎºá¼ĢÎ³á½¼":8642,"ĠÏĥÎ¹ÏĦá½·Î±":8643,"ĠÏĥá½»Î½ÏĦÎ±Î¾Î¹ÏĤ":8644,"ĠÎºÎ±Î¸Î¿Î»Î¹Îºá½½ÏĦÎµÏģÎ¿Î½":8645,"ĠÎ±á½ĲÏĩá½³Î½Î¿ÏĤ":8646,"ĠÎ¿á½ĲÏģá½±Î½Î¹Î±":8647,"ĠÏĢÏģÎ¿Î¿á½·Î¼Î¹Î¿Î½":8648,"ĠÎ¸á½»Î½Î½":8649,"ĠÏĥÏĦÎ¿Î»á½°ÏĤ":8650,"ĠÎ³ÎµÎ³á½¹Î½Î±ÏĥÎ¹Î½":8651,"á½³ÏĥÏĦÎµÎ¹Î»Îµ":8652,"Ġá¼ĲÎºÎ±Î»Îµá¿ĸÏĦÎ¿":8653,"ĠÎ¼á½¹Î»ÏīÎ¼ÎµÎ½":8654,"Ġá¼ĶÏģÎ·Î¼Î¿Î½":8655,"ĠÎ´Î¹Î±Î»ÎµÎ³á½¹Î¼ÎµÎ½Î¿ÏĤ":8656,"ĠÎºÎ±ÏĦÎ±ÏĦá½±ÏĥÎµÎ¹":8657,"ĠÎ¾ÏħÎ³Îºá½±Î¼ÏĢ":8658,"ĠÏĢá½³ÏĢÎ¿Î½Î¸ÎµÎ½":8659,"á½ģÎ¼Î¿á½·ÏīÏĤ":8660,"ĠÎºá¼ĢÏĢá½¶":8661,"ĠÎ¦á½·Î»Î¹ÏĢÏĢÎ¿ÏĤ":8662,"Ġá¼ĺÏĨá½³Ïĥ":8663,"ĠÎłÎ±á½»Î»á¿³":8664,"ĠÏĨÎ¹á½±Î»Î·Î½":8665,"ĠÎ¸ÏħÎ³Î±ÏĦá½³ÏģÎ±":8666,"Ġá¼ĢÎ»Î»Î¿á½·ÏīÏĥÎ¹ÏĤ":8667,"ĠÎºÎ±ÏĦÎ±ÏĥÎµá½·":8668,"ĠÏĢÎ±ÏģÎ±ÏĦá½³Î»ÎµÏħÏĦÎ¿Î½":8669,"ĠÎ¼Î¿Î½á½¹Î¼ÎµÏĦÏģÎ¿Î½":8670,"Ġá¼ĲÏĢÎ¹ÏĩÎµá½·ÏģÎ·Î¼Î±":8671,"ĠÎ³Î±ÏĥÏĦÏģá½¶":8672,"Ġá¼ĲÎ²Î±Ïĥá½·Î»ÎµÏħ":8673,"ĠÏĩÎ»ÏīÏģ":8674,"Ġá¼ĲÎºÏĦÎ±Î½Î½":8675,"Ġá¼ĢÏĢÎ¿ÏĥÏĨá½±":8676,"Ġá¼łÎºÎ¿Î»Î¿á½»Î¸Î·":8677,"ÎłÎµÏģá½¶":8678,"Ġá¼ĢÏĢá½³Î¸Î±Î½ÎµÎ½":8679,"Ġá¼ĲÎºÏĢÎµÏĢÏĦá½½Îºá¿ĥ":8680,"ĠÎ¤Î¹Î¼á½±ÏģÏĩÎ¿Ïħ":8681,"Ïģá½¹ÏĢÎ¿Î»":8682,"ĠÏĦÏģÎ±ÏĢá½³Î¶":8683,"Ġá¼ĢÎ¼ÏĢá½³Î»":8684,"ĠÎ»Î±Ïĩá½±Î½Î¿Ïħ":8685,"ĠÏĩá½±Î»Î±Î¶Î±":8686,"ÎĶÎµá½»ÏĦÎµÏģÎ¿Î½":8687,"ĠÎĽÎ±ÎºÎµÎ´Î±Î¹Î¼á½¹Î½Î¹Î¿Î¹":8688,"ĠÎºÎ¿ÏģÏīÎ½á½¶ÏĤ":8689,"ĠÏĨÏģÎµÎ½á¿¶Î½":8690,"Ġá¼ĲÏĢá½³ÎºÎµÎ¹Î½Î±":8691,"Î§Ïģá½´":8692,"ĠÎºÏģÎ¿ÏĦÎ±":8693,"ĠÏĦÎ¿ÏĥÎ±á¿¦ÏĦÎ±":8694,"ĠÏĢÎ±ÏģÎµÏĢÎ¹Î³ÏģÎ±ÏĨ":8695,"ĠÎ¸ÎµÎ¿ÏĥÏĦÏħÎ³":8696,"ĠÏĥÏħÎ³Î³Î½ÏīÎ¼Î¿Î½":8697,"Ïļ":8698,"Ġ'":8699,"á½Ħ":8700,"ÏĦá½²":8701,"ÏĦÏģÎ¿":8702,"ÏĦÎ¸Î±":8703,"Î±Î¼Î²":8704,"Î¿á½·Î½":8705,"Î¿ÏĪ":8706,"Î¿Î¼ÏĢ":8707,"Î¿ÏĦÎ¿Î¼":8708,"á¼ĨÏģÎ±":8709,"Î¹Î³":8710,"Î¹Î±Î½":8711,"Î¹Î³Î¼Î±":8712,"ÎµÎ¸":8713,"ÎµÏĦá½¹":8714,"Îµá½ĸ":8715,"Ġá¼Ĩ":8716,"Ïģá½µ":8717,"ÏģÏĥÎ¹Î½":8718,"ÏģÎ¿ÏħÏĥÎ¹":8719,"ÏģÏħÎ¼":8720,"Ïģá¿ĨÏĥÎ¸Î±Î¹":8721,"ĠÏĦÏģÎ±":8722,"ĠÏĦÎµÎ¹Î½":8723,"ĠÏĦÏģÎ±ÏĨ":8724,"ĠÏĦÎµÎ½á½¹Î½ÏĦÏīÎ½":8725,"ĠÏĦÎ±Î¹Î½á½·":8726,"ÏĥÎµÎ¹Î½":8727,"ÏĥÎ¼Î±ÏĦÎ¿ÏĤ":8728,"ÏĥÏħÏĩ":8729,"ÏĥÎ¼á½³Î½Î¿ÏĤ":8730,"ÏĥÎ¿Î¼Î±Î¹":8731,"ÏĥÎ¼á½³Î½Î¿ÏħÏĤ":8732,"ÏĢÏħ":8733,"ÏĢÎµÏĢ":8734,"ÏĢá½¼Î½":8735,"ÏĢá½³Î¼ÏĢ":8736,"ÏĢÏĦÎµÏĥÎ¸Î±Î¹":8737,"Î»ÏīÏĤ":8738,"Î»á½±Î½":8739,"Î»Î¿á½»":8740,"Î»ÏħÎ½":8741,"Î»Î¿Î¹ÏĢ":8742,"Î¼Ïī":8743,"ĠÎºÎ·":8744,"ĠÎºá½¹Î»":8745,"ĠÎºÏħÎº":8746,"ĠÎºá½µÏģ":8747,"ĠÎºÏīÏĢ":8748,"ĠÎºÎµá½·Î¼ÎµÎ½Î¿Î½":8749,"ÎºÎ¿Î¹ÏĤ":8750,"ÎºÎ¿Î¼":8751,"ÎºÎ¹Î»":8752,"ÎºÏīÎ¼":8753,"ÎºÎ¿Î¹Î½":8754,"ÏħÏĥÎ¹":8755,"Î·Î¸Îµá½¶ÏĤ":8756,"ĠÏĢÏĦÎ·Î½":8757,"á½³ÏĪ":8758,"á½³Î¿ÏħÏĥÎ¹Î½":8759,"ĠÎºÎ±Î¼á½±":8760,"Ġá¼ĲÏĥÎ¸":8761,"Ġá¼Ĳá¿¤á¿¥":8762,"ÏīÎ²":8763,"ÏīÏĦá¿¶Î½":8764,"ĠÎ´ÏģÎ¿":8765,"ĠÎ´á½¶ÏĤ":8766,"ĠÎ´ÏģÎ¿Î¼":8767,"Î³á½¹":8768,"Î³Î±Î¸":8769,"á½±Î¾":8770,"á½±Î´Î¹":8771,"á½±ÏģÎµ":8772,"á½±ÏĦÎ·ÏĤ":8773,"á½±Î»Î»Î¿Î½":8774,"á½±ÏĦÎ¿Î¹ÏĤ":8775,"Î¿á¿¶":8776,"Î¸Î»á½·":8777,"Î¸á½²ÏĤ":8778,"Î¸á¿¶ÏĥÎ¹Î½":8779,"á½¹ÏĦÏīÏĤ":8780,"á½¹ÏĦÎ±ÏĤ":8781,"á½¹Î´Î¿":8782,"á½¹Î·ÏĥÎ¿Î½":8783,"Ġá¼ĢÎµá½·":8784,"Ġá¼ĢÎ»Î±":8785,"Ġá¼ĢÏĥÏĩ":8786,"Ġá¼ĢÏĥÏī":8787,"Ġá¼ĢÎ»Î¹":8788,"Ġá¼Ģá½´Ïģ":8789,"Ġá¼ĢÏģá½·ÏĥÏĦ":8790,"Ġá¼ĢÏĥÏĦá½³ÏģÎ±":8791,"Ġá¼ĢÏĥÏĦá½³ÏģÎ±ÏĤ":8792,"ĠÎ¼Î¿á½·":8793,"ĠÎ¼Îµá¿ĸÎ½Î±Î¹":8794,"ÏĩÏħ":8795,"Î´á¿ĨÎ»Î¿Î½":8796,"ÏĨÎ½á½·":8797,"ÎµÎ¹ÏĥÎ¹":8798,"ÏĥÏĦÎ·Î½":8799,"ÏĥÎ¹Î¼":8800,"ÏĥÎ¹Î±Îº":8801,"ĠÎ³á½³Î¼":8802,"á¿ĸÎ±Î¹":8803,"á½µÎ½Î±":8804,"á½µÎ¼Î±ÏĦá½±":8805,"ĠÏĢÏģá½³":8806,"ĠÏĥÎ²":8807,"ĠÏĥÎ¿á½»":8808,"ÎµÏģá½´ÏĤ":8809,"Î»Î»á½¹Î½":8810,"Ġá¼ĲÎ½Î¿Ïħ":8811,"ĠÎ´Î¹á¿Ĩ":8812,"ĠÎ´Î¹Î¿á½·":8813,"ĠÎ´Î¹ÎµÎ³":8814,"ĠÎ´Î¹Îºá½±Î¶":8815,"ĠÎ´Î¹Ïĩá¿¶ÏĤ":8816,"Î¾ÏħÎ½":8817,"Î¾Î·ÏĦÎ±Î¹":8818,"Ġá¼ĶÏģ":8819,"Ġá¼ĶÏĨÎ±":8820,"Ġá¼ĶÎ»Ïħ":8821,"Ġá¼ĶÎ¼ÎµÎ¹Î½":8822,"Ġá¼ĶÎ»Î¸":8823,"Ġá¼ĲÏĢÎ¿ÏħÏģÎ±Î½":8824,"ĠÎ±á½ĲÏĦÎ¿á¿ĸÏĥÎ¹":8825,"ĠÎ»á¿¦":8826,"ĠÎ»Î±á½·":8827,"ĠÎ»á¿¦ÏĥÎ±Î¹":8828,"Ġá½ģÎ¼Î±":8829,"ĠÎµá¼°Î¸":8830,"ĠÎµá¼°ÏĥÏĨ":8831,"ĠÎµá¼°ÏģÎµÏĥÎ¹":8832,"Ġá½ħÏĥá¿³":8833,"ĠÏĨá½±Ïĥ":8834,"ĠÏĨÏģá½±":8835,"ĠÏĨÏģá½³":8836,"ĠÏĨÏģÎ¿Ïħ":8837,"Ġá¼¡Î´":8838,"Ġá¼¡ÏĥÏħÏĩ":8839,"á½½ÏģÎ±":8840,"á½½ÏģÎ¹":8841,"á½½ÏĦÎµÏģÎ¿ÏĤ":8842,"Ġá¼ĢÎ½ÏĦÎ±":8843,"Ġá¼ĢÎ½á½»":8844,"Ġá¼ĢÎ½á½³Ïĩ":8845,"Ġá¼ĢÎ½ÏĦÎµÎ¹":8846,"Ġá¼ĢÎ½á¿Ħ":8847,"Ġá¼ĢÎ½á¿ĥÏģÎ·":8848,"Ġá¼ĢÎ½á½³Î²Î·":8849,"ÏģÎ¹ÏĢÎ¹":8850,"á½¹Î½Î±ÏĤ":8851,"Î¼á½³Î½Î±Î¹ÏĤ":8852,"ÏĦÎ¿á½Ĳ":8853,"Î¹Î½Î¿ÏĤ":8854,"ÎºÎ±ÏĦ":8855,"ÎºÎ±ÏĦÎµ":8856,"ÎºÎ±Î¶":8857,"ÎºÎ±Î»á½³":8858,"ÎºÎ±ÏĦá½±Î»Î·Îº":8859,"Ġá¼ĦÎ½Î±":8860,"Ġá¼ĦÎ¼Îµ":8861,"Ġá¼ĦÏĥÎ±Ïģ":8862,"Ġá¼ĢÏĢÎ¹":8863,"Ġá¼ĢÏĢá½³Ïĩ":8864,"Ġá¼ĢÏĢá½³Ïĥ":8865,"Ġá¼ĢÏĢÎ¹ÏĥÏĦ":8866,"Ġá¼ĢÏĢÎ±Î¸":8867,"Îµá½·Ïī":8868,"Îµá½·Î½Î·":8869,"Îµá½·Î»Î·ÏĨ":8870,"Îµá½·Î¼ÎµÎ½Î±Î¹":8871,"Ïģá½·á¿³":8872,"Ïģá½·Î½Î±ÏĦÎ¿":8873,"Ġá½ĳÎ±Î»":8874,"Ġá½ĳÎ»Î±Îº":8875,"Ġá¼ĲÎºÏĦÎµÎ¹Î½":8876,"ĠÏĦÎ¿ÏĥÎ±á½»":8877,"ĠÏĢÏģÎ¿Î³":8878,"ĠÏĢÏģÎ¿Î±Î½":8879,"á½³ÏģÎµÏĦÎ±Î¹":8880,"á½³ÏģÎ¿ÏħÏĤ":8881,"á¿ĨÎ½Î±á½·":8882,"ĠÎ¸Î¿Ïģ":8883,"ĠÎ¸á¾¶":8884,"ĠÎ¸Îµá¿ĸÎ±":8885,"ĠÎ¸Îµá½·Î±":8886,"ĠÎ¸Î»Î¹Î²":8887,"Î¹Îºá½¹ÏĤ":8888,"ĠÎ²Î»Îµ":8889,"ĠÎ²Î¹Î±":8890,"á½±Î½Î¿Ïħ":8891,"á½±Î½ÏĦÎµÏĤ":8892,"Ġá½ĳÏĢá½³Ïģ":8893,"Ġá½ĳÏĢÎ¿ÏĦá½³":8894,"ĠÎ¼ÎµÎ»Î±":8895,"ĠÎ¼ÎµÎ¼Î±Î¸":8896,"ĠÎ¼ÎµÎ¼Î½á¿ĨÏĥÎ¸Î±Î¹":8897,"ĠÎ½Î¿á¿¦":8898,"ĠÎ½Î¿Ïħ":8899,"ĠÎ½á¿Ĩ":8900,"Ġá¼ĳÏĦÎ±á¿ĸ":8901,"ÏĪÎ±Î½ÏĦÎ±":8902,"ÏĪÎ·ÏĨ":8903,"ĠÎ»á½³Î³Î¿ÏħÏĥÎ±Î½":8904,"ĠÎ»á½³Î³Î¿Î¹Î¼ÎµÎ½":8905,"á½µÏĥÎµ":8906,"Î»ÎµÏĥÎ¸Î±Î¹":8907,"Î»ÎµÏħÎº":8908,"Î»ÎµÎ³Î³":8909,"Î»ÎµÏħÏģÎ¿Î½":8910,"Ġá¼ĢÎ»Î»á¾¶Î½":8911,"ĠÎ±á¼³":8912,"Ġá½ĢÏĥÎ¼":8913,"á¿ĥÏĥÎ¹Î½":8914,"ĠÏĦÎµÏĦÎ±":8915,"ĠÏĦÎµÏĦá½±":8916,"ĠÏĢÎ±ÏģÎµÎ»":8917,"ĠÏĢÎ±ÏģÏīÎ½á½»Î¼ÏīÎ½":8918,"ÏĦá½·Î¶ÎµÎ¹Î½":8919,"Î¿ÏģÎ³":8920,"ĠÎ´Î¹Î±ÏĦ":8921,"ĠÎ´Î¹Î±Î²":8922,"ĠÎ´Î¹Î±ÏĥÏĢ":8923,"ĠÎ´Î¹Î±Î»á½³Î³":8924,"ĠÎ´Î¹Î±ÎºÎ¿":8925,"ĠÎ´Î¹Î±ÏĥÏĦá½±ÏĥÎµÏīÏĤ":8926,"ĠÎ´Î¹Î±Î²ÎµÎ²Î»Î·":8927,"ÏĥÎ±Î¼á½³Î½Î¿Ïħ":8928,"ĠÏĢÎ¿Î¹Î¿á½·":8929,"ĠÏĢÎ¿Î¹á½µÏĥÏī":8930,"ĠÏĢÎ¿Î¹Î¿á¿¦Î½ÏĦÎ±":8931,"ĠÏĢÎ¿Î¹Î¿á¿¦Î¼ÎµÎ½":8932,"ĠÏĢÎ¿Î¹á½µÏĥÎ±Î½ÏĦÎ¿ÏĤ":8933,"Ġá¼ĲÏĢÎ¹ÏĦÎµÎ»":8934,"Ġá¼ĲÏĢÎ¹Î´ÎµÏĩ":8935,"Ġá¼ĲÎ¾ÎµÏħ":8936,"Ġá¼ĲÎ¾Î±Î³":8937,"Ġá¼ĲÎ¾ÎµÏĢ":8938,"Ġá¼ĲÎ¾á½±Ïģ":8939,"Ġá¼ĲÎ¾á¿ĨÎ»Î¸ÎµÎ½":8940,"ÏĦá½³ÏīÎ½":8941,"Î±Î³á½¼Î½":8942,"ĠÏĢÎ¿á½º":8943,"Î´Îµá¿¶Î½":8944,"Ġá¿¥á½±":8945,"Ġá¿¥á¿ĨÏĥÎ¹Î½":8946,"ÏĥÎµá½½ÏĤ":8947,"Ïģá½±ÏĦÎµÎ¹":8948,"Ïģá½±ÏĦÎµÏħ":8949,"ĠÏĩÏģá½µÏĥÎµÎ¹":8950,"ĠÎºÎ±ÏĦÎ±Î»Îµá½·":8951,"ĠÎºÎ±ÏĦÎ±á¿¤á¿¥":8952,"ĠÎºÎ±ÏĦÎ±Î´Î¿Ïħ":8953,"ĠÎºÎ±ÏĦÎ±Î»á½³Î³ÎµÎ¹":8954,"ĠÎºÎ±ÏĦÎ±ÏĦÎµá½·Î½ÎµÎ¹Î½":8955,"Î±Î»Î¹Îº":8956,"Ġá¼°Î´Î¹Îº":8957,"Ġá¼°Î´Îµá¿¶Î½":8958,"ĠÏĥÏħÎ½Î´":8959,"ĠÏĥÏħÎ½ÏħÏĢ":8960,"ĠÏĥÏħÎ½ÏīÎ½á½»Î¼ÏīÎ½":8961,"Ġá¼ĦÎ»Î»Î±Î¹":8962,"Ġá¼ĪÏĢá½¹":8963,"ÏĥÎ¼á½±":8964,"Ġá¼ķÏĦÎµÏģÎ±Î¹":8965,"ĠÎļÏħÎºÎ»Î¿Î²":8966,"Î¸Î±á½·":8967,"á½¹ÏĦÎ·ÏĦÎ±ÏĤ":8968,"ÏĦá½±Îº":8969,"ÏĥÏĦÎ±á½·":8970,"ÏģÎµÏĥÎ²":8971,"ĠÎºÎ±Î¸Îµá½»":8972,"ĠÎłÏħ":8973,"ÏĦÎ¿ÏħÏĦá½³":8974,"Ġá¼¡Î¼á½³":8975,"ĠÎĺÎ·":8976,"ĠÏĢÏģÎ¿ÏĥÏĢ":8977,"ĠÏĢÏģÎ¿Ïĥá½±Î³":8978,"ĠÏĢÏģÎ¿Ïĥá½µÎº":8979,"ĠÏĢÎ±ÏģÎ±Î´":8980,"ĠÏĢÎ±ÏģÎ±ÎºÎµÎ¹":8981,"ĠÏĢÎ±ÏģÎ±Î²á½±Î»Î»":8982,"ĠÏĦÎ¹Î½á½¹ÏĤ":8983,"Ġá¼ĢÏĢÎ¿ÏĦÎµ":8984,"Ġá¼ĢÏĢÎ¿Î´á½·":8985,"ĠÎµá½ĲÏĩÎ±ÏģÎ¹ÏĥÏĦ":8986,"Î¿Î¼Îµ":8987,"Î¿Î¼Î¿ÏĤ":8988,"ĠÏĦÎ¿Î¹á½±Î´Îµ":8989,"ĠÎ±á¼±Î¼Î±":8990,"ÏĦÏģá½³ÏĨ":8991,"ÎµÎ¹Î´á¿Ĩ":8992,"Ġá¼ĢÎ½ÏĦÎ¹ÏĢÎ±Ïģ":8993,"Ġá¼ĢÎ½ÏĦÎ¹ÏĢÎ±ÏģÎ±":8994,"ĠÏĢÏģá½¹Î²Î±":8995,"ĠÏĢÏģá½¹Î²Î»Î·Î¼Î±":8996,"Î±ÎºÎ¿á½»":8997,"ÏĥÏīÏĥÎ¹":8998,"ĠÏĪÏīÎ¼":8999,"Ġá½¥ÏĥÏĦ":9000,"Ġá¼ĲÎ³ÏĩÏīÏģ":9001,"Ġá¼ĲÎ³ÎµÎ½á½¹Î¼Î·Î½":9002,"ÏĢÎ¿Î½ÏĦÎ¿ÏĤ":9003,"Î´á½·á¿³":9004,"ĠÏĨá½»Î»Î±":9005,"Ġá¼ĢÎºÏģÎ±":9006,"Ġá¼ĢÎºÏģÏī":9007,"Ġá¼ĢÎºÏģá½¹ÏĢÎ¿Î»":9008,"ĠÎ¼Î·ÏĦá½³ÏģÎ±":9009,"ĠÏĢÎ¿Î»ÏħÏĢ":9010,"á½½Î½Î·":9011,"Ġá½ģÎ¼Î¹Î»":9012,"Ġá½ģÎ¼á½½Î½ÏħÎ¼Î¿ÏĤ":9013,"á½»Î½ÎµÎ¹Î½":9014,"á½»Î½Î·ÏĥÎ±Î½":9015,"á½±Î¶Î¿Î½":9016,"á½±Î¶Î¿Î½ÏĦÎµÏĤ":9017,"ĠÎ¸Îµá½¹ÏĤ":9018,"ĠÎ¸ÎµÎ¿á½»ÏĤ":9019,"Î´ÎµÎ¹Î±":9020,"Ġá¼ĢÎ½Î±ÏĦ":9021,"Ġá¼ĢÎ½Î±Î¾":9022,"ĠÎºÎ±Î»Îµá¿ĸÏĥÎ¸Î±Î¹":9023,"ĠÏĢÎ¿Î»Î»Î±á½¶":9024,"ĠÎ³á½³Î½Î½Î·":9025,"Ġá¼ĢÎ¼ÏĨÎ¿á¿ĸÎ½":9026,"Ġá¼ĢÏĨÎµá¿ĸÎ½Î±Î¹":9027,"Ġá¼ĢÏĨÎ±Î¹ÏģÎµ":9028,"Î¿ÏĩÎµá½·":9029,"ĠÎºÎ±ÏĦÎµÎ½":9030,"Ġá½ĢÎ½Îµá½·":9031,"ĠÏĢá½¹ÏĦÎµ":9032,"ĠÏĥÏħÎ¼Î²á½³Î²":9033,"ÏĦÎ¿á¿¦ÏĥÎ¹":9034,"ÏĦÎ¿á¿¦ÏĥÎ¹Î½":9035,"ÏĦÎ¿á¿¦ÏĦÎ¿Î½":9036,"Ġá¼ĶÎ½ÏĥÏĦÎ±ÏĥÎ¹Î½":9037,"ÏĥÎµÎ½ÏĦÎµÏģ":9038,"ĠÎ´Îµá¿ĸÏĥÎ¸Î±Î¹":9039,"ĠÎ´Îµá¿ĸÏĢÎ½Î¿Î½":9040,"Î¸á½³Î½ÏĦÎ±ÏĤ":9041,"ĠÏĢÎµÏĢÎ·Ïģ":9042,"ĠÏĢÎµÏĢÎ¹ÏĥÏĦ":9043,"ĠÎºÎ¿Î¹Î½á½´":9044,"ĠÎºÎ¿Î¹Î½á¿ĨÏĤ":9045,"ĠÏĨÎ±á½·Î½ÎµÏĥÎ¸Î±Î¹":9046,"Î¸á½³Î±":9047,"ĠÎ¼á½³Î»Î·":9048,"ÎµÏĩÎ¸á¿ĨÎ½Î±Î¹":9049,"á½¹ÏģÎµÎ¹":9050,"á½¹ÏģÎ¿Î¹ÏĤ":9051,"á½·Î¶Î¿ÏħÏĥÎ¹Î½":9052,"Ġá¼ĦÏģÏĦÎ¿Î½":9053,"Ġá¼ĦÏģÏĦÎ¿ÏħÏĤ":9054,"ĠÏĥÏĩá½³ÏĥÎµÎ¹":9055,"ĠÏĥÏĩÎ¿Î¹Î½":9056,"ĠÏĥÏĩÎ·Î¼Î±ÏĦá½·":9057,"ÏĦÏĦá½¹Î½":9058,"ĠÏĦÏģá½·ÏĦá¿³":9059,"ĠÎ¼á¾¶Î»Î»á½¹Î½":9060,"ĠÎ¼á½³Î½ÎµÎ¹Î½":9061,"ĠÎ´á½·ÏĩÎ±":9062,"ÎºÎµÎ»Îµá½»":9063,"ĠÎºÎ±Îºá½±":9064,"ĠÎºÎ±Îºá¿·":9065,"ĠÎºÎ±ÎºÎ¿ÏħÏģÎ³":9066,"Î»ÎµÏħÏģÎ±":9067,"á½¹ÏĢÎ¿Ïħ":9068,"á½¹ÏĢÏģÎ±":9069,"Ġá½ħÏģÏīÎ½":9070,"ĠÎ¶Î·ÏĦÎµá¿ĸ":9071,"ĠÎ¶Î·ÏĦá½µÎ¼Î±ÏĦÎ¹":9072,"ĠÎ³Î½Ïī":9073,"Î»Î·Î¸á½¹ÏĦÏīÏĤ":9074,"ĠÏĦá½³ÎºÎ½":9075,"ĠÏĦá½³Î¼Î±ÏĩÎ¿ÏĤ":9076,"ĠÏĢá½³ÏĦÏģ":9077,"á½±Î»Î±Î¹Î¿Î½":9078,"Îµá¼°á½½Î¸Î±":9079,"ĠÏĢá½±ÏĥÏĩÎ¿Î½":9080,"Ġá¼ĢÎ½Î±Î³Î¿Î¼á½³Î½ÏīÎ½":9081,"ĠÎ½á½¹Î¼Î¿Î¹ÏĤ":9082,"ĠÎ¿á¼°ÎºÎµá¿ĸÎ±":9083,"ĠÎ¿á¼°ÎºÎµá½·ÏīÎ½":9084,"Î¿á½ĲÏĩ":9085,"Ġá¼§ÎºÎµÎ½":9086,"ĠÎ´Î¿Îºá½³ÎµÎ¹":9087,"ĠÏĢÏģÎ¿ÏĨá¿ĨÏĦÎ±Î¹":9088,"ĠÏĦÏģÎ¹Î±ÎºÎ¿":9089,"ĠÎ²Î±ÏĥÎ¹Î»á½³Î±":9090,"ÏĦÏĦÎ¿Î½Î¿ÏĤ":9091,"ÏĦÏĦÎ¿Î½ÏĦÎµÏĤ":9092,"ĠÏĩÏģá½¹Î½ÏīÎ½":9093,"á½±Î¼Î¿Î¹ÏĤ":9094,"ĠÎºÎ±ÏĦÎ±ÏĥÎºÎµÏħá½´":9095,"ĠÏĪÏħÏĩá¿¶Î½":9096,"ĠÏĪÏħÏĩá½µÎ½":9097,"á½µÏĥÎ±Î¼ÎµÎ½":9098,"ĠÎºÎ±ÏĦÎ·Î³Î¿Ïģá½·á¾³":9099,"Ġá¼ĢÎ½ÏĦá½·ÏĥÏĦÎ±ÏĥÎ¹Î½":9100,"á¼ĲÏĢá½³Î¼ÎµÎ¹Î½Îµ":9101,"á½³ÏĥÏĦÎ·":9102,"á½³ÏĥÏĦÎµÏģ":9103,"ĠÎºÏģá½·Î½Î·ÏĦÎ±Î¹":9104,"ĠÎ¼ÎµÏĦá½±ÏĥÏĦÎ±ÏĥÎ¹ÏĤ":9105,"ĠÏĥÏħÎ¼ÏĢÎ¿":9106,"ĠÏĥÏħÎ¼ÏĢá½±":9107,"ĠÏĥÏħÎ¼ÏĢÏģá½±":9108,"ĠÏĥÏħÎ¼ÏĢÎ±Î¸":9109,"ĠÎ²ÏģÎ±Ïĩá½·ÏīÎ½":9110,"ĠÎ´Î¹ÎºÎ±á½·ÏīÏĤ":9111,"Î²á½±Î»Î»Î¿Î½ÏĦÎ±":9112,"ĠÎ¸ÎµÏģá½±ÏĢ":9113,"ĠÏĢá½¹Î»ÎµÏīÎ½":9114,"Ġá¼ĲÎ¼Î²Î»Î·":9115,"ĠÎ¼Î¹ÎºÏģá½¹Î½":9116,"ĠÎ¼Î¹ÎºÏģá¿¶Î½":9117,"ĠÎ´Î¹Î±ÏĨÎ¿Ïģá½±ÏĤ":9118,"Ġá½ĳÎ³Î¹Î±":9119,"Ġá¼ĲÏĢá½·Î»Î¿Î³":9120,"Ġá¼ĲÎºÎµá½·Î½Î·ÏĤ":9121,"Î¤Ïģá½·":9122,"ĠÎ½Î±á¿¦Î½":9123,"ĠÏĢÎ¿Î»Î¹ÏĦÎ¹Îºá½¸Î½":9124,"ĠÎ¼ÎµÏģÎ¹Îºá½¹Î½":9125,"ĠÎºÎ±ÏĦÎ·Î³Î¿ÏģÎµá¿ĸÎ½":9126,"ĠÏħá¼±á¿¶Î½":9127,"Ġá¿¥Î·ÏĦá½°":9128,"Ġá¿¥Î·á¿ĵ":9129,"á½³Î¼ÏĪÎ±":9130,"Î¾Î±Î½ÏĦÎ±":9131,"Î¾Î±Î½ÏĦÎ¿":9132,"Ġá½ģÎ¼Î¿á½·ÏīÎ½":9133,"ĠÏĨÎµá½»Î³ÎµÎ¹Î½":9134,"ĠÏĢÏħÏģá¿¶Î½":9135,"ĠÏĥÏīÏĨ":9136,"ĠÏĢá½·ÏĥÏĦÎµ":9137,"á¼ĺá½°Î½":9138,"Î¸Î±Î½Î±":9139,"ĠÏĦÏģá½¹ÏĢÏīÎ½":9140,"ĠÏĢÎ±Î¹Î´Î¹":9141,"ĠÎµá½ĲÎ¸á½»Î½Î±ÏĤ":9142,"á¼´Ïĥ":9143,"Ġá¿¥á½µÎ¼Î±ÏĥÎ¹Î½":9144,"ĠÏĥÏĦÏģÎ±ÏĦÎ·Î³Î¿á½ºÏĤ":9145,"Ġá¼ĲÎ¸á½³Î»ÎµÎ¹":9146,"ÏĦÎ·Ïģá½·Î¿Ïħ":9147,"ĠÏĦÎµÏĩÎ½á¿¶Î½":9148,"Î¿Î²Î¿ÏĥÎº":9149,"Î¿Î²Î±Î»Î¹Îº":9150,"Ġá¼ģÎ¼Î±ÏģÏĦÎ¹á¿¶Î½":9151,"ÏīÎºá½³Î½Î±Î¹":9152,"ĠÏĢÎ¹á½³":9153,"ĠÏĨÎ¸á½±ÏĥÎ±ÏĤ":9154,"Ġá¼ĢÎºÏģÎ¹Î²á½³ÏĥÏĦÎµÏģÎ¿Î½":9155,"ĠÎºÎ¿Î»á½±ÏĥÎµÎ¹ÏĤ":9156,"ĠÎºá½¹Îº":9157,"Ġá¼ĢÎ½ÏĦÎ¹ÏĥÏĦÏģÎ¿ÏĨ":9158,"Ġá¼ĢÎ½ÏĦÎ¹ÏĥÏĦá½±ÏĥÎµÏīÏĤ":9159,"Ġá¼ĻÎ²ÏģÎ±":9160,"ĠÎ¼ÎµÏĦá½±Î¸ÎµÏĥÎ¹Î½":9161,"ĠÏĥÎ¹Î¼":9162,"Ġá½ģÎ¼Î¿Î»Î¿Î³Î¿ÏħÎ¼á½³Î½Î¿Ïħ":9163,"ĠÎºÎµÎºá½½Î»":9164,"ĠÎ¦Î±":9165,"ĠÎ¶Ïīá½µÎ½":9166,"ÏĦÏħÎ»Î·Î½Î±":9167,"á¿´Î´Î·":9168,"Ġá¼ĲÎ½ÎµÏģÎ³ÎµÎ¹á¿¶Î½":9169,"ĠÏĩá½±ÏģÎ±Î³Î¼Î±":9170,"Ġá¼ĢÎ¾Î¹á½¹Î»":9171,"ĠÎ¼Î±ÏģÎ³Î±":9172,"ĠÎµá½ĶÏĩÏģÎ·":9173,"ĠÎ³Î¹Î½Î¿Î¼á½³Î½Î·ÏĤ":9174,"ĠÎ³Î¹Î½Î¿Î¼á½³Î½Î·Î½":9175,"Î¼ÎµÏĦÏģÎ¿ÏĤ":9176,"ĠÏĩÎµá¿ĸÏģÎµÏĤ":9177,"Ġá¼±ÏĥÏĦÎ¿á¿¦":9178,"Ġá¼ĢÎ´Î¹Îºá½µÎ¼Î±ÏĦÎ¿ÏĤ":9179,"ĠÎ¼á½±ÏĩÎ·":9180,"ĠÏĨá½³ÏģÎµÎ¹Î½":9181,"Ġá¼µÏĢÏĢÎ¿Î¹":9182,"Ġá½ģÎ´á½¹ÏĤ":9183,"Ïģá½±ÏĪÎ±Î¹":9184,"Ġá½ĳÎ³Î¹á½³Î¿ÏĤ":9185,"á½·ÏĥÏĦÎ±ÏĦÎ¿Î½":9186,"ĠÏĢÎ¹ÏĥÏĦá½¸ÏĤ":9187,"ĠÎµá¼°Ïģá½µÎ½Î·ÏĤ":9188,"ĠÏĩÏīÏģÎµá¿ĸ":9189,"ĠÏĩÏīÏģá¿ĨÏĥÎ±Î¹":9190,"Ġá¼´ÏĥÎ¿Î¹ÏĤ":9191,"ĠÎ»Î±Î²á½¼Î½":9192,"ĠÎ¼ÎµÎ³á½±Î»Î¿ÏħÏĤ":9193,"Ġá¼ĢÏĢÎ±ÏģÏĩ":9194,"ĠÎ³ÎµÎ³ÏģÎ±Î¼Î¼á½³Î½Î±":9195,"ĠÎ´Î·Î»Î·":9196,"Ġá¼±ÎµÏģÎµá¿ĸÏĤ":9197,"ĠÏĩÏģÎ·ÏĥÎ¼Î¿á¿¦":9198,"ĠÎ´Î¹Î´á½±ÏĥÎºÏīÎ½":9199,"ĠÎ´Î¹Î´á½±ÏĥÎºÎµÎ¹Î½":9200,"ĠÏĦá½³ÏĦÎ±Ïģ":9201,"Ġá½ĳÏĢÎ¿Î³ÏģÎ±ÏĨá½µ":9202,"ĠÎ±á¼µÏģÎµ":9203,"ĠÎ´Î¹Î±ÏģÎ¸ÏģÎ¿á¿¦ÏĦÎ±Î¹":9204,"ĠÎºÎ¿ÏĦ":9205,"ĠÎ´Î¹Î´Î±Ïĩ":9206,"ĠÏĢÎ±Ïģá½³ÏĩÎµÎ¹Î½":9207,"ĠÎ´Î¹Î±ÎºÎ¹Î½":9208,"ĠÏĨÏħÏĥÎ¹Îºá¿ĨÏĤ":9209,"ĠÏĨÏħÏĥÎ¹Îºá¿¶ÏĤ":9210,"Ġá¼ĢÎ½Î´Ïģá½¸ÏĤ":9211,"ĠÏĩÏīÏģá½·Î¿Ïħ":9212,"ĠÎ¸Î±Î½Î±":9213,"ĠÏĢÎ¿Î½Î·Ïģá½¸ÏĤ":9214,"Ġá½ģÏģÎ¹ÏĥÎ¼Î¿á¿¦":9215,"Ġá½ģÏģÎ¹ÏĥÎ¼á½¹ÏĤ":9216,"ĠÏĥÏĦá½·ÏĩÎ¿ÏĤ":9217,"ĠÏĨÎ±Î½ÎµÏģÎ¿á¿¦":9218,"Î²Î±Î»Îµá¿ĸÎ½":9219,"ĠÎĵÎ¿ÏģÎ³":9220,"Ġá¼ĲÎ½Î±Î½Î¸Ïģá½½ÏĢ":9221,"ĠÏĢÎ»ÎµÏħÏģá½³ÏīÎ½":9222,"Ġá¼ĲÎ»á½³Î³Î¿Î¼ÎµÎ½":9223,"ĠÎ»á½±Î²Î¿Î¹":9224,"Ġá¼ĲÏĩÎ¸Ïģá½¸ÏĤ":9225,"ĠÎĳá¼°Î¸":9226,"ĠÏĥÏħÎ¼Î²Î±á½·Î½ÎµÎ¹Î½":9227,"ĠÏĨá½·Î»":9228,"ĠÎºÎ±ÏĦÎ¿ÏģÎ¸á¿¶ÏĥÎ±Î¹":9229,"Ġá¼ĢÎ½ÏĦÎ¹ÎºÎµá½·Î¼ÎµÎ½Î¿Î½":9230,"ĠÏĢÏģÎ¿ÎµÎ¹Î»Î·Î¼":9231,"Ġá½ĳÏĢá½¹ÎºÎµÎ¹ÏĦÎ±Î¹":9232,"Ġá¼ĲÏĥá½±Î»ÏĢÎ¹":9233,"ĠÎ±á½ĲÏĦá½¹Î¸Î¹":9234,"ĠÎ½Î¿Î·ÏĦá¿¶Î½":9235,"Ġá¼ĢÏĦÎµÎ»á¿Ĩ":9236,"ĠÎ»ÎµÏĢÏĦÎ¿":9237,"ĠÏĩÏģá½½Î¼ÎµÎ½Î¿Î½":9238,"ĠÏĩÏģá½½Î¼ÎµÎ½Î¿Î¹":9239,"Ġá¼°Î±ÏĦÏģá½¸Î½":9240,"ĠÏĩÏģá½µÏĥÎ¹Î¼Î±":9241,"ĠÎ´ÎµÏĥÎ¼á½°":9242,"ĠÎ´ÎµÎ¹ÎºÎ½á½»Î½":9243,"ĠÎ¼Î¿ÏĩÎ»Îµá½·":9244,"Ġá¼ĲÏĢÎ¹ÎºÎµÎ¹":9245,"ĠÎ´Î¹Î±ÏĢÏģá½±":9246,"ĠÎºÎ±ÏĦÎ±Î»Î·ÎºÏĦÎ¹Îºá½¸Î½":9247,"ĠÎºÎ±ÏĦÎ±Î»Î·ÎºÏĦÎ¹Îºá½¹Î½":9248,"ĠÏĥÏħÎ³ÎºÏģá½·Î½":9249,"ĠÏĢÎ¿ÏģÎ½Î¿Î²Î¿ÏĥÎº":9250,"ĠÏĥÎ·Î¼Î±Î¹Î½á½¹Î¼ÎµÎ½Î±":9251,"ĠÏĢÎ»Î¿á½»ÏĥÎ¹Î¿Î½":9252,"ĠÎºá½¹ÏĥÎ¼Î¿Î½":9253,"Ġá¼ĲÎ»Î»ÎµÎ»":9254,"Ġá¼ĲÏĢÎ¹Î½Î¿":9255,"ĠÎ¸ÎµÏīÏģá½·á¾³":9256,"Ġá¼ĲÎ¼ÏĢÎµÏĥÎ¿á½»ÏĥÎ·ÏĤ":9257,"Ġá¼ĢÎ½Î¸Î¿ÏģÎ¹ÏĥÎ¼á½¸Î½":9258,"Ġá¼ĢÎ¾á½·Î±Î½":9259,"ÏĦá½³ÏĦÎ±ÏģÏĦÎ¿Î½":9260,"ĠÎµá¼´ÏĢá¿ĥÏĤ":9261,"ĠÎ¸á½±Î»Î±ÏĥÏĥÎ±":9262,"ĠÏĢÎ±Î½Î·Î³ÏħÏģÎ¹Îºá½¹Î½":9263,"Ġá¼¡Î³ÎµÎ¼":9264,"Î¿ÏģÎ¼á½·ÏīÎ½":9265,"ĠÎ¸ÎµÏģÎ±ÏĢÎµÏħ":9266,"ĠÎ¸ÎµÏģÎ±ÏĢÎµá½·Î±ÏĤ":9267,"ĠÎ³ÏģÎ±Î¼Î¼á½´":9268,"ĠÎºÏīÎ»á½»ÎµÏĦÎ±Î¹":9269,"ĠÎºÎ±Î¸Î·Î¼á½³Î½á¿³":9270,"Î²Î±á½·Î½Î¿Î½ÏĦÎµÏĤ":9271,"Ġá¼ĢÏĢÎµÎ¹Î¸":9272,"Ġá½ĳÏĪÎ·Î»á½¸Î½":9273,"ĠÎºÏīÎ¼á¿³Î´Îµá¿ĸ":9274,"ĠÎ´Î¹Î±Î²Î¿Î»á¿ĩ":9275,"ĠÎºÎµÏģá½±ÏĦÏīÎ½":9276,"Ġá¼ĶÏĥÏĩÎµ":9277,"ÏĦÏģá½³ÏĢÎµÎ¹":9278,"Ġá¼ĪÎ¸á½µÎ½Î±ÏĤ":9279,"ĠÎºÎ¹Î¸Î±Ïģ":9280,"ĠÎºÏģÎ±ÏħÎ³":9281,"Î·ÏĦÎ±á½¶":9282,"ĠÏĨÎ±ÏģÎ¼Î±Îº":9283,"ĠÎ±á½ĶÎ¾ÎµÏĦÎ±Î¹":9284,"ĠÎ±á½ĶÎ¾Î·ÏĥÎ¹Î½":9285,"ĠÎºÏģÎµÎ¼":9286,"ĠÎ»ÏħÏĩÎ½á½·Î±Î¹":9287,"Î±á½·ÏģÎµÏĦÎ¿Î½":9288,"Ġá½ĢÎ½Î¿Î¼Î±ÏĦÎ¿ÏĢÎ¿Î¹":9289,"ĠÏĢÎ±Î¹Î´á½·Î±":9290,"Ġá¼ĢÏģÎ¹ÏĥÏĦÎµÏģá½¸Î½":9291,"ĠÎ´Î·Î¼Î±Î³ÏīÎ³á¿¶Î½":9292,"ĠÎ´Î¿á¿¦Î»Î¿Î¹":9293,"Ġá¼´ÏĥÏĩÎµÎ¹":9294,"ĠÏĢÎµá½·Î¸ÎµÏĥÎ¸Î±Î¹":9295,"Ġá¼ĢÎ»á½µÎ¸ÎµÎ¹Î±":9296,"ĠÏĢÎ±ÏģÎ±ÏĢÎ»Î·":9297,"ĠÎľÎ¹ÏĦÏħÎ»Î·Î½Î±":9298,"ĠÎ¼Îµá½·Î¶Î¿Î½Î¿ÏĤ":9299,"Ġá¼ĢÎ½ÏĦÎµÎ³ÎºÎ»Î·Î¼Î±ÏĦÎ¹Îºá½´":9300,"Ġá¼ĶÎ»Î±Î²ÎµÎ½":9301,"ĠÏĩÎµÏģÏĥá½¶Î½":9302,"ĠÏĢÏģÎ¿ÎºÎµá½·Î¼ÎµÎ½Î¿Î½":9303,"ĠÎ½ÎµÎ½ÎµÏħÎº":9304,"Ġá¼ĪÏģÏĩÎ¹Î´":9305,"Ġá¼ĢÎ½ÏĦÎ¹Î´Î¹Î±ÏĥÏĦ":9306,"ĠÎºÎ¿Î¹Î»á½¹ÏĦÎ·ÏĦÎ±":9307,"ĠÎľÎ±ÏĦÎ¸Î±":9308,"Ġá¼ĲÏĥÏĨÏģÎ±Î³":9309,"ĠÎ¼Î±Î³Îµá½·":9310,"ĠÏĦÎµÏĦÎ±Î³Î¼á½³Î½ÏīÎ½":9311,"ĠÏĦÏħÏĩá½¸Î½":9312,"Ġá¼ĢÎ´ÎµÎ»ÏĨá¿¶Î½":9313,"Ġá¼ĲÏĢÎ¿Î¹Î¿á¿¦Î½ÏĦÎ¿":9314,"ĠÏĢÎ»á½±Î³Î¹Î±":9315,"ĠÎºá½±Î¼ÏĢÏĦÎµÏĥÎ¸Î±Î¹":9316,"Ġá¼ĢÎ¼ÏĨÎ¹ÏĥÎ²Î·ÏĦÎ¿á¿¦ÏĥÎ¹Î½":9317,"ĠÏĥÏĢÎ¿ÏħÎ´á¿ĨÏĤ":9318,"Ġá¼ĢÏĢÎ¿ÎºÎ±Î»á½»ÏĪÎµÎ¹":9319,"ĠÏĢÎ·Î´Î±Î»Î¹":9320,"ĠÎ¼Î¿ÏģÏĨá½´":9321,"ĠÎ¼Î¿ÏģÏĨá¿ĨÏĤ":9322,"ĠÏĢÎ±Ïģá½³Î´ÏīÎºÎµÎ½":9323,"á½±ÏĥÏĥÎµÎ¹Î½":9324,"ĠÎ´Î¹Î±ÏĥÎµá½·":9325,"ĠÎ´Î¹Î±ÏĥÏĢÎ±":9326,"ĠÎ±á¼°Î´Î¿á¿ĸÎ¿Î½":9327,"á½µÎ½ÎµÎ³ÎºÎµÎ½":9328,"ĠÏĥÏĦÎ¿ÏĩÎ±ÏĥÏĦÎ¹Îºá½¸Î½":9329,"ĠÎ²ÏģÎ±Ïĩá½»ÏĦÎµÏģÎ¿Î½":9330,"Ġá¼ĲÎ³ÎºÎ»á½µÎ¼Î±ÏĦÎ±":9331,"ĠÎºÎ±ÏģÏĢá½¸Î½":9332,"ĠÎµá½ĲÎµÏģÎ³ÎµÏĥá½·Î±Î½":9333,"ĠÏĨÎ¹Î»á½¹ÏĥÎ¿ÏĨÎ¿Î¹":9334,"ĠÎºÎ±ÏĦÎ¿Î¹ÎºÎ¿á¿¦Î½ÏĦÎµÏĤ":9335,"Ġá¼ĮÏģÎµÎ±":9336,"ĠÎ¸Î»á½·ÏĪÎ¹Î½":9337,"ĠÏĦÏģá½±ÏĩÎ·Î»Î¿Î½":9338,"ĠÎºÎ±ÏĢÎ½Î¿á¿¦":9339,"Ġá¼°Î·ÏĦÏģÎµá½»ÎµÎ¹Î½":9340,"ĠÏĨá½±ÏģÎ¼Î±ÎºÎ¿Î½":9341,"ĠÎ¼ÎµÎ»Î»Î¿á½»ÏĥÎ·ÏĤ":9342,"ĠÎ½ÏħÎºÏĦá½¸ÏĤ":9343,"Ġá¼ĲÎ¾á½³ÏĩÎµ":9344,"ĠÏĢÎ»Î¿ÏħÏĥá½·Î¿Ïħ":9345,"ĠÎ¼Î¹ÎºÏģÎ¿á¿ĸÏĤ":9346,"Ġá¼ĢÎ»á½½ÏĢ":9347,"Ġá¼ĶÎ¿Î¹ÎºÎµÎ½":9348,"ÏĦÎµÏĩÎ½á½·Î±":9349,"ĠÎ²Î¿á¿ĩ":9350,"Ġá¼¤ÏģÎºÎµÎ¹":9351,"ĠÎºá½·Î½Î´ÏħÎ½Î¿Î½":9352,"Ġá½ĻÏĢÎµÏģ":9353,"Ġá¼ĢÏĦÎµÎ»Îµá½»ÏĦÎ·":9354,"ĠÎ»ÎµÎ»Î·Î¸á½¹ÏĦÏīÏĤ":9355,"ĠÎ¼ÎµÎ»ÎµÏĦá¾¶ÏĦÎ±Î¹":9356,"Ġá¼ĲÎºÏĢÎµÏĥá½¸Î½":9357,"ĠÎ¼ÎµÏĦÎ±Î½Î¿":9358,"Ġá¼ĲÏĢÎ¹Î²Î¿ÏħÎ»á¿ĨÏĤ":9359,"ĠÎµá½ĲÎ½Î¿á½»":9360,"ĠÎ¾ÏħÎ¼ÏĨÎ¿Ïģ":9361,"ĠÎ¼ÎµÏĦÎ±Î²Î¿Î»á½´Î½":9362,"Ġá¼ĪÏģÎ¹ÏĥÏĦÎ¿ÏĦÎµÎ»Î¹Îºá¿¶Î½":9363,"Ġá¼ĢÏģÎ½á½·á¿³":9364,"ĠÎ¸ÎµÏģÎ¼Î±á½·Î½ÎµÎ¹Î½":9365,"ĠÎĸÎµá½ºÏĤ":9366,"ĠÏĢÏħÎ»á¿¶Î½ÎµÏĤ":9367,"Ġá¼ĲÏģÏĩá½¹Î¼ÎµÎ¸Î±":9368,"ĠÎ²Î»á½³ÏĢÎµÎ¹Î½":9369,"Î»Î±Î¼Î²Î±Î½á½¹Î¼ÎµÎ½Î¿ÏĤ":9370,"ĠÏĥÏĦÎµÏĨá½±Î½Î¿Ïħ":9371,"Ġá½ĳÏĢÎ¿ÏĪá½·Î±Î½":9372,"Ġá½ĳÏĢÎ¿ÏĪá½·Î±ÏĤ":9373,"ĠÎºÏĦá½µÎ½Î·":9374,"ĠÎ´á½¹Î³Î¼Î±":9375,"Ġá¼ĲÏĢÎ±Î³Î³á½³Î»Î»":9376,"ĠÎ´Î¹Î±Î¸á½µÎºÎ·ÏĤ":9377,"ĠÏĥÏĨá½¹Î½Î´ÏħÎ»Î¿Î½":9378,"ĠÎ´Î¹Î´á½±Î¾Î±Î¹":9379,"ĠÏĢÏģÎµÏĥÎ²á½»ÏĦÎµÏģÎ¿Î¹":9380,"ĠÏĩÎ¹Î»Î¹á½±Î´ÎµÏĤ":9381,"ĠÎ»ÏħÏĩÎ½á½·Î±ÏĤ":9382,"ÏĢÏģá½¹Î´Î·Î»Î¿Î½":9383,"ĠÏĢÎµÏģá½·ÏĥÏĦÎ±ÏĥÎ¹Î½":9384,"ĠÎ½á½µÏĥÎ¿ÏħÏĤ":9385,"ĠÏĢÏģÎ¿ÏĥÎ´Î¹Î¿ÏģÎ¹ÏĥÎ¼":9386,"ĠÎ¦Î¹Î»á½·":9387,"Ġá¼ĳÏīÏħÏĦÎ¿á¿¦":9388,"ĠÎļÎ±ÏĦÎ·Î³Î¿Ïģá½·Î±Î¹":9389,"ĠÎļÎ±ÏĦÎ·Î³Î¿Ïģá½·Î±Î¹ÏĤ":9390,"Ġá¼ĿÎ»Î»Î·ÏĥÎ¹":9391,"Ġá¼ĲÎ³ÎºÏīÎ¼Î¹Î±ÏĥÏĦÎ¹Îºá¿¶Î½":9392,"ĠÎ´Î¹Î±ÏĥÏĦÏģÎ¿ÏĨá½´Î½":9393,"ĠÏĦá½³Î¸ÎµÎ¹ÎºÎµÎ½":9394,"Ġá¼ĢÏĥá½½Î¼Î±ÏĦÎ¿Î½":9395,"ÏĥÏħÎ¼Î²Î±á½·Î½ÎµÎ¹":9396,"ĠÏĢá¿ĨÏĩÏħÎ½":9397,"ĠÏĨÎ»ÎµÎ²á¿¶Î½":9398,"ĠÎ³ÏīÎ½á½·Î±ÏĤ":9399,"Ġá¼ĶÎ¸Î·ÎºÎµÎ½":9400,"Ġá¼ĦÏĩÏģÎ·ÏĥÏĦÎ¿Î½":9401,"Ġá¼ĳÏĦÎ¿á½·Î¼ÏīÏĤ":9402,"Ġá¿¥Î¹Î½á½¸ÏĤ":9403,"ĠÏĦá½·Î¸ÎµÏĦÎ±Î¹":9404,"ĠÏĦá½·Î¸ÎµÏĥÎ¸Î±Î¹":9405,"Ġá¼ĲÏĢá½·Î´ÎµÏĥÎ¹ÏĤ":9406,"ĠÏĦÎ¿Î¹Î¿á½»ÏĦÎ¿Î¹ÏĥÎ¹Î½":9407,"ĠÎłÎ±ÏĦÏģá½¸ÏĤ":9408,"ĠÎłÎµÎ»Î¿ÏĢÎ¿Î½Î½Î·ÏĥÎ¹Î±Îº":9409,"Ġá¼ĲÏĢÎ¿á½·ÎµÎ¹":9410,"Î´ÎµÎ¹ÎºÎ½á½»":9411,"Î¼ÎµÏĦÏģá½·Î±":9412,"ĠÏĢÎ¿Î½Î·Ïģá½·á¾³":9413,"Ġá¼ĲÎºÏĢÎ¿ÏģÎµá½»ÎµÏĦÎ±Î¹":9414,"ĠÎ¸Î±ÏħÎ¼Î±ÏĥÏĦ":9415,"ĠÎ»Î¿Î¹Î´Î¿Ïģ":9416,"ĠÏĦÎ·Î½Î¹ÎºÎ±á¿¦ÏĦÎ±":9417,"Î³Î´Î¿Î¿Î½":9418,"ĠÎºÎ±ÏĦÎµÎ¹Î»Î·ÏĨ":9419,"ĠÏĢá½¹ÏģÏĢÎ±":9420,"Ġá¼łÏģÎµÎ¼á½·Î±":9421,"ĠÎ³Î½á½µÏĥÎ¹Î¿Î½":9422,"ĠÎºÎµÎºÎ»Î¿ÏĨ":9423,"ĠÏĥá½»Î½Î´ÎµÏĥÎ¼Î¿Î½":9424,"Ġá¼ĢÎ½Î±Î½ÏĦá½·á¿¤á¿¥Î·ÏĦÎ¿Î½":9425,"Îµá½ĶÎ´Î·Î»Î¿Î½":9426,"ÎºÏģÎ¹ÏĥÎ¹Î½":9427,"Ġá¼ĢÏĢÎµÏģá½·ÏĥÏĦÎ±ÏĦÎ¿Î½":9428,"ÏĦá½³ÏĩÎ½ÏīÎ½":9429,"Ġá¼ĪÏģá½·Î³Î½Ïī":9430,"Ġá½ĦÏģÎ³Î±Î½Î¿Î½":9431,"ĠÎ£Î¿ÏĨÎ¿Îº":9432,"ĠÏĢÎ¿Î»Î¹ÏĦÎµÏħÎ¿Î¼á½³Î½ÏīÎ½":9433,"ĠÎµá½ĶÎ·Î¸ÎµÏĤ":9434,"á¼ĪÏĢÎ¿ÏģÎ¿á¿¦ÏĥÎ¹":9435,"ĠÎ´Î¿ÏħÎ»":9436,"ĠÎ¸Ïģá½±Ïĥ":9437,"Ġá¿¥á¾´Î´Î¹Î¿Î½":9438,"ĠÎ²Î¿ÏħÎ»Îµá½»ÎµÏĥÎ¸Î±Î¹":9439,"ĠÏĥÎµÎ±ÏħÏĦÎ¿á¿¦":9440,"Ġá¼´Î±Î¼Î²Î¿Î¹":9441,"Ġá¼ĪÎ»ÎºÎ¹Î²Î¹á½±Î´Î·ÏĤ":9442,"ĠÏĦá¿ĨÏĥÎ´Îµ":9443,"ĠÏĨÎ»á½³Î²":9444,"Ġá¼ĦÏĢÎ¿ÏģÎ¿Î½":9445,"ĠÏĢÏģÎ¿ÏĥÎ´á¿ĨÏĥÎ±Î¹":9446,"ĠÎ£ÏħÏģÎ¹":9447,"ĠÎ´á½·ÏīÎ¾Î¹Î½":9448,"Ġá¼ĲÎ³ÎºÎµÏĨá½±Î»Î¿Ïħ":9449,"ĠÎºÎµá¿ĸÎ½ÏĦÎ±Î¹":9450,"Ġá¼Ģá¿¤á¿¥ÏīÏĥÏĦ":9451,"ĠÏĦá½³ÎºÎ½Î±":9452,"ĠÏĥÏħÎ¼ÏĢá½³ÏģÎ±ÏĥÎ¼Î±":9453,"Ġá¼ĳÏĥÏĦá¿¶ÏĦÎ±ÏĤ":9454,"Ġá¼ĳÏīÏģÎ±Îºá½¹":9455,"ĠÏĩÎµÏģÏĥÎ±á¿ĸÎ¿Î½":9456,"ĠÏĥÏĦá½³ÏĨÎ±Î½Î¿ÏĤ":9457,"ĠÎ´Ïģá½³ÏĢÎ±Î½Î¿Î½":9458,"Ġá¼ĶÎ»Î±ÏĥÏĥÎ¿Î½":9459,"ĠÎ»Î¹Î²Î±Î½":9460,"ĠÎ£Î¹ÎºÎµÎ»":9461,"Ġá¼ĢÏĢÎ¿ÎºÏĦÎ¹Î½Î½á½»Î½Î±Î¹":9462,"Ġá¼ĢÏĢÎ±Ïģá½·Î¸Î¼Î·ÏĥÎ¹Î½":9463,"ĠÎ´Î¹Î´á½±ÏĥÎºÎ±Î»Î¿ÏĤ":9464,"ĠÎ¼ÎµÎ¹ÏģÎ±Îºá½·Î¿Ïħ":9465,"ĠÏĢÎ·Î´á½±Î»Î¹Î¿Î½":9466,"Ġá¼ĲÏĢÎ±Î³Î³ÎµÎ¹Î»á½±Î¼ÎµÎ½Î¿ÏĤ":9467,"ĠÎ¾ÏħÎ³Îºá½±Î¼ÏĢÏĦÎµÎ¹Î½":9468,"ĠÎºá½µÏģÏħÎ³Î¼Î±":9469,"ĠÎ»Î±á½·Î¸Î±":9470,"Ġá¼ĢÏĢá½³ÏĥÏĨÎ±":9471,"Ġá¼ĪÏĢá½¹Î»Î»ÏīÎ½":9472,"Ġá¼ĢÏĦÎµÎ»Îµá½»ÏĦÎ·ÏĦÎ¿Î½":9473,"Îĸ":9474,"ĠÏĤ":9475,"ĠÏī":9476,"á½©":9477,"á½ł":9478,"ÏĦá½±Ïĥ":9479,"ÏĦá¿ĨÏĥÎ±Î¹":9480,"ÏĦá¿ĨÏĥÎ¸Î±Î¹":9481,"Î½á½¹":9482,"Î½á¾¶ÏĤ":9483,"Î±á½Ĳ":9484,"Î±ÏĥÏĢ":9485,"Î¿á½º":9486,"Î¿ÏĢÎ±":9487,"á¼§":9488,"Î¹ÏĥÎ±Î½":9489,"ÎµÏĦÎµÏģ":9490,"ÎµÍ´":9491,"Ġá¼ĨÏģÎ±":9492,"Ïģá¿ĸÎ½Î±Î¹":9493,"ĠÏĦÎ¿á¿ĸ":9494,"ĠÏĦÎ¼Î·":9495,"ÏĥÎ¼á½³Î½ÏīÎ½":9496,"ÏĥÎ¼á½³Î½Î¿Ïħ":9497,"ÏĥÎ·ÏĦÎ±Î¹":9498,"ÏĥÎ¼á½³Î½Î±":9499,"ÏĥÎ¼á½³Î½Î·Î½":9500,"ÏĢá½³":9501,"ÏĢÏģÎ±":9502,"ÏĢÎ±ÏĤ":9503,"ÏĢÏģá½½":9504,"ÏĢÎ·ÏĩÏħ":9505,"Î»á¿Ĩ":9506,"Î»ÎµÎ¹Î±Î½":9507,"Î»á½¹Î¼Î·Î½":9508,"Î¼Î¼Î±":9509,"Î¼Î·Î´":9510,"ĠÎºÎ½":9511,"ĠÎºá½³Ïģ":9512,"ĠÎºÎ»Î±":9513,"ĠÎºÎ¿Ïĩ":9514,"ĠÎºÎ¿Î½Î´á½»Î»":9515,"ĠÎºá½±Î»ÏīÎ½":9516,"ĠÎºá¿¦Î¼Î±":9517,"Îºá½»":9518,"ÎºÏģÎµ":9519,"Îºá½±Î»Î»":9520,"ÏħÎ±":9521,"ÏħÎ¼Î²":9522,"ÏħÎ´Ïģ":9523,"Î·ÏĥÏĦ":9524,"Î·Î»Î¹":9525,"Î·Î¼á½³Î½ÏīÎ½":9526,"Î·Î¸á½³Î½ÏĦÏīÎ½":9527,"ĠÏĢÏī":9528,"ĠÏĢá½»":9529,"ĠÏĢá½½":9530,"ĠÏĢÎ¿á¿ĸ":9531,"ĠÏĢá½±Ïĩ":9532,"ĠÏĢá½¹Î½ÏīÎ½":9533,"ĠÏĢá½»Î»Î±ÏĤ":9534,"á½·Î´Î¹":9535,"á½·Î´ÎµÏĤ":9536,"á½·ÏĥÎ¼Î±ÏĦÎ±":9537,"á½³ÎºÎ±":9538,"á½³Î»ÎµÏħ":9539,"ĠÎºÎ±ÏĦÎµÎ»":9540,"Ġá¼ĲÏģÎ¹":9541,"Ġá¼ĲÏĦá½³":9542,"Ġá¼ĲÎ»Îµá½»":9543,"Ġá¼ĲÏģÏħ":9544,"Ġá¼Ĳá½¹Î½ÏĦÎ±":9545,"ÏīÏģÎ±":9546,"ÏīÏĦÎ¿á¿¦":9547,"ÏīÏĥÎµÎ½":9548,"ÏīÏģÎ¹Îº":9549,"ÏīÏĦá½¹ÏĤ":9550,"ÏīÎ¸á¿ĩ":9551,"ĠÎ´á½µÎ»":9552,"Î³Î¿ÏĤ":9553,"Î³Î¿ÏħÎ½":9554,"Î¿Î½ÎµÏĤ":9555,"Î¿á¿ĨÏĤ":9556,"Î¸á½»":9557,"Î¸á¿³":9558,"Î¸á½·Î¿Î¹ÏĤ":9559,"á½¹Î´Î¹":9560,"á½¹ÏģÎ±ÏĤ":9561,"Ġá¼Ģá½³":9562,"Ġá¼ĢÏĥÏĨ":9563,"Ġá¼ĢÎºÎ±ÏĦÎ±":9564,"Ġá¼ĢÎ´ÏħÎ½":9565,"Ġá¼ĢÏĥÏĩÎ·":9566,"ĠÎ¼ÎµÎ½":9567,"ĠÎ¼á¿ĨÎ½Î±ÏĤ":9568,"Ïĩá½³":9569,"ÏĩÎ¿Î½ÏĦÎ±":9570,"Ïĩá½¹Î½ÏĦÏīÎ½":9571,"Ïĩá½·ÏĥÏĦ":9572,"Î´á½µÎ¼Î±ÏĦÎ±":9573,"Î¿á¿¦Î¼Î±Î¹":9574,"ÎµÎ¹Ïĩ":9575,"ÏĥÏĦÎ·":9576,"ÏĥÏĦá½·":9577,"ÏĥÏĦÎµÏħ":9578,"ÏĥÏĦÎµá½·Î±ÏĤ":9579,"Î¿Î¹ÎºÎµ":9580,"ĠÎ³Î¿á½»":9581,"ĠÎ³ÎµÎ»":9582,"ĠÎ³á½¹Î½Î±":9583,"Î±Î¹Î¿ÏĤ":9584,"ĠÎµá¼µ":9585,"á¿ĸÎ±":9586,"Î±Î½á½¹ÏĤ":9587,"á½µÎºÎµ":9588,"á½µÏĢÎ¿ÏĦÎµ":9589,"á½µÏĩÎ¸Î·":9590,"ÎµÎ½ÎµÎ³Îº":9591,"ĠÏĥÎ·":9592,"ĠÏĥÎ±Ïħ":9593,"ĠÏĥá½³Î²":9594,"ĠÏĥÎ±á½·Î½":9595,"á½³Î½ÏĦÎ¿ÏĤ":9596,"á½³Î½ÏĦÏīÎ½":9597,"´Î½Î¹Î³Î¼Î±":9598,"Îµá¿ĸÎ»Î¿Î½":9599,"Îµá¿ĸÏĩÎ¿Î½":9600,"Î»Î»Ïħ":9601,"Ġá¼ĲÎ½Î´Îµá½·":9602,"Ġá¼ĲÎ½Î¿Î¹Îº":9603,"Ġá¼ĲÎ½Î´ÎµÎ¹ÎºÎ½á½»":9604,"Î¼Î±Îºá½±":9605,"ĠÎ´Î¹á½³Î»":9606,"ĠÎ´Î¹ÎµÎ»Î¸Îµá¿ĸÎ½":9607,"ĠÎ´Î¹á¿ĥÏģÎ·":9608,"ĠÎ´Î¹á½¹ÏģÎ¸":9609,"Î¾á½±":9610,"Î¾Î¿ÏħÏĥÎ¹":9611,"Î¾Î¿Î¼ÎµÎ½":9612,"Ġá¼ĶÏĦ":9613,"Ġá¼ĶÏĢÎµÎ¹":9614,"Ġá¼Ķá¿¤á¿¥":9615,"Î²Î·":9616,"Î²ÏħÏģ":9617,"Î²á½¹Î»":9618,"Î²Î´Î¿":9619,"Ġá¼ĲÏĢÎ»á½µ":9620,"Ġá¼ĲÏĢá½³Î¼ÎµÎ¹Î½Îµ":9621,"ĠÎ±á½ĲÏĦÎ¿á¿ĸÏĥÎ¹Î½":9622,"ÏģÎ±ÏĦÎµ":9623,"ÏģÎ±Î¼Î½":9624,"ĠÎ»á¿Ĩ":9625,"ĠÎ»Î¿ÏĢ":9626,"ĠÎ»ÏħÎ¸":9627,"Ġá½ħÎ»Î±":9628,"ĠÏĨÎ»Î¹":9629,"á¿¶Î½Î¹":9630,"Ġá¼¡Î´á½»":9631,"á½½Î»Î·":9632,"á½½Î¼ÎµÎ½Î¿Î¹":9633,"ÏĦÎ·ÏĥÎµ":9634,"Ġá¼ĢÎ½Î¹":9635,"Ġá¼ĢÎ½á½½":9636,"Ġá¼ĢÎ½á½³Î»":9637,"Ġá¼ĢÎ½Î¹Ïĥ":9638,"Ġá¼ĢÎ½ÏĦÎ±Î³":9639,"Ġá¼ĢÎ½ÏħÏĢ":9640,"Ġá¼ĢÎ½á½±ÏĥÏĦÎ±ÏĥÎ¹ÏĤ":9641,"Ġá¼ĢÎ½Îµá½»Î¸ÏħÎ½Î¿Î½":9642,"ÏĥÎ¹Î½Î¿Î½":9643,"ÏģÎ¹ÏĤ":9644,"ÏĥÎ¸Î¹":9645,"ÏĦÎ¿Î¼á½³Î½ÏīÎ½":9646,"ÏĦÎ¿ÏģÎ¿ÏĤ":9647,"ÎºÎ±Ïħ":9648,"Ġá¼ĦÏĥÏĦ":9649,"Ġá¼ĦÎ²":9650,"Ġá¼ĦÎ¼Î²":9651,"Ġá¼ĦÎ»ÎµÏħÏģÎ¿Î½":9652,"Ġá¼ĦÎ»ÎµÏħÏģÎ±":9653,"Ġá¼ĢÏĢÎµá½·":9654,"Ġá¼ĢÏĢÎµá¿ĸÎ½Î±Î¹":9655,"Ġá¼ĢÏĢÎ¿á¿¤á¿¥":9656,"ĠÎ¿á½ĳ":9657,"ĠÎ¿á½Ĵ":9658,"Î¼ÎµÎ½á½¹Î½":9659,"ĠÏĢÎ±ÏĦá½±":9660,"Îµá½·Î¿ÏħÏĤ":9661,"Îµá½·ÏĦÎ¿Î½":9662,"ĠÏĩÎ¿Î¹":9663,"ĠÏĩÎ¿á½·":9664,"ĠÏĩÎ±Ïģ":9665,"Î¿á¿ĸÎµÎ½":9666,"á½³Î³ÎºÎ¿Î¹":9667,"Ġá¼ĲÎºá½±":9668,"Ġá¼ĲÎºÎ´":9669,"Ġá¼ĲÎºÎ¿Î»":9670,"Ġá¼ĲÎºÎ»Îµ":9671,"Ġá¼ĲÎºÎ²Î¿Î»":9672,"ĠÏĢÏģÎ¿ÏĥÎ¹":9673,"ĠÏĢÏģÎ¿ÎµÎ´":9674,"ĠÏĢÏģÎ¿ÏĦÎµá½·Î½":9675,"ĠÏĢÏģÎ¿ÏĥÎ¸Îµá½¶ÏĤ":9676,"Î»Î·Î¸Îµá½¶ÏĤ":9677,"Î»Î·Ïģá½½":9678,"á¿¦ÏĥÎ¹":9679,"ĠÎ¸ÏģÎ±":9680,"ĠÎ¸á½³Î±":9681,"ĠÎ¸Îµá½·á¿³":9682,"ĠÎ¸Îµá½·Î¿Î¹ÏĤ":9683,"Î¹ÎºÎ¿ÏĤ":9684,"Î¶Ïī":9685,"Î¶Î¿Ïħ":9686,"Î¶Î·ÏĦ":9687,"Î¶á½¹Î¼ÎµÎ½Î¿Î½":9688,"Î¶á½¹Î½ÏĦÏīÎ½":9689,"Î¿Î»á½¹":9690,"ĠÎ²ÏħÎ¸":9691,"á½±Î½Î¸ÏģÏī":9692,"Ġá½ĳÏĢÎµÎ½":9693,"á½·Î½Î¿Î½ÏĦÎ¿ÏĤ":9694,"á½·Î½ÎµÏĦÎ¿":9695,"á½·Î½Î±Î¹Î¿Î½":9696,"ĠÎ¼ÎµÎ¼Î±":9697,"ĠÎ¼ÎµÎ´á½³":9698,"Ġá¼ĳÏĪ":9699,"Ġá¼ĳá½½ÏģÎ±":9700,"ÏĪÏī":9701,"ÏĪÎ¹Î»":9702,"ĠÎ»á½³Î³Î¿Î½":9703,"á½µÏĥÎµÏĥÎ¹Î½":9704,"Î»ÎµÎ±Ïģ":9705,"Î»ÎµÏĢÎ¿Î½":9706,"Î»Îµá¿¦ÏĥÎ±Î¹":9707,"ĠÎ±á¼´Î½Î¹Î³Î¼Î±":9708,"Ġá½ĢÏĪ":9709,"ĠÏĦÎµÏĦÎµÎ»":9710,"ĠÏĢÎ±Ïģá½½Î½ÏħÎ¼Î¿Î½":9711,"ÏĦá½·Î±ÏĤ":9712,"á½±ÏĥÏĩ":9713,"Ġá¼ĶÏĩÎµÏĦÎ±Î¹":9714,"Ġá¼ĶÏĩÎµÏĦÎµ":9715,"Î¿ÏģÎ¿Î¹":9716,"Î¿á½»Î»ÎµÏħ":9717,"Î¿á½»Î»ÎµÏĦÎ¿":9718,"Î¿á½»ÏĥÎ±Î¹ÏĤ":9719,"ĠÎ´Î¹Î±á¿¤á¿¥":9720,"ÏĥÎ±Î¼á½³Î½Î·":9721,"ÏĥÎ±Ïĩá¿¶ÏĤ":9722,"ĠÏĢÎ¿Î¹Î¿á½»Î¼ÎµÎ½Î¿ÏĤ":9723,"ĠÏĢÎ¿Î¹á½³ÎµÎ¹Î½":9724,"ĠÏĢÎ¿Î¹Î¿ÏĦá½µÏĦÏīÎ½":9725,"ĠÎ¿á½ĸÏĥÎ¹Î½":9726,"ÏĦÎµÏģÎµá½·":9727,"ÏģÎ·ÏĦÎ±":9728,"ÏģÎ·Î²":9729,"ÏģÎ·Î³Î¿Ïģ":9730,"ÏģÎ·Î³á½¹":9731,"Ġá¼ĲÏĢÎ¹Î´Î¹":9732,"Ġá¼ĲÏĢÎ¹á¿¤á¿¥":9733,"Ġá¼ĲÎ¾Î¿Î¼":9734,"Ġá¼ĲÎ¾Î±Î³Î³":9735,"Ġá¼ĲÎ¾Î±Î»Îµá½·":9736,"ÏĦÎ¹Îºá½µÎ½":9737,"ĠÏĥÏĦÎ¿Î¼":9738,"ĠÏĥÏĦÎ·ÏģÎ¹Î¶":9739,"ĠÏĥÏĦÎµÏĨÎ±Î½":9740,"ÎµÏħÎ¿Î½":9741,"ĠÎµá¼´Î´Îµ":9742,"ĠÎµá¼´ÎºÎ¿":9743,"ĠÎµá¼´ÏģÎ·Î½ÏĦÎ±Î¹":9744,"Î±Î³Îºá½±Î¶":9745,"ĠÏĢÎ¿Ïĥá½¶":9746,"Î¸ÏģÎ¿Î½":9747,"Î¿Î³Î½":9748,"Ġá¿¥á½³Î³":9749,"Ġá¿¥á½¶ÏĤ":9750,"ÏĥÎµÏĦÎµ":9751,"Ïģá½±ÏĤ":9752,"á½¹Î¼ÎµÎ½á½¹Î½":9753,"ĠÎ¶ÎµÏĥÏĦ":9754,"ĠÎ¶á½»Î³":9755,"ĠÎ¶Î·Î¼Î¹":9756,"ĠÎºÎ±ÏĦÎ±Î½":9757,"ĠÎºÎ±ÏĦÎ±ÏĦÎ±":9758,"ĠÎºÎ±ÏĦÎ±Î´Îµ":9759,"ĠÎºÎ±ÏĦÎ±ÏĢÎ¹":9760,"ĠÎºÎ±ÏĦÎ±Î²Î±á½·Î½ÎµÎ¹Î½":9761,"á½±Î»Î±ÏĤ":9762,"Î±Î»Î¼Î±":9763,"Îµá½»Î¿ÏħÏĥÎ¹":9764,"Îµá½»Î¼Î±ÏĥÎ¹":9765,"ÏģÎ¿Î¾":9766,"ÏģÎ¿Î´Î¹":9767,"ĠÏĥÏħÎ½á½±Î³":9768,"ĠÏĥÏħÎ½ÎµÎº":9769,"ĠÏĥÏħÎ½ÎµÎ¶":9770,"ĠÏĥÏħÎ½á½µÎ³Î±Î³ÎµÎ½":9771,"ĠÏĥÏħÎ½ÏĦÎ±Ïģá½±":9772,"Î·ÏĦÎ¿á¿¦":9773,"Î·ÏĦá½µÏģÎ¹Î¿Î½":9774,"Ġá¼ĪÎ´":9775,"Ġá¼ĪÎ½Î±":9776,"Ġá¼ĪÎ¼ÏĨ":9777,"Ġá¼ĪÎ»ÎµÎ¾":9778,"ÏĥÎ¼á¿·":9779,"Ġá¼ķÎ¾ÎµÎ¹ÏĤ":9780,"á½±Î³Î³":9781,"ÎµÎ»á½³":9782,"ÎµÎ»á½³ÏīÎ½":9783,"ĠÎ´á½³Î¿Î¹":9784,"ĠÎ´á½³ÎµÏĦÎ±Î¹":9785,"ĠÎ´á½³Î»ÎµÎ±Ïģ":9786,"ĠÏĦÎ¿á½»ÏĤ":9787,"Ġá½ĦÏģÎ·":9788,"ĠÎµá¼¶Î´Îµ":9789,"ÏĥÏĦÎ±ÏĦÎ¿Î½":9790,"ÏĥÏĦÎ±á¿ĸÏĤ":9791,"ÏĥÎºÏī":9792,"Ġá¼ģÎ»Î¼":9793,"ĠÎłÎ±Î»Î»":9794,"ĠÎłá½»Î¸":9795,"ĠÎłÎ»ÏīÏĦ":9796,"ÏĥÏĩÎµ":9797,"ĠÏĢÏģÎ¿ÏĥÎµÏħ":9798,"ĠÏĢÏģÎ¿ÏĥÏĢÎ¿Î¹":9799,"ĠÏĢÏģÎ¿ÏĥÎºÎ±ÏĦÎ±":9800,"ĠÏĢÏģÎ¿ÏĥÏīÏĢ":9801,"ĠÏĢÎ»Îµá¿ĸÎ¿Î½":9802,"ĠÏĢÎ»Î¿á¿¦ÏĦÎ¿ÏĤ":9803,"ĠÏĥÎºÎµá¿¦":9804,"ĠÏĥÎºÎµÎ»á½³ÏīÎ½":9805,"ĠÏĦÎ¿Î¹Î¿Ïħ":9806,"ĠÎ±á¼±ÏģÎµ":9807,"ÏĦÏģÎµÏĨ":9808,"ÏĦÏģá½³Ïĩ":9809,"ÎµÎ¹Î´á½°Î½":9810,"Ġá¼ĢÎ½ÏĦÎ¹ÏĦ":9811,"Ġá¼ĢÎ½ÏĦÎ¹ÏĢ":9812,"Ġá¼ĢÎ½ÏĦÎ¹Î»á½³Î³":9813,"Ġá¼ĢÎ½ÏĦÎ¹ÏĦÎµÏĦÎ±Î³":9814,"Ġá¼ĢÎ½ÏĦÎ¹ÏĦá½·Î¸Î·ÏĥÎ¹":9815,"Î¸ÎµÏĦÎ¿ÏĤ":9816,"Î¸ÎµÏĥÎ±Î½":9817,"ĠÏĢÎµÏģÎ¹Îµ":9818,"ĠÏĢÎµÏģÎ¹Î»Î±Î¼Î²á½±Î½ÎµÎ¹":9819,"á½µÎ½á¿ĥ":9820,"Î·ÎºÎ¿":9821,"Î·Îºá½¸ÏĤ":9822,"Ġá¼ĲÎ³Î½":9823,"Ġá¼ħÏĦÎ¹Î½Î±":9824,"Î´Î·Î»Î¿ÏĤ":9825,"Ġá¼ĢÎºá½±":9826,"Î´Î±ÏĨÎ¿ÏĤ":9827,"ĠÎ¼Î·Ïĩá½±Î½":9828,"ĠÎ¼Î·Ïģá¿¶Î½":9829,"ĠÎ¼Î·Ïģá¿·":9830,"ÏĢÎ±á½»":9831,"ÏĢÎ±ÏĥÏĦÎ±":9832,"ÏĢÎ±ÏģÎµ":9833,"ÏĢÎ±ÏģÎ¿Î¾":9834,"ĠÎ¿á½ĶÏĥá¿ĥ":9835,"á½»Î½ÎµÎ¹":9836,"á½±Î¶Î¿ÏħÏĥÎ¹":9837,"á½±Î¶Î¿ÏħÏĥÎ±":9838,"ĠÎ¸Îµá½¸Î½":9839,"Î¸ÎµÎ½ÏĦÎ¿":9840,"Ġá¼ĢÎ½Î±ÏĦÎµ":9841,"Ġá¼ĢÎ½Î±ÏĥÎºÎµÏħ":9842,"Ġá¼ĢÎ½Î±ÏĢÎ½":9843,"Ġá¼ĢÎ½Î±ÏĥÏĦá½±ÏĥÎµÏīÏĤ":9844,"Ġá¼ĢÎ½Î±Î²Î±á½·Î½ÎµÎ¹Î½":9845,"ĠÎºÎ±Î»Î¿á¿¦Î¼ÎµÎ½":9846,"ĠÎºÎ±Î»Î¿á½»Î¼ÎµÎ½Î±":9847,"ĠÎ´Î¹Î±ÏĨÏīÎ½":9848,"ĠÎ´Î¹Î±ÏĨÎ¸Îµá½·":9849,"ĠÎ³ÎµÎ½Î½Î±":9850,"ĠÏĦÏģá½½":9851,"ĠÏĦÏģÎµÏĨ":9852,"ĠÎ¼ÎµÏĦÎ±Î¸á½³ÏĥÎµÏīÏĤ":9853,"ĠÎ¼ÎµÏĦÎ±Î¾á½»":9854,"ĠÎºÎ±ÏĦá½¹ÏģÎ¸":9855,"ÎµÎ¹Î´á½´ÏĤ":9856,"á½»Î»Î¿ÏĤ":9857,"Î¼Î¹Î»Î»":9858,"Ġá¼ĢÏģÏĩÎ¹":9859,"ÏħÎ³ÎµÎ½":9860,"ÏħÎ³ÏĩÎ±Î½":9861,"Ġá½ĢÎ½ÎµÎ¹":9862,"Ġá½ĢÎ½Î¿Î¼":9863,"Ġá¼ĶÎ½Î½":9864,"Ġá¼ĶÎ½Î¹":9865,"Ġá¼ĶÎ½Î±Î¹Î¼Î¿Î½":9866,"ÎµÎ²Î¿á½»Î»ÎµÏħ":9867,"Ïģá½³ÏīÎ½":9868,"Ġá½ķÏĥÏĦÎµÏģÎ±":9869,"ĠÎ²Î±ÏĢ":9870,"ĠÎ²Î±Î»Î»":9871,"ĠÎºÎ¿Î¹Î½á½µ":9872,"ĠÎºÎ¿Î¹Î½á¿¶ÏĤ":9873,"ĠÎ´ÎµÎ¾Î±":9874,"ĠÏĨÎ±á½»":9875,"ĠÏĨÎ±á¿¦Î»Î¿Î½":9876,"Î¿Î»Î¿Î³Îµá¿ĸ":9877,"Î´Î¿ÏĥÎ¹Î½":9878,"á¿ĸÎ½Î¹":9879,"ĠÏĥÏĨá¿¶Î½":9880,"ĠÏĥÏĨÎ±Îº":9881,"ĠÎ¼á½³ÏĦÏī":9882,"á½µÎ¼Î·":9883,"á½µÎ¼ÎµÏģÎ¿Î½":9884,"á½µÎ¼ÎµÏģÎ¿ÏĤ":9885,"ÏħÎºÎµ":9886,"Ġá¼łÎ¾á½·":9887,"Î¾Î¹Î¿Î½":9888,"Î¾Î¹Î¿ÏĤ":9889,"ÏīÏģÎ¿ÏĤ":9890,"ĠÎ»Î±ÏĦÏģ":9891,"Î·Ïģá½¸Î½":9892,"ÎµÏĩÎµÎ¹":9893,"á½·Î¶Î¿Î½ÏĦÎ±":9894,"á½·Î¶Î¿Î½ÏĦÎ±Î¹":9895,"á½·Î¶Î¿Î½ÏĦÎ¿ÏĤ":9896,"ĠÏĢÏģá½±Î³Î¼Î±ÏĦá½±":9897,"Ġá¼ĦÏģÎ½Î·":9898,"ÎºÎµÎ¹ÏĦÎ¿":9899,"Î²Î±ÏĥÎ¹ÏĤ":9900,"á½µÎ»Ïħ":9901,"ĠÏĦÏģá½·ÏĦÎ·":9902,"ĠÏĦÏģá½·Î¼ÎµÏĦÏģÎ¿Î½":9903,"Ġá¼¥Î½ÏĦÎ¹Î½Î±":9904,"ĠÎ´á½·ÎºÎ±ÏĤ":9905,"ÎºÎµÏĦá¿¶Î½":9906,"ĠÎºÎ±Îºá½·Î±ÏĤ":9907,"Î»ÎµÏħÏĦá½µ":9908,"á½¹ÏĢÎ¿Î¹":9909,"Ġá½ħÏģÎ¿Î¹ÏĤ":9910,"ĠÎ§ÎµÏģ":9911,"ĠÎ§Î±Î¹Ïģ":9912,"Î¹ÏĥÎ¼Î±":9913,"á¾·ÏĤ":9914,"ĠÎ¶Î·ÏĦá½µÏĥÎµÎ¹ÏĤ":9915,"Ġá½ĳÏĢÎ¿ÎºÎµá¿ĸÏĥÎ¸Î±Î¹":9916,"ĠÎ³Î½á¿¶Î¼ÎµÎ½":9917,"ĠÏĦá½³Î»Î·":9918,"ĠÏĦá½³ÎºÏĦÎ¿Î½":9919,"Î´á½³ÏĥÎ¸Î±Î¹":9920,"Ġá¼°ÏĥÏĩÎ½":9921,"Ġá¼°ÏĥÏĩá½·ÏīÎ½":9922,"Ġá¼¸Î¿á½»Î´Î±":9923,"ÎºÎ»Î·ÏģÎ¿Î½":9924,"ĠÏĢá½±ÏĥÏĩÎµÎ¹":9925,"Ġá¼ĢÎ½Î±Î³ÏīÎ³":9926,"Ġá½łÎ»Î¹ÏĥÎ¸":9927,"Î´Î¹ÎºÎ¿Î½":9928,"á½ħÏĦÎµ":9929,"á½ħÏĥÎ¿Î¹":9930,"ĠÏĨÏħÎ¼á½±ÏĦÏīÎ½":9931,"Î½á½·ÏĦÏĦÎµÏĦÎ±Î¹":9932,"Ġá¼ĲÎ¼ÏĢÎ¿Î´á½·":9933,"ĠÎ¿á¼°ÎºÎµá½·ÏīÏĤ":9934,"ĠÎ¿á¼°ÎºÎ¿ÏħÎ¼á½³Î½Î·Î½":9935,"Î¿á½ĲÎ´Îµ":9936,"ĠÏĨÏīÎ½Î±á½·":9937,"ĠÎ´Î¿ÎºÎ¿á¿¦ÏĥÎ¹Î½":9938,"ĠÎ´Î¿ÎºÎ¹Î¼á½±":9939,"ĠÏĢÏģÎ¿ÏĨÎ¿Ïģ":9940,"ĠÏĦÏģÎ¹Î³":9941,"ÏĦÏĦÎ¿Î½ÏĦÎ±":9942,"ÏīÏģá½·Î±ÏĤ":9943,"ÏīÏģá½·Î·Î½":9944,"ĠÎ½Î¿Îµá¿ĸÏĦÎ±Î¹":9945,"Ġá¼ĢÏģÏĦÎ¹":9946,"Ġá¼ĢÏģÏĦá½»":9947,"á½±Î¼á¿³":9948,"ĠÏĢÏģÎ¿Ïĥá½½ÏĢá¿³":9949,"ĠÎºÎ±ÏĦÎ±ÏĥÎºÎµÏħá½±ÏĥÎ±Î¹":9950,"ĠÏĪÏħÏĩÏģá½¸Î½":9951,"ĠÏĪÏħÏĩÏģá½¸ÏĤ":9952,"Ġá¼ĢÎ½ÏĦá½·ÎºÎµÎ¹Î½ÏĦÎ±Î¹":9953,"Ġá¼¤Î³Î±Î³":9954,"Ġá¼ĲÎ¼á½³":9955,"ĠÎ§ÏģÎ¹ÏĥÏĦá½¹Î½":9956,"á½³ÏĥÏĦÎµÏģÎ±":9957,"ÏĨÎ±á½·Î½ÎµÏĦÎ±Î¹":9958,"ÏĦá½µÏĤ":9959,"ÏĦá½µÎ³":9960,"á½±ÏģÏĩÎµÎ¹":9961,"ĠÏĥÏħÎ¼Î²ÎµÎ²Î·Îºá½¹ÏĥÎ¹":9962,"ĠÎ²ÏģÎ±ÏĩÎµá½·Î±ÏĤ":9963,"ĠÎ²ÏģÎ±ÏĩÎµá¿ĸÎ±":9964,"ĠÏĥÏĦÎ¿ÏĩÎ±ÏĥÎ¼Î¿á½¶":9965,"ĠÏĩÏģÎ·Ïĥá½·":9966,"ĠÏĩÏģÎ·Î¼Î±ÏĦÎ¹":9967,"ĠÏĩÏģÎ·ÏĥÎ¹Î¼":9968,"ĠÎ¼á½±Î»Î¹ÏĥÏĦ":9969,"ĠÎ¼á½±Î»Î¹ÏĥÎ¸":9970,"ĠÏĢá½±Î¸ÎµÏĥÎ¹Î½":9971,"ĠÎ¼ÏħÏĥá½¶Î½":9972,"ĠÎ¸ÎµÏģá½±":9973,"Ġá¼ģÎ³á½·Î±ÏĤ":9974,"ĠÏĢá½¹Î»ÎµÎ¼Î¿ÏĤ":9975,"Ġá½ĳÏĢÎµÏģÎµÏĢ":9976,"Ġá¼ĢÎ½á½±Î³ÎµÎ¹Î½":9977,"ĠÏĥÏĦÏģÎ±ÏĦÎµÏħ":9978,"ÏģÏīÏĥÎ¹":9979,"ĠÎµá¼°ÏģÎ·Î¼á½³Î½Î±ÏĤ":9980,"ĠÎ´á¿ĨÎ»á½¹Î½":9981,"Ġá½ĳÎ³Ïģá½¸Î½":9982,"ĠÎĽÏħ":9983,"ĠÏĢÎ½ÏħÎº":9984,"Ġá¼ĲÏĢá½·ÏĥÎ·ÏĤ":9985,"Ġá¼ĲÏĢá½·ÏĢÎ±Î½":9986,"Ġá¼ĳÎºá½±ÏĦÎµÏģÎ±":9987,"Ġá¼ĳÎºá½±ÏĦÎµÏģÎ¿ÏĤ":9988,"ÎºÎ±Î»Î¿á¿¦ÏĥÎ¹":9989,"ĠÎ´Îµá½·Î¾ÎµÎ¹":9990,"á½µÏĥÏīÏĥÎ¹Î½":9991,"ÏĨÎ¿ÏģÎ¿ÏĤ":9992,"Ġá½ĢÎ»á½·Î³Î¿Ïħ":9993,"Ġá½ĢÎ»á½·Î³ÏīÎ½":9994,"Ġá½ĢÎ»á½·Î³Î¿Î¹ÏĥÎ¹":9995,"ĠÎ»ÎµÏħÎºÎ¿á¿ĸÏĤ":9996,"Ġá¼ĢÎ»Î·Î¸Îµá½·Î±ÏĤ":9997,"Ġá¼ĢÎ»Î·Î¸Îµá½»ÎµÎ¹":9998,"ÏĥÏĦÎµÎ»Î»":9999,"ĠÎ»ÎµÎ³Î¿Î¼á½³Î½Î·":10000,"ĠÎ»Î¿Î¹ÏĢá½±":10001,"ĠÎ´Î·Î»Î¿á¿¦ÏĥÎ¹":10002,"ĠÎ½Î±á½·":10003,"ĠÎ½Î±á½¸ÏĤ":10004,"ĠÎ»á½³Î¾ÎµÏīÎ½":10005,"ĠÏĩá½½Ïģá¾³":10006,"ĠÎºÎ¹Î½Î´á½»Î½":10007,"ĠÎºÎ¹Î½á½µÏĥÎµÏīÎ½":10008,"ĠÏĥÏħÎ³ÎºÎ±ÏĦÎ±":10009,"Ġá½ĳÏĢá½±ÏģÏĩÎ¿Î½ÏĦÎ±":10010,"Ġá¼ĢÎ³Î±Î¸á½¸ÏĤ":10011,"ĠÎºÎ±ÏĦÎ·Î³Î¿Ïģá¿¶Î½":10012,"Ġá¼ĢÏĢÎ¿ÎºÎµÎº":10013,"Ġá¼ĢÏĢÎ¿Îºá½µÏģÏħÎº":10014,"Î·Ïĥá½±Î½ÏĦÏīÎ½":10015,"ĠÎºá½±ÏĦÏīÎ¸ÎµÎ½":10016,"Ġá½ħÎ»Î¿ÏĤ":10017,"ÏĦá½¹ÏĦÎ¿":10018,"ĠÎķá¼°":10019,"Ġá¼ĶÎ¼ÏĢÎ¿ÏģÎ¿Î¹":10020,"Ġá¼ĲÏģÎµá¿ĸÎ½":10021,"Ġá¼ĢÎ¼á½³Î»Î³":10022,"Ġá¼ĢÎ¼ÏħÎ´Ïģ":10023,"ĠÎµá¼°ÏĥÎ¹á½¹Î½ÏĦÏīÎ½":10024,"ĠÏĥá½»ÏĥÏĦÎ·Î¼Î±":10025,"á½¹Î´Î¿ÏħÏĤ":10026,"ĠÏĦÎ¿Î¹Î¿á½»ÏĦÎ¿ÏħÏĤ":10027,"ĠÏĢÎ±Î¹Î´Îµá½·":10028,"ĠÏĥÏħÎ½ÎµÏĩá¿Ĩ":10029,"ĠÏĥÏħÎ½ÎµÏĩá½µÏĤ":10030,"ÏĨÎ¸Î±Î¹":10031,"ÏĨÎ¸á¿ĩ":10032,"Ġá¼ĳÎºá½±ÏĥÏĦÎ¿Î¹ÏĤ":10033,"á½µÏģÏĦÎ·Î½":10034,"Ġá¼ĳÎ±ÏħÏĦá¿ĩ":10035,"ĠÎºÎ±Î¹ÏģÎ¿á½ºÏĤ":10036,"Ġá¼ĲÎ³ÎºÎµÎºÎ»Î¹":10037,"ĠÏĥÏĦÏģÎ±ÏĦÎ·Î³Îµá¿ĸÎ½":10038,"ĠÏĥÏĦÏģÎ±ÏĦÎ·Î³Î¿á½·":10039,"Ġá¼ĲÎºÎºÎ»Î·Ïĥá½·Î±":10040,"ĠÏĦÎ¿Î¹Î±á½»ÏĦÎ±Î¹ÏĤ":10041,"ĠÏĢÎ¹ÏĢÏģ":10042,"ĠÏĦá½»ÏĢÏĦÏīÎ½":10043,"ÏĩÎµÎ¹Ïģá½·":10044,"ĠÎķá½ĲÎº":10045,"Ġá¼ĲÎ¾Î¿ÏħÏĥá½·Î±ÏĤ":10046,"ĠÎ²Î¿ÏħÎ»á¿ĨÏĤ":10047,"Ġá¼ĢÏģÎ¹Î¸Î¼á½¹Î½":10048,"ĠÎ¼Î¿Î½á½°ÏĤ":10049,"ĠÎ´Î¹Î±Î¹ÏģÎ¿á½»Î¼ÎµÎ½Î¿Î½":10050,"ĠÏĦÎ¹Î¼á½·á¿³":10051,"ĠÎ´Î±ÎºÏĦá½»":10052,"ĠÎ´ÏħÎ½Î±Î¼á½³Î½Î¿Ïħ":10053,"Ġá¼ĲÎºÎµá¿ĸÏĥÎµ":10054,"Ġá½ĢÏĥÏĦÏģÎ±Îº":10055,"ĠÏĢÎ±Ïģá½±Î´Î¿Î¾":10056,"ĠÏĦÎµÏĦÏģÎ±ÏĢ":10057,"Ġá¼ĢÎ½ÏĦÎ¹ÏĥÏĦá½±ÏĥÎµÎ¹":10058,"ĠÎ±á¼´ÏĦÎ¹Î±":10059,"Ġá¼ĲÎºÎµá¿ĸÎ½Î¿Î¹":10060,"Ġá¼ĢÏģÎ¹ÏĥÏĦÎµá½ºÏĤ":10061,"Ġá¼ĢÏĢÎ¿Î»Î¿Î³Î¿á½»Î¼ÎµÎ½Î¿ÏĤ":10062,"Ġá¼ĶÎºÏĢ":10063,"ĠÎ´ÏħÎ½á½±Î¼ÎµÎ¹ÏĤ":10064,"ĠÎ¦Î¹Î»":10065,"ĠÎ¦Î¿ÏģÎ¼á½·ÏīÎ½":10066,"ĠÏĥÎ·Î¼Î±á½·Î½Î¿ÏħÏĥÎ¹":10067,"ĠÎ´Î¹ÏĢÎ»á¿ĨÏĤ":10068,"Î¿ÏģÎ±á¿ĸÏĤ":10069,"ĠÎ³ÏģÎ±ÏĨá½µ":10070,"Î±ÏĢÎ»Î±":10071,"á½·Î³Î½ÎµÏĦÎ±Î¹":10072,"ĠÎºÎ¿Î¹Î½ÏīÎ½Î¿á¿¦ÏĥÎ¹":10073,"Ġá¼©Ïģá½½":10074,"ĠÎ¼Î±ÎºÏģá½°Î½":10075,"ĠÎºÎ±Î¸Î±Ïģá½¹Î½":10076,"ĠÎºÎ±Î¸Î±Ïģá½°":10077,"ĠÏĢÎ±Î»Î±Î¹ÏĥÏĦ":10078,"ĠÏĢÎ±Î»Î±Î¹á¿¶Î½":10079,"ĠÎ¸Ïģá½¹Î½á¿³":10080,"ĠÎºÎµÏĨÎ±Î»Î±á½¶":10081,"Ġá¼ĲÏģÎ³á½±ÏĥÎ±ÏĥÎ¸Î±Î¹":10082,"ĠÎ´ÎµÎ¹Î»":10083,"ĠÎ³Î¹Î½Î¿Î¼á½³Î½ÏīÎ½":10084,"Ġá½ĳÏĨá½³ÏĥÏĦÎ·ÎºÎµ":10085,"ÎłÎ¿Î¹":10086,"ÎłÏģÎ¿Ïĥ":10087,"Ïģá½¹Î´Î¿":10088,"á½³Î²Î±Î»":10089,"Ġá¼ĦÎ³Î±Î»Î¼Î±":10090,"Ġá¼±ÏĥÏĦÎ¿ÏģÎµá¿ĸ":10091,"Ġá¼ĢÎ´Î¹Îºá¿ĨÏĥÎ±Î¹":10092,"Î¼á½³Î½Î¿Î¹ÏĥÎ¹Î½":10093,"Ġá¼µÏĢÏĢÎ¿ÏħÏĤ":10094,"Ġá¼ĢÎºÎ±Î¸á½±Ïģ":10095,"ĠÎ»Î±Î¼Î²á½±Î½ÎµÏĦÎ±Î¹":10096,"ĠÎ»Î±Î¼Î²á½±Î½Î¿ÏħÏĥÎ¹":10097,"á½½ÏĦÎ±ÏĦÎµ":10098,"ĠÎ¤Î¹":10099,"Ġá½ĳÎ³Î¹á½³Î±":10100,"ĠÎ´ÏħÎ¿á¿ĸÎ½":10101,"ĠÎ´ÏħÏĥÎµÎ½ÏĦÎµÏģ":10102,"Ġá¼ĢÏĢÎ±ÏĦÎ·":10103,"ĠÏĢÎ±ÏĦÏģÎ¹":10104,"ĠÎ´ÎµÎ¾Î¹á½°Î½":10105,"ĠÎ´Î¹ÎºÎ±ÏĥÏĦá¿¶Î½":10106,"ĠÏĩÏģÎ·ÏĥÎ¼á½¸Î½":10107,"ĠÏĩÏģÎ·ÏĥÎ¼Î¿á½ºÏĤ":10108,"ĠÏĢÎ¿ÏģÏĨá½»":10109,"ĠÏĢÎ¿ÏģÏĨÏħÏģ":10110,"ĠÏĦá½¹ÏĢÏīÎ½":10111,"ĠÏĦá½¹ÏĢÎ¿ÏħÏĤ":10112,"ĠÏĢÎµÏĢÎ¿Î¹ÏīÎ¼á½³Î½Î¿Î½":10113,"Ġá½ĳÏĢÎ¿Î³ÏģÎ±ÏĨá¿ĨÏĤ":10114,"Ġá¼ģÏģÎ¼á½¹Î¶":10115,"ĠÏĥÎ¿ÏĨá½½ÏĦÎ±ÏĦÎ¿ÏĤ":10116,"ĠÎ¼ÎµÎ¸á½¹Î´Î¿Ïħ":10117,"ĠÎ¼ÎµÎ¸á½¹Î´á¿³":10118,"ĠÏĦÎµÏĩÎ½Î¹ÎºÎ¿á¿¦":10119,"á¼ĪÏĢ":10120,"Ġá¼ĲÏĢÎ¿á½·Î·ÏĥÎ±Î½":10121,"ĠÎ½Î¹Îºá½µÏĥÏī":10122,"ĠÎ½Î¹Îºá½µÏĥÎ±ÏĤ":10123,"ĠÎ¼Î¿Î¹Ïĩá½¸ÏĤ":10124,"Ġá¼ĺÎº":10125,"ĠÎºÎ±ÏĦá½³ÏĨ":10126,"ĠÎºÎ±ÏĦá½³ÏĥÏĦ":10127,"Î´Îµá¿ĸÎ¾Î±Î¹":10128,"ĠÎºÎ¿ÏĥÎº":10129,"ĠÏĢÎ»Î±ÏĦá½³":10130,"Ġá¼ĲÏĢÎ±Î½Î±":10131,"Ġá¼ĲÏĢÎ±Î½Î±ÏĢÎ±":10132,"Î¿á½ĹÏĦÎ¿á½·":10133,"Ġá¼ĢÎ½Î¸Î¿Ïģá½·":10134,"ĠÏĥÏħÎ½Î±Îº":10135,"ĠÏĥÏħÎ½Î±Î¼ÏĨ":10136,"ĠÏĢÎ±Ïģá½³ÏĩÎ¿Î½ÏĦÎ±":10137,"á½±ÏĥÎ±ÏĦÎ¿":10138,"Ġá½¤Î¼Î¿Ïħ":10139,"Ġá¼ĢÏģÎµÏĦá¿ĩ":10140,"Ġá½ģÏĢÎ¿á¿ĸÎ¿Î½":10141,"ÎºÎ¹Î¼Î¿Î½":10142,"ÏīÏģÎ¹ÏĥÎ¼á½³Î½Î¿Î½":10143,"ĠÏĢÎµá½·Ïģá¾³":10144,"Ġá¼ĢÎ½Î´Ïģá½¶":10145,"ĠÏĪÎµÏħÎ´Î¿ÏĢÏģÎ¿ÏĨ":10146,"ĠÎ³ÏħÎ½Î±á¿ĸÎºÎ±ÏĤ":10147,"ĠÎĵÏģÎ·Î³á½¹":10148,"Ġá¼ĢÏĢÎ¿Î»Îµá½·":10149,"ĠÏĢÎµÏĢÏģÎ±Î³Î¼á½³Î½á¿³":10150,"Î¼Î·ÏģÎ¹Îº":10151,"ĠÎ»á½±Î²ÏģÏīÏĤ":10152,"Ġá¼ĲÏĩÎ¸ÏģÎ¿á½ºÏĤ":10153,"Ġá¼ĲÏĩÎ¸ÏģÎ¿á½¶":10154,"ĠÎĳá¼°Î³":10155,"ĠÏĥÏħÎ¼Î²Î±ÏĥÎ¹":10156,"ĠÎºÎ»Îµá¿ĸÎ½":10157,"ĠÎºÎ»Îµá¿ĸÏĥÎ±Î¹":10158,"ĠÏĨá½·Î»Î¿Î½":10159,"ĠÏĨá½·Î»Î¿ÏħÏĤ":10160,"Ġá¼ĢÎ½Î±Î¹ÏĥÏĩÏħÎ½":10161,"ĠÏĩÎ¹Î»á½·Î±ÏĤ":10162,"Î¿Î»Î¿ÏħÎ¸":10163,"ĠÎ²Î¿á½µ":10164,"Ġá¼±ÎºÎ±Î½á½¸Î½":10165,"ĠÎºÎ±ÏĦÎ¿ÏģÎ¸ÏīÎ¼á½±ÏĦÏīÎ½":10166,"Ġá½ĳÏĢá½¹ÏĥÏĦÎ±ÏĥÎ¹Î½":10167,"ĠÏĢÎ¿ÏĦÎ±Î¼Î¿á½¶":10168,"ÎµÎ»Î¸á½¹Î½ÏĦÎ¿ÏĤ":10169,"ĠÎ³ÎµÎ½Î¹Îºá¿ĨÏĤ":10170,"Î¼Î±ÏĦá½·Î¿Î¹ÏĤ":10171,"ĠÎ½á½³Î¿ÏĤ":10172,"Ġá¼ĢÏĢÎ¿Î´Îµá½·Î¾ÎµÏīÎ½":10173,"ĠÎ´ÏħÎ½á½±Î¼ÎµÎ¸Î±":10174,"ĠÎ³ÏģÎ±Î¼Î¼Î±ÏĦÎ¹Îºá½µ":10175,"ĠÎºÎ¿ÏģÏħÏĨ":10176,"ĠÎ»ÎµÏĢÏĦ":10177,"ĠÎ±á½ĶÎ¾ÎµÎ¹":10178,"ĠÎ¼ÎµÏĦÎ±ÏĨÎ¿Ïģá¾·":10179,"ĠÏĦÎµÎ»ÎµÏħÏĦÎ±á½·Î±Î½":10180,"Ġá¼ĢÎ´á½µÎ»Î¿Ïħ":10181,"ĠÏĩÏģá½µÏĥÎ¹Î¼Î¿ÏĤ":10182,"ĠÎ´ÎµÏĥÎ¼Î¿á¿ĸÏĤ":10183,"Ġá¼ħÏĢÎ±ÏĥÎ¹Î½":10184,"Ġá¼ħÏĢÎ±ÏĥÎ±Î½":10185,"Ġá¼ĲÎ»Î±á½·Î¿Ïħ":10186,"Ġá¼ĲÎ»Î±Ïĩá½·ÏĥÏĦ":10187,"ĠÎ¼ÎµÏĦÎµÏī":10188,"ĠÏĢÎµÏģÎ¹á½³ÏĩÎ¿Î½ÏĦÎ¿ÏĤ":10189,"Î´á½¹Î½Î±Î¹":10190,"ĠÏĨÏħÎ³á½±Î´Î±ÏĤ":10191,"ĠÎ²á½·Î¿ÏĤ":10192,"Ġá¼ĲÎ¼Î²Î¿Î»á½´Î½":10193,"ĠÏĥÏħÎ³ÎºÎµÎº":10194,"ĠÏĢÎ¿ÏģÎ½Îµá½»":10195,"ÏĢÏģá½¸":10196,"ĠÏĥÎ·Î¼Î±Î¹Î½Î¿ÏħÏĥá¿¶Î½":10197,"Ġá½ĢÏĢÏĦÎ±Ïĥá½·Î±ÏĤ":10198,"Ġá¼ĲÎ²Î¿á½µÎ¸Î·":10199,"Ġá¼ĢÎ½ÏĦÎ¹Î¸ÎµÏĦÎ¹ÎºÎ±á½¶":10200,"Ġá¼ĢÎ½ÏĦÎ¹Î¸ÎµÏĦÎ¹Îºá½°ÏĤ":10201,"ĠÏĢÎ±Î½ÏĦÎ±Ïĩá½¹Î¸ÎµÎ½":10202,"ĠÏĩÎµÎ¹Î¼á¿¶Î½":10203,"Ġá¼°Î´Î¹á½¹ÏĦÎ·ÏĦÎ¿ÏĤ":10204,"ĠÎ¸ÎµÏīÏģá½·Î±Î½":10205,"ĠÎ¸ÎµÏīÏģá½·Î±ÏĤ":10206,"ĠÎ¼á½³Î»Î±Î½Î¿ÏĤ":10207,"ĠÎ´Î¹Î´Î±ÏĥÎºÎ±Î»á½·Î±":10208,"Ġá½ĢÏĨÎ¸Î±Î»Î¼Î¿á½ºÏĤ":10209,"Ġá½ĢÏĨÎ¸Î±Î»Î¼Î¿á½¶":10210,"Î¿Î´Î¿Î¼":10211,"ÏĥÏĨÎ±Î»ÏĥÎ¹Î½":10212,"ĠÏĢÎ»Îµá½·ÏĥÏĦÎ¿Ïħ":10213,"Ġá¼ĢÏĥá½»ÏĥÏĦÎ±ÏĦá½¹Î½":10214,"ĠÎ´Î¿á½»Î»Î¿Ïħ":10215,"ĠÎ´Î¿á½»Î»Î¿Î¹ÏĤ":10216,"ĠÏĢÎ±Ïĩá½»":10217,"Ġá¼ĳÏģÎ¼Î·Î½Îµá½»ÎµÏĦÎ±Î¹":10218,"ĠÎ¸ÎµÏīÏģÎ¿á¿¦Î½ÏĦÎ±Î¹":10219,"ĠÏĥÏĩá½³ÏĥÎµÏīÏĤ":10220,"ĠÎ´Î¹ÎºÎ±Î¹Î¿Ïĥá½»Î½á¿ĥ":10221,"ĠÎ£Î±ÏĦÎ±Î½á¾¶ÏĤ":10222,"Ġá¼¡Î³ÎµÎ¼Î¿Î½":10223,"ĠÏĥÏīÏĦÎ·Ïģá½·Î±ÏĤ":10224,"ĠÏĦá½»Ïĩá¿ĥ":10225,"ĠÏĢÏĦá½³ÏģÏħÎ³":10226,"ĠÎºÎ±Î¸Î·Î¼á½³Î½Î¿ÏħÏĤ":10227,"Ġá¼ĶÏĢÎµÏĥÎµÎ½":10228,"Ġá½ĢÎ¾Îµá¿ĸÎ±":10229,"Ġá¼ĲÎ¾Î±ÏģÎ¸Ïģá½µÏĥÎ±Î½ÏĦÎ±":10230,"ĠÎ³ÎµÎ³ÎµÎ½á¿ĨÏĥÎ¸Î±Î¹":10231,"Îķá¼´":10232,"ĠÎºá½»ÏģÎ¹Î¿ÏĤ":10233,"ĠÏĢÎµÎ½ÏĦÎ±":10234,"ĠÏĢÏĦÎµÏģá½¸Î½":10235,"ĠÏĢÏģÎ¿Î²Î¿Î»á¿ĩ":10236,"Ġá¼ĢÎºÎ¿Î»Î¿ÏħÎ¸Îµá¿ĸ":10237,"ĠÎ²ÏħÏģÏĥÎ¿ÏĢá½½Î»Î·ÏĤ":10238,"ĠÎ¼Î±Î½á½¸Î½":10239,"Ġá¼¦Î»Î¸Îµ":10240,"Ġá¼¸Î¿ÏħÎ´Î±":10241,"Ġá¼¸Î·ÏĥÎ¿á¿¦ÏĤ":10242,"ĠÎµá½ĲÎ±Î³Î³ÎµÎ»Î¹ÏĥÏĦá½´ÏĤ":10243,"ĠÎºÎ»á½³ÏĢÏĦÏīÎ½":10244,"ĠÎ·Í´":10245,"ĠÎºÎµÏģÎ´Î±":10246,"ĠÎ³Î¹Î³Î½á½¹Î¼ÎµÎ½Î¿Î½":10247,"Ġá¼ĢÎ½Î±ÎºÎµÎºÎ»Î¹":10248,"Ġá¼ĲÎºÎºÏģá½·Î½":10249,"ĠÎµá½ĳÏģá½¼Î½":10250,"Ġá¼ĢÎ´ÏħÎ½Î±Î¼á½·Î±ÏĤ":10251,"ÏĢÏĦÎ¿Î½ÏĦÎ±":10252,"ĠÏĢÎµÎ¶":10253,"ĠÏĢÎµÏĢÎµÏģÎ±Ïĥ":10254,"Ġá¼ĳÏĦÎµÏģÏīÎ½á½»Î¼ÏīÏĤ":10255,"Î±Î¼Î¿":10256,"ĠÎºÏģÎµÎ¼Î±":10257,"Ġá¼ĢÏĥÏĢá½·Î´ÏīÎ½":10258,"ÏĨÏħÏĥÎ¹Î½":10259,"ĠÎºÎ¿Î¼á¾¶Î½":10260,"ÏħÏĥÏĦÏģÎ¿Î½":10261,"Ġá½ĪÎ»ÏħÎ½":10262,"Ġá¼ĢÏģÎ³á¿¶ÏĤ":10263,"Ġá¼ĢÏģÎ³á½»ÏģÎ¹Î¿Î½":10264,"Ġá¼ĢÏĢÎµÎºÏĦá½±Î½":10265,"ĠÏĢÏģÎ¿ÏĥÎ±Î³":10266,"ĠÏĥÏħÎºÎ¿ÏĨÎ±Î½ÏĦá½·":10267,"ĠÎ»ÏħÎ¸á¿ĨÎ½Î±Î¹":10268,"ĠÏĢÎ±ÏģÎ¿ÏħÏĥá½·Î±Î½":10269,"ĠÏĢÎ±ÏģÎ±ÏĢÏģÎµÏĥÎ²":10270,"ĠÎ´Î¹Î±Î¹ÏģÎµÎ¸á¿ĨÎ½Î±Î¹":10271,"ĠÎĿÎ¹Îºá½·Î±Î½":10272,"Ġá¼¸Ïīá½±Î½Î½á¿ĥ":10273,"Ġá¼ĢÎºÎ¿ÏħÏĥÏĦá½³Î¿Î½":10274,"Ġá¼ĶÏĢÏģÎ±":10275,"Ġá¼ĶÏĢÎ±Î¹Î½Î¿Î½":10276,"ĠÏĢÏģÎ¿Î·Î³Îµá¿ĸÏĥÎ¸Î±Î¹":10277,"ĠÏĥÏħÎ¼Î²Î¿ÏħÎ»Îµá½»ÏīÎ½":10278,"Ġá¼ĪÏĦÏĦÎ¹ÎºÎ¿á½¶":10279,"ĠÎ²Î»á½±Î²Î·Î½":10280,"Ġá¼ĲÏĢÎ¿Î¹á½µÏĥÎ±ÏĦÎ¿":10281,"ĠÎłÎµÏģÎ¹ÎºÎ»á½³Î¿ÏħÏĤ":10282,"ĠÏĦÏģÎ¿ÏĩÎ±ÏĬ":10283,"ĠÏĢÎ·Î´Î±Î»":10284,"Ġá¼ĢÏĥÏĨÎ±Î»á¿¶ÏĤ":10285,"ĠÏĢÎ¿Î¹Îºá½·Î»ÏīÏĤ":10286,"ĠÎłÎ»Î±ÏĦÎ±Î¹":10287,"ĠÎ±á¼°Î´Î¿á¿¦ÏĤ":10288,"ĠÎµá½ĲÎµÏģÎ³ÎµÏĦ":10289,"ĠÎºÎ±ÏĦÎ¿Î¹ÎºÎ¿á¿¦Î½ÏĦÎ±ÏĤ":10290,"Î´á½±ÏģÎ¹Î¿Î½":10291,"ĠÏĨÎ»ÎµÎ³Î¼Î±":10292,"ÏĥÎ¸ÏīÏĥÎ±Î½":10293,"ĠÏĩÎ±Î»Î±Ïģá½¸Î½":10294,"ĠÎ³á½³Î½ÎµÎ¹Î¿Î½":10295,"ĠÏĦÎ¹Î¼ÏīÏģá½·Î±":10296,"ĠÏĦÏģá½±Ïĩ":10297,"Î¼Î¹Îºá½»Î¸":10298,"ĠÎ´Î¿Î¾Î¿Î»Î¿Î³":10299,"Ġá½ĢÏĨÎµá½·Î»":10300,"ĠÏĢÏģÏħÏĦÎ±Î½Îµá¿ĸÎ¿Î½":10301,"ĠÏĥá½·ÏĦÎ¿Ïħ":10302,"ĠÏĨá½±ÏģÏħÎ³":10303,"ĠÎ¼Î¹ÎºÏģá½°Î½":10304,"ĠÎµá½ĳÏģÎµÎ¸Îµá½·Î·":10305,"ĠÎ´Î¹ÎºÎ±ÏĥÏĦÎ·Ïģá½·Î¿Ïħ":10306,"ĠÏĥÏħÎ¼Î²Î¿ÏħÎ»ÎµÏħÏĦÎ¹ÎºÎ¿á¿¦":10307,"ĠÏĦÎµá½·ÏĩÎ¿ÏħÏĤ":10308,"Ġá¼ĲÎ½Î¸ÏħÎ¼á½µÎ¼Î±ÏĦÎ±":10309,"Ġá½ĳÎ³Ïģá½¹ÏĦÎ·ÏĦÎ±":10310,"ĠÎłÎ½Îµá½»Î¼Î±ÏĦÎ¹":10311,"Ġá¼ĢÏĦÎµÎ»ÎµÏħÏĦá½µ":10312,"Ġá¿¥ÏħÏĢÎ±Ïģ":10313,"Ġá¿¥á½·Î¶Î±Î½":10314,"ĠÎºÎ±Î»Î¿ÏħÎ¼á½³Î½Î·":10315,"ĠÎ³Î¹Î½á½½ÏĥÎºÎµÎ¹Î½":10316,"ÎĶÎ¹á½°":10317,"ĠÎ´Î¹ÎµÎ»á½³Î³":10318,"Ġá¼ĢÎ½Î±á½·Î´ÎµÎ¹Î±Î½":10319,"Ġá¼ĢÎ½á½³Î¼Î¿Ïħ":10320,"Ġá¼ĲÎºá½±Î»ÎµÏĥÎµ":10321,"ĠÎ¼ÎµÏĦÎ±Î½á½¹Î·ÏĥÎ¿Î½":10322,"ĠÏĩÏģÏīÎ¼á½±ÏĦÏīÎ½":10323,"ĠÏĩÏģÏīÎ¼á½³Î½Î¿Ïħ":10324,"ĠÎµá½ĲÎ½Î¿á¿¦":10325,"ĠÎ¾ÏħÎ¼ÏĨá½³ÏģÎµÎ¹":10326,"Ġá¼ĢÎ½Î±Î¹ÏģÎµÎ¸á½³Î½ÏĦÎ¿ÏĤ":10327,"Ġá¼ģÏģÏĢá½±Î¶ÎµÎ¹Î½":10328,"ĠÏĦÏģÎ¿ÏĩÎ±ÏĬÎºá½¸Î½":10329,"Î¿ÏĦá½±ÏĦÎ¿Ïħ":10330,"ĠÏĦá½³Î½Î¿Î½ÏĦÎ±":10331,"Ġá½ĢÎ¸Î¿Î½á½·ÏīÎ½":10332,"Î¼ÎµÎ»Î»Îµ":10333,"Ġá¼ĲÎ¼ÏĢÎµÎ¹Ïģá½·Î±":10334,"ĠÏĥÏħÎ¼ÏĢÎµÏĢÎ»ÎµÎ³Î¼á½³Î½Î±":10335,"ĠÎºÎ±ÏĦÎ±Î»Î·ÎºÏĦÎ¹ÎºÎ¿á½·":10336,"ĠÏĦÎµá½·Î½ÎµÏĥÎ¸Î±Î¹":10337,"Ġá¼ĲÎ´Îµá½·Î¾Î±Î¼ÎµÎ½":10338,"ĠÏĢÏģÎ¿ÏĭÏĨ":10339,"Ġá¼ĲÏĢÎ¹Î´Î·Î¼":10340,"Ġá¾ĦÎ´":10341,"ĠÎºÏģÎµá½·ÏĦÏĦÎ¿Î½Î±":10342,"Ġá¼°Ïĥá½±Î¶Î¿Î½":10343,"Ġá¼°Ïĥá½±Î¶Î¿Î½ÏĦÎ±":10344,"ĠÏĩÎ¹Î»Î¹á½±Î´Î±ÏĤ":10345,"Ġá¼ĲÎ¼Î½Î·Î¼á½¹Î½ÎµÏħÏĥÎµ":10346,"Ġá¼ĲÎ´á½·Î´Î±Î¾ÎµÎ½":10347,"Ġá¼ĶÎ¾ÎµÏĥÏĦÎ¹":10348,"Ġá¼ĶÎ¾ÎµÏĥÏĦá½·":10349,"ĠÏĦÎµÎ¸Î½á½µ":10350,"ĠÎłÎµÎ¹ÏģÎ±Î¹á¾¶":10351,"ĠÏĦÏģÎ¹ÏĥÎ±ÏģÎ¹ÏĥÏĦá½³Î±":10352,"Ġá¼ĲÏĢÎ¹ÏĦÎ·Î´Îµá½·Î¿ÏħÏĤ":10353,"Ġá¼ĿÎ»Î»Î·Î½":10354,"ĠÏĦÎµÎ»ÎµÏĥÎ¸á¿ĩ":10355,"Ġá¼ĪÎ½ÏĦÎ¹":10356,"ĠÎ¼Î·Î´á½³ÏĢÎ¿ÏĦÎµ":10357,"Ġá¼ĢÎ»Î·Î¸Î¹Î½á½¹ÏĤ":10358,"ĠÏĩá½»ÏĦÏģÎ±Î½":10359,"Ġá½ĳÏĢá¿ĨÏģ":10360,"Ġá½ĳÏĢá¿ĨÏģÏĩ":10361,"Ġá¿¥Î¿Î¼ÏĨÎ±á½·Î±":10362,"Ġá½ĦÏģÎ½Î¹Î¸Î¿ÏĤ":10363,"ĠÎłÎ±Î½Î±á½·":10364,"ĠÏĪá½»ÏĩÎµÎ¹Î½":10365,"ĠÎ³ÎµÎ»Î±ÏĥÏĦÎ¹Îºá½¸Î½":10366,"ĠÎ³ÎµÎ»Î±ÏĥÏĦÎ¹Îºá½¹Î½":10367,"Ġá¼ĲÎ³ÏĩÎµÎ¹Ïģ":10368,"ĠÏĥÏĦÏģÎ±ÏĦÎ¹á½½":10369,"ĠÎºá½»ÏĨÏīÏĥÎ¹ÏĤ":10370,"Ġá¼¤Î½Î¿Î¹Î¾ÎµÎ½":10371,"Ġá¼ĶÏĥÏĩÎ±ÏĦÎ¿ÏĤ":10372,"Ġá¼ĶÏĥÏĩÎ±ÏĦÎ¿Î½":10373,"ĠÏĥÏĦÎ±ÏħÏģÎ¿á¿¦":10374,"ĠÎŀÎµÎ½":10375,"ĠÎŀá½³ÏģÎ¾":10376,"á¼¤Î³Î¿ÏħÎ½":10377,"ĠÎºÎ±Î»á½³ÏĥÎ±ÏĤ":10378,"ĠÏĢÎ¿Î¹Î·Ïĥá½±Î¼ÎµÎ½Î¿ÏĤ":10379,"Ġá¼ĲÏĢÎ¹Î¼ÎµÎ»á¿¶ÏĤ":10380,"ĠÎºÎ±ÏĦÎ±Î³Î½Î¿á½ºÏĤ":10381,"Ġá¼ķÎ´ÏģÎ±ÏĤ":10382,"ĠÎ£Î±Î»Î±Î¼á¿ĸÎ½Î¹":10383,"Ġá¼ĲÏĢá½·Î´ÎµÏĥÎ¹Î½":10384,"ĠÏĦÎ¿Î¹Î¿á½»ÏĦÎ¿Î¹ÏĥÎ¹":10385,"ĠÏĦÏħÏģá½±Î½Î½Î¿Ïħ":10386,"ĠÎºÏħÏģÎ¹á½½ÏĦÎ±ÏĦÎ±":10387,"ĠÏĥÏħÎ½Î±Î½Î±Î¹ÏģÎµá¿ĸ":10388,"Î½ÏĦÎ¹Î½Î±Î¿á¿¦Î½":10389,"Ġá¼ĲÏģÎ·Î¼á½·Î±ÏĤ":10390,"Ġá¼ĢÎ½á½¹Î·ÏĦÎ¿Î½":10391,"á¿³Î´á½¸ÏĤ":10392,"ĠÎºÎ±ÏĦÎ±Î½Î±Î³Îºá½±Î¶ÎµÎ¹Î½":10393,"ĠÏĥÏħÎ½Î¸á½³ÏĦÏīÎ½":10394,"Ġá¼ĢÏĢÎ¿Î²Î»á½³":10395,"Ġá¼ĢÎºá½·Î½Î·ÏĦÎ±":10396,"ĠÎ²Î±ÏĥÎ¹Î»Îµá½ºÏĤ":10397,"ĠÏĥÏĢÎ¿ÏħÎ´Î±á¿ĸÎ¿ÏĤ":10398,"Î±á¼°Î½á½·ÏĦÏĦÎµÏĦÎ±Î¹":10399,"ĠÏĥÏħÎ½ÏĦá½¹Î¼":10400,"Ġá½ĢÏĨÏģá½ºÎ½":10401,"Ġá¼ĢÎ½ÏĦÎµÎ³ÎºÎ»á½µÎ¼Î±ÏĦÎ¹":10402,"ĠÎ³Î»ÏħÎºá½»ÏĦÎ·ÏĤ":10403,"Ġá¼ĲÎºÎ²Î·Ïĥá½¹Î¼ÎµÎ½Î¿Î½":10404,"ĠÎ²Î¹Î±á½·ÏīÏĤ":10405,"ÎµÏħÎ¸á½»Î½Î¿Ïħ":10406,"ĠÏĢÏĦá¿¶ÏĥÎ¹Î½":10407,"Ġá¼ĢÎ¸á½±Î½Î±ÏĦÎ¿ÏĤ":10408,"ĠÎ¼ÎµÎ¼Î½Î·Î¼á½³Î½Î¿Î¹ÏĤ":10409,"ĠÎ´Î¹Î±Î»Î¿Î³Î¹ÎºÎ¿á¿ĸÏĤ":10410,"Ġá¼ĲÏĢÎ¹Î³Î½á¿¶Î½Î±Î¹":10411,"ÏħÏģÏĥá½·Î½Î·Î½":10412,"Ġá¼ĢÏĢÎ¿ÏĥÎ¿Î²":10413,"ĠÎºÎ¿Î¹Î»á½·Î·Î½":10414,"ĠÎ³ÎµÎ½Îµá¿ĨÏĤ":10415,"Ġá¼ĢÏĢÎ¿ÎºÏĦÎµá½·Î½Î±ÏĤ":10416,"ĠÏĨÎ±Î½ÏĦÎ±Ïĥá½·Î±Î½":10417,"Ġá¼©ÏģÎ±ÎºÎ»á½³Î¿ÏħÏĤ":10418,"ĠÏĥÏĢá½³ÏģÎ¼Î±":10419,"ĠÎ´ÏħÎ½á½±Î¼ÎµÏīÎ½":10420,"Ġá¼°Î´Î¹á½½ÏĦÎ·Î½":10421,"ĠÎ´á½±ÎºÏģÏħÎ¿Î½":10422,"Ġá¼ĢÎ¼Îµá½·Î²ÎµÏĥÎ¸Î±Î¹":10423,"Ġá¼ĪÎ³Î¿Ïģá½±ÎºÏģÎ¹ÏĦÎ¿ÏĤ":10424,"ĠÎºá½½Î»Î¿Ïħ":10425,"ĠÎ´ÎµÏģÎ¼á½±ÏĦÏīÎ½":10426,"ĠÎ´á½³Î½Î´ÏģÎ¿Î½":10427,"Ġá¼ĢÎ¼Î¿Î¹Î²Î±":10428,"Ġá¼ĳÏĦÎ¿Î¹Î¼":10429,"ĠÏĦÎµÏĩÎ½á½·ÏĦÎ·ÏĤ":10430,"Ġá¼ĢÎ³á½±ÏĢÎ·Î½":10431,"ĠÎµá½ĲÎºá½¹Î»ÏīÏĤ":10432,"ÏħÎ³Î³Î¹":10433,"ĠÏĢÎ±Î½Î¿á¿¦ÏģÎ³Î¿Î½":10434,"ĠÏĥÎ¿ÏĨÏīÏĦá½±ÏĦá¿³":10435,"ĠÎ´Î¹Î±ÏĢÏģÎ±Î¾á½±Î¼ÎµÎ½Î¿ÏĤ":10436,"ĠÏĦÏħÏģÎ±Î½Î½Î¿ÎºÏĦÎ¿Î½":10437,"Ġá¼ĲÏĥÏĨÎ±Î³Î¼á½³Î½Î¿Î½":10438,"ĠÏĢá½µÏĩÎµÎ¿ÏĤ":10439,"ĠÎ¸Î½Î·ÏĦá½¸Î½":10440,"á¼ĵÎ¾":10441,"Î¼á½±Î»Î¹ÏĥÏĦÎ±":10442,"ĠÎ³á½±Î¼Î¿Î½":10443,"Î²Î¿á½»Î»ÎµÏĦÎ±Î¹":10444,"Ġá½ĢÏģÎ½á½³ÏīÎ½":10445,"ĠÎºÎ±ÏĦÎ±ÏĨÎ±ÏĦÎ¹Îºá¿¶ÏĤ":10446,"Ġá½ĦÏģÎ¸Î¹Î¿Î½":10447,"ĠÎ³Î»á½½Ïĥ":10448,"ĠÏĢÏģÎ¿ÏĥÎµÎºá½»Î½Î·ÏĥÎ±Î½":10449,"ĠÎ½ÏīÏĦÎ¹Î±á½·Î¿Ïħ":10450,"ĠÏĦÎµÏĥÏĥÎ±ÏģÎ±ÎºÎ¿Î½ÏĦÎ±":10451,"ÏĢá½³Î½ÏĦÎµ":10452,"ĠÎ¼Î¹Î½á½»Î¸":10453,"Ġá¼ĲÎºÎ´á½³Î¾Î±ÏĥÎ¸Î±Î¹":10454,"Ġá½ĢÏĥÏĨá¿¦Î½":10455,"Ġá¼ĲÏĢÎ¹ÏĩÎµÎ¹ÏģÎ·Î¼á½±ÏĦÏīÎ½":10456,"ĠÎºÎ±ÏĦÎ±ÏĦÎµÎ¹Î½Î¿Î¼á½³Î½Î¿Ïħ":10457,"Ġá¼ĪÏģÎ¹ÏĨÏģá½±":10458,"ĠÎ¾á½·ÏĨÎ¿ÏĤ":10459,"ĠÎ´Îµá¿¦ÏģÎ¿":10460,"ĠÏĥÏĨá½·Î³Î³":10461,"ĠÎ¼á½³Î¼ÏĨÎµÏĥÎ¸Î±Î¹":10462,"Ġá¼łÏĢÎµá½·":10463,"ĠÎ²Î¹Î²Î»Î¹Î´á½±ÏģÎ¹Î¿Î½":10464,"ĠÎķá½ĶÎ²Î¿Ïħ":10465,
[...]
